#version: 0.2
e r
e n
c h
e n</w>
i n
a n
s t
u n
e r</w>
o n
d i
a r
a l
a t
e l
o r
i c
e s
e i
o l
a m
e t
e in
ch e</w>
s i
d i</w>
en t
i s
a u
q u
c o
d a
d e
i n</w>
el l
e ,</w>
p r
i t
ic h</w>
o n</w>
w i
di e</w>
l i
d er</w>
en ,</w>
e st
u t
e s</w>
un d</w>
z i
l a</w>
e .</w>
r a
s ch
a b
e m
e h
en .</w>
v er
t e</w>
c h</w>
t i
r i
g i
m i
u n</w>
m a
r e
o ,</w>
an d
p i
u r
a s
ar e</w>
o .</w>
t o</w>
i e</w>
e g
i l</w>
l e</w>
c i
v i
n i
s o</w>
t r
d en</w>
t er
p o
da s</w>
z u</w>
p er
is t</w>
b i
o m
am o</w>
a s</w>
ein e</w>
i m
a g
qu est
U n
s on
ei n</w>
p er</w>
o g
ch t</w>
co m
d er
zi on
es s
wi r</w>
s u
c on
e b
a v
h r
un a</w>
a ,</w>
d ell
t en</w>
an n
a .</w>
o s
u s
t ,</w>
at o</w>
di es
v on</w>
l '
s e</w>
n on</w>
da s
Un d</w>
si e</w>
st r
un g
d e</w>
e l</w>
S ie</w>
o v
ent e</w>
o t
g l
f ü
f f
das s</w>
s i</w>
a c
i l
t .</w>
er e</w>
h ab
d o</w>
i g
d a</w>
an o</w>
p ar
co s
ch en</w>
n o
u m</w>
t i</w>
b e
r o
ni cht</w>
Q u
i st
son o</w>
pr o
e v
g en
mi t</w>
s in
l ich</w>
b er</w>
e m</w>
ch i
en n</w>
ol l
un g</w>
au f</w>
at i
a r</w>
w ei
u m
w as</w>
a n</w>
e c
I ch</w>
a p
al l
in g
de l</w>
b er
- -</w>
r e</w>
wi e</w>
t ut
f or
i ,</w>
and o</w>
n en</w>
m o
com e</w>
fü r</w>
at t
s eh
wi r
ch t
g e
z z
s ich</w>
co n</w>
i .</w>
w er
zion e</w>
au s
ö n
c i</w>
u l
an n</w>
d en
s p
S t
ein en</w>
s c
m a</w>
ma n</w>
as s
et t
a l</w>
or t
al e</w>
pi ù</w>
quest o</w>
a hr
ann o</w>
g r
de m</w>
m ol
al s</w>
f in
dell a</w>
b l
s ol
D as</w>
W i
u r</w>
b r
I n
v o
o p
en z
A l
h i
k ön
gl i</w>
ä n
n a
e i</w>
ei t</w>
d u
o c
p l
E s</w>
et e</w>
en s
on o</w>
an z
an t
qu ell
l o</w>
cos a</w>
en sch
S ch
v ol
et z
i o</w>
sin d</w>
m i</w>
w ar
ein er</w>
h a</w>
ei t
n ell
s er
n e</w>
de s</w>
bi amo</w>
dies e</w>
ü ber</w>
qu al
c u
li ch
at e</w>
in ter
i m</w>
s ag
om m
g e</w>
l u
w enn</w>
hab en</w>
s o
g es
i r
au f
n el</w>
c k
po s
Wi r</w>
e u
A n
i er
al la</w>
A r
w ar</w>
si on
e d
V er
g u
at i</w>
a f
ü r
ein em</w>
r ic
a d
al tr
k l
g en</w>
per son
am ente</w>
z u
c ol
c or
an d</w>
e di
s t</w>
E r
al t
c re
ch é</w>
Qu est
g eh
am ent
a ch
l i</w>
m on
er a</w>
e k
at a</w>
e ch
r is
i h
. "</w>
au s</w>
d ar
l or
un s</w>
h er
r ei
b e</w>
p ort
it à</w>
P ro
s en</w>
h a
M a</w>
h o</w>
quest a</w>
d ur
o b
e ut
k omm
mol to</w>
h l
al le</w>
t er</w>
de i</w>
o der</w>
i a</w>
g er
p o</w>
c er
en d
dell e</w>
m er
ic a</w>
or e</w>
m ent
der e</w>
A ber</w>
d ov
v i</w>
no str
ab er</w>
D ie</w>
J ahr
g li
un o</w>
au ch</w>
st ell
D i
0 0</w>
am m
a zione</w>
G es
s em
og n
r an
gi b
m an
seh r</w>
kön n
ess ere</w>
ist ,</w>
ab biamo</w>
p u
si amo</w>
t ra
v or
cu i</w>
eb en</w>
t a</w>
M ensch
N on</w>
ti v
po t
hi er</w>
f er
im m
es so</w>
st en</w>
r it
p a
c o</w>
h at
an che</w>
w is
E n
n ur</w>
enz a</w>
W el
. .
g an
l an
o h
c e</w>
or i</w>
o gi
a zion
er en</w>
ma g
a m</w>
pr im
d ann</w>
ö r
m et
L a</w>
t e,</w>
p p
w ur
s pi
r u
qu ando</w>
or n
a d</w>
ha t</w>
ch te</w>
b en
i hr
dell '
a h
st o</w>
d ,</w>
m o</w>
lor o</w>
per ché</w>
w ä
pr es
a ff
v it
I n</w>
f ic
E in
an te</w>
m us
ol ogi
al l'
f at
st e</w>
st a</w>
t en
i ch
I h
m ente</w>
m ö
ung en</w>
e d</w>
e t</w>
z ei
wir k
h anno</w>
ü ber
g eb
a i</w>
er n
l av
ra g
I l</w>
er ,</w>
et to</w>
al so</w>
gib t</w>
C h
f are</w>
be i</w>
sol o</w>
ä ch
un s
P er
no ch</w>
dies er</w>
bi l
t em
f ar
wer den</w>
s u</w>
al i
ti g
s el
f l
person e</w>
su l
ü ck
b in
m ich</w>
in di</w>
a k
et was</w>
A u
si er
v e
ent i</w>
am i
un '
e :</w>
d .</w>
in i
tut to</w>
it t
in di
ar b
ent r
m eh
t u
bl em
' è</w>
og li
quell o</w>
eut e</w>
m en
re b
i de
ut o</w>
c a</w>
n u
kön nen</w>
f un
h al
cos ì</w>
c am
f i
ati on
k ann</w>
na ch</w>
p en
den k
f ac
it o</w>
ro ß
v en
di s
tut ti</w>
in n
f a
vi el
lav or
p ens
wir d</w>
T E
W enn</w>
d en.</w>
Mensch en</w>
m e</w>
r a</w>
hab e</w>
da v
a st
nell a</w>
.. .</w>
al i</w>
e f
j e
si a</w>
m in
s ar
con t
w ür
mo do</w>
d en,</w>
k on
sch i
s e
v ent
g ra
vo r</w>
g el
ag gi
au b
s pr
eg n
S u
ann i</w>
is chen</w>
c c
e zz
ci ò</w>
ü s
D ing
is che</w>
ä h
G r
on e</w>
en n
meh r</w>
Quest o</w>
ic o</w>
li che</w>
an to</w>
gu ar
s ,</w>
r es
quest e</w>
K in
ü n
quest i</w>
b es
sch af
co se</w>
E '</w>
d es
re i</w>
fat to</w>
al l</w>
wirk lich</w>
ein es</w>
i k
etz t</w>
mi a</w>
k ann
ur a</w>
C om
v e</w>
z um</w>
p as
t e.</w>
v a</w>
b u
d r
str u
er o</w>
o ff
l l
is ch
p un
S i
m en</w>
A b
or i
f t</w>
g roß
st eh
ver e</w>
mi r</w>
pr og
ent o</w>
en e</w>
l eg
w el
ma ch
f r
t z
er .</w>
n ologi
li chen</w>
Ih nen</w>
p t
st ato</w>
wei l</w>
o ?</w>
ogn i</w>
i re</w>
st em
ung s
Wel t</w>
nu ov
ei l
n at
" .</w>
ic k
dur ch</w>
o i</w>
ev a</w>
pl ic
ac c
ma l</w>
in e</w>
m at
mi o</w>
e ?</w>
än der
ra ,</w>
al e.</w>
p ol
di ver
in t
p ic
par te</w>
ist .</w>
sion e</w>
c ar
un ter
w oll
en d</w>
w eg
h ei
st i
du e</w>
en do</w>
B il
ti on
s ein
dies es</w>
b is
e x
de ,</w>
un ser
? "</w>
or a</w>
g em
ut z
R e
E r</w>
ar i
imm er</w>
W as</w>
o r</w>
seh en</w>
in ci
f u
b ei
mon do</w>
par l
es e</w>
TE D</w>
M il
pro blem
B e
en de</w>
m al
h in
inter ess
ver o</w>
f on
c as
h ä
an k
0 00</w>
tr ov
c ap
al c
et r
w en
st u
er i
b eg
vi el</w>
pro pr
an ti</w>
prim a</w>
s oll
n eu
l ei
in a</w>
ig e</w>
su cc
on t
dies em</w>
P r
c 'è</w>
li on
m üs
z w
s ap
Qu indi</w>
b ar
k eine</w>
or t</w>
s .</w>
Al so</w>
da l</w>
mi gli
l e
dov e</w>
er z
er n</w>
pu ò</w>
g est
ch i</w>
k eit</w>
ein fa
de .</w>
ell o</w>
sc ri
g eg
0 0
ab il
en t</w>
b est
O r
n eh
di ff
ini zi
dies en</w>
com p
ul t
C os
for m
ges ch
su l</w>
cam bi
po i</w>
l es</w>
con tr
ung ,</w>
à .</w>
ge w
ati on</w>
m eine</w>
ver su
un ,</w>
o :</w>
uns ere</w>
e ff
gi orn
G e
pr en
ch t,</w>
qual cosa</w>
es ,</w>
ihr e</w>
an g
or d
w o</w>
viel e</w>
ci r
sel b
k t</w>
ar i</w>
t en,</w>
and er
zion i</w>
and e</w>
d op
al mente</w>
at s
s ent
ä r
t it
ut t
pic col
st ra
ver so</w>
p ass
a i
à ,</w>
1 9
ei l</w>
wi e
A f
V i
tr a</w>
fü hr
L eute</w>
s ein</w>
c a
no i</w>
ar ri
ev o</w>
un d
an cor
b am
al e,</w>
m u
ar e.</w>
z us
er gi
T ran
sul la</w>
V or
S e</w>
si t
er t</w>
an ni
mo str
n ,</w>
tr e</w>
D er</w>
s o,</w>
si ch
ot t
im port
en ?</w>
Ges chi
de gli</w>
un qu
v ogli
l as
L i
l in
T al
Ar t</w>
st or
zw ei</w>
ter e</w>
au t
reb be</w>
wur de</w>
chi am
anz a</w>
L '
qu i</w>
r em
t ec
s a</w>
einfa ch</w>
zei g
Z u
pr ov
s ci
A us
ol e</w>
di r
ung .</w>
ol o</w>
et ti
n .</w>
h eit</w>
G ra
ol og
im mag
er k
Quest a</w>
ma i</w>
c k</w>
hab en,</w>
at o.</w>
M ar
qu el</w>
bam bin
z ur
is s
Su b
di es</w>
and ere</w>
ell e</w>
En t
pos si
j etzt</w>
ä u
ve dere</w>
l eb
in o</w>
et ti</w>
si g
quell a</w>
ament o</w>
a zz
z ur</w>
M a
b in</w>
d o.</w>
der n</w>
m it
o ch</w>
et ,</w>
ami t</w>
ell ei
dav vero</w>
alc un
Z eit</w>
bi s</w>
L eben</w>
g anz
d om
W ie</w>
p on
komm en</w>
si stem
and eren</w>
s a
I de
ra c
s en
um an
vit a</w>
s co
st ess
o k
K on
F or
ih r</w>
d o,</w>
br ing
pr e
di vent
un der
men o</w>
d alla</w>
Tal k</w>
l etz
eb be</w>
L eb
l ass
av a</w>
n e
br au
Ding e</w>
ti g</w>
ut i
ancor a</w>
sch l
f ol
vo str
ellei cht</w>
ö ß
et w
In ter
an ti
pt :</w>
pos siamo</w>
nostr o</w>
fac ci
tit les</w>
scri pt:</w>
it ä
Tran script:</w>
Sub titles</w>
sem pr
sem plic
g ut
p f
at o,</w>
ats äch
di c
au en</w>
g lich
d amit</w>
d ent
su o</w>
na ch
an ,</w>
de ut
a u</w>
in g</w>
S p
m or
i er</w>
Un ter
d u</w>
v o</w>
ic i</w>
po si
c in
k ei
altr o</w>
Jahr en</w>
qu anto</w>
n eg
all es</w>
gr ande</w>
f a</w>
per i
li e
eh r
. 000</w>
f os
bi le</w>
s en,</w>
d '
ch ten</w>
ac qu
li ar
g i</w>
ei g
N e
ol a</w>
et e,</w>
ensch af
m ei
arb eit
b en</w>
wi ch
po st
gen d
es si
spi el
gl aub
et .</w>
f t
is ch</w>
M an</w>
ar t
in i</w>
hab en.</w>
su a</w>
ar e,</w>
F ra
co stru
Jahr e</w>
on n
a zi
en s</w>
ul ti
par t
in s
eh en</w>
ur e</w>
n or
müs sen</w>
m edi
S ono</w>
P er</w>
es em
er st
azion i</w>
og ra
T ech
sch ein
ic i
E d</w>
h o
eh t</w>
er ano</w>
g ente</w>
kon n
den en</w>
as i</w>
hat te</w>
sempr e</w>
gr an
B ei
s or
f ahr
ali zz
H o</w>
nostr a</w>
k t
com un
at en</w>
s al
C i</w>
st ri
sin d,</w>
ent w
atsäch lich</w>
Pro z
ev ol
et en</w>
bis ogn
ä hl
nell '
her aus
f il
c it
zus amm
d enn</w>
ei ch
o b</w>
in v
" ,</w>
ma chen</w>
en zi
ber o</w>
ab b
seh en,</w>
sin d.</w>
gen er
1 0</w>
r el
and el
tut te</w>
ev ano</w>
tec nologi
ch t.</w>
ot to</w>
m ar
k en</w>
tem po</w>
com pl
N at
s ic
ra .</w>
In di
j em
con os
sch on</w>
h alt
war en</w>
hal b</w>
H ier</w>
s eg
e g</w>
h att
M on
c oll
D es
pr i
o st
di g
m ein</w>
m m
wis sen</w>
ti po</w>
k tion
ell en</w>
a vere</w>
S y
r am
ni cht
cir ca</w>
w ahr
mus s</w>
t en.</w>
E c
I hr
se con
n ei</w>
w oh
qual che</w>
war ,</w>
b bl
S i</w>
vi elleicht</w>
u st
na h
a vi
U ni
ri k
M o
B l
or gan
m om
ig en</w>
o s</w>
s enza</w>
m is
di re</w>
selb st</w>
j ek
t est
pas sier
propr io</w>
e '</w>
ü ck</w>
c ent
b et
f ä
ch ,</w>
g et
d ort</w>
W ei
B i
Per ché</w>
dop o</w>
ic ol
so ci
ih nen</w>
gan z</w>
ein ige</w>
e con
y ,</w>
sch en</w>
en den</w>
re g
r est
arri v
ch e,</w>
wer den.</w>
fun zion
wei ter
ir gend
it u
N un,</w>
schi e
G el
Au f
vo i</w>
s og
a b</w>
esem pi
Ab biamo</w>
ide a</w>
schaf t</w>
it i
un i
B u
ar ti
F r
v el
a de</w>
tem p
t o,</w>
könn en.</w>
nell e</w>
c al
qu indi</w>
t atsächlich</w>
wie der</w>
geh t</w>
pi an
es i</w>
ü h
G l
gi on
pos sono</w>
em ente</w>
ah r</w>
L e</w>
B er
T h
li eg
5 0</w>
vol ta</w>
c an
am er
pro du
is si
o ver
ig li
altr a</w>
b as
con o</w>
guar d
pa ar</w>
G en
v ed
b ess
cer c
t un
aggi o</w>
com inci
as p
gr öß
wer de</w>
a ?</w>
Com e</w>
re alt
d rei</w>
ent e.</w>
st ata</w>
altr i</w>
s ei</w>
indi ,</w>
el l</w>
b ri
an .</w>
sch aff
pun to</w>
wei se</w>
s eine</w>
A mer
2 0</w>
b ra
wür de</w>
ser v
f all
k ,</w>
z eu
ick el
G eh
p ag
mag gi
ni cht,</w>
pu bbl
po '</w>
ih n</w>
unqu e</w>
f en</w>
ö h
tr att
ess e</w>
ca pi
bes ch
W ass
eg li
ati v
e ci
a g</w>
h eute</w>
ament e,</w>
un ter</w>
st er
a hl
pres ent
n o</w>
ei gen
g ono</w>
r o</w>
ß en</w>
en :</w>
di amo</w>
S tr
f el
n ot
t un</w>
t el
l ung
gr u
U m
mol ti</w>
att ra
f ra
S pi
for ma
f att
entw ickel
ì ,</w>
sig ni
mö chte</w>
Si e,</w>
f as
al en</w>
in u
n ess
t e
nat ür
h ör
con c
O ra,</w>
Di ese</w>
s vi
n un</w>
ut i</w>
ic a.</w>
pi ac
Qu ando</w>
z wei
ag e</w>
a t</w>
st esso</w>
e p
ch en,</w>
stor ia</w>
st ,</w>
c res
ic a,</w>
a cht</w>
H er
r en
an zi
U n</w>
M i</w>
ob biamo</w>
W o
E l
s y
d all'
wä r
sch w
s etz
ag li
Pro blem
sein .</w>
Kin der</w>
vo m</w>
sistem a</w>
pro c
v ic
stu di
rag azz
nostr i</w>
R i
im p
zi e</w>
ent lich</w>
E in</w>
zur ück
hr end</w>
z wis
v ello</w>
m einer</w>
per ch
neu e</w>
altr e</w>
B eh
k om
g n
c itt
c ch
gu t</w>
at or
Ar b
e de</w>
gen au</w>
Di es</w>
svi lu
neg li</w>
l aub
2 00
ig n
de t</w>
lich ,</w>
u om
bisogn o</w>
Geschi chte</w>
mi lion
F re
ver steh
t eil
erz ähl
am bi
sch n
pot ete</w>
es .</w>
dur ch
av o</w>
St u
os si
unser er</w>
da von</w>
E x
b ell
Cos ì</w>
tra s
and are</w>
vi ene</w>
t ri
P h
J ahr</w>
d oll
at ti
könn en,</w>
ic o.</w>
k auf
in si
b eh
S a
T eil</w>
l os
N ach
Mil lion
zwis chen</w>
st at
av ano</w>
an i</w>
fun ktion
en ergi
it à.</w>
hat ,</w>
r ,</w>
lan g
k ein</w>
es t</w>
em o</w>
c '
ier t</w>
f am
ä d
be deut
T o
m ,</w>
d ett
son dern</w>
ri ch
n äch
Tech nologi
hä t
Ec co</w>
so pr
per im
at ter
D ank
cht e,</w>
s am
da ,</w>
sti amo</w>
st än
qual c
R au
zion e.</w>
vogli o</w>
sein ,</w>
pro d
ess en</w>
u si
an o.</w>
Qu indi,</w>
entr o</w>
fu ori</w>
A t
it z
N i
M at
P ar
ri us
e der
f ot
v is
st anno</w>
ac ci
L eut
ezz o</w>
seg u
n um
dar über</w>
ation en</w>
ti on</w>
p i</w>
m ensch
gi er
ver änder
on i
gl ob
sag t
las ci
et te</w>
ch it
ab bi
w or
w us
sc or
comp ut
b au
z a</w>
m itt
ig er</w>
S ti
ran k
ger ade</w>
alcun i</w>
ment re</w>
fü hl
fin o</w>
ant e.</w>
W iss
D oll
o o
geh en</w>
sp ec
av eva</w>
ö s
zi er
komm t</w>
g t</w>
su per
po sto</w>
f u</w>
diff er
v al
c ell
2 0
milion i</w>
sp azi
ent e,</w>
ei te</w>
Ein e</w>
r at
lavor o</w>
n ie</w>
os p
ich ,</w>
fos se</w>
cont inu
Vi el
S o</w>
Million en</w>
ati .</w>
zi em
sar ebbe</w>
s on</w>
ma s
el n</w>
ein ,</w>
cre di
al i.</w>
p ut
qu ale</w>
g h
Al s</w>
W ar
P o
in c
G eb
vi sto</w>
ma cch
kann .</w>
it i</w>
v oll
itä t</w>
ic o,</w>
an im
Un a</w>
ö ff
co st
P u
p or
gi oc
on ,</w>
hat .</w>
M edi
ai ut
v u
sem br
it e</w>
dell o</w>
ver schie
so st
oh ne</w>
sag en,</w>
s e,</w>
f al
sag en</w>
Geh ir
du stri
neh men</w>
l ing
f rag
Ges ch
wer den,</w>
h er</w>
h ,</w>
sch au
quell e</w>
immag in
ver s
fin e</w>
mach en.</w>
azion e.</w>
Wi r
neh m
ä tz
sion i</w>
st and
problem a</w>
f an
D a</w>
k ur
ä m
un den</w>
pol it
P lan
M et
ziem lich</w>
est e</w>
a :</w>
S o
n is
sog ar</w>
pen so</w>
ganz e</w>
ab i
Af ric
pro b
g er</w>
M it
ü tz
un de</w>
g ab</w>
av ete</w>
l er</w>
an o,</w>
ihr en</w>
Ne w</w>
be weg
M ö
ur o</w>
lie ß
im par
P l
sch ei
ar io</w>
al i,</w>
B en
cre are</w>
T ut
ec e</w>
wir d.</w>
wä hrend</w>
ment o</w>
gl ich</w>
da i</w>
c at
de ck
ä l
er ste</w>
possi bil
insi em
ins egn
ö l
wi l
prim o</w>
eg gi
ti ,</w>
i zz
as ,</w>
o to</w>
L u
st .</w>
or e.</w>
je der</w>
et à</w>
con si
etw a</w>
war um</w>
d ung</w>
h eit
sc u
p po</w>
p es
ma ,</w>
de c
f ica</w>
letz ten</w>
F l
Af rik
ell ig
ti ge</w>
woh l</w>
po tr
am p
hal ten</w>
TE D
on i</w>
g ab
anni .</w>
3 0</w>
r et
at to</w>
si eht</w>
f re
et tiv
es en</w>
U S
Ü ber
reb bero</w>
ec k
zi eh
and a</w>
mon do.</w>
er sten</w>
A ut
at tr
G i
gi à</w>
f e</w>
bambin i</w>
con di
ric er
ein mal</w>
ei ten</w>
uns er</w>
Wiss enschaf
t anto</w>
mol te</w>
G er
it à,</w>
di re
zion e,</w>
T r
1 00</w>
wich tig
wel che</w>
o per
f ut
M en
et ter
realt à</w>
ni cht.</w>
di t
Inter n
ri es
k am
ess i</w>
spec ie</w>
ier en</w>
da .</w>
An t
li br
tr op
or e,</w>
f est
cre do</w>
b o
b li
Proz ent</w>
L o</w>
groß e</w>
er i</w>
anni ,</w>
Com put
spr ech
ar e
vol te</w>
hat ten</w>
d on
spi el</w>
pian et
h än
ch en.</w>
ati ,</w>
ag en</w>
P ot
stell en</w>
nuov o</w>
ni s</w>
Ihr e</w>
a ch</w>
i amo</w>
M i
En ergi
for se</w>
ar si</w>
mi ei</w>
in f
fon d
b re
aus .</w>
f ach
all o</w>
a cht
re m</w>
capi re</w>
Di es
li .</w>
f ant
o -
s an
R ei
t h
könn te</w>
k .</w>
ar l
T er
qualc uno</w>
compl et
tut ta</w>
si .</w>
parl are</w>
F il
mei sten</w>
fin den</w>
ev amo</w>
en or
S pr
ì .</w>
si ,</w>
oc cu
d etto</w>
attra verso</w>
pot rebbe</w>
es ist
er st</w>
k un
i g</w>
etr o</w>
azion e,</w>
abb ast
M in
chi o</w>
da zu</w>
y .</w>
pr ot
V ogli
O ra</w>
sag te</w>
k am</w>
sar à</w>
pren dere</w>
pens are</w>
m ut
in credi
gl ei
ot ti
in s</w>
ben e</w>
stess a</w>
bl em</w>
sp eci
s en.</w>
en nen</w>
d obbiamo</w>
war .</w>
Y or
Leb ens
Bei spiel</w>
giorn o</w>
av uto</w>
m egli
c ci
mom ento</w>
er rei
t o.</w>
at a.</w>
ti gen</w>
di ce</w>
n utz
mö glich
ein zi
au ß
li eb
et tr
F ü
o mi
e -
B o
am o,</w>
prob abil
h under
B r
un k
ig n</w>
for ma</w>
d ati</w>
ver w
vi a</w>
str um
st em</w>
ett a</w>
b an
Z eit
ogra f
ben utz
spi eg
h in</w>
I o</w>
G u
ic kl
d o
Al so,</w>
nicht s</w>
ami li
Mö glich
w ach
u s</w>
lich .</w>
kann ,</w>
gran di</w>
Z i
st ati</w>
rei b
m einem</w>
R eg
vi v
qu attr
wä re</w>
wir d,</w>
ver amente</w>
nat ur
di men
ant e,</w>
Ch e</w>
ber eit
ap p
wis sen,</w>
lu i</w>
in forma
p h
co ,</w>
alcun e</w>
ab or
g en,</w>
at e,</w>
st ar
ma cht</w>
cap ac
tecnologi a</w>
sp ä
t orn
Pro blem</w>
sagt e:</w>
qual i</w>
o f
i d
gi u
de fin
at ori</w>
kl einen</w>
ell i</w>
Z ei
ah l</w>
si ano</w>
enz e</w>
Pro jek
on a</w>
import ante</w>
Spi el
s l
cer to</w>
T ag</w>
it a</w>
qu asi</w>
nostr e</w>
e ich</w>
as si
s o.</w>
mi liar
il l
hei ß
Arb eit</w>
ver sit
ihr er</w>
f anno</w>
ent i
ar d
A :</w>
Sch l
Ent w
n er</w>
ges ag
s ens
g en.</w>
at z</w>
H au
D ann</w>
ti .</w>
ot ten
gest ell
en en</w>
sco per
das ,</w>
seh en.</w>
de v
abbast anza</w>
ung en,</w>
L and
z el
ut e</w>
u le</w>
svilu pp
I m
u zione</w>
eig entlich</w>
da für</w>
ag li</w>
Beh ,</w>
w under
schaf t
pr o</w>
og gi
en ."</w>
kl eine</w>
cht en,</w>
ag n
wur den</w>
r os
str utt
e zi
ch er</w>
og gi</w>
den do</w>
an der</w>
ru pp
qu i
In form
C 'è</w>
ment e,</w>
l er
g ing</w>
ek t
V ide
p an
n er
mat eri
kl är
gra do</w>
M ol
ord in
en k
pr ossi
m einen</w>
acqu a</w>
vel oc
mach en,</w>
ä f
gem acht</w>
edi amo</w>
1 5</w>
ä um
f is
e der</w>
di st
komm en.</w>
j a,</w>
denk e,</w>
b ar</w>
Bil d</w>
äh ig
kei ten</w>
best imm
w ort
r .</w>
em mo</w>
a ia</w>
Vogli o</w>
wahr schein
r ete</w>
lu og
b al
Doll ar</w>
vi du
mer c
quell i</w>
pr at
oc k
glaub e,</w>
z e</w>
A v
groß en</w>
at tiv
Men ge</w>
G em
Entw ickl
int ellig
ur op
fel ic
Zu kun
rag gi
am o.</w>
K o
vi er</w>
natür lich</w>
h au
T i
D enn</w>
wei t</w>
mi l
lich er</w>
R o
k einen</w>
wei ter</w>
pi amo</w>
k a
fin den,</w>
Sch ul
wil l</w>
rem mo</w>
per f
m ein
isch er</w>
ar ono</w>
an i
K ör
ter ,</w>
ar vi</w>
Ih r</w>
wei ß
prog ram
geh ör
ar ia</w>
a str
si cht
li zz
inn er
geg en</w>
M usi
og g
En de</w>
pr inci
Mil liar
maggi or</w>
is ce</w>
g over
el i
denk en,</w>
all ora</w>
s per
fü n
ern ,</w>
Ide e</w>
os serv
in dustri
gl eich
ganz en</w>
bi li</w>
vi de
um ,</w>
ri e
ra p
problem i</w>
jem and</w>
f ar</w>
am b
P a
M ut
ung laub
der ,</w>
O K
er ò</w>
T ag
K rank
qu i,</w>
St ra
t es</w>
perch è</w>
ni em
fl us
fac endo</w>
est o</w>
e "</w>
1 0
äh r</w>
t o
quattr o</w>
on der
m e,</w>
energi a</w>
d alle</w>
C i
B au
k enn
es peri
I m</w>
contr oll
at e.</w>
met tere</w>
d och</w>
av evo</w>
S e
P en
ä s
ma .</w>
conos c
N el</w>
t un,</w>
d am
ch .</w>
all en</w>
P ri
n am
G rupp
pos so</w>
pen a</w>
m ett
fant ast
e ."</w>
s otto</w>
el ettr
M e
si m
sen so</w>
ci o</w>
re alizz
c ri
b o</w>
wis s
sul l'
po pol
K l
ung ef
stell en,</w>
s etti
ol i
num ero</w>
g eben</w>
fam igli
z in
v in
m .</w>
ein fach
D ar
us are</w>
ri g
gu er
G roß
G eg
unser en</w>
po sta</w>
ein ander</w>
at ore</w>
ar g
Sch w
Fra ge</w>
F amili
ser vi
da bei</w>
c aus
St ad
wen iger</w>
utt o
s ac
n om
m ess
l ei</w>
ein .</w>
Gel d</w>
ter min
secon do</w>
sch ließ
ri eg
b a
and en</w>
M om
ih m</w>
ec co</w>
denk en</w>
com pr
W eg</w>
P os
w o
prog ett
l eben</w>
insiem e</w>
el t</w>
trov are</w>
ri guar
ic k</w>
zei ch
h e</w>
an a</w>
zur ück</w>
ezz a</w>
W er
ris ult
person a</w>
orn o</w>
h el
denk e</w>
a gi
K ar
organ izz
dir e,</w>
aus ,</w>
vostr o</w>
ik an
el ,</w>
wel t
s einer</w>
lass en</w>
gen u
au be</w>
setti man
pro f
n ung</w>
de ve</w>
C on
on .</w>
m esso</w>
co .</w>
ac k
wei ß</w>
ra di
part icol
ic amente</w>
enz a.</w>
ungef ähr</w>
h af
Wass er</w>
Cos a</w>
" S
tr o
piccol o</w>
g ,</w>
er en.</w>
de ci
t or
s b
komm en,</w>
Pro du
ult ur
sag te,</w>
o so</w>
h i</w>
W is
li ber
kei t,</w>
je den</w>
bet ra
W or
zi e.</w>
wür den</w>
lan g</w>
li ,</w>
K op
lin e
asp ett
r i</w>
in ten
in k
fü h
cin qu
L and</w>
su oi</w>
sc rit
lich es</w>
g ere</w>
eb en
d ato</w>
consi der
W ahr
4 0</w>
è ,</w>
zusamm en
utto sto</w>
em o
G o
tun .</w>
st ori
st and</w>
k eit
interess ante</w>
in a,</w>
g .</w>
av amo</w>
K un
C o
soll te</w>
s eit</w>
d or
5 0
vi si
posi tiv
n as
mon do,</w>
in dem</w>
al ten</w>
G li</w>
hä l
gi o
d ru
contr o</w>
S eite</w>
m em
esempi o</w>
es s</w>
er en,</w>
zeig t</w>
sul le</w>
gut e</w>
gen omm
dar an</w>
semplic emente</w>
possi bile</w>
P oi</w>
ter n</w>
n en,</w>
chi ar
b it
at a,</w>
D u</w>
signi fic
prog etto</w>
c li
Ch ri
wi ll
st ate</w>
gib t,</w>
bess er</w>
ar d</w>
s ott
lich keit</w>
inv ece</w>
en z</w>
L ei
soll ten</w>
H and
woll en</w>
pi uttosto</w>
coll eg
Mensch en,</w>
su i</w>
quest o,</w>
o ."</w>
h ol
F lu
os i</w>
o ft</w>
gru ppo</w>
di .</w>
d are</w>
ament e.</w>
O b
je des</w>
inv est
ec c
cas a</w>
facci amo</w>
ann ,</w>
Re gier
K om
wie der
inn ov
ess o.</w>
y si
wen ig</w>
wahrschein lich</w>
gl aube</w>
ant wort
al ist
Er a</w>
C re
viel en</w>
d onn
a z
n ov
gr os
f en,</w>
ä t</w>
woll te</w>
weg en</w>
sc el
lung o</w>
T eil
S ap
D N
ol tre</w>
met ter
es pl
po ver
megli o</w>
ent i.</w>
en i
em at
ci a</w>
bl ei
J etzt</w>
quest o.</w>
E s
l ern
ess er
Al lor
vostr a</w>
re ff
enz a,</w>
doll ari</w>
z er
ven gono</w>
sa per
gi ust
er weise</w>
dom anda</w>
ament i</w>
Uni versu
Or gan
tratt a</w>
schi ed
pr ä
n ec
gi one</w>
di sc
Li eb
unqu e,</w>
eigen en</w>
ris ol
dur ante</w>
ap pena</w>
War um</w>
V i</w>
t ot
dar auf</w>
n enn
kom pl
ha i</w>
etw as,</w>
ell a</w>
t :</w>
mi e</w>
k o
gem ach
St a
sch wi
pos sa</w>
in a.</w>
gem ein
fas t</w>
di ,</w>
cer vello</w>
qu ad
com port
as se</w>
M al</w>
ling u
k e</w>
vit a.</w>
sembr a</w>
o ur
ass en</w>
zi o</w>
abbi a</w>
Geb äu
" Ich</w>
z ahl
ser o</w>
sco pr
h off
Wei se</w>
" N
r à</w>
qu i.</w>
or i.</w>
funktion ier
f oto</w>
Gem ein
" O
ün st
cambi are</w>
C A:</w>
ve der
en st
Technologi e</w>
äh n
vi amo</w>
sch ön
ri cht
l ì</w>
ut a</w>
s ec
er à</w>
comput er</w>
ess o,</w>
av evano</w>
as col
Wis sen</w>
Min ut
ved ete</w>
p al
nor mal
fin anzi
si on</w>
di g</w>
t ?</w>
B es
vi r
sap ete,</w>
oc e
konn te</w>
l än
ic i,</w>
a '</w>
Zukun ft</w>
S k
D ov
fr on
ern .</w>
S el
z eh
spazi o</w>
lan ge</w>
probabil mente</w>
ov vi
ol le</w>
cas o</w>
bei m</w>
an e</w>
Gra zie</w>
trop po</w>
rap present
qu ant
näch sten</w>
for der
f a,</w>
dec is
Qu ello</w>
Ges und
Er de</w>
z e
li g</w>
an g</w>
T e
H I
rac cont
qu ei</w>
fa ci
cor r
anti .</w>
H a
B :</w>
si ete</w>
quest i
nell o</w>
b a</w>
a er
Bei spiel
s einen</w>
neu en</w>
ide e</w>
brau chen</w>
ung en.</w>
perim ent
inter n
cht e.</w>
bis schen</w>
bi olog
av er</w>
ar ci</w>
ä hr
stell ung</w>
signi fica</w>
pr end
m ezzo</w>
k er
citt à</w>
ar chit
M al
D is
y p
si asi</w>
m o.</w>
indi vidu
f igli
be kann
G ed
E urop
costru ire</w>
pro fon
mo der
in ,</w>
ges ehen</w>
en a</w>
dur re</w>
ar i.</w>
N or
vi st
v ec
s e.</w>
or ia</w>
l o.</w>
den e</w>
H il
v ediamo</w>
ulti mi</w>
li vello</w>
isch es</w>
im mer
gru pp
gi ov
erk enn
uom o</w>
ul l
m ano</w>
fün f</w>
etti ,</w>
c a.</w>
St ati</w>
Ding e,</w>
Afrik a</w>
s ech
peri o
oh n
diff ici
s ei
j a</w>
auf ,</w>
um in
in zi
ati ve</w>
amer ic
Quest i</w>
D e
Ch ar
öh n
ol i</w>
edi fic
d et
and ,</w>
S ach
un' altra</w>
occu p
esempi o,</w>
M an
ch mal</w>
bring en</w>
b em
ris pon
ric or
pi r
M itt
S in
Ges ell
' s</w>
ä t
wir t
pi ù
cinqu e</w>
Viel en</w>
.. .
succ esso</w>
pa zi
miliar di</w>
h eut
er r
Wel t
D aten</w>
r om
mu s</w>
je de</w>
ic i.</w>
complet amente</w>
Sa che</w>
hab e,</w>
be kommen</w>
auß er
F ähig
öff ent
so zi
or i,</w>
mo tiv
ch es</w>
G ot
vi sta</w>
stell en.</w>
l äs
ann o.</w>
Rau m</w>
L ehr
tr au
passier t</w>
gen au
G al
F ran
wir ,</w>
Gra zie.</w>
D ur
v ell
sion e.</w>
qual siasi</w>
qual cos
B eg
uti lizz
er klär
W eil</w>
H a</w>
G ol
s k
re ck
piccol a</w>
or ig
gl eich</w>
bil e.</w>
at ur
Des ign
nuov a</w>
man gi
f en.</w>
spr e
pu oi</w>
in nen</w>
z en</w>
sol u
si tu
a che</w>
wur de.</w>
vol t
s egn
rel i
per c
ges am
ent deck
chiam ato</w>
V ort
P ol
om et
g ar
ent en</w>
ci amo</w>
at e
al t</w>
N am
mal atti
cap it
S ol
Gen er
! "</w>
s par
is mo</w>
bes onder
an ge
Pen so</w>
ges eh
cos e.</w>
Si amo</w>
unser em</w>
on d
geh en.</w>
geb au
J u
si eh
pubbl ic
en o</w>
el .</w>
con n
US A</w>
U r
Qu i</w>
M äd
ter n
er t.</w>
ri ff
os e</w>
ing en</w>
Mat eri
I D
ter i
sap piamo</w>
ra gion
ness uno</w>
far lo</w>
diffici le</w>
al mente,</w>
abi le</w>
un d,</w>
c arb
anz u
Z us
Problem e</w>
w er</w>
super fic
po ter</w>
Per son</w>
si mi
or a,</w>
geh en,</w>
er te</w>
chi amo</w>
wiss enschaf
er ia</w>
eff etti</w>
Uni versit
Th e
o i
ent i,</w>
ci o
ar lo</w>
amm o</w>
Milliar den</w>
Ide en</w>
tel ef
st imm
ris p
mo dell
cit a</w>
ar r
pa io</w>
or o</w>
ni ente</w>
i dent
de vo</w>
R ich
L e
H o
F ir
sp esso</w>
könn ten</w>
ein ig
steh en</w>
h n
chi e
avi gli
r on
quest '
p etr
oc chi
B et
z ep
tra di
ri eb
in contr
fl anz
ech n
cht er</w>
arb eiten</w>
L ös
6 0</w>
s che</w>
mostr a</w>
con to</w>
R u
Pr og
Plan eten</w>
ri .</w>
pres o</w>
m ort
m o,</w>
inizi ato</w>
eu ch</w>
es i
ali sier
Afric a</w>
ò ,</w>
tr an
sit à</w>
s einem</w>
mö glich</w>
fot ograf
cerc ando</w>
a -
Fr auen</w>
Dank .</w>
cor so</w>
co l</w>
zi a</w>
u so</w>
ricer ca</w>
immag ine</w>
heit s
ek tr
ber fl
S ü
M or
1 8
mer avigli
lu ce</w>
hatt e,</w>
gi ro</w>
succ e
vor ,</w>
t u</w>
si tz
l auf
j en
fer n
f ang
Wel t.</w>
R ob
mö gli
in d
en h
ac cor
Go og
Ben e,</w>
sion e,</w>
m er</w>
gl ück
c amm
b atter
a y</w>
W eg
O ka
schn ell</w>
f rei
Organ is
Gehir n</w>
19 9
ü t
wus st
k er</w>
gra zie</w>
es att
ar i,</w>
a per
vor rei</w>
pa es
p ad
o bi
at z
a un
um .</w>
t à</w>
irgend wie</w>
dig it
de st
beg inn
N un</w>
Kin d</w>
K ra
ü ch
fall s</w>
er inn
e ...</w>
diver si</w>
spä ter</w>
l ag
interess an
ge fun
c ur
al ità</w>
Intern et</w>
os a</w>
o ...</w>
mo vi
m e.</w>
g e,</w>
ann o,</w>
Wel t,</w>
K ont
Ar chit
wur de,</w>
hi er
h ing
f ur
a si
For sch
s am</w>
d in
con su
be vor</w>
Mi t</w>
st off
s ah
p li
for ni
bereit s</w>
Ged ank
d entro</w>
V ol
Per ch
Jahr hunder
saper e</w>
na zion
geb en,</w>
econ om
ap par
Yor k</w>
M eine</w>
Er fahr
war t
op port
bas e</w>
b el
Quest e</w>
N etz
Al l
2 5</w>
zeig en,</w>
sch nell
capac ità</w>
nam ens</w>
lavor are</w>
P un
r amm
or ie</w>
genu g</w>
gen i
g o</w>
c' era</w>
Pot ete</w>
ob en</w>
geg en
geb ra
br eit
K li
H erz
Ge w
Dies es</w>
zeich n
sin g
ri ,</w>
met te</w>
m ale</w>
fä l
Per son
M ann</w>
vi .</w>
nuov e</w>
mo dello</w>
l' inter
l etter
ant en
Wir t
A k
über all</w>
quell '
pi eg
em a</w>
ation ,</w>
Nat ur</w>
Gr und
port a</w>
op p
fond ament
a ."</w>
D i</w>
semplic e</w>
h andel
e ".</w>
bli k
F all</w>
sag t</w>
glei chen</w>
S h
A d
piac e</w>
ein igen</w>
eh l
ben e.</w>
and o.</w>
st ava</w>
ric on
po co</w>
on o.</w>
li mit
ih rem</w>
ei le</w>
ad esso</w>
Be weg
tu o</w>
st er</w>
fut uro</w>
dom an
b are</w>
ris posta</w>
nec ess
ne ur
at er</w>
ascol t
ar ,</w>
Ver bin
F rag
v ano</w>
sc al
ger ne</w>
et t</w>
don ne</w>
d au
J a,</w>
' ,</w>
é ,</w>
änder n</w>
l' idea</w>
ben e,</w>
Zus amm
Or t</w>
Ar ten</w>
or en</w>
n em
l oc
is cono</w>
i cht</w>
ev i</w>
er t,</w>
divent are</w>
da chte</w>
d enti</w>
an al
Kin der
z i</w>
su b
p ul
mom ent
hi er,</w>
ver b
propr i
port are</w>
mensch lichen</w>
est rem
en -
at u
T el
In st
Gr und</w>
Fü r</w>
2 00</w>
verschie dene</w>
re gi
ein zel
at ura</w>
ass ol
Fr au
B ro
zei gen</w>
ur ,</w>
inf lu
hei t,</w>
fan gen</w>
d essen</w>
C ar
Bil d
zz a</w>
weiß ,</w>
geb en.</w>
diver se</w>
ci .</w>
av rebbe</w>
V ir
Energi e</w>
Chri s</w>
B ed
i der
dr ück
ar mi</w>
zusamm en</w>
verschie denen</w>
succ ede</w>
s ch</w>
ort a</w>
libr o</w>
i fic
g ar</w>
fahr en</w>
e o</w>
c entr
a y
Mut ter</w>
0 ,</w>
v est
temp o.</w>
scoper to</w>
of f</w>
hät te</w>
fat ti</w>
esperi enza</w>
eb bero</w>
e w
dis egn
Sel b
K or
5 00</w>
si e,</w>
secon da</w>
scor so</w>
off en
o ".</w>
mi r,</w>
h il
cre ato</w>
P i
M än
E ig
tut o</w>
temp o,</w>
ragazz i</w>
führ t</w>
chiam a</w>
beg ann</w>
vic in
oh n</w>
j e</w>
and o,</w>
Wir k
P rei
Ob jek
D avi
A ID
soci età</w>
mer k
k ost
for za</w>
du c
de m
1 2</w>
wich tig</w>
ma pp
l ö
h ö
ges chi
M us
M ein</w>
Ci ò</w>
A l</w>
öl ker
ti k
post i</w>
ment i</w>
con ten
comun ità</w>
c e.</w>
Sy stem</w>
Leut en</w>
K ur
strutt ura</w>
sent ito</w>
inner halb</w>
füh l</w>
cos ì.</w>
sb agli
mein e,</w>
gr und
abil ità</w>
W al
Sy stem
Pos siamo</w>
Fra u</w>
For m</w>
ver r
ter .</w>
t aus
st ütz
s fi
princi p
person e,</w>
in vent
gan g</w>
f lieg
f ass
condi vi
S ich
ver kauf
sch ö
r au
ol o.</w>
macch ina</w>
ge fä
att en
Ent schei
Comput er</w>
An der
vi ,</w>
sich er
n o,</w>
d an
S on
K omm
Gr öß
Au f</w>
str a</w>
possibil ità</w>
migli or
enor me</w>
e y</w>
des ign</w>
Ver änder
P ens
K am
stat t</w>
sa h</w>
m os
j ed
g ro
dett o,</w>
d el
bring en,</w>
ar te</w>
Pu blik
G ef
F ot
C hi
C O
sier t</w>
n äm
m en,</w>
d ing
bring en.</w>
b at
as t</w>
W il
O der</w>
sch li
s ett
pens ato</w>
pa esi</w>
di o</w>
comun ic
caus a</w>
Tech ni
z ut
vi l
su e</w>
sech s</w>
no i.</w>
m ic
im ent
ier en.</w>
esatt amente</w>
dru ck
co pi
anti ,</w>
a pi
Un s
vi vere</w>
spre chen</w>
opport un
nom e</w>
m p
k ra
gew öhn
g al
f en
einzi ge</w>
altr o.</w>
Pr ä
ser ie</w>
pr ec
g hi
em p
dov uto</w>
Ma sch
stell t</w>
migli ore</w>
l ’
i che</w>
f t,</w>
besonder s</w>
Wissenschaf t
Bil der</w>
w ort</w>
t reff
sac co</w>
c entro</w>
Stad t</w>
Mom ent</w>
K at
Flu g
D at
z ent
sch le
raggi ung
ess ero</w>
Tut ti</w>
D en
uns ,</w>
as c
W erk
S onn
ti pi</w>
ier en,</w>
di sp
O ze
Ge bi
zu ,</w>
p t</w>
hän gi
fü g
for t
vit a,</w>
u ale</w>
sar anno</w>
rem o</w>
nuov i</w>
nis se</w>
inizi o</w>
des ider
u ff
trov ato</w>
stra ordin
sch auen</w>
posi zione</w>
no ti
l o
eg li</w>
ci ,</w>
best en</w>
O gn
K re
Des ign</w>
Bu ch</w>
vu ole</w>
vogli amo</w>
stor ie</w>
fin den.</w>
facci o</w>
be ein
aut om
anz e</w>
R es
Gr ün
1 8</w>
ä che</w>
so ff
ing egn
in vol
i zi
heiß t</w>
halt en.</w>
ec i</w>
car t
anim ali</w>
a ver
C er
ß e</w>
vi ol
steh t</w>
se qu
re d
proc esso</w>
ni mm
guard are</w>
b en.</w>
Arb eit
s f
pr ev
og en
hab e.</w>
d ono</w>
ci bo</w>
ch e.</w>
bei den</w>
b att
P ati
F ol
z eit</w>
st im
o "</w>
je dem</w>
gib t.</w>
d rei
a x
F u
B ür
sal v
l ont
int orno</w>
g keit</w>
cell ul
Wissenschaf t</w>
Leut e,</w>
uti on</w>
r e,</w>
migli aia</w>
for sch
cht en.</w>
L in
u cc
sci enzi
cer vell
ander s</w>
Ri cht
versteh en,</w>
ri st
mitt el
f te</w>
dov rebbe</w>
c e,</w>
M ust
über hau
tu a</w>
tec n
t ent
ricon os
re c
inter no</w>
gr ei
giorn i</w>
cerc are</w>
cambi amento</w>
bem erk
all er</w>
Minut en</w>
unter schied
ter ra</w>
sopr av
ri vol
re cht
on en</w>
k ü
f a.</w>
col p
c le
c el
b el</w>
arriv are</w>
ander es</w>
B est
A ,</w>
sp ezi
ra pi
mo di</w>
er laub
Kör per</w>
B ev
m es
k te</w>
gi r
U m</w>
S ar
Dies er</w>
versu chen</w>
rich tig</w>
re cht</w>
di rit
Grupp e</w>
E ,</w>
woll en,</w>
verw end
os s
nat ura</w>
ing ,</w>
el em
bu ona</w>
po tere</w>
mensch liche</w>
f t.</w>
des ign
O berfl
" H
v ari
ti amo</w>
stell e</w>
sp or
person e.</w>
n et
mi ch,</w>
mat emat
g än
fut ur
erz eu
di ch</w>
d ank
au ment
G ut
Fra gen</w>
1 00
r ont
questi one</w>
ma chte</w>
m ot
l og
it o.</w>
e vi
dimen sion
cominci ato</w>
al ber
Str u
um ent
port ato</w>
ma d
inter es
gen et
Zei t,</w>
F ar
wissenschaf t
wei tere</w>
s e:</w>
pren der
par la</w>
mon t
l à</w>
d rit
and l
Ant wort</w>
' .</w>
wä hl
stra da</w>
res pon
o g</w>
i s</w>
gew or
genomm en</w>
f av
and ato</w>
Indi en</w>
t ant
st a
sc ar
ri l
og en</w>
no i,</w>
gra n</w>
es im
er ebbe</w>
end ono</w>
cor po</w>
bambin o</w>
assol ut
acc a
Sch rit
O k,</w>
z zi
p eggi
fin d
em i</w>
Her aus
An g
z war</w>
w es
schaff en</w>
s ön
pi u
otten ere</w>
end .</w>
e zione</w>
W eb
Stru kt
Qu al
Gebäu de</w>
ric ev
pianet a</w>
o u
m are</w>
l' un
fol g
eh er</w>
dar über
Nat ur
pre fer
nehm en,</w>
h öh
h e
far e.</w>
erst aun
auf .</w>
wel ches</w>
st i</w>
ol o,</w>
et en,</w>
con fer
c rit
archit ett
N eu
C on</w>
wür de.</w>
t ä
schi ed</w>
par ti</w>
p pi
näch ste</w>
luog o</w>
l' in
gemach t.</w>
f f</w>
Pun kt</w>
Cre do</w>
ris or
ri man
pun kt</w>
on e.</w>
geh t,</w>
de m,</w>
aff ront
Tut to</w>
I st</w>
H anno</w>
Ar bei
z ahl</w>
ver wen
scu ola</w>
piccol i</w>
lan ci
hei ten</w>
ek tiv
de va</w>
ap it
P art
In t
Geschi chten</w>
B ra
An che</w>
w end
versteh en</w>
s ed
ric ord
glob ale</w>
ghi acci
fic o</w>
F in
D obbiamo</w>
tut to,</w>
tras form
r ur
p e
on o,</w>
näm lich</w>
medi a</w>
l and
i o,</w>
heraus ,</w>
gen it
es o</w>
ech te</w>
den ar
d ol
amer ikan
am i</w>
al to</w>
ag gi</w>
z un
wür de,</w>
us s</w>
ologi a</w>
m el
glei che</w>
gioc o</w>
for tun
R ück
z o</w>
sci enza</w>
ra zione</w>
p o,</w>
fan g</w>
Amer ik
oc chi</w>
man i
it o,</w>
i o.</w>
hatt e.</w>
glaub en,</w>
fil m</w>
donn a</w>
conos ci
co gli
al so,</w>
ac e</w>
J ung
F ort
Be zieh
1 .</w>
us a</w>
prim i</w>
n o.</w>
ger n</w>
Z wei
Vi elleicht</w>
Sch ule</w>
Er geb
tr ä
ra gione</w>
in are</w>
com pas
be ob
Sich er
Davi d</w>
A .</w>
ol li
oc c
merc ato</w>
lieg t</w>
h em
guer ra</w>
et e.</w>
es sion
dov remmo</w>
aus ge
ak t
St ück</w>
M ik
überhau pt</w>
y n
v a
met à</w>
immag ini</w>
gr und</w>
ei st
cam po</w>
an s</w>
D och</w>
ulti mo</w>
trov a</w>
sc en
respon s
po tuto</w>
m ezz
kl ein
k ehr
ing u
econ omi
brau cht</w>
S ek
N ahr
Heraus forder
Got t</w>
vide o</w>
ver sch
ri eben</w>
r e.</w>
on e,</w>
mus ste</w>
lass en.</w>
espl or
eg en</w>
bal d</w>
aus zu
ati vo</w>
P au
Mäd chen</w>
F all
t s</w>
s h
s amm
qual unque</w>
pot rebbero</w>
ma sch
kam en</w>
gestell t</w>
gesag t,</w>
ett o.</w>
b bi
b auen</w>
an z</w>
V or</w>
Musi k</w>
L as
Inform ationen</w>
pen sier
ologi e</w>
m mer
l' ho</w>
g a</w>
divent a</w>
Ni cht</w>
I ra
Gr unde</w>
zion i.</w>
l au
kei t.</w>
isch .</w>
er v
er o
ek t</w>
di r</w>
da gli</w>
av rei</w>
al ,</w>
St äd
N oi</w>
H aus
G lei
sag en:</w>
s orta</w>
risp etto</w>
piu '</w>
perio do</w>
ol e,</w>
lavor o.</w>
ier a</w>
guard ate</w>
fü ll
f lu
b t</w>
Netz wer
M c
D u
vostr i</w>
si eren</w>
s -
par ti
m att
komm t,</w>
fr üh
ex ist
end lich</w>
bedeut et</w>
ass o
St unden</w>
Cos ì,</w>
Auf gab
u ch</w>
stess i</w>
si v
o mia</w>
im pres
ent fern
auf zu
ati va</w>
S em
L assen</w>
K ö
J e
Gesch ä
8 0</w>
zion i,</w>
p o.</w>
letz te</w>
leb en.</w>
l e.</w>
halt en,</w>
al meno</w>
a "</w>
N ation
w eg</w>
sich ,</w>
pubbl ico</w>
n en.</w>
n a</w>
mon di
konn ten</w>
gr ün
gen ann
dis se:</w>
chi esto</w>
A m
sistem i</w>
sch rit
rius ci
meh r
man chmal</w>
it i,</w>
es a</w>
eigen e</w>
cent in
anz a.</w>
vis u
ven i
v öl
ul la</w>
tr ot
stän d
ra g</w>
nah men</w>
mu ov
hör en</w>
end ,</w>
da fü
ab hängi
a den</w>
D io</w>
ver g
ur en</w>
sich er</w>
s el</w>
prod ot
mus ica</w>
al z
S itu
Ogn i</w>
K reb
H :</w>
Allor a</w>
uman i</w>
u re
sopr a</w>
pr om
p et
k rei
in st
der en</w>
com mer
chiam ata</w>
c un
anz a,</w>
Fil m</w>
Al cun
quant ità</w>
po ter
ob wohl</w>
is mus</w>
informa zioni</w>
gesch aff
ess a</w>
er -
de b
c ult
bu on</w>
ament o.</w>
Sp ezi
P unk
F rei
B ei</w>
weiter .</w>
sic ur
schließ lich</w>
sag e</w>
f and</w>
ev it
c r
c av
S chi
D em
1 1</w>
vic ino</w>
tig .</w>
pr on
nu cle
nem meno</w>
hin ter</w>
f ig
e pi
diver t
cal col
bi an
Projek t</w>
O g
D op
ü l
ment e.</w>
dir ett
bar en</w>
a pr
Li cht</w>
L än
Kin dern</w>
K rieg
K r
Hau pt
F el
En gl
war en,</w>
ti ef
r ov
pri v
indi etro</w>
i stru
for mi
em er
c ere</w>
av anti</w>
ation .</w>
T im
Goog le</w>
ö tz
z ähl
vogli ono</w>
st avo</w>
pos s
m esi</w>
differ enza</w>
Universu m</w>
M ein
vi sione</w>
sy ch
st e,</w>
prod otto</w>
o f</w>
int eg
fä ll
ate gi
W in
S au
Pr ot
0 .</w>
z entr
vi a.</w>
us ando</w>
sprech en,</w>
potr emmo</w>
par ole</w>
giorn o,</w>
en der</w>
dire kt</w>
ö t
zeu g
sci enti
pl an
p at
funzion a</w>
fin det</w>
f ra</w>
ent schei
eh r</w>
e ;</w>
cos e,</w>
asp etto</w>
Z ahl
Sy m
H än
F ern
Dur ch
tig t</w>
ri er
os o.</w>
mad re</w>
eg u
ben ö
B ar
vi ll
u ch
stu denti</w>
st eck
or ni
o ti
niem and</w>
n on
l äu
k n
issi mo</w>
facci a</w>
en di
el e</w>
cer t
all er
a da
Kop f</w>
wirt schaft
sion en</w>
s post
mol ec
hi er.</w>
dav ver
b en,</w>
Z w
Stu dent
Gehir n
sy stem
svilu ppo</w>
s ette</w>
parl ato</w>
pa ese</w>
gehör t</w>
comp ag
ak teri
a ".</w>
Z um</w>
Me er
E vol
äum e</w>
wei s
w are</w>
sag t,</w>
par ola</w>
oggi .</w>
k rieg
funktion iert</w>
dis se</w>
alt a</w>
al .</w>
Un o</w>
S ter
H y
DN A</w>
program ma</w>
pr et
pp or
lor o.</w>
gut .</w>
entwickel t</w>
ens ,</w>
e !</w>
H ei
Gesell schaft</w>
zi ert</w>
prä sent
prov vis
o l</w>
is co</w>
heraus zu
gel eg
e qui
d ungen</w>
bedeut et,</w>
sol che</w>
scrit to</w>
s atz</w>
ri eg</w>
particol are</w>
jed och</w>
ho ch
f ,</w>
dam als</w>
L age</w>
Kör per
B us
ü hr
scu ol
r ot
pass ato</w>
ent .</w>
den za</w>
an i,</w>
T ats
Kli ma
In nov
w ass
vol evo</w>
p edi
osp hä
l o,</w>
imp egn
et en.</w>
e b</w>
e a</w>
d ott
conc entr
acc ad
a ...</w>
K u
Hil fe</w>
H and</w>
ä us
te oria</w>
o di
motiv o</w>
in .</w>
i cht
for me</w>
er emo</w>
chi eder
c a,</w>
Möglich keit</w>
ven ne</w>
t on</w>
sch reib
ri fl
re almente</w>
ra sch
k i
ges pro
geh t.</w>
co invol
attiv ità</w>
K ön
Entwickl ung</w>
zeig t,</w>
tra g
succ essi
stän dig</w>
sol a</w>
sch war
min ut
l os</w>
enz en</w>
as e</w>
V ed
Ti ere</w>
F ahr
E is
äm pf
zwei te</w>
zi eren</w>
völ lig</w>
uom ini</w>
su on
si eben</w>
ru s</w>
mal ,</w>
m en.</w>
denk en.</w>
N ess
H ar
war en.</w>
v anno</w>
t au
rest o</w>
pre occup
ori ent
o ?"</w>
lei st
führ en</w>
en ne</w>
dev ono</w>
c ito</w>
b or
azi en
a ci
OK ,</w>
Indi a</w>
19 8
ver schw
pun t
pre par
p end
o m</w>
min uti</w>
k s</w>
incredi bil
in o.</w>
impar are</w>
ier t.</w>
h r</w>
ess eri</w>
de mo
ch en
be wus
ab .</w>
a chen</w>
St ev
S eit
D or
Bev ölker
woll en.</w>
w oo
ver bin
p ezz
mö chte,</w>
man ,</w>
m eines</w>
kl eines</w>
hei t.</w>
gan gen
besch äf
S ehen</w>
ser ve</w>
r in
pot eva</w>
per sön
kon zent
cos a.</w>
cell ule</w>
arri va</w>
ali en</w>
M ich
Famili e</w>
A S
ü bri
unter su
un ten</w>
u cci
sch ul
ol io</w>
leg ger
könn te.</w>
i ?</w>
g ger
fin e,</w>
fatt a</w>
es perim
erst ör
e duc
conc lu
ari a.</w>
an ischen</w>
ali forni
Pr inzi
N um
J ohn</w>
unglaub lich</w>
sprech en.</w>
spi rit
sin o</w>
sicht lich</w>
sch ätz
sch reck
sch ick
propr ia</w>
o w
müs sen,</w>
h eb
geni e
gel ern
fon do</w>
di etro</w>
des t</w>
c' erano</w>
b i</w>
b ass
azion i.</w>
av evamo</w>
au ßen</w>
ar t</w>
all es,</w>
Z eu
W as
Ver su
T it
T ier
Stu di
Regier ung</w>
" M
sent ire</w>
schaff en,</w>
pot enzi
p ezzo</w>
o !</w>
line a</w>
j ung
eff etti,</w>
dr eh
J am
Au gen</w>
w ann</w>
vi aggi
t echn
pi o</w>
o d
nehm en.</w>
gen d</w>
ett o,</w>
er ig
el o</w>
dar in</w>
arbeit en.</w>
ar li</w>
all em</w>
S econ
H in
At om
An fang</w>
setz en</w>
k re
it i.</w>
famigli a</w>
ess en,</w>
ation s
al te</w>
W ä
Al le</w>
z ü
ulti ma</w>
ren dere</w>
müs sen.</w>
mi ,</w>
end o.</w>
e ?"</w>
dom ande</w>
disp oni
cres cita</w>
cos ì,</w>
Sa chen</w>
Nach ri
Dank e.</w>
si to</w>
schaf t,</w>
pro durre</w>
più .</w>
opportun ità</w>
oggi ,</w>
le a
kur z</w>
ic e</w>
hät ten</w>
darüber ,</w>
assolut amente</w>
St and
Ko hl
" Non</w>
ver li
termin i</w>
tecnologi e</w>
t oll
sol di</w>
selb en</w>
pen siamo</w>
mi li
mi .</w>
h oh
h en</w>
er anno</w>
con vin
ap plic
ander er</w>
ambi ente</w>
Spr ache</w>
P flanz
z eit
ver a</w>
tr u
s eit
popol azione</w>
per icol
p sic
mo do,</w>
isch ,</w>
g ri
fos sero</w>
H off
Be deut
Ar t,</w>
studi o</w>
sp l
sor g
pr em
nach zu
her vor
em is
d ann
au to</w>
O h,</w>
Nat ür
F ing
C l
ver ur
st att
schaf ten</w>
ri ma
r ing
it t</w>
br it
at amente</w>
W ort</w>
M y
HI V
H öh
Gesund heits
Den ken</w>
uni verso</w>
temp or
t as
t anti</w>
sieh t,</w>
mi st
impar ato</w>
genau so</w>
e di</w>
con segu
ch il
beh andel
Gu ard
A uto</w>
0 %</w>
ren der
ness un</w>
met ri
ic olo</w>
ic il
en er
en ?"</w>
ech sel
di stri
dett o:</w>
arg om
ar .</w>
ament o,</w>
J eder</w>
H aus</w>
C '
B an
An zahl</w>
ür z
us ato</w>
un to</w>
t ura</w>
situ azione</w>
seh r,</w>
prov are</w>
l eit
gover no</w>
essi mo</w>
ent ,</w>
di mostr
di ment
ar ie</w>
an schau
Ter ra</w>
I sl
tr ei
kon tr
f .</w>
eu er</w>
as .</w>
arbeit en,</w>
Europ a</w>
Amer ikan
zu g</w>
ti r
st amp
poss ano</w>
or g
mi ll
est a</w>
con tra
c ura</w>
at ric
af ric
W er</w>
Rau m
3 00</w>
, "</w>
superfic ie</w>
sap ete</w>
pl ötz
p oll
orig in
ogg etto</w>
in o,</w>
in gl
er s</w>
dav anti</w>
ch st
all' interno</w>
Uns ere</w>
N utz
Leb ens</w>
Jahr en,</w>
Gl ück
zeh n
tion en</w>
t agli
si l
parl ando</w>
ler nen</w>
j äh
gesag t</w>
fatt o,</w>
econ omia</w>
diff icil
d ell</w>
an i.</w>
Sti amo</w>
St at
Mit ge
K rei
Gl ück</w>
Entwickl ungs
Dop o</w>
si e.</w>
pr ezz
pens ate</w>
or it
nimm t</w>
mögli chen</w>
l abor
in spi
im provvis
decis o</w>
car atter
b rac
Archit ekt
" A
ü st
zeig en.</w>
versu chen,</w>
sar ebbero</w>
r ett
r ende</w>
ne u</w>
l '</w>
größ te</w>
gen ere</w>
gebau t</w>
et z</w>
co sto</w>
am o
ab ,</w>
a w
V ater</w>
Sap ete,</w>
S an</w>
M I
Inst it
Er n
Er fol
ver lor
sp ett
ro bo
rei ben</w>
nah me</w>
n ut
j etz
im ento</w>
il lu
er l
e y,</w>
cres ci
br a</w>
ber t</w>
Werk zeu
K an
Ding en</w>
B akteri
ver bess
t ante</w>
reg ol
or a.</w>
migli ori</w>
ist :</w>
glaub en</w>
com pren
bring t</w>
av e</w>
ami amo</w>
St ellen</w>
S inn
19 7
val ore</w>
unser es</w>
si k
risult ato</w>
ing .</w>
en ;</w>
des cri
das ?</w>
commer ci
bil d
a h</w>
Län der</w>
Kun st</w>
B el
ven ire</w>
tut to.</w>
stori a.</w>
san gu
ram m</w>
pad re</w>
nah m</w>
is ol
incredi bile</w>
eu er
an gen</w>
an a.</w>
Sch auen</w>
S er
N e</w>
C or
ti v</w>
sin t
riguar do</w>
realt à,</w>
k ennen</w>
jem als</w>
get an</w>
gen s</w>
er wart
b om
an del</w>
al ität</w>
al iment
Unter nehmen</w>
T em
S :</w>
N ig
H inter
1 ,
wur den.</w>
vol l</w>
un' idea</w>
st eig
schaff en.</w>
r anno</w>
piccol e</w>
mol to,</w>
macch ine</w>
leb en,</w>
l es
k or
größ ten</w>
ft ware</w>
far lo.</w>
er e,</w>
er :</w>
centin aia</w>
av rebbero</w>
arbeit et</w>
a il
Zi el</w>
Un iti</w>
Rei he</w>
K ünst
For se</w>
B ru
Ö l
z ul
wer t
vir tu
t est</w>
st are</w>
scopr ire</w>
sch wer
sagt :</w>
pr est
niem als</w>
lass en,</w>
kur z
ig nor
hatt en,</w>
gu id
groß ar
gro ß</w>
gover n
cult ura</w>
ap proc
and .</w>
ah n
L ag
us s
schein t</w>
re ich</w>
re den</w>
rac col
per mette</w>
m e
m anten
es c
ein s</w>
eb r
distri bu
cont ri
cap ito</w>
c ento</w>
at ell
am ici</w>
Ver einig
Per ciò</w>
Met ho
Geg en
Gal ax
Al les</w>
zeh n</w>
us .</w>
unter stütz
stess e</w>
rac cogli
part eci
lavor o,</w>
kompl ex
hatt en.</w>
f ab
di cono</w>
chi unque</w>
ch im
bau en,</w>
at ti</w>
Z entr
R ic
M ag
Au ß
. “</w>
volt a,</w>
vo i.</w>
sy stem</w>
st o
schw er</w>
s om
ra ff
iti v
f ör
en i</w>
di e,</w>
be zahl
arti ge</w>
altr o,</w>
S pa
Ph ysi
19 6
" Was</w>
will ,</w>
ver di
test a</w>
strum enti</w>
se par
sch er
p au
obi ettiv
k et
ir e.</w>
gefä hr
es er
dov ete</w>
das s,</w>
Was hing
W ach
Vort rag</w>
Viel e</w>
Um geb
Nam en</w>
M ent
D r
ò .</w>
u ra.</w>
son st</w>
sin i
rie b</w>
ich e.</w>
gu ada
gesam te</w>
fol gen
et er</w>
e f</w>
dar an,</w>
co si
at ure</w>
ari o.</w>
an a,</w>
Su per
Jahr en.</w>
w .</w>
uti on
stru kt
rest e</w>
ot a</w>
oc ci
neg o
n ulla</w>
movi mento</w>
in e.</w>
giorn o.</w>
f anden</w>
es e.</w>
cos a,</w>
Verbin dung</w>
T age</w>
N ord
M ass
L an
E t
D am
wär e,</w>
vi rus</w>
um ano</w>
ter ri
prog etti</w>
problem a.</w>
ph ysi
es e,</w>
en g
de vi</w>
d ente</w>
beob acht
azion i,</w>
a di
Kon zep
Kon tr
Ihr en</w>
Allor a,</w>
w indi
sic ure
ri chi
re ch
nutz en</w>
met ri</w>
inizi are</w>
in e,</w>
häl t</w>
giust o?</w>
fre qu
fra gen</w>
f li
ell er</w>
des halb</w>
ar la</w>
T ra
Oberfl äche</w>
M ann
L ond
F un
ver breit
uni versit
ogg etti</w>
mol ta</w>
lor o,</w>
ier te</w>
gi orni
costru ito</w>
bra chte</w>
are a</w>
ag ric
Vor rei</w>
Selb st
R os
R ech
Ma cht</w>
Flug zeu
vor her
schn itt
reli gi
om i</w>
lavor ato</w>
h .</w>
evol uzione</w>
edific io</w>
d oc
d at
betra cht
be kommen.</w>
bau en.</w>
Wo chen</w>
Wass er
W est
G :</w>
t al
spr icht</w>
riguar da</w>
r or
mus ic
l ato</w>
ist itu
hem ati
e zion
alt er</w>
Wo che</w>
Lu i</w>
Ch i</w>
us ,</w>
tig keit</w>
strum ento</w>
s a.</w>
part ic
os ,</w>
ma g</w>
ier t,</w>
grupp i</w>
ec chi
da chte,</w>
af rik
S or
R eli
Hau se</w>
zei tig</w>
ver stand
ult ur</w>
tr e,</w>
t s
son :</w>
prodot ti</w>
o der
nach dem</w>
mili one</w>
konzent ri
informa zione</w>
fot ogra
et tere</w>
er ung</w>
cu ore</w>
ad att
El tern</w>
Ein st
C ol
zi ehen</w>
t av
su gger
stell te</w>
schl ag
rius cit
rel azione</w>
pass are</w>
imp atto</w>
h och</w>
d à</w>
d ot
c anz
bil e,</w>
am ore</w>
ach e,</w>
Tel ef
Natür lich</w>
Glei ch
D ru
ä ß
vo i,</w>
ve de</w>
torn are</w>
tem per
po i,</w>
mag ari</w>
m ec
ex t
erkenn en,</w>
col o</w>
bar .</w>
ati vit
V on</w>
Spi el</w>
Sin n</w>
Mat hemati
K oll
K il
In dustri
H äl
H ir
Ge fühl</w>
Er o</w>
Amer ica</w>
zei ge</w>
versu cht</w>
simi le</w>
mit einander</w>
import anti</w>
grund leg
ff en</w>
f än
eff ici
e jen
di co</w>
dar um</w>
comp et
au ch,</w>
at te</w>
ari a,</w>
Vereinig ten</w>
Unter schied</w>
T eile</w>
S .</w>
Pri ma</w>
Ni cht
Lieb e</w>
B ri
B .</w>
è :</w>
qual ità</w>
prat ica</w>
petr oli
materi ale</w>
lieb e</w>
li g
ger ,</w>
g el</w>
fen om
el n,</w>
best eht</w>
b ein
am in
F arb
E ff
D unque,</w>
Ch ina</w>
A mei
ver sione</w>
st ec
sic uro</w>
risol vere</w>
pas so</w>
mus sten</w>
man iera</w>
ma che</w>
kl einer</w>
k r
gut en</w>
gu i
geseh en,</w>
fas zin
faci le</w>
er e.</w>
bit te</w>
bi li.</w>
be wer
ari o,</w>
an ce</w>
a gier
Techni k</w>
Pau l</w>
O p
N ein,</w>
Mon ate</w>
H el
Fran c
5 .000</w>
zu .</w>
su peri
sor prend
solu t</w>
s periment
re ale</w>
mis ur
au m</w>
at mos
ab it
OK .</w>
Mil li
Mensch en.</w>
Amer ic
5 ,</w>
" Das</w>
wel t</w>
w it
sost en
sol l</w>
pun ti</w>
organ is
n ennen</w>
mor al
hel fen</w>
esim o</w>
ein zu
dop o,</w>
bl ick
Th ema</w>
H u
Größ e</w>
Ge or
D on
A s
1 6</w>
0 .000</w>
wichtig ,</w>
un t
p ac
jäh ri
fron te</w>
dav on,</w>
cli mat
c ic
beg ann
aiut are</w>
Vor stell
R est</w>
Im mag
G est
B ü
Al l</w>
7 0</w>
verr ück
um s</w>
sost eni
pi el
petr olio</w>
p ò</w>
p e</w>
ori zz
o '</w>
ne anche</w>
mor te</w>
m am
komm t.</w>
itz e</w>
is ,</w>
fr ont
essi .</w>
ess en.</w>
ens wer
dr außen</w>
dar aus</w>
bisogn a</w>
bei de</w>
a sch
T u
Og gi</w>
N AS
Kra ft</w>
Er st
Aut os</w>
öff n
zu vor</w>
t ar
sol ito</w>
r um
passier t,</w>
mach t.</w>
groß er</w>
g am
ev ole</w>
etti .</w>
et er
c ant
be kommen,</w>
at ori
Mol ek
Ex perim
Des halb</w>
Bil l</w>
v iss
sp ort
sol e</w>
mas sa</w>
dar um,</w>
d ra
co sta</w>
chi amiamo</w>
c ra
beein flus
are e</w>
Vide o</w>
K rieg</w>
G ar
A m</w>
vi aggio</w>
schaf t.</w>
s com
rac con
possibil e.</w>
osp ed
mag net
m ini
läs st</w>
libr i</w>
könn te,</w>
is i</w>
industri a</w>
führ en.</w>
fü r
f ehl
er ten</w>
ci asc
at ,</w>
acqu a.</w>
acc ett
ab solut</w>
Ver halten</w>
Schrit t</w>
Rich ard</w>
Ih rem</w>
Ein ige</w>
9 0</w>
1 6
sent ir
sc egli
ri vel
os o,</w>
gi o</w>
f um
einfa che</w>
dan ach</w>
da zu,</w>
bli ot
bi o
b us
at ur</w>
al er</w>
Zei t.</w>
Must er</w>
Mit te</w>
Met er</w>
D et
CO 2</w>
ü b
us ci
trot z
ro ba</w>
lavor ando</w>
l e,</w>
ges etz
fatt o.</w>
f ece</w>
en des</w>
bell a</w>
aggi ung
Ne ur
K apit
In n
B ab
Al la</w>
ver öffent
tut t
st är
so for
pli zier
pi ano</w>
neu es</w>
mach t,</w>
las se</w>
i v
her um</w>
flus s</w>
fat ti,</w>
esist e</w>
er avamo</w>
det er
dafü r,</w>
bas so</w>
Produ k
Gedank en</w>
Bes ch
ter zo</w>
os au
mem br
mec can
k ämpf
fur ono</w>
fi gli</w>
est ern
entr are</w>
diver so</w>
di pen
ci ò,</w>
Wor l
T yp
Prei s</w>
M :</w>
Ihr er</w>
G re
A p
über rasch
Ä r
z ona</w>
viv ono</w>
ur e,</w>
uni vers
t op
t eil</w>
sopr at
scri vere</w>
scal a</w>
rich tige</w>
po chi</w>
plötz lich</w>
on nen</w>
l ett
is .</w>
in fin
di ta</w>
das .</w>
coll abor
beg r
b ast
arl o.</w>
Wo hl
Un '
HI V</w>
Fort schrit
D el
B ot
2 4</w>
vol ete</w>
ti ene</w>
st anza</w>
pres sione</w>
potr este</w>
organ i
malatti e</w>
in es
guada gn
er wä
eff ic
cas o,</w>
bell issi
b ist</w>
ativ en</w>
affront are</w>
T atsächlich</w>
Sta aten</w>
Sch n
Or d
N ot
Dar w
D ing</w>
C an
Bl ick</w>
AID S</w>
" W
zurück .</w>
z erstör
tr em
st avano</w>
sich er,</w>
s anno</w>
perc ento</w>
per sino</w>
ness una</w>
komm e</w>
k ün
geg eben</w>
ess enzi
d ann,</w>
controll o</w>
bre ve</w>
b all
ati vi</w>
Perch è</w>
G ei
Fre unde</w>
C hr
4 00</w>
wä l
u ov
sozi ale</w>
sol uzione</w>
sal ut
pr ende</w>
on dere</w>
li amo</w>
l ös
it ,</w>
incredibil mente</w>
import ante.</w>
ich e,</w>
far ma
far e,</w>
dic e:</w>
con sap
bes itz
ak tiv
Th e</w>
Ne w
N ach</w>
Lös ung</w>
Geschä ft
D enk
"O h,</w>
ür f
vol ont
tr am
ten :</w>
mostr arvi</w>
man i</w>
ma dr
lie ßen</w>
kontr olli
in tu
import ante,</w>
bri l
auf en</w>
Sch ön
Sch wi
P al
Komm un
str ut
s v
ri fer
produ zione</w>
passier t.</w>
l ine</w>
ist a</w>
in n</w>
in en</w>
im pieg
giu sto</w>
ge da
e x</w>
com plic
chi a</w>
c l
as su
ach ten</w>
Richt ung</w>
O v
N o
Lu ft</w>
H imm
Ad esso</w>
zun eh
w est
u ra
tradi zion
str o</w>
san it
pr ezzo</w>
pp e</w>
pianet a.</w>
ogn uno</w>
lan gen</w>
l' acqua</w>
h y
eil en</w>
dimen sioni</w>
deter min
conc etto</w>
comport amento</w>
cominci are</w>
bre v
bes u
an gen
a ?"</w>
a !</w>
Wi ki
Alcun i</w>
st en,</w>
s au
risor se</w>
prossi mo</w>
prof ession
o ;</w>
migli a</w>
li cht</w>
her um
funktionier t.</w>
estrem amente</w>
es sione</w>
el n.</w>
eff ettiv
ech ten</w>
e e</w>
denar o</w>
com bin
camm in
Pati enten</w>
N o,</w>
Män n
Kon fer
Kar te</w>
Ide e,</w>
Fü hr
Es sen</w>
Ein es</w>
D an
Ch em
y woo
s ur
ro h
mett ono</w>
met o
k ünst
in ser
h ast</w>
for te</w>
ess our
de mi
cio è</w>
as cin
an statt</w>
Wach st
K ultur
Häl fte</w>
Gr und,</w>
wor den</w>
stat ist
sc att
s ätz
reg ole</w>
realizz are</w>
qu indi,</w>
ppor to</w>
pi edi</w>
pens a</w>
nuov o,</w>
mo ti
mic ro
m s</w>
lang sam
guard ando</w>
geg eb
gefun den</w>
frag te</w>
end o,</w>
eff etto</w>
doll ari.</w>
condi zioni</w>
comun e</w>
cat tiv
c ultur
beg innen</w>
Wä hrend</w>
Technologi en</w>
Mein ung</w>
I r
Bu d
Afric a,</w>
10 .000</w>
- S
woll ten</w>
scienzi ati</w>
ris post
re gion
raggiung ere</w>
r än
ovvi amente,</w>
l us
entwickel n</w>
di stru
da ß</w>
ar ne</w>
aff ascin
ab en</w>
Zusamm en
W ör
W ort
Um welt
Ph il
K al
F oto</w>
Char ak
Beweg ung</w>
Au gen
ver mut
u ra,</w>
tig ,</w>
st ei
spiel en</w>
sp ann
seg ret
ril ev
osphä re</w>
maggi ore</w>
konn te.</w>
el ektr
dom in
dic endo</w>
da f
d ete</w>
ar le</w>
ambi ent
Vor stellung</w>
Ver gangen
Mar kt</w>
Eig enschaf
D im
Ander son:</w>
Amerik a</w>
ück e</w>
ü ll
wen ig
versteh en.</w>
ver n
ur b
umin dest</w>
tut ti.</w>
t el</w>
sp ing
res ist
pp ure</w>
parteci p
ni ed
interes sier
in fer
gi ù</w>
gh an
gebra cht</w>
g ol
füh le</w>
erzähl en.</w>
em and</w>
einzel ne</w>
benutz en</w>
ben e
autom at
ak t</w>
W ol
Leb en.</w>
Erfahr ung</w>
Ding e.</w>
v ul
ro b
pri ma,</w>
mo di
lei cht</w>
en "</w>
dru ck</w>
disc us
di ejen
col tiv
chi .</w>
an dav
al tern
Wirt schaft</w>
Wahr schein
Th em
R us
Proz ess</w>
Mich a
K no
Ent deck
C am
vi ve</w>
vent o</w>
v ale</w>
tig er</w>
om e</w>
oll ywoo
num er
n é</w>
konn te,</w>
kam ,</w>
k an
gli chen</w>
g ingen</w>
fal sch</w>
cre a</w>
atten zione</w>
ati v</w>
approc cio</w>
T y
Po tr
D ok
2 .</w>
z ,</w>
verw andel
si cht</w>
sel t
pi ant
pi a</w>
merk sam
k os
it à
ich t,</w>
gut ,</w>
gemein sam
est i</w>
erzähl en,</w>
dis se,</w>
den t</w>
com unque</w>
ch est
best e</w>
be ding
av esse</w>
ancor a,</w>
amb i</w>
abil i</w>
Wiki pedi
T at</w>
Ih nen,</w>
H eute</w>
Ges etz
Evol ution</w>
B üh
5 .</w>
vostr e</w>
ver br
veloc ità</w>
un o,</w>
un den.</w>
spr ün
sag en.</w>
s a,</w>
robo t</w>
ra d
nor male</w>
no ?</w>
mm er</w>
kompl ett</w>
k ürz
her ,</w>
gesch los
gel ang
f ru
f all</w>
etr i</w>
er ie</w>
en ni
egn o</w>
di eci</w>
best eh
auß er</w>
att acc
am a</w>
al es</w>
W es
R essour
P f
P ak
Nach bar
M os
K ultur</w>
Int ellig
Gu ar
Geschi chte.</w>
Fir ma</w>
At m
settiman a</w>
sel be</w>
re cent
qu ar
os a.</w>
op h
om a</w>
guar do</w>
gew inn
genit ori</w>
gemach t,</w>
fin g</w>
f er</w>
en heit</w>
chi ed
ch ie</w>
c ina</w>
be kommt</w>
am ico</w>
abil e.</w>
W ett
Sti m
S al
Oka y,</w>
Li cht
Char les</w>
Bo den</w>
Be wusst
A sp
w echsel
vi ver
veränder n.</w>
ont an
om en</w>
luog hi</w>
immagin are</w>
gener azione</w>
chi rur
chi ,</w>
can c
ation en,</w>
a io</w>
W :</w>
Re ak
M ot
Jam es</w>
un ci
si st
seh e</w>
sc ol
pri ma.</w>
prat icamente</w>
on g</w>
mapp a</w>
kra ft</w>
in vit
da her</w>
ci b
cambi amenti</w>
b etr
am e</w>
aff er
Rei se</w>
O n
N ur</w>
Ma ß
Kön nen</w>
F o
C ent
y stem
wur den,</w>
ster ben</w>
sc at
rich tigen</w>
qu anti</w>
p flanz
opp ure</w>
n ull
m ogli
jem anden</w>
h inter
for z
fi zier
f ran
f ate</w>
el im
c att
av remmo</w>
a de
Student en</w>
Reg eln</w>
R evol
M ess
L eg
H ig
Comput er
wer den
v inc
t ö
su ff
s edi
prossi mi</w>
ot ter
ost ante</w>
mö gen</w>
mi r
ist i</w>
inter pret
in qu
gi on</w>
f ess
ett a.</w>
er möglich
ent usi
em ent
di scorso</w>
dav on.</w>
cu ri
cor aggi
an c
Wahr heit</w>
Te am</w>
TED .</w>
T est
Sach e,</w>
Pa pi
G ri
Ein zel
Ber eich</w>
Auf merksam
Ar tik
1 4</w>
wi der
voll er</w>
ven uto</w>
su ono</w>
st ai</w>
soci et
ris cal
prot eg
propr i</w>
os .</w>
lingu aggio</w>
it ik
in i,</w>
ig en,</w>
fall en</w>
ein ge
e ",</w>
comp on
caratter ist
c ris
att ac
at en,</w>
agric ol
V en
Sy n
Strukt ur</w>
Son ne</w>
Mo dell</w>
L ap
Klima w
Geb ur
Bl ut
Beh andl
Au ch</w>
1 7
v elli</w>
um e</w>
u gu
test en</w>
sub ito</w>
prov ato</w>
produ zier
pro bi
modell i</w>
m äch
l age</w>
is pir
in tro
gi g
fic i</w>
cht s
cas a.</w>
cam pi
bus in
br u
b ro
Z ahl</w>
Veränder ung</w>
T ro
Situ ation</w>
L ändern</w>
In vest
wel cher</w>
wach sen</w>
vol le</w>
u p
t on
sol tanto</w>
sens o,</w>
sag ten,</w>
s é</w>
più ,</w>
pensier o</w>
p el
obiettiv o</w>
l ok
is mus
in i.</w>
hi el
gest alt
geseh en.</w>
fil m
fang en,</w>
ei m
bestimm ten</w>
ber ühr
ar re</w>
Tag es</w>
ver t
v ant
star k</w>
st amm
rei ch
prim e</w>
pres a</w>
perf ek
kü mmer
i zione</w>
h an</w>
g e.</w>
fre d
es per
errei chen</w>
bei ,</w>
am ,</w>
acqu a,</w>
W ahl
Lehr er</w>
Kö ni
Inter ess
Ho ch
Ger ä
zut age</w>
wär en</w>
wach sen
veränder t</w>
sent i
sag ten</w>
s ì,</w>
ri pet
mu over
man c
k m</w>
heiß t,</w>
gleich zeitig</w>
gi l
gew al
erzähl t</w>
ec k</w>
dies el
consap evol
ap pon
Ment re</w>
Lei den
Kun st
K ol
Frag e,</w>
F isch
Er d
Aus wirk
Ak tiv
zu erst</w>
z umindest</w>
z one</w>
woh n
u la</w>
tig es</w>
ter ren
telef on
succ eder
str ategi
rit orn
quad r
mill e.</w>
l arg
itä t,</w>
ges etzt</w>
ge wis
g etr
faci l
ezz a,</w>
e y
e po
con serv
cas i</w>
attra vers
att u
Sau erst
Num mer</w>
L änder
J o
H ol
Fre un
" B
vi er
un o.</w>
spett ac
sper o</w>
sofor t</w>
sch ütz
sch rieb</w>
s alt
ovvi amente</w>
nutz en,</w>
na zione</w>
mitt el</w>
k op
glück lich</w>
gel ö
ft war
f ri
f era</w>
ell e,</w>
di ag
d eine</w>
d anno</w>
bl ick</w>
azien da</w>
ass ic
as s</w>
Ver antwort
Män ner</w>
Mitt el
Milli on</w>
Mik ro
In genie
Ge fühl
F u</w>
Af ghan
veränder n</w>
u li
trov ano</w>
trotz dem</w>
tra gen</w>
si mo</w>
rapi d
pens ano</w>
osp ettiv
moment o,</w>
l ent
ide a.</w>
i :</w>
fahr en,</w>
eri g</w>
er kann
er halten</w>
des ig
der .</w>
compag ni
cervell o.</w>
all en
alc un</w>
S am
I s
Gl ob
F i
tun ?</w>
sig n
sfi da</w>
selb st
schö n</w>
prov a</w>
prog r
prod ut
ossi gen
natur ale</w>
gew esen</w>
em ente,</w>
di a</w>
d ort
citt ad
beweg en</w>
ac k</w>
ab zu
ab l
a for
Wirk lichkeit</w>
Ha w
F :</w>
E m
. .</w>
- B
wus ste</w>
woll te,</w>
tu t</w>
tras fer
suff ici
prossi ma</w>
pren dit
pot evano</w>
per ò</w>
par te.</w>
lung a</w>
l' ha</w>
l etto</w>
itä t.</w>
is se</w>
int ell
haf t</w>
futur o.</w>
eu cht
design er</w>
de dic
cont in
b e,</w>
an t</w>
al og
abbi ano</w>
Stra ß
Prog ramm
Pl atz</w>
P il
P an
H om
Bezieh ung</w>
Architekt ur</w>
vor zu
ver teil
uman a</w>
ten ere</w>
s atz
m äß
län ger</w>
leg ge</w>
k ultur
i ché</w>
hä u
fic i
et a</w>
erk ennen</w>
em ,</w>
chi u
ar en</w>
acc esso</w>
Wissenschaft ler</w>
Sü d
Rob ot
Qu ella</w>
J on
D rit
C ina</w>
An gel
5 %</w>
2 ,</w>
vor .</w>
vit e</w>
ur ban
svilupp are</w>
settiman e</w>
ser i
sch ir
s ogn
s fr
s eite</w>
ri m
osserv are</w>
occi dent
n ur,</w>
l aut
it e.</w>
irgend wo</w>
im prendit
her .</w>
groß artige</w>
gesam ten</w>
gegen über</w>
f ogli
f ai</w>
dev ano</w>
d' accor
co per
ci ma</w>
beh ,</w>
b ol
architett ura</w>
Ti ef
TED ,</w>
Möglich keiten</w>
K ü
Jahrhunder t</w>
Fähig keit</w>
A R
% .</w>
" La</w>
" Beh,</w>
äu ß
äu sch
äf te</w>
ut o.</w>
ut il
t ale</w>
s ento</w>
prec ed
pr akt
pi l
mus s.</w>
mostr ato</w>
letz t
ihr es</w>
giov ani</w>
es sità</w>
es i,</w>
elettr ic
di vi
conosc enza</w>
cambi ato</w>
bin ,</w>
ber ,</w>
S ì,</w>
Ness uno</w>
Gener ation</w>
Erfol g</w>
1 .
är en</w>
zusamm en.</w>
z ogen</w>
wich tige</w>
vol eva</w>
sul lo</w>
sp in
sci m
sal ute</w>
re du
perch é,</w>
no st
mus s,</w>
li gen</w>
letter almente</w>
l er,</w>
keit en,</w>
inter o</w>
ing t</w>
in ate</w>
imm edi
hör en,</w>
hin zu
h ar
g ent
erzähl en</w>
eh men</w>
dic ev
ch em
cer ca</w>
c acci
ator io</w>
assi st
and ando</w>
aggi o,</w>
N ella</w>
N egli</w>
Micha el</w>
Leb en,</w>
L os</w>
Kop f
J ap
Guard ate</w>
D H:</w>
Aufgab e</w>
A -
4 5</w>
1 50</w>
ähn lich</w>
vu oi</w>
ver ità</w>
us ano</w>
sti le</w>
scu ole</w>
s ì</w>
meh r.</w>
ist e</w>
interess e</w>
gen de</w>
forma zione</w>
er forsch
com in
citt à.</w>
cam pag
az zi
The orie</w>
S olo</w>
Prä si
Kom pl
Afghan ist
1 7</w>
" Die</w>
verwen den</w>
ved rete</w>
stu dent
so wohl</w>
sini stra</w>
sing olo</w>
schwi erig
s ess
s eines</w>
risult ati</w>
ragazz o</w>
r und</w>
r ein
par te,</w>
o pi
normal erweise</w>
mat eria</w>
ich .</w>
häl t
hel fen,</w>
esperim ento</w>
der e.</w>
cominci a</w>
bekann t</w>
auf re
and ati</w>
al d</w>
agn a</w>
T ur
R olle</w>
R ed
Publik um</w>
Indi vidu
Fu ß
El ek
B F:</w>
u h
temp i</w>
schön e</w>
pun to,</w>
pro por
polit ica</w>
po sit
pi edi
pezz i</w>
om at
oder ?</w>
o ci</w>
n äh
n iss
n ero</w>
materi ali</w>
keit en.</w>
k t.</w>
k t,</w>
it te</w>
interessan t</w>
influ enza</w>
g in
f em
divent ato</w>
di to</w>
der n,</w>
cris i</w>
bi r
bestimm te</w>
b eli
an gi
alc uno</w>
Prinzi p</w>
Po si
P sych
Kreb s</w>
Kin d
Gl aub
G ott
Fre und</w>
Bedeut ung</w>
Be zug</w>
6 00</w>
üh m
wür den.</w>
v acc
u siamo</w>
tu e</w>
t ol
t atsäch
succ esso.</w>
studi are</w>
str ato</w>
sim ul
semplic e.</w>
scel ta</w>
s quad
ragion i</w>
pro i
oh ,</w>
n e,</w>
li bri
leg gere</w>
lasci ato</w>
könn ten.</w>
immer ,</w>
herauszu finden,</w>
größ er</w>
gestell t,</w>
ett u
ens ch</w>
dov rebbero</w>
dov eva</w>
c ul
br ut
amerikan ischen</w>
Z u</w>
T ho
T agen</w>
Ro bert</w>
Or te</w>
Medi k
M a,</w>
Ko sten</w>
K i
In strum
Geor ge</w>
Galax i
D an</w>
C it
20 .</w>
wür den,</w>
vi sit
ut o,</w>
termin e</w>
pr ü
ol e.</w>
oc k</w>
n ütz
l and</w>
jem an
interess ant
cont atto</w>
con fron
ber eit</w>
bambin i.</w>
b ur
alt ri.</w>
ach ,</w>
ab itu
Vide o:</w>
TED -
S ho
Rob o
Ressour c
Pol itik
Mo dell
L ab
K er
Gel eg
Dem ok
Au str
Afric a.</w>
A h
z og
vu ol</w>
ve do</w>
un it
sich .</w>
schle cht</w>
ri gh
qualcos a.</w>
pro z
pr ospettiv
pl o
pi att
pf en</w>
mess aggio</w>
lasci are</w>
kom plizier
ge frag
gab en</w>
fre u
dic e,</w>
cre ativ
continu are</w>
beschäf tig
benö tig
ba sier
b e.</w>
Sonn en
S ign
Mar s</w>
M ic
Las ci
L i</w>
An al
" Wir</w>
z on
ver o?</w>
v enti</w>
sec olo</w>
piac erebbe</w>
pas sieren</w>
partic elle</w>
par ole,</w>
ma s</w>
l ì.</w>
kann st</w>
k ör
hör en.</w>
felic e</w>
etr o.</w>
d aten</w>
canc ro</w>
besch reib
beginn t</w>
b essere</w>
av vicin
ari amente</w>
W o</w>
Nation al</w>
K :</w>
Gol f
G ene</w>
F ak
Ein fluss</w>
Bil dung</w>
Beispiel ,</w>
1 3</w>
. B.</w>
äch st</w>
zu fäl
z en
w inzi
t ."</w>
ris chio</w>
pr os
offen sichtlich</w>
oce ano</w>
man che</w>
l' anno</w>
k in
inizi a</w>
for mat
ec cit
e qu
cre do,</w>
c lass
c aff
außer halb</w>
all e,</w>
aggi o.</w>
Zi vil
Ver ständ
Ver füg
S omm
Proz ess
O k.</w>
B all
A n</w>
7 ,</w>
" T
y s</w>
veder e,</w>
tut ti,</w>
sol chen</w>
soci ale</w>
so bald</w>
sem bra
schl ä
n eben</w>
lea der</w>
lauf en</w>
l'un ico</w>
inter a</w>
glob alen</w>
gi a</w>
g as</w>
far vi</w>
ern st
ent emente</w>
effettiv amente</w>
dett agli
d otto</w>
col ore</w>
co t
ci vil
bl u
be kam</w>
auf ge
W ert</w>
Tats ache,</w>
St elle</w>
Problem .</w>
N acht</w>
M ensch</w>
M ann,</w>
Kommun ik
Jahr zehn
J ohn
Fre u
über zeu
vol uto</w>
taus ende</w>
su gli</w>
stori a,</w>
sp en
ric o
pot esse</w>
nenn en.</w>
mach ten</w>
ir e,</w>
her zu
fis ica</w>
espl o
dire zione</w>
d unk
cos 'è</w>
co i</w>
c ort
beh au
an ische</w>
Wi eder
W ur
T ex
Stra ße</w>
Ri sik
Mol ti</w>
Kin der,</w>
Kil omet
K lei
Gemein schaft</w>
F eh
D o
Bet ra
wo hl
welt wei
w eb
versu cht,</w>
vent i
ur .</w>
tr over
tig ?</w>
t ur
steh en.</w>
soll te.</w>
so d
qualcos a,</w>
pr ei
pl ast
pazi enti</w>
nut ri
not wen
n ö
lern en,</w>
konn ten.</w>
hal t</w>
faszin ier
e cht</w>
den z
dank e</w>
carb on
car ta</w>
bess er
bambin i,</w>
ah n</w>
Spr ach
Oka y.</w>
Kont in
Ju li
Gesch windi
ün sch
ù .</w>
è .</w>
wichtig er</w>
ver o,</w>
ver fol
unqu e.</w>
tas so</w>
t ess
stu pi
st off</w>
st e.</w>
selt sam
schaft s
salv are</w>
ris par
ries ige</w>
ri ff</w>
pre occu
po ste</w>
per cent
n onn
mostr are</w>
kauf en</w>
inspi ri
im enti</w>
ge bi
fr ü
for ze</w>
f oc
ech nologi
dimen sione</w>
cos ì
comput er.</w>
col oro</w>
b re</w>
att orno</w>
arr y</w>
an alizz
W ür
T wit
Qu alcuno</w>
Pi ù</w>
Pak ist
Mon aten</w>
J ob
Fähig keiten</w>
Bü cher</w>
Bl og
A c
- -
z o
z ell
un ica</w>
ter za</w>
sin ist
servi zio</w>
sch ri
sch .</w>
s ov
ri fi
qu arti
n un,</w>
mo do.</w>
l ehr
influ enz
groß es</w>
giu sti
funktion ieren</w>
f o
esem pi</w>
el ev
eg e</w>
compr are</w>
cir con
ator i,</w>
arti st
all ein</w>
ai uto</w>
Ver sion</w>
Universit ät</w>
P ort
F ä
F er
Bevölker ung</w>
Av ete</w>
Al ter</w>
tu ra,</w>
treff en</w>
tempor an
sp edi
soprat tutto</w>
sin d
sen si
sco po</w>
sag ten:</w>
s etzt</w>
ricev uto</w>
raccont are</w>
prog ramm
perf ett
not te</w>
m ale.</w>
lieg en</w>
lav ori</w>
i k</w>
guar diamo</w>
gr ü
get ro
er fun
di ci
de stra</w>
cerc ato</w>
av vi
ation alen</w>
S to</w>
Nahr ungs
Indi a,</w>
Gebi et</w>
Er fin
Er eig
C oll
C aliforni
Bed ürf
war ten</w>
un abhängi
tu ra.</w>
ru olo</w>
pi eno</w>
per metter
parti re</w>
parl erò</w>
olog en</w>
num eri</w>
mo d
min im
incredi bile.</w>
ier i</w>
g gi
frag en,</w>
einzel nen</w>
divent ano</w>
di gen</w>
cres c
comput er,</w>
citt à,</w>
cas a,</w>
ber ühm
at .</w>
am or
ak tu
Städ te</w>
Sch mer
Mic ros
Mar t
Kompl ex
K amer
Har v
Geschi chte,</w>
Ein er</w>
Dov e</w>
D av
D ah
Ant wor
4 ,</w>
" E
än g
ä re</w>
w ,</w>
vor stellen</w>
ver antwort
ved ono</w>
ur sprün
ter ra,</w>
t ag
sp av
signific ato</w>
sicure zza</w>
sfr utt
sah en</w>
re gel
näh er</w>
natür lich,</w>
mu t</w>
met afor
ment o.</w>
medi zin
lie fer
leb t</w>
l'inter o</w>
könn ten,</w>
k rank
iti k</w>
it e,</w>
inc lu
hoff e,</w>
hi g</w>
gut es</w>
gespro chen</w>
genann t</w>
gen utz
führ en,</w>
figli o</w>
entw eder</w>
e dere</w>
cre dere</w>
bil ità</w>
batter i</w>
außer gewöhn
at t</w>
at er
ar ti</w>
ar e?</w>
Zahl en</w>
T aus
R is
Or t,</w>
Meer es
Masch ine</w>
K en
Gesund heit</w>
G h
Dim en
Bakteri en</w>
3 5</w>
welt weit</w>
st ens</w>
spieg are</w>
sembr ano</w>
sch er</w>
sap evo</w>
s er</w>
per o</w>
par lav
na zioni</w>
lavor ano</w>
l am
jung e</w>
it a.</w>
is mo.</w>
interess ante.</w>
inter nazion
hunder t</w>
ghiacci o</w>
ge t</w>
flieg en</w>
f ten</w>
er höh
ener get
di p
com prendere</w>
av rà</w>
and ate</w>
al mente.</w>
Si cht</w>
Schul en</w>
Sch war
Robot er</w>
Pu ò</w>
Prog ramm</w>
M is
J a.</w>
Gr enzen</w>
Ec co,</w>
E is</w>
D r.</w>
D a
An d
1 ,</w>
- T
ü r</w>
Är z
versu che</w>
uns .</w>
tecnologi a,</w>
t um
spiel en.</w>
sod dis
semplic i</w>
s con
pens ando</w>
p all
ol tre,</w>
necess ario</w>
met tiamo</w>
m ur
li sta</w>
l' altro</w>
l' Africa</w>
im bar
h and
ge zeigt</w>
far ò</w>
essi ,</w>
digit ale</w>
cost itu
consu mat
con vers
c ad
Wil li
R oll
R est
Objek t</w>
O x
Mitge fühl</w>
Hil f
A d</w>
3 .</w>
é .</w>
z .B.</w>
verwen det</w>
tro viamo</w>
t a.</w>
sp ür
sett ore</w>
schwi erig</w>
ra dic
profon dit
hr en</w>
heut igen</w>
hal te</w>
felic ità</w>
erwä hn
dirett amente</w>
din am
cri min
bril lan
astr on
arb eit</w>
acqu ist
Vergangen heit</w>
O ff
Mensch heit</w>
L it
Konzep t</w>
Herausforder ung</w>
Geschäft s
D ev
Beg inn</w>
Auß er
Ang st</w>
An ti
A pp
–  
é ?</w>
zwei ten</w>
w e
ver ständ
usci re</w>
unterschied liche</w>
tecn olog
spr ach</w>
spav ent
solu zioni</w>
res o</w>
or ,</w>
oc chio</w>
mostr erò</w>
mo stra
kl ar,</w>
jetz t,</w>
interes siert</w>
id ente</w>
h i,</w>
eh n
e urop
cost i</w>
cos ci
con fl
azi ende</w>
alt en,</w>
all' inizio</w>
all u
a ;</w>
V og
U hr</w>
Spezi es</w>
S im
S eiten</w>
Ph än
Nam e</w>
Mus e
Molek ü
Ch ic
volt a.</w>
vec chio</w>
v ag
unglaub liche</w>
uff ici
tradi tion
th e</w>
si li
se x
rivol uzione</w>
ric k
ra zion
probabil ità</w>
otti gli
no ch
n ein,</w>
lich erweise</w>
lang sam</w>
gli o</w>
gemein sam</w>
g orit
führ te</w>
fr at
etr o,</w>
el ett
el a</w>
c ro
bewus st</w>
bemerk enswer
b ic
av anz
auf grund</w>
americ ani</w>
Un iti,</w>
Umgeb ung</w>
Sti mm
Sicher heit</w>
R ock
Oze an</w>
O bam
Lei st
K aff
Inform ation</w>
I ni
Chic ag
Beispiel e</w>
B ur
A B:</w>
9 9
2 ,
wirk lich,</w>
wichtig .</w>
w uch
vor her</w>
tra sport
t occ
stu di</w>
stim ol
st ig
sott o
produt tiv
ni ,</w>
lö sen</w>
li ge</w>
ier ten</w>
guar da</w>
giov ane</w>
ges ell
gelern t</w>
ge f
fu ori.</w>
end ete</w>
durch schnitt
drit te</w>
dr og
b itt
ator e.</w>
at emi</w>
ar mente</w>
alt ri,</w>
alber i</w>
al t.</w>
Wi ch
Stat ist
S o,</w>
O per
N äh
Musi k
M u
M ont
Ho war
Gi ust
B is
B al
4 .</w>
" L
w in
ver hin
v ari</w>
un ico</w>
ter ra.</w>
stess o.</w>
st es</w>
sozi alen</w>
sim metri
sieh t.</w>
setz en,</w>
selb st.</w>
s :</w>
ri zz
rappresent a</w>
propri età</w>
pres e</w>
pr edi
per so</w>
nov e</w>
ni .</w>
mehr ere</w>
los e</w>
li eben</w>
l esen</w>
integ r
g all
etw or
est in
end en,</w>
eg al</w>
de ?</w>
condivi dere</w>
as h
W ohn
S en
Pro b
N ull
In fra
For men</w>
Amerikan er</w>
z t</w>
y l
uni ver
teil en</w>
tecnologi a.</w>
superfic i
sti g</w>
s ach
ris chi
ra s
person ale</w>
our n
organizz azione</w>
organi sier
on line</w>
nenn t</w>
it z</w>
inten do</w>
i va</w>
gioc are</w>
ge kommen</w>
fin ché</w>
f ähig
ens .</w>
eh en.</w>
eb t</w>
e ure</w>
cos '
cont esto</w>
co ppi
c ru
bi li,</w>
bes ondere</w>
av essi</w>
ann te</w>
Z eich
W h
Um welt</w>
T anz
St re
So zi
P op
P oli
Materi al</w>
Intern et
Grupp en</w>
Dis k
Design er</w>
Ar mut</w>
2 000</w>
" Wie</w>
zieh en.</w>
wä ch
um ?</w>
tri ff
t à,</w>
t e:</w>
t almente</w>
strutt ure</w>
steh en,</w>
sp ektiv
soci ali</w>
setz en.</w>
schö nen</w>
schnell er</w>
sch reiben</w>
rit rov
qu oti
quoti di
princip ale</w>
non ostante</w>
mol to.</w>
l' abbiamo</w>
l agen</w>
it a'</w>
is e</w>
ic are</w>
heut zutage</w>
h emat
elem enti</w>
ein and
di scor
der e,</w>
d y
contri bu
compas sione</w>
c en
bl au
begann en</w>
ah ,</w>
ad esso,</w>
Un d,</w>
Su che</w>
S il
Mon at</w>
M ach
Konfer enz</w>
Fl ü
Bür ger
Artik el</w>
äum en</w>
su chen</w>
su ch
spieg a</w>
soll te,</w>
sol i
r en</w>
pre ci
pr eg
per messo</w>
nu ot
mi er
leg en</w>
iti on</w>
ic o:</w>
ic ato</w>
größ eren</w>
g es</w>
fra ge</w>
fic o.</w>
es en,</w>
eben so</w>
du e,</w>
di min
cambi a</w>
bis her</w>
be finden</w>
an er</w>
am our
Z ell
Weg ,</w>
T ür
Ov vi
OK ?</w>
NAS A</w>
Mal ,</w>
Lu ft
Jahr e,</w>
I t
Geh eim
Forsch ung</w>
Entschei dungen</w>
Dah er</w>
C as
öffent lichen</w>
Ö l</w>
vor stellen,</w>
ver füg
v end
uman o.</w>
ti ert</w>
so zus
serv ono</w>
sei ,</w>
sc ambi
po che</w>
pi ante</w>
ne un</w>
moment o.</w>
malatti a</w>
m ese</w>
lont ano</w>
l ant
k tion</w>
j ungen</w>
issi mi</w>
gli che</w>
g t,</w>
for d</w>
f ir
ext rem</w>
eig ent
ei ,</w>
desider io</w>
dar vi</w>
cor rispon
aut or
at ten</w>
and en,</w>
Zentr um</w>
V all
To d</w>
Tho mas</w>
S W:</w>
O t
N och</w>
Krank heit</w>
Ges icht</w>
E bene</w>
C .</w>
B ank
äl ter</w>
zusamm en,</w>
wi cht</w>
vo ce</w>
vo c
verb unden</w>
un den,</w>
tot almente</w>
st h
soll ten.</w>
simi li</w>
sch einen</w>
sch ,</w>
s ?</w>
rom ant
ring ra
rest i</w>
raccogli ere</w>
r all
propr ie</w>
pro jek
po ch
ni ente.</w>
n e.</w>
mö chten</w>
l ì,</w>
kenn en,</w>
k rit
hö ch
fac eva</w>
ezz a.</w>
entr ambi</w>
ent o.</w>
eff izi
diver so.</w>
dam it,</w>
da g
cres cere</w>
co ol
brau chen,</w>
asp etti</w>
St an
Schl üs
P ra
P at
Or ten</w>
O l
Me er</w>
L ei</w>
Im pf
Fun ktion
Fot os</w>
Dank e</w>
ö pf
zurück ,</w>
wirt schaft</w>
will .</w>
viss uto</w>
uman i,</w>
um :</w>
u g
tu oi</w>
tot ale</w>
ter api
sti eg</w>
sch on,</w>
riscal d
ri durre</w>
realizz ato</w>
rag azzi
r ück
prof it
pres ente</w>
pi et
oper a</w>
oc ca
nis ,</w>
natur almente</w>
kl ein</w>
k at
insiem e.</w>
hi r
ha b</w>
gesch rieben</w>
gener e.</w>
führ t.</w>
funzion are</w>
fre und
f amili
evol u
errei chen.</w>
einfa chen</w>
eben falls</w>
dis per
di ge</w>
car di
agi re</w>
aggi un
abil mente</w>
abil e,</w>
V ier
Spi eg
Kon su
Ern ähr
Er kenn
E pi
Dor f</w>
Bro w
8 ,</w>
- F
änder n.</w>
ß en,</w>
tra cci
st ol
pau ra</w>
p hi
p ack
ogra ph
oc o</w>
o vere</w>
o t</w>
neh me</w>
mil it
l'un ica</w>
l' hanno</w>
in form
her aus</w>
geg angen</w>
fin est
fil os
fal t</w>
et ica</w>
er weiter
ek ten</w>
e ar
des er
demo cra
confer enza</w>
be v
ator i.</w>
ar o</w>
anim ale</w>
ai uti</w>
ad ul
abb and
a il</w>
Washing ton</w>
V a</w>
Tem per
Qu el</w>
O rig
Medi en</w>
Lin ie</w>
Kontr olle</w>
Je des</w>
Inter esse</w>
Himm el</w>
Fil m
Experim ent</w>
Di o,</w>
Auswirk ungen</w>
A ch
" Il</w>
” .</w>
übri gens</w>
wer t</w>
vor stell
ver o.</w>
quest o?</w>
no i
mol t
m ori
in coraggi
her unter
gran de.</w>
gio chi</w>
gest or
führ t,</w>
fas e</w>
es p
errei cht</w>
einfach .</w>
einfach ,</w>
doll ari,</w>
de sto</w>
con o,</w>
besch los
b ottigli
aper to</w>
aff i
a y,</w>
Unter schie
Sin ne</w>
S ci
S ,</w>
Qu ad
O st
Mor gen</w>
Leut en,</w>
Leb ew
K B:</w>
H um
G ro
Fern seh
Far be</w>
F acci
Er klär
El ektr
Einst ein</w>
E ck
Arbeit s
Ar m</w>
8 .</w>
50 .000</w>
0 ern</w>
Ä n
zi a.</w>
z y
vol te,</w>
val ori</w>
us e</w>
um p
ter n,</w>
svilupp ato</w>
sog g
si :</w>
schl echte</w>
s for
s ente</w>
por ter
perch e'</w>
mit ten</w>
min ist
matemat ica</w>
lin ks</w>
lavor a</w>
l' energia</w>
kl ar</w>
k aum</w>
is mo,</w>
intellig ente</w>
innov azione</w>
hi elt</w>
g t.</w>
fondament ale</w>
fahr en.</w>
f in</w>
entr a</w>
em ente.</w>
el eg
doc ument
dir vi</w>
bu one</w>
bestimm t</w>
ator e,</w>
ass ero</w>
arti gen</w>
art icol
all i</w>
al a</w>
Zu ck
Zeit punkt</w>
Z it
Ver halt
St amm
S atur
Problem ,</w>
Mensch en
Krank enh
Kon fli
Infra strukt
Gei st</w>
Er ano</w>
Energi e
E hr
D amit</w>
ör t
voll en</w>
t à.</w>
schn itt</w>
s ü
rius ciamo</w>
ries igen</w>
ries ce</w>
ri du
pot rei</w>
pas sion
op ini
m ulti
l' alt
k einer</w>
ident ific
gestell t.</w>
fi che</w>
famigli e</w>
er a,</w>
cre ano</w>
chil om
ch ines
c ano</w>
bu chst
av ven
ation en.</w>
asso ci
arriv ano</w>
arb eite</w>
ann e</w>
Zusamm enh
W oh
Re alität</w>
R B:</w>
Produ kt</w>
Künst ler</w>
K ris
An wend
y stem</w>
wen ige</w>
wei sen</w>
ti ef</w>
sitz en</w>
si ve</w>
s omm
rico stru
ra i</w>
produ ce</w>
problem i.</w>
pes o</w>
pes ci</w>
organis mi</w>
natur almente,</w>
mom enti</w>
mis sione</w>
miliar do</w>
miglior are</w>
mi la</w>
ma i
l'inter a</w>
ist ?</w>
ill umin
ge führt</w>
g ente.</w>
est en</w>
er fol
em e</w>
de mie</w>
d -
c lin
c are</w>
b ung</w>
av remo</w>
av i</w>
atmos fera</w>
Zu gang</w>
Wei se,</w>
Ty p</w>
Stev e</w>
Sach e.</w>
Pu bbl
L abor
H ot
Au ge</w>
1 000</w>
wahr ?</w>
vol o</w>
ver trau
v a,</w>
st an
spiel t</w>
soff er
rie den
re zz
ra pporto</w>
positiv e</w>
pi .</w>
pan e</w>
on i.</w>
o ",</w>
möglich ,</w>
mondi ale</w>
meto do</w>
lin k
leg gi</w>
gut er</w>
größ ere</w>
geb or
gal as
fin de</w>
emo tion
einzi gen</w>
divent ata</w>
davver o.</w>
cer ebr
blei ben</w>
all ora,</w>
all gem
a ",</w>
Zivil is
Z ellen</w>
Ter ra.</w>
Sch ri
Nig eri
Met ap
Mar kt
Kre ativit
J os
Ergeb nis</w>
Dat en
D ic
Com inci
C ap
B on
2 -
ä b
vis o</w>
ver bra
us cit
st ia</w>
reli gion
rall ent
ra bbi
pu li
pri gion
prec is
par liamo</w>
ord n
olog ische</w>
ma ßen</w>
m än
lingu a</w>
l a
indi pend
in fra
hi li
hel fen.</w>
gran de,</w>
gen i</w>
geb rau
fic are</w>
er in</w>
er ei</w>
entfern t</w>
el er
d entr
compagni a</w>
chi ave</w>
brit anni
b oc
b ello</w>
at o?</w>
arl o,</w>
alt en.</w>
al ter
Yor k.</w>
Verständ nis</w>
Tut te</w>
Res ult
Re gion
Pos so</w>
N a
Mol to</w>
L etz
K os
Hir n
H ü
Entschei d
A si
ù ,</w>
z .</w>
w and
veni va</w>
ven do</w>
tram ite</w>
taus end</w>
t yp
st äd
st essi.</w>
st avamo</w>
soll en</w>
sol i</w>
so :</w>
schau en,</w>
sar ei</w>
ric om
regi str
re präsent
pres enti</w>
port ano</w>
po iché</w>
op ti
omet ri
nuov o.</w>
not are</w>
neh mer
ma zione</w>
l' ar
l' altra</w>
l it
in ti
in e
hin ,</w>
her r
giu di
gen do</w>
g amb
for n
fin ire</w>
fenom eno</w>
fab br
es egu
errei chen,</w>
entwickel n,</w>
enor mi</w>
ell e.</w>
eigen es</w>
d ein</w>
cosi '</w>
cor po.</w>
com pi
ci vi
brau ch
begr enz
arti fici
ang olo</w>
Sem bra</w>
Pens ate</w>
P res
Nahr ung</w>
Möglich keit,</w>
Gra d</w>
Dru ck
B äume</w>
B lu
3 ,
19 5
00 .000</w>
ß en.</w>
vol are</w>
vill aggio</w>
val ut
st abi
sol are</w>
so ftware</w>
scuol a.</w>
riuscit i</w>
r unter
problem a,</w>
p sych
on i,</w>
nicht ?</w>
neu er</w>
mat ri
leb ens
l' es
komm uni
k lu
k el</w>
j ün
import anza</w>
ig es</w>
ich t.</w>
handel t</w>
gig ant
ger ing
far lo,</w>
f ung
er zi
dirit ti</w>
differ enti</w>
da durch</w>
d s</w>
controll are</w>
chie dere</w>
canz one</w>
blei bt</w>
bil den</w>
beweg en.</w>
betra chten,</w>
beein druck
b au</w>
ation ale</w>
at om
assic ur
ascolt are</w>
ann ten</w>
alist a</w>
aer eo</w>
acc ade</w>
ab et
Yor k,</w>
W ill
V ari
Uns er</w>
Str ategi
St a</w>
Spa ß</w>
S ei</w>
Reg el</w>
Qu elle</w>
Lieb ling
Jahr .</w>
Inter vi
Got t,</w>
E b
D ort</w>
Büh ne</w>
Bau m
100 .000</w>
zus ätz
veloc emente</w>
sp azz
ri amo</w>
program mi</w>
prof ess
pot evo</w>
on s</w>
on ia</w>
nach hal
mis ura</w>
ment o,</w>
megli o.</w>
m and
läu ft</w>
le un
im it
gefun den,</w>
fühl en</w>
fi g</w>
fer tig
emo zion
ell es</w>
eh en,</w>
ech an
dar auf,</w>
d ati.</w>
costru zione</w>
co dice</w>
capac i</w>
bu d
bre ch
aut o
Ved ete</w>
So ftware</w>
Reli gion
Prä sent
Pr ov
Per spektiv
M är
L auf
Krank heiten</w>
Immag inate</w>
Fä ll
Feh ler</w>
F ac
C ra
Av evo</w>
7 .</w>
y r
wel ch
unter schei
uman a.</w>
ti eren</w>
stra de</w>
stra da.</w>
som ma</w>
scom par
s vol
ru h
particol armente</w>
nis .</w>
n etwor
m ischen</w>
li cht
le zione</w>
kör per
kost en
k oll
incontr ato</w>
hei s
hau pt
ge wiss
fr am
fin ito</w>
fang en.</w>
entusi as
ein halb</w>
divent ando</w>
capac e</w>
cap o</w>
brac cio</w>
at or</w>
arriv ato</w>
arb ei
an ge</w>
alc una</w>
Zw ei</w>
Zeu g</w>
T ür</w>
R ah
Pflanz en</w>
Mit gli
Materi alien</w>
M au
Land ,</w>
K eine</w>
Her z</w>
F lei
Doll ar.</w>
D in
Aufmerksam keit</w>
A str
19 4
" The</w>
än de</w>
z amp
woll te.</w>
wer fen</w>
ver ific
us w.</w>
uman i.</w>
tri b
tion ,</w>
t olle</w>
steh t.</w>
sens azione</w>
sch u
rius cir
ric e
qu ante</w>
pr esto</w>
pen si</w>
par tit
oll en</w>
ol a,</w>
men t</w>
maggi or
lie ß</w>
lie f</w>
labor atorio</w>
l ad
l a.</w>
k en,</w>
in to</w>
hin aus</w>
hal b
gl amour
for m</w>
fi du
fest ,</w>
el s</w>
ei ster
edific i</w>
e bi
dire :</w>
ding s</w>
dic eva</w>
davver o,</w>
dar in,</w>
conosc ere</w>
con fin
chiar o</w>
cer ti</w>
cer ta</w>
bl og
bat tere</w>
ap pren
Z un
Wett bewer
S ig
S ha
Punk te</w>
Publik um:</w>
P ass
Milliar de</w>
Lab or</w>
H aben</w>
Ger ät</w>
B asi
At lant
" D
wär m
ti p
stoff e</w>
servi zi</w>
scri v
schön .</w>
ricor do</w>
r ono</w>
pazi ente</w>
ori a,</w>
on ie</w>
kn ü
istitu zioni</w>
ini en</w>
import a</w>
guar dar
glob ale.</w>
g ente,</w>
früh en</w>
esser ci</w>
es en.</w>
es ?</w>
enz e,</w>
em ent</w>
ein e,</w>
eg t</w>
e co
diver sità</w>
di f
dest ens</w>
deci sioni</w>
de :</w>
daf rik
d lichen</w>
cre ature</w>
cht es</w>
cervell o,</w>
cer chiamo</w>
at en.</w>
arbeit ete</w>
amo ur</w>
agi eren</w>
Y ou
Tr au
Teil en</w>
Sch ü
Man chmal</w>
M asse</w>
L ink
Innov ation</w>
H andel
Ges etz</w>
D unque</w>
D ,</w>
Bu ch
ß ,</w>
z ellen</w>
wichtig sten</w>
weiter hin</w>
veränder t.</w>
verlor en</w>
v edi
v a.</w>
t on,</w>
spi r
sost itu
segu ire</w>
schl os
s pos
ru p
ru ot
rispon dere</w>
ri era</w>
rec ente</w>
re den.</w>
re ale.</w>
ragazz a</w>
potenzi ale</w>
posi ti
per dere</w>
pag ina</w>
ok ,</w>
o x
natür liche</w>
mu c
mi r.</w>
las si
kon stru
kl ar
jeman dem</w>
in ist
ic amente,</w>
i t</w>
hin ein
gew ach
gest ern</w>
gesch rieb
gesch ehen</w>
gener ale</w>
gehör t,</w>
früh er</w>
for est
fon te</w>
fat te</w>
far ci</w>
f rei</w>
ett e,</w>
esempi o.</w>
ens ei
em br
el abor
eg et
e zioni</w>
e fer
dort hin</w>
di ciamo</w>
d ür
continu a</w>
conos ciamo</w>
chi est
bi li
bi et
av essero</w>
and osi</w>
alizz azione</w>
Wass er,</w>
Tag ,</w>
Sol ar
Selb st</w>
Pubbl ico:</w>
Person en</w>
P hili
Lös ungen</w>
J ob</w>
H ö
H ollywoo
Fir men</w>
Ex periment
Er wachsen
Det ail
Des ig
Com unque,</w>
Bed ing
B rit
Atm osphäre</w>
zieh en,</w>
wei se,</w>
v at
te am</w>
soll ten,</w>
segu ito</w>
sag e,</w>
riusci re</w>
rit en
reg ola</w>
re chten</w>
r ò</w>
r us
post o.</w>
os ci
off ri
noti zia</w>
mor ti</w>
mi ch.</w>
lich keit,</w>
konn ten,</w>
imp edi
ide a,</w>
hät te,</w>
giorni .</w>
ger i
geb oren</w>
gan g
er folg
ent stand
das selbe</w>
cre ando</w>
costru ir
alt ri
all ontan
ag er</w>
V ediamo</w>
Un iti.</w>
Pl ast
M issi
L' idea</w>
Jahr ,</w>
J ourn
Hän de</w>
Hoff n
Her r
Giust o?</w>
Flugzeu g</w>
Disk us
Bil d,</w>
Bewusst sein</w>
Ben e.</w>
0 er</w>
' 9
Ö ff
vinc ere</w>
versu chte</w>
ver mei
ver d
v ot
t at</w>
spirit u
speci almente</w>
scoper ta</w>
schli mm
s po
s "</w>
rie f</w>
pover i</w>
pot ente</w>
positiv o</w>
parl arvi</w>
os en</w>
ord ine</w>
ok .</w>
nach ,</w>
n ?</w>
manten ere</w>
mani fest
mal .</w>
lin ken</w>
li velli</w>
letz tes</w>
k ut
k ten</w>
k rat
ist or
inst all
insiem e,</w>
in tra
hl en</w>
h l</w>
gewor den</w>
futur o,</w>
for esta</w>
erst es</w>
erinn ern,</w>
entwickel t,</w>
dr eht</w>
divert ente</w>
disc ut
differ enze</w>
d et,</w>
buchst äb
bi gli
beweg t</w>
benutz t</w>
an ten</w>
all e.</w>
abband on
Worl d</w>
Wachst um</w>
W ahl</w>
To m</w>
Technologi e,</w>
T ier</w>
St unde</w>
St e
Pu oi</w>
P ost
Organis ation</w>
N ein.</w>
Mol te</w>
M üt
M anche</w>
K ern
In s
Her r</w>
Groß britanni
Gra fi
G anz
E -
An cor
ö se</w>
ö kon
ß t</w>
wieder um</w>
wei l
vi le
verwend en,</w>
utilizz are</w>
to p</w>
tel e
stän dig
spazi o.</w>
sozus agen</w>
sess u
sch el
ricer che</w>
res pir
qu egli</w>
pro fond
pass a</w>
pa zz
p it
ot ta</w>
n enne</w>
line e</w>
it to</w>
in visi
hoff e</w>
gi ard
gi ,</w>
gen :</w>
gebra cht.</w>
fä hig</w>
fran c
fr att
di te</w>
con front
cert amente</w>
cat ori</w>
bl o
bil dung</w>
bi ologi
be antwort
batt ito</w>
aut on
atric e</w>
ativ o.</w>
art icolo</w>
anal isi</w>
an e,</w>
ak zep
ad esso.</w>
W un
Ved ete,</w>
Tra in
Tim es</w>
T reib
T re
Schw est
Sap piamo</w>
Ni emand</w>
Netzwer k</w>
Mathemati k</w>
L oro</w>
L es
H under
Frau ,</w>
Fr üh
Er leb
Bro t</w>
B üch
wer de,</w>
weg .</w>
w ünsch
vi a,</w>
ti er
sol di.</w>
so dass</w>
sit à.</w>
si mil
schl ech
ret i</w>
rel azioni</w>
recht s</w>
raccon ta</w>
r aus
per corso</w>
p ann
or b
nach denken,</w>
lin g</w>
kost et</w>
kl assi
k tiv
interess ante,</w>
insegn ato</w>
h u
gros so</w>
genomm en,</w>
ge arbeitet</w>
gal assi
gab .</w>
g o
fem min
far emo</w>
etti amo</w>
es ch
erzähl te</w>
ei .</w>
ec t
dimin u
der n.</w>
de pres
con cent
co pr
busin ess</w>
bil d</w>
az i</w>
att o.</w>
at amente,</w>
ap passion
and ata</w>
an diamo</w>
amp f</w>
W esen</w>
W eb</w>
U N
The ori
Tel es
T on
Ster ne</w>
Sp ektr
Schl ag
S ehr</w>
O N
Nachri cht</w>
L' ho</w>
K enn
Indi a.</w>
F ein
F ehl
Er zähl
Er inner
C e</w>
C ,</w>
Bl ick
Bild schir
wusst e,</w>
wieder hol
weiter ,</w>
veröffent lich
un '</w>
tr eten</w>
ten do</w>
t re
sp ettr
sp azi</w>
son o,</w>
sol amente</w>
sembra va</w>
sec olo.</w>
schn ei
schl ag</w>
raggi unto</w>
qu al</w>
psic olog
princip ali</w>
possi bili</w>
posi to</w>
pes ce</w>
nied ri
n i</w>
möglich erweise</w>
mil le</w>
man o.</w>
lu i.</w>
k al
itä ten</w>
it ori</w>
istru zione</w>
ingl ese</w>
ic io</w>
gra s
ganz es</w>
fant as
f ec
esplor are</w>
er füll
energi e</w>
dist anza</w>
denk t</w>
dell ’
d o?</w>
d et.</w>
coll ettiv
catt ur
av viene</w>
av ver
aut o-
amerikan ische</w>
alisier ung</w>
ab sol
Wor te</w>
W and</w>
T radi
Si e.</w>
S ohn</w>
S ex
S ep
S E
Revol ution</w>
N o.</w>
L ern
L av
L au
Gen au</w>
Fu ß</w>
Erkenn t
Darw in</w>
Bi o
Bi bliot
Behandl ung</w>
B as
üs sig
zus etz
zu cch
vol te.</w>
vic ini</w>
vi viamo</w>
verur sa
v an</w>
ter ror
temper atura</w>
sv egli
str ing
st en.</w>
st arb
sin n
sembr are</w>
scegli ere</w>
s äch
s weise</w>
riconos ci
ri chten</w>
re den,</w>
pianet a,</w>
ov unque</w>
or ri
ol a.</w>
offen sicht
not a</w>
nor d</w>
ner v
nego zi
n ä
mot ore</w>
mostr ano</w>
min destens</w>
meh r,</w>
los .</w>
insegn are</w>
impres sion
hän gt</w>
fer tig</w>
fer m
fel ici</w>
et :</w>
est r
ek tion</w>
du bbi
dor t,</w>
bl u</w>
bar es</w>
bar ,</w>
av rete</w>
aus sehen</w>
arriv ati</w>
arbeit et,</w>
ar si.</w>
ar d,</w>
an sehen,</w>
am o?</w>
aff ari</w>
abi li.</w>
Veränder ungen</w>
Sep tem
Regier ungen</w>
R :</w>
Par k
Maß st
M eilen</w>
Kilomet er</w>
K ir
K ab
In v
I M
Geschä ft</w>
F ün
Ex per
Ein fach
E mo
D rei
D ass</w>
Al l'
.. ."</w>
z er</w>
wis sen.</w>
vermut lich</w>
v o.</w>
v arie</w>
un' occhi
un' immagine</w>
um ul
ti zio</w>
ter en</w>
tem a</w>
t a,</w>
sy m
stell ten</w>
stell t,</w>
st art
sap pi
sal a</w>
sah ,</w>
s atell
r ün
par lo</w>
p per
orig ine</w>
ob b
nehm er</w>
maggi ori</w>
l' ultima</w>
l ung</w>
kur ze</w>
keit s
k en.</w>
in vi
guard ano</w>
gra fico</w>
gh il
gest i
geschi eht</w>
est ,</w>
er schaffen</w>
ed ,</w>
difficil e.</w>
den do.</w>
den ?</w>
dell '</w>
con temporan
cio '</w>
ben d</w>
bei .</w>
av anti.</w>
au mento</w>
argom ento</w>
ar ci.</w>
ant a</w>
ak ti
acc eler
a dig
You Tu
Wi der
Wer te</w>
Wass er.</w>
Wahr nehm
W aff
T i</w>
T her
S ì.</w>
R oh
Pro fess
Pol itik</w>
M ac
E :</w>
Ding en,</w>
Ber eich
Ber ei
Arbei t,</w>
9 ,</w>
0 -
" Es</w>
ätz e</w>
zz are</w>
ut z</w>
un a.</w>
um en</w>
ul ation</w>
test a.</w>
stra .</w>
spä ter,</w>
sens o.</w>
semplic e,</w>
selb st,</w>
sein ?</w>
ri stor
rei chen</w>
re plic
r endono</w>
propri et
pol i
pi e</w>
pens o,</w>
pass t</w>
os a,</w>
nat ura.</w>
min acci
merc ato,</w>
m utz
m essi</w>
l et
j am
int it
in ato</w>
hin .</w>
gr atu
gi e</w>
geschi eh
g ur
fos si
f isch
et ten</w>
erklär t</w>
enz e.</w>
energi a,</w>
emo zioni</w>
dr ü
de mia</w>
comp ito</w>
ci el
chilom etri</w>
chiam ano</w>
bru ci
bre chen</w>
bi ot
at em
ar do</w>
ar chi
all .</w>
al ismo</w>
a in
Un' altra</w>
Qu anti</w>
Projek te</w>
N etz</w>
Mass en
L ö
L iste</w>
Kont ex
In ghil
Ide en,</w>
E art
Du e</w>
Dan k</w>
Ch ance</w>
6 ,</w>
2 7</w>
. 00
" Perché</w>
Ö kos
zi a,</w>
y n</w>
woh in</w>
wei s</w>
w eb</w>
tion .</w>
stand ard</w>
son ,</w>
sicher lich</w>
sch rei
s hi
rispar mi
ries cono</w>
res pi
r eit
prod utt
pren diamo</w>
pi ,</w>
o ber
nah e</w>
möglich .</w>
mangi are</w>
macch ina.</w>
k ar
j ahr
intellig enza</w>
in ver
imp an
il leg
ih nen,</w>
ide e.</w>
ich :</w>
govern i</w>
geg ensei
gebau t.</w>
ge :</w>
formi che</w>
fel d</w>
erfolg reich</w>
entschei den
em pf
diesel be</w>
cir col
ciasc uno</w>
can e</w>
cam pi</w>
c' é</w>
bri d
bl oc
bi zz
avi a,</w>
arbeit et.</w>
an st
ag on
Wikipedi a</w>
Verfüg ung</w>
T or
Sp itze</w>
Sch ei
R ät
R ag
Produ kte</w>
Pr en
Ord n
O li
N acht
L ad
K aliforni
Jahr e.</w>
Is ra
Inv ece</w>
Chri st
Bild ungs
Au s</w>
Arbei t.</w>
1 .000</w>
"N ein,</w>
ß .</w>
wissenschaft liche</w>
welch em</w>
w u
vu ot
ver de</w>
trau m</w>
tratt en
t ogli
succ ess
su p
str an
st eu
sper anza</w>
ric ch
prev en
present azione</w>
pres i</w>
prend ono</w>
pas sione</w>
pag are</w>
ok ?</w>
muov e</w>
mett endo</w>
membr i</w>
m men</w>
los en</w>
lau re
k el
issi me</w>
inter r
insegn ante</w>
hi e
h t
ger .</w>
fu ori,</w>
far à</w>
fal li
ett are</w>
erinn ere</w>
ein ander
denk t,</w>
cre diamo</w>
com e,</w>
bin .</w>
beding t</w>
b b
ar m
ap prezz
an ch
all ’
Verhalt ens
To des
Sym metri
Stu die</w>
Stim me</w>
Secon d</w>
Schön heit</w>
Rau m,</w>
R adi
Qu anto</w>
Phil os
Perch é?</w>
Per ciò,</w>
O ri
Näh e</w>
Nachri chten</w>
N ehmen</w>
K art
Howar d</w>
H aufen</w>
Gut ,</w>
F enst
Engl isch</w>
Demok rat
B om
Amer ica.</w>
A ni
3 2</w>
" J
wissenschaft lichen</w>
w as,</w>
voll ständig</w>
veränder n,</w>
v amo</w>
uman ità</w>
t os
st ad
squad ra</w>
spirit o</w>
si a,</w>
rius cito</w>
respons abilità</w>
princi pio</w>
pian ific
on g
om ,</w>
olog ischen</w>
mogli e</w>
mal e,</w>
lern en.</w>
l' ultimo</w>
irgend wann</w>
insegn anti</w>
i a.</w>
hör te</w>
geh e</w>
fän gt</w>
esist ono</w>
erklär en,</w>
ens atz</w>
di spi
deci dere</w>
da chten</w>
da :</w>
cresci uto</w>
caratterist iche</w>
bet riff
ass t</w>
an fangen,</w>
aiut a</w>
aer op
War um?</w>
Vol evo</w>
Verantwort ung</w>
Unter stütz
US A.</w>
US A,</w>
Ter ror
Sü dafrik
S ob
Rest au
Person ,</w>
Pati ent
P eter</w>
Mitge fühl
K arri
Intern et.</w>
I l
H e
Gew alt</w>
Gel d
G eist
Fall s</w>
F est
Eigenschaf ten</w>
D en</w>
Cer to,</w>
C oc
Ar m
3 ,</w>
10 ,</w>
' altro</w>
" Come</w>
Än der
um zu
tra sc
teil en.</w>
studi ato</w>
str at
spiel en,</w>
spazi o,</w>
sost anzi
sec olo,</w>
schreib en.</w>
sch lu
ris che</w>
ringra zi
riman e</w>
rapid amente</w>
prov e</w>
produ cono</w>
piac ci
person a.</w>
on da</w>
mach en?</w>
lung h
k er,</w>
issi ma</w>
inv ecchi
individu i</w>
im pi
ic l
h aus
geh ol
forni re</w>
enz u
ent lichen</w>
edi t
eb bene</w>
diver se.</w>
de str
d ata</w>
cor ru
campag na</w>
bl og</w>
bi bliot
bi a</w>
benutz en,</w>
arl a.</w>
al bero</w>
Zusammenh ang</w>
Vir us</w>
Ter ra,</w>
St ück
Schwi erig
Qu al</w>
Po i,</w>
Obam a</w>
Mat erie</w>
Kam era</w>
I dent
H äus
Geschwindi gkeit</w>
Fähig keit,</w>
F ri
Er de.</w>
Entwicklungs l
Elek tri
Ber g
B ret
B ost
A ffen</w>
A bend</w>
9 9</w>
" P
" Cosa</w>
ö sen</w>
z ero</w>
wor über</w>
weiter en</w>
verur sach
verstand en</w>
ved ete,</w>
telef ono</w>
tel es
tel ec
succe dendo</w>
stimm t</w>
stec kt</w>
soprav viv
si ate</w>
schl af
schaff t</w>
s osp
pp en</w>
person a,</w>
or mai</w>
mö chte.</w>
mostr o</w>
met to</w>
mer ,</w>
man u
j ene</w>
it a,</w>
is pi
inv ec
i a,</w>
heraus .</w>
haupt säch
gehör t.</w>
geb e</w>
fun zione</w>
fotograf ia</w>
find et.</w>
fi an
f ro
f and,</w>
ett e.</w>
esser e,</w>
es ia</w>
erst er</w>
erlaub t</w>
er schein
e ur
dop p
dirit to</w>
di to,</w>
dec enni
d un
cre azione</w>
compren sione</w>
c e
bl ü
betra chten</w>
ber ei
bell ezza</w>
beg ann,</w>
be zeichn
auf ger
app are</w>
all o,</w>
al t,</w>
ad es
ab ge
Zu stand</w>
Statist ik
Sch impan
P fl
MI T</w>
Kohl enst
K ap
Famili en</w>
D eut
Ci o
Bi ologie</w>
Aus w
Ar ri
An satz</w>
Alcun e</w>
7 5</w>
änder t</w>
wunder bare</w>
wir d
weiter es</w>
vol evano</w>
vide ogi
unterschied lichen</w>
un ità</w>
uff icio</w>
schwi er
schul dig
scel te</w>
sa i,</w>
redu zier
re cu
r ä
produ zieren</w>
p elle</w>
ob en.</w>
näch stes</w>
null a.</w>
noti zie</w>
nachzu denken,</w>
minut i,</w>
migli or</w>
medi cina</w>
mat hemat
kün f
kenn en.</w>
kauf en,</w>
ind oss
hunder te</w>
h art</w>
grei f
giu sta</w>
genutz t</w>
geg ang
fühl t</w>
fäll t</w>
fä hr
funzion a.</w>
fav ore</w>
evit are</w>
ev enti</w>
er mögli
elettr on
el te</w>
ek te</w>
du ,</w>
diver sa</w>
distru g
der t</w>
da bei,</w>
cor po,</w>
comunic azione</w>
cer to,</w>
can cr
c rat
be wirk
ander en.</w>
am at
alt ung</w>
ab ol
Y o
Ver gleich</w>
V ent
T isch</w>
Stev en</w>
Sch u
Proz ent.</w>
Micros oft</w>
Mann :</w>
Höh e</w>
F al
Entschei dung</w>
Dru ck</w>
Car ol
Ber u
Bau ern</w>
Al z
zi eht</w>
y :</w>
vi g
verschw in
veloc e</w>
vec chia</w>
un sicht
trä ge</w>
tr in
t oc
strutt ur
stamp a</w>
st ück
spr ach
sog en
scuol a,</w>
schl uss</w>
schie den</w>
ris er
ri un
ra zz
prov oc
pres idente</w>
pre vi
parl are.</w>
p ur
n ei
men o.</w>
matri mon
le y</w>
l äch
kur zen</w>
kon t
ir ono</w>
invent ato</w>
ing en,</w>
h -
g ing,</w>
et c
enz .</w>
entw or
ent o,</w>
ent lang</w>
el t.</w>
eb en.</w>
dov evo</w>
diff icol
di ci</w>
di am
d ine</w>
consegu enze</w>
comp agn
com bu
carb ur
capi r
buchstäb lich</w>
bu co</w>
breit ung</w>
br uch</w>
at evi</w>
ar li.</w>
ander e,</w>
ancor a.</w>
an fangen</w>
am .</w>
all ,</w>
ad ott
Unterschie de</w>
T en
T V
Su d</w>
Sch wer
Sar ebbe</w>
S and
R a
Nig eria</w>
M io</w>
M as
M ad
Li fe</w>
Leiden schaft</w>
Koll egen</w>
K ev
Hoff nung</w>
Ex ist
Ergeb nisse</w>
D eb
C' era</w>
Bi s</w>
Ar t
Amei sen</w>
wichtig ste</w>
wel chen</w>
wei t
un bedingt</w>
uman o,</w>
treff en.</w>
tra f</w>
sing ola</w>
sig nor
schau t</w>
s ì.</w>
s guardo</w>
s ali
riscald amento</w>
richi ede</w>
ragazz e</w>
pubbl ico.</w>
prov eni
polit ische</w>
passier te</w>
pass aggio</w>
migli ore.</w>
mar ket
li qui
leg en,</w>
l' uso</w>
kl etter
k enne</w>
inter vi
inn amor
ing en.</w>
in cent
i di
hör t</w>
haf te</w>
guer ra.</w>
gr eich
gil t</w>
fos si</w>
fort una</w>
for men</w>
es z
ern ähr
epo ca</w>
ecc eter
eb e</w>
discus sione</w>
din osau
d roh
d allo</w>
cont est
compl essità</w>
col i</w>
capit ale</w>
c' e'</w>
blei ben.</w>
bil det</w>
bet ei
benutz en.</w>
av ranno</w>
anal y
an gel
an geh
al ismus</w>
Unter halt
Telef on
Schü ler</w>
Sap ete</w>
R I
Pot rebbe</w>
Lap top
L och</w>
L ev
Kar ten</w>
J an
J H:</w>
Isl am</w>
Ide e.</w>
Groß teil</w>
Forsch ungs
Fin anz
Elektri z
De fin
C onn
C ir
B ef
A ra
A ma
A ff
yn ami
y ?</w>
x ,</w>
wus sten</w>
vit ti
vi vo</w>
ver sorg
ven ga</w>
str ano</w>
so wie</w>
sint et
sed uti</w>
s otti
s ai</w>
rima sto</w>
ri em
port ata</w>
pens avo</w>
os e.</w>
os e,</w>
om os
nego zio</w>
natür lichen</w>
n eut
molec ole</w>
moder nen</w>
merc ato.</w>
libr o,</w>
liber tà</w>
issi mo.</w>
irgend etwas</w>
ident i
grund sätz
giorni ,</w>
gio co.</w>
gab ,</w>
fun d
fol gen</w>
fass t</w>
es prim
er es</w>
end s</w>
en gl
e o,</w>
dir e.</w>
da m</w>
d ati,</w>
con tiene</w>
combu sti
c ’
bi ologia</w>
att ent
ap i</w>
an ci
ami de</w>
Wel che</w>
Viel falt</w>
Verbin dungen</w>
Universu ms</w>
U l
Tag .</w>
Si e?</w>
Seit e,</w>
S tern
Ressourc en</w>
Reli gion</w>
P :</w>
Objek te</w>
N ei</w>
M ex
Franc isco</w>
Di ag
D evo</w>
1 2
1 1.</w>
" Wenn</w>
z in</w>
wi d
voll kommen</w>
ver tr
ver st
ver lassen</w>
ven dere</w>
veder e.</w>
us i</w>
ton nell
stu dente</w>
sta at
sion .</w>
sion ,</w>
sci mp
sc ena</w>
s ene</w>
s ale</w>
rob ot
rel ativ
pro posit
pover tà</w>
possibil e,</w>
pf el</w>
ost ac
or ologi
or .</w>
oo l</w>
ol are</w>
o te</w>
o ci
nucle are</w>
nat ura,</w>
mess a</w>
ma t</w>
m uro</w>
m als</w>
lern te</w>
kauf en.</w>
import ant
im pl
guid are</w>
gros se</w>
gewis se</w>
get öt
gesch ick
fl ü
f e
evol e.</w>
er halten,</w>
ent schied</w>
enn t</w>
ein e.</w>
educ azione</w>
dom est
dis che</w>
di en
d lich</w>
cu cin
co gn
behau pt
att o,</w>
aspett are</w>
ar a</w>
ander em</w>
altr ett
Z eiten</w>
Z au
W ind
Vide os
V ag
Sek unden</w>
S äu
O h</w>
N an
Muse um</w>
Masch inen</w>
M ehr
M am
Land .</w>
Köni g
Klimaw andel
Ken y
J ede</w>
Intern et,</w>
Ini zi
Herz en</w>
H ung
G ang</w>
Din osau
A ir
9 .</w>
. ,</w>
üs se</w>
à ?</w>
zufäl lig</w>
zu gän
z anz
us t</w>
us ate</w>
trot z</w>
tra ff
th e
terren o</w>
su chen,</w>
stra da,</w>
sosten ere</w>
so migli
sit à,</w>
sicur amente</w>
sch t</w>
sc ris
rivol u
ricord are</w>
rau m</w>
quest o:</w>
prob abile</w>
prend ete</w>
petroli o.</w>
osped ale</w>
men o,</w>
lös en.</w>
lu i,</w>
lu ce.</w>
li vell
letzt endlich</w>
interess anti</w>
inter ag
immedi atamente</w>
ide e,</w>
hoh en</w>
hoh e</w>
hoff entlich</w>
genomm en.</w>
fot o,</w>
for man
essenzi almente</w>
esperi enze</w>
end en.</w>
dis kut
dis astr
dav a</w>
d um
colleg hi</w>
bu on
bellissi ma</w>
arti sti</w>
ar si,</w>
Ver hält
Teil chen</w>
Tats ache</w>
Reg en
Prob abilmente</w>
Mon d</w>
Lebew esen</w>
L arry</w>
Komplex ität</w>
G at
Frag e.</w>
F rank
E ing
Demokrat ie</w>
Ben jam
Av eva</w>
"O h</w>
ö k
äh le</w>
ä cht
ä chen</w>
w ahr</w>
ver l
ver gleich
uns ch</w>
un' esperienza</w>
un t</w>
tru c
trov o</w>
ter n.</w>
ten s</w>
tel evi
succ esso,</w>
stand ,</w>
scimp anz
sch üt
richt en.</w>
re chte</w>
r o,</w>
questi oni</w>
qu a</w>
pun to.</w>
prem io</w>
pr esso</w>
pon te</w>
pol mon
piac ere</w>
paes e.</w>
paes e,</w>
nutz en.</w>
nicht s.</w>
ni amo</w>
ne y</w>
nach .</w>
n it
män n
met ri.</w>
meravigli oso</w>
m iss
lasci ate</w>
l' immagine</w>
hil ft</w>
gui da</w>
grundleg ende</w>
gra di</w>
gest o
ge wissen</w>
g ä
fühl en,</w>
fotogra fi
fic o,</w>
f eci</w>
ev ento</w>
est .</w>
es i.</w>
erstaun liche</w>
erinn ern</w>
entdeck t</w>
ent schieden</w>
el t,</w>
ein iger</w>
dis si:</w>
dis posizione</w>
diejen igen</w>
di schen</w>
di mento</w>
di chiar
con ver
ci elo</w>
bl occ
bess eren</w>
bat tut
b ac
am be</w>
alizz are</w>
afrik anischen</w>
a i,</w>
Win d</w>
Werkzeu ge</w>
Wei s
Web si
Um stän
Twit ter</w>
T V</w>
Stu fe</w>
Str om</w>
Somm er</w>
Sch il
S pero</w>
P fer
M ur
Kön n
Kom bin
Kinder .</w>
Glaub en</w>
F lor
Br enn
Bezieh ungen</w>
Ban gl
B or
Ar g
Al ex
50 ,</w>
2 1</w>
" Warum</w>
über zeug
y m
wirtschaft lichen</w>
war ten,</w>
vogli a</w>
ung ?</w>
un möglich</w>
tot al</w>
tig ung</w>
te at
tant a</w>
t ei
stell t.</w>
steh t,</w>
ra gen</w>
r ate</w>
quest a.</w>
proteg gere</w>
prospettiv a</w>
princi pi</w>
pianet i</w>
pi ena</w>
p are</w>
oo k</w>
n ar
merc ati</w>
medi cin
leun ig
l amp
ko sten</w>
intern et</w>
in ven
in fatti</w>
ich i</w>
hät te.</w>
her en</w>
gran di
gr ös
gi appon
fil m,</w>
far e?</w>
esperim enti</w>
es :</w>
equi val
equi libri
en er</w>
elem ent
ein mal,</w>
ehr lich</w>
ec a</w>
eb en,</w>
e a,</w>
dop o.</w>
decis i</w>
da gegen</w>
d unque</w>
c endo</w>
auf tau
au ch.</w>
as si</w>
an f
all '</w>
al e?</w>
aggiung ere</w>
Z er
Vogli amo</w>
T ,</w>
System e</w>
St ate</w>
S ing
Pa ci
N ov
N ob
Metho de</w>
Lasci ate</w>
Kur z
K ost
Ir gend
Harv ard</w>
H ier
Geschi cht
Gefühl ,</w>
Farb en</w>
F ab
Ein kommen</w>
Bud d
Aus ma
Ap pl
Al p
A cc
2 50</w>
y -
wi eso</w>
wer k
war t</w>
veni vano</w>
v er</w>
uti le</w>
uom o,</w>
spl endi
sol ch</w>
sil enzi
setz ung</w>
sch erz
scel to</w>
reli gione</w>
present a</w>
prakt isch</w>
pr ed
polit ischen</w>
person aggio</w>
ossigen o</w>
or bit
on de</w>
ol i.</w>
mögli che</w>
minut i.</w>
manc anza</w>
ma i.</w>
lieb er</w>
l' uomo</w>
kürz lich</w>
j a.</w>
ist en</w>
interess ato</w>
interess a</w>
in format
immer .</w>
im plic
ihr ,</w>
hauptsäch lich</w>
get eil
fu hr</w>
fin almente</w>
far si</w>
er halten.</w>
entwickel n.</w>
ell '
elettric ità</w>
dor t.</w>
doman da.</w>
di ri
di mostra
da chten,</w>
d einen</w>
com posto</w>
ck en</w>
car ne</w>
c lasse</w>
bian co</w>
beweg en,</w>
bes ag
bene fic
b utt
b ank
av endo</w>
at o:</w>
assi mo</w>
ar me</w>
an dai</w>
amer ik
am t
W unsch</w>
Vi et
Ver tr
Unter such
U s
U om
Typ en</w>
St anno</w>
Si ete</w>
Schl af
S kl
S amm
Präsi dent</w>
P ingu
Mon ter
Mo tiv
Mc Don
Mart in</w>
Man hatt
M üll
L G:</w>
K ann</w>
Intellig enz</w>
Gen au
G ore</w>
F unk
F ische</w>
F ach
Doll ar,</w>
6 .</w>
20 .000</w>
1 4
"N o,</w>
zurück zu
zeig te</w>
wär e.</w>
wen den</w>
ver sor
ve dendo</w>
ucc is
tra gen.</w>
t aten</w>
ster ben.</w>
stec ken</w>
spre che</w>
so ftwar
so ?</w>
sion i.</w>
schl agen</w>
sa pr
s s
riconos cere</w>
rich tig?</w>
ri fu
profond amente</w>
pro posito</w>
pro dur
pr anz
peri amo</w>
per ciò</w>
particol are,</w>
parl ano</w>
oce ani</w>
o w</w>
nu vol
neur oni</w>
n eben
matt ina</w>
li st
kü hl
kam .</w>
in tr
il e,</w>
ig .</w>
ha m</w>
gen den</w>
geh t
gefun den.</w>
fun zioni</w>
fer n</w>
far ne</w>
fal sche</w>
et s</w>
es am
er inner
er a.</w>
entwickel ten</w>
elim in
disponi bili</w>
der zeit</w>
d essen,</w>
copi o</w>
co m</w>
cib o.</w>
cib o,</w>
ci a,</w>
bu ch</w>
bri ll
avi a</w>
aus drück
atmos fer
ass em
am pi
acqu e</w>
W righ
V at
T ra</w>
Stra ßen</w>
Stand ard
Sauerst off
S ur
S mit
S ein</w>
Risik o</w>
Re de</w>
Re al
Ph ant
Par l
Papi er</w>
O h
Mos k
Mo bil
Mitt el</w>
In sel
In fatti,</w>
Ih nen.</w>
H und</w>
Geg ensatz</w>
Freu de</w>
Frau en,</w>
Fortschrit t</w>
Chem ik
Bangl ades
A hn
A bl
? ”</w>
8 00</w>
, 000</w>
& amp
% ,</w>
" Se</w>
" Du</w>
zuneh men
wer fen.</w>
wen igen</w>
wass er</w>
w as
w aff
vor aus
videogi o
um i</w>
trasform are</w>
tran s
tra in
test im
sy n
soprav vivere</w>
sfi de</w>
sel ber</w>
scrit t
schwar ze</w>
sc av
rag gi</w>
r ein</w>
qu anti
pubbl ico,</w>
pot evamo</w>
organizz azioni</w>
or chest
ogra fi
n ev
n ato</w>
n an
mus st</w>
misur are</w>
mam ma</w>
leg t</w>
k u
k il
ini str
ingegn eri</w>
hil fe</w>
geschaff en</w>
gegen wär
gegeb en,</w>
g on
ex periment
ett a,</w>
et ische</w>
entwickel t.</w>
entr ambe</w>
em .</w>
effic ac
ed y</w>
cr oll
corr ere</w>
conten uto</w>
conosci uto</w>
conn essione</w>
con o.</w>
cominci ano</w>
cerc ano</w>
centr ale</w>
cat ena</w>
atu ra.</w>
ass e,</w>
an co
ag ne</w>
ag gr
acc essi
a da</w>
Wirt schafts
Ver k
V ö
US -
T utt
Seit e.</w>
Re cht</w>
R om
R ay</w>
Posi tion</w>
Nor d</w>
Ni ente</w>
N erv
Mon di
Mi r</w>
Lond on</w>
Lan des</w>
L o
K ell
H al
H ai</w>
Gel d,</w>
Fern sehen</w>
Famili en
DN A-
D .</w>
Cit y</w>
Be ob
B atter
B ang
Aut or
1 5
" F
ä t.</w>
z og</w>
w eder</w>
w a
viver e.</w>
vec chi
v ai
tratt are</w>
tess uto</w>
t öt
stabi li
sequ enza</w>
sempr e.</w>
sei en</w>
sch utz
sch en,</w>
sap eva</w>
ri b
r unter</w>
r aten</w>
potr à</w>
piedi .</w>
pens ava</w>
pass en</w>
p ,</w>
oo per
ol i,</w>
og li</w>
normal en</w>
no r</w>
moder ne</w>
mag ni
lich e,</w>
l ück
l at
l ag</w>
inizi ando</w>
in contro</w>
il l</w>
hol en</w>
gra vit
geh ab
geg rün
fäl le</w>
filos of
fil m.</w>
f ließ
erkenn en.</w>
en r
eg en.</w>
ed ono</w>
e a.</w>
dr ehen</w>
dir ò</w>
diment ic
dett agli</w>
den zi
dau ert</w>
col ori</w>
col or
chiar amente</w>
c au
bisogn o.</w>
bekann ten</w>
be wahr
au ti
au ch
astr op
assu m
ap pl
angi ogen
am era</w>
al ità.</w>
al ità,</w>
Vor aus
Sti ft
Sicher heits
Se x</w>
S -
Reak tion</w>
Potr este</w>
Physi k</w>
Ph ot
Per ò</w>
Ord nung</w>
Ob wohl</w>
M ia</w>
M andel
L ung
Jahr es</w>
It ali
Ge fühle</w>
F ett
E mis
Di enst
Bl ät
B itte</w>
Antwor ten</w>
A ber,</w>
50 %</w>
" Der</w>
" C
öffn et</w>
är m
änder n,</w>
wär ts</w>
wo bei</w>
w ink
vist a,</w>
vi ellei
ver steck
ver blü
v o,</w>
v e,</w>
univers o.</w>
ul pt
sott om
so mit</w>
sicure zz
si v</w>
samm eln</w>
re gione</w>
ra t</w>
r innov
quar to</w>
qualc un</w>
progett are</w>
potr emo</w>
p ft</w>
osp it
off en</w>
necess ariamente</w>
mor gen</w>
mis e</w>
mar k
m ann</w>
l' evoluzione</w>
l' India</w>
l aggi
kom bin
h ot
gran de
gr at
gen ?</w>
gefä ll
fu o
fantast ico.</w>
f ris
et ich
est en
ess e,</w>
erl edi
er seit
energi a.</w>
en de,</w>
ec chio</w>
di zion
di pend
deut lich</w>
des crit
deb ba</w>
cir cu
chi ede</w>
cas e</w>
cap is
br enn
bl in
bein halt
be findet</w>
aus ?</w>
au ff
ativ a.</w>
all es.</w>
Weg e</w>
T reff
Sch ne
Sauerst off</w>
S enza</w>
S eine</w>
Prot ot
O s
Nation al
Mar k
L ou
Klimaw andel</w>
K ampf</w>
J A:</w>
In oltre,</w>
I ran
Grün de</w>
Gi appon
Ges prä
Ges icht
Fil me</w>
F ig
E ra
D ra
D :</w>
Con os
Bis ogn
B a
Außer dem</w>
Afrik a,</w>
1 20</w>
' 8
ökon om
ähn liche</w>
Ö kon
Ärz te</w>
zu künf
wei le</w>
va do</w>
v ali
uov a</w>
un'occhi ata</w>
tut ,</w>
ter rit
ter rest
t ;</w>
su oni</w>
su d</w>
straordin ario</w>
stand .</w>
sorprend ente</w>
soll ev
sar emo</w>
s cont
res i</w>
re alist
pubblic ità</w>
pubbl ica</w>
progr esso</w>
progett o.</w>
progett ato</w>
pres enza</w>
pren dendo</w>
ov vero</w>
ot te</w>
on lin
om o
mort alità</w>
mor ale</w>
mon it
m eg
les en.</w>
lei der</w>
leb en
lanci ato</w>
l ern</w>
könn t</w>
interessan t,</w>
industri e</w>
il e.</w>
i pot
i Po
i Ph
hy th
her um.</w>
heit en,</w>
glob ale,</w>
genann t.</w>
fon do,</w>
fam oso</w>
f rist
em bre</w>
elem ento</w>
einfach er</w>
econom ico</w>
e y.</w>
d ando</w>
costru endo</w>
cor si</w>
compag nie</w>
com battere</w>
ci a.</w>
ch eggi
camm inare</w>
brau chen.</w>
bil li
betra chten.</w>
außer dem</w>
att uale</w>
ar d.</w>
anschau en,</w>
an ?</w>
alt ra.</w>
al gorit
ag en,</w>
Ver w
St är
St ep
Sol daten</w>
So ftwar
Sem plic
Schri ft
S ech
Medi zin</w>
Medi zin
Lap top</w>
L :</w>
Kont akt</w>
K unden</w>
Job s</w>
Il lu
Fing er</w>
Erfahr ungen</w>
E ver
Charak ter</w>
Cam brid
Bi g</w>
Aktiv ität</w>
5 000</w>
2 6</w>
" Sie</w>
" Mi</w>
" Ma</w>
zi e,</w>
zeig t.</w>
wä s
wir .</w>
wich tigen</w>
weis s</w>
w ört
vor bereit
verschie den
verli eren</w>
verkauf en</w>
un a,</w>
ucc elli</w>
treff en,</w>
test a,</w>
ten denza</w>
t anz
sic come</w>
si e:</w>
secon di</w>
sc ult
ris poste</w>
rie den</w>
ri par
quest a,</w>
post o,</w>
pf licht
pal azz
pag ine</w>
pa st
p ingu
p fl
ov er</w>
omi e</w>
obi etti
ob bli
nazion ale</w>
mu overe</w>
mu oi
man o,</w>
m andare</w>
limit i</w>
l ar
intellig enti</w>
inqu in
ingegn eria</w>
infer i
hä us
gegeb en.</w>
g ano</w>
führ ung</w>
funktionier t,</w>
fund ament
find et,</w>
fac evano</w>
fac end
evol i</w>
et e?</w>
es sioni</w>
es pon
erzeu gt</w>
err ore</w>
enz ,</w>
en !</w>
eit er</w>
ein gel
dol ore</w>
disponi bile</w>
dirit tura</w>
dipen de</w>
defin ire</w>
d ün
d di
cres cer
consu mo</w>
condi zion
con sul
comport ament
c ure</w>
bu oni</w>
b ab
attac co</w>
att rezz
ati che</w>
at h
ar men</w>
anz i</w>
an ger
aller dings</w>
Y e
Wass erst
V oi</w>
Unter schied
Studi en</w>
SE T
Organis men</w>
Nor mal
Ni eder
N a</w>
Jung e</w>
Hinter grund</w>
Geleg enheit</w>
G P
Fre und
Fran k</w>
Fol ge</w>
Europ a.</w>
Dimen sionen</w>
D -
Bra sili
Bot schaft</w>
Arbeit spl
An ru
Afghanist an</w>
? “</w>
" -
zzi amo</w>
zzi .</w>
zun ächst</w>
zu zu
z it
wieder .</w>
viol enza</w>
verkauf t</w>
verblü ff
ver knü
ung :</w>
un den
t s.</w>
t eile</w>
suon are</w>
stei gen</w>
star ke</w>
st ück</w>
st abil
son o.</w>
sequ enzi
richt ung</w>
reg al
re u
re alen</w>
r ation
r are</w>
profondit à</w>
prod ott
pp ure,</w>
pot essero</w>
par i</w>
par all
otten uto</w>
ori a.</w>
or e
o h</w>
not ato</w>
modi fic
mei stens</w>
medi o</w>
m are.</w>
läs st,</w>
luog o,</w>
legger mente</w>
lasci a</w>
lang .</w>
jähri ge</w>
itz en</w>
il i</w>
i r</w>
hin ein</w>
hei m
hab en?</w>
groß .</w>
gi amo</w>
geh alten</w>
geda cht,</w>
gebra cht,</w>
gam be</w>
g ing.</w>
g ei
fühl te</w>
funzion ano</w>
fondament almente</w>
flus so</w>
fin de,</w>
fac evo</w>
est er
es ce</w>
emo tiv
emis sioni</w>
eg en,</w>
dov er</w>
diver si.</w>
distribu zione</w>
disegn are</w>
diejen igen,</w>
di venne</w>
di a
dest ra,</w>
desig n,</w>
da cht
cre dono</w>
cont ad
con ness
cittad ini</w>
ci pl
can cell
c ce</w>
brau cht,</w>
bar er</w>
b ag
assem bl
ar ab
an e.</w>
all o.</w>
all eine</w>
ak tiv</w>
Wör ter</w>
Wahrschein lichkeit</w>
W under
U .
Sci en
Sch au
Sach en,</w>
S c
Pot enzi
O kt
Mar ket
Kom pon
Fl uss</w>
Er de,</w>
Doll ar
Com ic
B oo
B M
Ani m
7 00</w>
2 1.</w>
" Ja,</w>
ä t,</w>
zeich nen</w>
zei ten</w>
wä hr
wirk liche</w>
wi e,</w>
war :</w>
ver i</w>
ver gangen
v on
ut i.</w>
us ati</w>
universit à</w>
ung ew
ung eh
ul are</w>
triff t</w>
tran spor
t ort
svilupp o.</w>
superi ore</w>
spezi f
soll .</w>
sinist ra,</w>
sich ten</w>
sent ono</w>
sei .</w>
segn ali</w>
sci enza,</w>
schi en</w>
sch mer
s w
s ho
ro cci
ries co</w>
re agier
progett o,</w>
pri vile
plan et
piatt a
pi en</w>
pi elt</w>
parlav a</w>
p s</w>
os so</w>
ok us
mir :</w>
ler weile</w>
lei sten</w>
l' universo</w>
l auf</w>
ing ran
imbar azz
h eil
gioc att
ges pielt</w>
gebau t,</w>
führ er</w>
fav or
fantast ico</w>
fac endo.</w>
f ist
erklär en</w>
er b
dunk le</w>
di n</w>
desig n.</w>
des wegen</w>
dec ine</w>
de mon
creativ ità</w>
cor por
ci o.</w>
brau chte</w>
brau che</w>
ber i
beginn en,</w>
beg onnen</w>
batt agli
b ott
au st
arriv ata</w>
arbeit er</w>
ar ram
apr ire</w>
ange fangen</w>
am m</w>
acc umul
Vort rag
Tran si
T -
St ell
Spiel en</w>
Se qu
Re gion</w>
R ak
Punk t,</w>
Projek t,</w>
Plan eten,</w>
P ap
O ber
Nicht s</w>
Nach dem</w>
Medik amente</w>
Lin col
Li f
Land wirtschaft</w>
L at
Kreativit ät</w>
K lass
Jung s</w>
Jahrhunder ts</w>
Inter ak
Haw ai
Gra n</w>
G eri
Fre unden</w>
Dinosau ri
D om
Con si
C al
Beg riff</w>
An fang
2 .
" Nun,</w>
" Che</w>
ü gen</w>
Ü ber</w>
Öff ent
z eln</w>
wähl t</w>
wer fen,</w>
vol evamo</w>
vic ina</w>
ver lang
ve di</w>
vari età</w>
vant aggio</w>
v eget
v e.</w>
un e</w>
un d.</w>
su m
st anza,</w>
speci ale</w>
sol e,</w>
sistem a.</w>
sch en.</w>
riman ere</w>
ric o</w>
rel ativ</w>
re azione</w>
ran k</w>
port ati
pass ato.</w>
part ner</w>
p ure</w>
p fer
o si.</w>
nom i</w>
nis sen</w>
na cht
möglich keiten</w>
moti vi</w>
mol ek
mezz o.</w>
megli o,</w>
läs st.</w>
lich sten</w>
las s</w>
lang wei
labor atori
l' im
l' esperienza</w>
l' arte</w>
ko p</w>
jähri gen</w>
it är
int orn
ing e</w>
indi etro,</w>
in fatti,</w>
ier ung</w>
heut e,</w>
hal be</w>
guer ra,</w>
gu st
gra zie.</w>
gesch ah</w>
gelö st</w>
geb ro
for nis
far la</w>
et o</w>
ess a.</w>
erz ähle</w>
ermögli cht</w>
er leb
er ete</w>
ent schied
en e,</w>
elettr o
dr amat
dop pi
divert ente.</w>
diver sa.</w>
dis si</w>
di ca</w>
deci sione</w>
da vor</w>
cu i,</w>
cos a?</w>
contri b
consider are</w>
co oper
centr i</w>
cel ebr
carbon io</w>
bu ono</w>
beob achten</w>
anz ö
am s</w>
altrett anto</w>
Zu erst</w>
Sozi al
Secon do</w>
Off en
Nicht -
N u
Molekü le</w>
Li ed</w>
Lag e,</w>
Kor rup
J emand</w>
Instit uti
Gehirn s</w>
E d
De pres
D au
Bri an</w>
Beding ungen</w>
Av evamo</w>
Aus r
Astr on
20 ,</w>
" R
ze pt
wir st</w>
wir r
wei se.</w>
versch mutz
ver mittel
ut ni
us cito</w>
unglaub lich.</w>
ungew öhn
u ck
terri bile</w>
teil ung</w>
tec ni
str etto</w>
st ör
sogn o</w>
soci ale.</w>
sim b
sier en.</w>
si a.</w>
schwar z
sch il
s qual
s esso</w>
s ebbene</w>
rum ore</w>
red dito</w>
realt à.</w>
produ ziert</w>
pr io</w>
pi ede</w>
perfett amente</w>
pens ato,</w>
p a</w>
ologi e,</w>
ograf ie</w>
lu ce,</w>
lion en</w>
lau t</w>
l' opportunità</w>
l' aut
l edi
kl app
iti ve</w>
it amente</w>
ismus ,</w>
invec e,</w>
interessan t.</w>
industri ale</w>
indi rizz
indi ca</w>
ic on</w>
gewor den.</w>
gesetz t.</w>
gesag t:</w>
gen ü
gen oma</w>
geh end</w>
frag t</w>
fra se</w>
form are</w>
f iss
f eg
ex i
es pres
erfun den</w>
erfol greich
er ?</w>
emis fer
ell i,</w>
econom ica</w>
du e.</w>
dov reste</w>
consi ste</w>
col oni
cic lo</w>
cer te</w>
c ron
c rei
betracht et</w>
bei spiel
ba sta</w>
ba siert</w>
aument are</w>
as k
altri menti</w>
ali en
a is
Zau ber
Vog el
Versu ch</w>
Ver breitung</w>
Universit à</w>
U g
St ein
Sp utni
Sonn ens
Rah men</w>
Mot or
L eh
Kontr oll
Kev in</w>
HIV -
Ges amt
G anze</w>
Fing er,</w>
F ant
Drit tel</w>
Chi rur
Ch in
CO 2-
Bür o</w>
Br on
Ar zt</w>
Ar mut
6 5</w>
200 5</w>
äl le</w>
ä dig
zzi ,</w>
verursa cht</w>
ver lieb
ven uti</w>
ut en
ut a.</w>
ung lück
u ,</w>
tri dimension
tradition ellen</w>
tra spor
tra g</w>
ti po,</w>
test e</w>
ten ?</w>
t es
ster b
st ag
setz te</w>
segn ale</w>
sed uto</w>
scoper te</w>
scol ast
scim mie</w>
sch ema</w>
ri di
raggi o</w>
raff red
radi k
pu o'</w>
profon do</w>
polit ici</w>
po '.</w>
pi re</w>
os sia</w>
ograf ia</w>
not te,</w>
non -
neh men
nas con
n et</w>
mont agn
mic ros
mi fer
metafor a</w>
mas se</w>
macch ina,</w>
los ,</w>
lei bi
l ettere</w>
krieg en</w>
jem and,</w>
ir à</w>
ins om
incontr are</w>
incent i
haf ten</w>
hab t</w>
h ung
h istor
h ek
h and</w>
h a,</w>
getro ff
geschlos sen</w>
ges p
g ett
frei en</w>
fot o.</w>
fi el</w>
facil mente</w>
f est</w>
estern o</w>
erzeu gen</w>
er schaffen.</w>
epi demia</w>
entwickel te</w>
ell ,</w>
einand er.</w>
eff ek
de stra.</w>
dar f</w>
d'accor do</w>
cor sa</w>
consapevol ezza</w>
comun ità,</w>
cir cost
beg eist
bar keit</w>
av it
av ano.</w>
atten zione.</w>
ati vi.</w>
arri ver
ar ch
ap propri
angen eh
and oci</w>
an trei
al e:</w>
akt or</w>
aggr essi
aff atto</w>
abhängi g</w>
ab ei</w>
Zu schau
Wal d</w>
Verbin d
V u
Uni verso</w>
Tr ot
System ,</w>
St ar
Sor gen</w>
Sin d</w>
Si cht
Septem ber</w>
S atell
Pro prio</w>
Perspektiv e</w>
Part ner</w>
Or chest
N azioni</w>
Männ ern</w>
McDon al
Mar te</w>
M er
Krankenh aus</w>
Kaff e
K rit
Infrastrukt ur</w>
H ans</w>
Groß mut
Gesell schaften</w>
Ger ech
G il
Franc is
Fra ge:</w>
Fenst er</w>
F euer
Dur ch</w>
D abei</w>
Au st
Afrik a.</w>
" ?</w>
ön t
wes entlich</w>
w andel
vist o.</w>
verg essen</w>
ven nero</w>
uman a,</w>
trov ate</w>
tav olo</w>
t e?</w>
svilu p
strat eg
st ir
st eri
soll en.</w>
sol dati</w>
sion i,</w>
sf era</w>
schnell .</w>
s si
risol ver
rifi ut
ri uni
ri min
re alisier
r aus</w>
profon da</w>
per mettono</w>
per mett
ov e</w>
otti mo</w>
off er
na ja,</w>
mes i.</w>
log ica</w>
le zioni</w>
is ola</w>
inizi ano</w>
in oltre</w>
in evit
immagin ate</w>
ih nen.</w>
häu fig</w>
ger icht
genau er</w>
gem acht
ge kauf
fr etta</w>
fon da
fol ge</w>
erlaub en</w>
entschei den,</w>
eff ektiv
durch ge
durch .</w>
divent ati</w>
dist ingu
dis cipl
dimostr are</w>
democra zia</w>
conclu dere</w>
com unque,</w>
chim ica</w>
chiam are</w>
ch è</w>
cas u
ben essere</w>
be komm
bas ato</w>
azion ale</w>
ator en</w>
at e?</w>
assist enza</w>
anzö si
ah e</w>
ag en.</w>
ad dirittura</w>
ad d
Wil d
Wh it
W K:</w>
Vall ey</w>
V al
Str om
Stad t
St off
Sk ulpt
Sch ließ
S um
S l
S eit</w>
Qu elli</w>
N eben
L ang
Kr äfte</w>
K y
K ein</w>
Industri e</w>
In fatti</w>
I .</w>
Hol z
Galaxi en</w>
G las
F euer</w>
Energi e,</w>
Des wegen</w>
D unk
Cl int
Cir ca</w>
Bil dern</w>
Beispiel .</w>
Bau m</w>
Austr ali
An rei
AID S.</w>
2 3</w>
1 9</w>
. ”</w>
über prü
öff nen</w>
ö hr
äuß erst</w>
zahl en</w>
woll ten,</w>
wer k</w>
wer de.</w>
wei te</w>
weg ,</w>
ver halten</w>
ungs kraft</w>
un i</w>
un er
ul l</w>
tr atti</w>
teil t</w>
tant o,</w>
stori e.</w>
statt dessen</w>
spettr o</w>
sost anza</w>
societ à,</w>
sign ore</w>
sempr e,</w>
scat ola</w>
sb ur
s li
s es</w>
ro ten</w>
rice vere</w>
recu per
po mp
pi en
person ale.</w>
percent uale</w>
otti ene</w>
org ogli
on en,</w>
olog e</w>
na h</w>
mö chten,</w>
moder n
met ri,</w>
mes i,</w>
mensch liches</w>
madr i</w>
macch in
ma ß
m essen</w>
lich keiten</w>
lich en,</w>
lich em</w>
letter a</w>
lea der
l' altro,</w>
l ic
kl ingt</w>
ismus .</w>
isch em</w>
interess ati</w>
inf anti
incredi bili</w>
i ere</w>
i dr
höh er</w>
h h
gi un
genu g,</w>
geh ei
g as
fu ori
fotograf ie</w>
fin ale</w>
fi ume</w>
fass en.</w>
fall en.</w>
f ei
ev ate</w>
esist enza</w>
esc lu
erinn ert</w>
er lei</w>
ent sprech
eg ori
eg o
ecc ezion
dur ch,</w>
defin izione</w>
d ate</w>
consi gli
con f
comunic are</w>
compon enti</w>
beli eb
bass a</w>
av a,</w>
atu ra,</w>
ar e:</w>
anim ali,</w>
ander en,</w>
and ò</w>
ament i,</w>
all' anno.</w>
ah .</w>
agricol tura</w>
abb rac
a schen</w>
Wör ter
Wei h
Ug anda</w>
Them en</w>
T ieren</w>
Step hen</w>
Stad t,</w>
Sek unde</w>
S og
Qu ali</w>
Präsi dent
Potr emmo</w>
Plan eten.</w>
Pl an</w>
Phän om
Missi on</w>
J ungen</w>
Hän den</w>
Gehir n.</w>
Frei heit</w>
For m
Flor i
Erfin dung</w>
Eig entlich</w>
Eb bene,</w>
E ben
C omm
C li
Bri ef
Ar th
App le</w>
Ancor a</w>
50 .</w>
' s.</w>
" Sono</w>
" E'</w>
zusamm enzu
zeu ge</w>
zeu g</w>
woh ner</w>
wirtschaft liche</w>
wei ßen</w>
wei sen,</w>
wahr e</w>
w esen</w>
ver ein
v ai</w>
ut enti</w>
ut en</w>
us cir
un de,</w>
tra ge
ter r
ten er
t ens,</w>
sor pres
sin ni
si ti</w>
sag ge
sa ß</w>
riff en</w>
ricor da</w>
ri chten,</w>
pri ma
pres erv
pot essimo</w>
pol iti
pl at
person aggi</w>
per fino</w>
parti mento</w>
pa vi
osserv ando</w>
os sen</w>
oce ano.</w>
occhi .</w>
o si,</w>
nenn en,</w>
n ein.</w>
mus ica.</w>
movi menti</w>
mon do
min uto</w>
mezz i</w>
m andato</w>
lich keit.</w>
ledi glich</w>
lauf en.</w>
inizi o,</w>
icol i</w>
ho ch.</w>
hei rat
guard ato</w>
geschi chte</w>
gener e,</w>
gen s,</w>
fur cht
forsch ung</w>
fon ti</w>
fian co</w>
fer ti
ess ,</w>
entdeck en</w>
ens t</w>
ens :</w>
en e.</w>
el n
el i</w>
ekt on
ein gesch
ei en</w>
e o.</w>
drit ten</w>
do w
di strut
di pl
der iv
d unque,</w>
d ran
curi o
cosi d
compl esso</w>
combin azione</w>
co si</w>
cell ula</w>
c m</w>
blei b
bil den.</w>
av vent
aus sieht.</w>
ativ o,</w>
at ico</w>
ast er</w>
asso migli
ass en,</w>
ar te.</w>
ar ci,</w>
ant emente</w>
anim ali.</w>
an o:</w>
an ges
adul ti</w>
ab stra
Zun ächst</w>
Worl d
W ü
Unter nehmer
T ri
Sar à</w>
S her
S eh
S ah
R eich
Qual ität</w>
Poli z
Plast ik
P or
Lit er
Lebens .</w>
Kon sequ
J eff
Ihr es</w>
Hau t</w>
H üh
H ill
H eil
Gesetz e</w>
Geg ent
Galax ie</w>
G ü
G edi
E l</w>
Dov ete</w>
Detail s</w>
D evi</w>
C ont
C ina,</w>
Br ü
Bost on</w>
Archit ekten</w>
Arbei ten</w>
An dere</w>
Al tern
? ".</w>
ähn lichen</w>
wuch s</w>
w agen</w>
vor ne</w>
vin to</w>
ver si
ver größ
ut to</w>
tä glich</w>
trä gt</w>
tr e.</w>
terapi a</w>
stess o,</w>
so sti
scienti fic
schl uss
s ä
rius c
ri ere</w>
rest a</w>
re par
pros egu
prat ica,</w>
pot enza</w>
positi vi</w>
posi zione.</w>
port ando</w>
plast ica</w>
pass ati</w>
ord nung</w>
on est
no ch,</w>
ment i,</w>
man i.</w>
m t</w>
m pi
m art
lei ch
lei .</w>
lang er</w>
lanci are</w>
l' economia</w>
l em
kon su
k ein
k ap
inter agier
inspi rier
inizi ò</w>
inf anzi
indi etro.</w>
inc rem
import anti.</w>
immagin e.</w>
im possibile</w>
ig keit</w>
häl t,</w>
heraus finden,</w>
h t</w>
grundsätz lich</w>
gi ung
gest ire</w>
ge d
foc alizz
fis ico</w>
figli .</w>
fatt ori</w>
fa ch</w>
evol ution
esser e.</w>
esper ti</w>
esem pl
er schaffen,</w>
er mut
ell o.</w>
elettr ica</w>
ekt or</w>
eck e</w>
dur a</w>
dop pio</w>
dis positivo</w>
dirett ore</w>
differ enza.</w>
dic end
di battito</w>
cru ci
convers azione</w>
conos ce</w>
con qu
compr ato</w>
civil tà</w>
c lassi
bev ölker
ber icht
ber eich
beg egn
bas ata</w>
av essimo</w>
arbeit eten</w>
ar rabbi
anz us
alt et</w>
al -
ag e,</w>
afric ani</w>
Z wis
Ver stand</w>
U -B
Tran s
T rag
T .</w>
Städ ten</w>
So ut
Sil icon</w>
Sh ang
Sch wei
Ri es
Regier ungs
Re cht
Präsent ation</w>
Pl att
Pa esi</w>
P as
Oberfl äch
O ppure</w>
Nach hal
Mosk it
Mo delle</w>
Medi en
M ehr</w>
M agn
L og
Jap an</w>
Ira q
Instit ute</w>
In som
Herausforder ungen</w>
H insi
Gut es</w>
Gu er
Ger äus
Ge wicht</w>
Fre qu
Fall ,</w>
Facci amo</w>
Et was</w>
E mp
D ig
D enn
C ha
Bu chst
Bisogn a</w>
Bi bbi
Bei m</w>
B enz
B eine</w>
Alz hei
"H ey,</w>
" Wo
ü mm
öffent liche</w>
ä r</w>
zurück kehr
vor stellen.</w>
verantwort lich</w>
ver letz
ut e.</w>
us ata</w>
um s
um or
tut .</w>
tras par
torn ato</w>
ti po
ti eren,</w>
teil en,</w>
t ass
t app
t ab
su pporto</w>
stu pe
spr ung</w>
soll ,</w>
seh en?</w>
seh e,</w>
scor r
sci enze</w>
schau te</w>
sch ar
s un
s fortun
s enz
ri k</w>
res p
re di
re ale,</w>
raccont arvi</w>
ra d</w>
quad ro</w>
pubblic ato</w>
prog res
proc essi</w>
proc ess
problem i,</w>
politi che</w>
perfek te</w>
pass en.</w>
p ap
om -
no to</w>
no chmal</w>
nicht s,</w>
na vig
mori re</w>
mont agne</w>
met ro</w>
medi a,</w>
maggior anza</w>
madr e,</w>
m ult
lieg t.</w>
l er.</w>
kl in
kl en</w>
k eln</w>
j ähr
it en</w>
intit ol
infer mi
improvvis amente</w>
ier o</w>
häl t.</w>
gl amour</w>
gesch windi
ger ett
gel ,</w>
gar anti
g reg
g re
funktionier en.</w>
for se,</w>
fon di</w>
fil tr
fi ziert</w>
far anno</w>
famigli a.</w>
famigli a,</w>
f ingen</w>
f assen</w>
ess e.</w>
ess .</w>
eser ci
es a.</w>
err ori</w>
ent stehen</w>
enn i</w>
eh men,</w>
dopp elt</w>
donn e,</w>
dem mo</w>
dafü r.</w>
daf ric
da r</w>
d anz
consegu enza</w>
conos cono</w>
comun i</w>
com par
bring t.</w>
best ehen</w>
beschäf tigt</w>
benö tigt</w>
behandel t</w>
beginn en.</w>
ban k</w>
ban di
b enz
av a.</w>
autom o
ati vi,</w>
as en</w>
arti sta</w>
andav a</w>
an schauen</w>
an di
am ici,</w>
all ev
al li
ad destr
] .</w>
] ,</w>
Vol k
Ver gn
Taus ende</w>
Sti r
St avo</w>
Spiel er</w>
Schl uss</w>
S ic
Quad rat
Part ner
P C
Nutz en</w>
Na ja,</w>
Möglich keiten,</w>
Mom ent,</w>
L ong</w>
Kontex t</w>
Kol oni
J im</w>
Invest iti
Individu en</w>
Indi en,</w>
H im
Ger ü
Geleg en
Gel d.</w>
Fr ü
Fo und
Fel d</w>
Ein satz</w>
Dat en.</w>
Dat en,</w>
D al</w>
B ran
B las
B em
Anal y
Al ter
1 3
. :</w>
zü glich</w>
vol er</w>
vi et
verwend en.</w>
vert ic
ver k
vec chi</w>
unglaub lichen</w>
ulti m
u eb
tran si
su cht</w>
städ t
stupe fac
spr icht,</w>
son .</w>
societ à.</w>
so viel</w>
so ur
schreib en,</w>
schl echten</w>
scher mo</w>
sch emi</w>
sangu e</w>
rifl ett
rei cht</w>
regi stra
re ?</w>
prezz i</w>
preoccu par
pot enti</w>
persön lichen</w>
per mettere</w>
pas si</w>
p ed
ol l</w>
occhi ,</w>
o p</w>
nor m
n er,</w>
mort e.</w>
moral ische</w>
mor to</w>
mor gens</w>
mont agna</w>
molec ola</w>
m y
leg en.</w>
l en</w>
kurz em</w>
k e,</w>
it ore</w>
it a
indi c
hin aus
gr ati
gir are</w>
giorn ata</w>
g eist
fü gen</w>
frü h</w>
fra gen:</w>
fon do.</w>
farma ci</w>
exist iert</w>
er warten</w>
echnologi e</w>
ec olog
ec ken</w>
e wi
e amente</w>
doman da:</w>
den d
defin i
decis amente</w>
dau er
da ?</w>
commerci ale</w>
co da</w>
cellul are</w>
car ic
ca dere</w>
c ami
blo ß</w>
bes or
ber uh
bein ahe</w>
bedeut et.</w>
be kämpf
bau t</w>
bambin o.</w>
au ben
ativ e.</w>
ast er
andl ung</w>
amo ci</w>
ambi ente,</w>
acqu i
abb ass
a i.</w>
Wei le</w>
Vir g
Vi sion</w>
V e</w>
Tr aum</w>
T u</w>
Si r</w>
Schw ef
Schmer z</w>
Schi ff
Sch reib
Sch ool</w>
S i,</w>
R it
R ick</w>
R hyth
R ec
Prog ram
Pot enti
Oka y?</w>
O k
N ell'
Minut en,</w>
Lauf e</w>
Je den
Hom o</w>
Her b
H ör
Gol f</w>
G anz</w>
Frau :</w>
F isch</w>
E- Ma
Dur ante</w>
Cio è,</w>
Ch anc
C lu
C ina.</w>
B eri
Ant wort
0 ,
' altro.</w>
" Ho</w>
überzeug t,</w>
zi ,</w>
wor den.</w>
vor bei
vol to</w>
viel .</w>
vi vent
verd amm
ver rà</w>
v an
un ’
um ge
tra gen,</w>
ter t</w>
t et</w>
sp ezz
sottom ar
soci ale,</w>
so was</w>
so fist
ser a</w>
sedi a</w>
sch em
sc us
sar ete</w>
riuscit e</w>
ricor dar
rick et</w>
ric chi</w>
rett en.</w>
r o.</w>
petroli o,</w>
per dita</w>
p ell
opini one</w>
mus ica,</w>
mitt l
mi ch
met ti</w>
mer .</w>
mas simo</w>
mam mifer
lei ,</w>
laut et:</w>
larg a</w>
l' industria</w>
kra ft
komplex e</w>
k ti
k rieg</w>
intern ationalen</w>
imm ens
i o
hät ten,</w>
hier her</w>
herzu stellen.</w>
hau se</w>
h eben</w>
grupp o,</w>
groß artigen</w>
gewach sen</w>
getöt et</w>
gestor ben</w>
gegen über
galas sie</w>
f ein
en der
el ef
ed es
eb o
dy nam
durchschnitt liche</w>
donn e.</w>
diver ti
digit alen</w>
defin iti
da pper
consider azione</w>
con ta</w>
ci o,</w>
cer co</w>
cau se</w>
can i</w>
cambi o</w>
bi eten</w>
be droh
aus probi
attra ver
ativ a,</w>
ass en.</w>
arram pic
arl a,</w>
anti -
ant ici
ant hr
ann unci
ambi ente.</w>
am ore,</w>
affi da
ade gu
ad or
ac co
ab el</w>
Wi eso</w>
W ink
W andel</w>
Verhält nis</w>
V oll
Tit el</w>
T ok
Sta aten,</w>
St att
Sog ar</w>
Sch ick
R önt
Profess or</w>
Perch é,</w>
Pen siamo</w>
N ik
Musi k,</w>
M em
Leut e.</w>
Krieg s
Kontin ent</w>
Ira k</w>
In spir
Hollywoo d</w>
Hei mat
HIV .</w>
Größ en
Grund lage</w>
G ute</w>
Fäll en</w>
Fol gen
F eu
E th
Bes itz
Ber g</w>
Basi s</w>
Al tr
Ah nung</w>
A sia</w>
" I</w>
ä sth
ä ger</w>
Ökos ystem
zi g</w>
zer o.</w>
wie der,</w>
was ?</w>
unabhängi g</w>
ulti me</w>
tratt ava</w>
tran qu
tem i</w>
t -
su pp
straordin aria</w>
str ei
stol z</w>
ster oi
spezi elle</w>
sost anze</w>
sol di,</w>
sier ung</w>
scopr ir
sch ließen</w>
richt ungen</w>
regel mäß
re de</w>
pro ver
po ',</w>
pi azz
pen di
pass ato,</w>
ot .</w>
onn en.</w>
ogra phi
ni geri
nach denken</w>
moti vi
mer it
mani pol
leg g
l una</w>
ko pi
k äm
isch e,</w>
in t</w>
improvvis o</w>
i e,</w>
ho ch,</w>
hin weg</w>
h üll
giust o.</w>
gener ale,</w>
gen d.</w>
gelern t,</w>
geleg t</w>
frat elli</w>
figli ,</w>
fi k
f res
etc .</w>
ess endo</w>
eser cito</w>
er nen</w>
er hält</w>
ell en
ek tu
ech ni
e --</w>
doman da,</w>
doc um
do zz
di mostra</w>
den :</w>
dav ano</w>
d over
cres cit
cre de</w>
cort ec
comun ità.</w>
cio è,</w>
chiam ate</w>
carb oni
car riera</w>
brau chten</w>
bra chten</w>
bis ogni</w>
biolog ischen</w>
av anti,</w>
at tere</w>
ass enza</w>
arl e.</w>
ar mon
anco r</w>
anch '
aliment are</w>
acc anto</w>
abbi ate</w>
Zusammen arbeit</w>
Z elle</w>
Washing ton,</w>
Ver ein
Ver b
T ab
Su d
Statt dessen</w>
Spiel e</w>
Sch utz
S ag
Plan et</w>
Per f
Ox ford</w>
Neur o
N ich
Mag az
L inien</w>
Krank en
Kos ov
Ker l</w>
Jos hu
Insom ma,</w>
In f
Ide en.</w>
Hand y</w>
Grün de,</w>
G et
Er st</w>
Ein druck</w>
Deut schl
DN A.</w>
D V
Conn ect
Comput er.</w>
C' erano</w>
Bil d.</w>
B en</w>
Amer ica,</w>
Afrik as</w>
A h,</w>
200 8</w>
über wäl
è ?</w>
zwei ,</w>
zi pl
zei chen</w>
wie viel</w>
weiter er</w>
vol uti</w>
vit e.</w>
vist a.</w>
verr ing
verdi en
vec chie</w>
un' azienda</w>
ul ta</w>
tecn ica</w>
tar di</w>
tant o.</w>
t hi
t em</w>
su chen.</w>
strategi e</w>
strategi a</w>
st opp
st it
st ica</w>
spieg azione</w>
sott ol
sosti ene</w>
sol o.</w>
siv en</w>
sistem a,</w>
settiman a,</w>
seh r.</w>
seg gi
sch rieb
sch on.</w>
scen dere</w>
sau ber
salut e,</w>
ro bu
rit mo</w>
riff e</w>
respons abil
reb en</w>
rat to</w>
ragazzi ,</w>
r ete,</w>
proz ess</w>
port ati</w>
pian i</w>
piacci ono</w>
pi g
persön liche</w>
par cheggi
pal co</w>
ob en,</w>
normal mente</w>
networ k</w>
n etz
mus eo</w>
mittel s</w>
min us
man .</w>
m ed
l' uno</w>
l eucht
kl op
k es
inter vento</w>
inten zione</w>
impegn o</w>
imm o</w>
ik er</w>
höh ere</w>
her gestellt</w>
hat ?</w>
gesch ütz
gegensei tig</w>
fu oco</w>
frat ello</w>
frag ten</w>
fol gt</w>
felic ità.</w>
f rieden
exist ier
est ate</w>
eser cit
es periment
erlaub t,</w>
er er</w>
entr ano</w>
einzi gar
eg al,</w>
economi a.</w>
e zione.</w>
e k</w>
dr auß
doll aro</w>
dinam ica</w>
difficil i</w>
dall' altra</w>
cor re</w>
conn ett
confron to</w>
compas sion
comin ciò</w>
coltiv are</w>
carb one</w>
c lu
bewus st,</w>
beg rei
be deck
aus piel
atur en</w>
ator e:</w>
ang et
ander e.</w>
an geb
ament i.</w>
ak u
ab er,</w>
Zukun ft.</w>
Wer bung</w>
V is
To chter</w>
Technologi e.</w>
T est</w>
Strukt uren</w>
S port
S ens
Rei h
Problem e,</w>
Pos sono</w>
Ph ase</w>
P arti
Oze ane</w>
Ovvi amente,</w>
O ,</w>
N ami
M isch
L' altra</w>
L asst</w>
L am
Kombin ation</w>
Kin d,</w>
K h
Intervi e
Gesch ma
Gerä te</w>
Gebur t</w>
Fol ie</w>
Europ a,</w>
Er inn
En tr
Dr eh
Di o.</w>
Dam als</w>
Bus in
Bu ch,</w>
Bevölker ungs
Bab y</w>
B and
3 3</w>
. com</w>
über qu
Über rasch
zeichn et</w>
wär en,</w>
wo von</w>
wo für</w>
wer ke</w>
wass er
wahr .</w>
verständ lich</w>
venti on
v asi</w>
ut a,</w>
un des
um m
u mi
u e</w>
tra du
tor en</w>
tit olo</w>
tig en,</w>
ten de</w>
tele visi
t endono</w>
succe de.</w>
sti ano</w>
st reck
st essi,</w>
spi aggi
spezi ellen</w>
spazi ale</w>
sol cher</w>
sitz t</w>
senti vo</w>
se zione</w>
schwierig ,</w>
schau en.</w>
s ."</w>
rom per
ret e.</w>
rei che</w>
re fl
rappresent ano</w>
raggi un
psic ologia</w>
pron to</w>
pron ti</w>
possi ate</w>
port ò</w>
per forman
p ace</w>
p .</w>
opportun ità.</w>
oc ken</w>
nä her
notwen dig</w>
nec essità</w>
nachzu denken.</w>
mar kt</w>
lö sen,</w>
leb enden</w>
lauf en,</w>
l' effetto</w>
l eu
l egn
l ament
l ac
kes pe
k rank</w>
ir si</w>
ini amo</w>
in fine</w>
he k</w>
gewiss er</w>
gespro chen.</w>
ges und</w>
g h</w>
fin e.</w>
film ato</w>
fer mare</w>
fenom en
esper to</w>
ent er</w>
en da</w>
el en</w>
doman de.</w>
diver si,</w>
distru zione</w>
difficol tà</w>
diesel ben</w>
dici amo,</w>
descri vere</w>
des :</w>
cre atura</w>
contin ente</w>
compren si
com '
co c
cli enti</w>
chirur g
cer velli</w>
c rom
bud get</w>
br an
bi m
be wusst
bambin o,</w>
b ü
autor ità</w>
automat isch</w>
ar it
appren dimento</w>
abit anti</w>
Vor her
Ver wend
V o
Unterstütz ung</w>
Ther api
T ric
T esz
Stad t.</w>
Spr ech
Sig ni
Schwar z
S itz
Rus sl
Qual che</w>
Qu ale</w>
Per sön
Par k</w>
P et
Organis ationen</w>
O sten</w>
N äch
M ig
M echan
M S</w>
L yn
Kre u
K e
Ira n</w>
Instituti onen</w>
In sel</w>
In ner
In iti
Hinsi cht</w>
HIV /
Gef än
Gebur t
F e
F as
Experim ente</w>
Ex plo
El emente</w>
Eart h</w>
Can y
C E
Beob acht
Benjam in</w>
Ban k</w>
B ob</w>
B au</w>
AID S,</w>
3 0.000</w>
3 .
über win
än ge</w>
zwei fel
y "</w>
wähl en</w>
wirk lichen</w>
wei b
w and</w>
vist i</w>
veröffent licht</w>
ve icolo</w>
univer so,</w>
u p</w>
tion en,</w>
tent ativo</w>
spen dere</w>
situ azioni</w>
sicur i</w>
schwer ,</w>
schle chter</w>
schick en</w>
ruh ig
ru fen</w>
rit ir
rest are</w>
re cor
re ci
ragion e.</w>
ra l</w>
program mi
prev edi
por re</w>
piedi ,</w>
per ò,</w>
per icolo</w>
p itt
ot her
oper e</w>
olog i</w>
occu par
ob es
ni ent
neut r
na :</w>
n un
mostr ar
mondi ale.</w>
mi gr
mensch licher</w>
mem oria</w>
läu ft.</w>
lus t</w>
lieg t,</w>
leb te</w>
l as</w>
kam en,</w>
j ap
intu itiv
imp ul
im mo
ick en</w>
i e.</w>
hol en.</w>
hin ten</w>
her stellen</w>
gra du
gener are</w>
gen e</w>
gemeinsam en</w>
geda cht</w>
fin isce</w>
fidu cia</w>
fer mar
fal sch.</w>
f okus
etw as.</w>
et i
es pan
er forder
ens eit
en det</w>
emisfer o</w>
eff ettu
ecceter a.</w>
drei dimension
dra ht
dov rei</w>
dov evano</w>
dov evamo</w>
disegn o</w>
differ enzi
den noch</w>
corr ente</w>
condi zione</w>
con vincere</w>
col po</w>
co p
cin ese</w>
cent im
cattiv a</w>
car ico</w>
c chi
blu ,</w>
bizz ar
biolog ische</w>
besch leunig
bar riere</w>
b ahn</w>
auf genommen</w>
astr oph
as che</w>
an da,</w>
am ici.</w>
alt o.</w>
aff in
ad en.</w>
Zit at</w>
Wettbewer b</w>
W est</w>
Vide os</w>
Universit y</w>
Temper atur</w>
Telef on</w>
T onnen</w>
S I
Pakist an</w>
P olo</w>
P ic
P C</w>
Oze an
O cci
N on
My th
Min ist
M ini
Liebling s
Le on
Konsu ment
K eit
John son</w>
J ack
Hand l
Großbritanni en</w>
Gener ationen</w>
Gemein de</w>
Gefän gn
Frag en,</w>
Flei sch</w>
Er wart
Er find
Emis sionen</w>
Eff ekt</w>
Eck e</w>
E g
Bus h</w>
Ben utz
Bed roh
B ril
B am
Ar t.</w>
An geb
A g
5 5</w>
200 7</w>
20 %</w>
2 .000</w>
" L'
zusammen ge
wärm ung</w>
weg s</w>
w en</w>
vergangen en</w>
verbreit et</w>
ver brachte</w>
un' area</w>
tras forma
tr atto</w>
ter weise</w>
ten uto</w>
superfici e.</w>
st re
speci alizz
sp ontan
sor ri
si mu
setz t.</w>
setz t,</w>
settiman a.</w>
schi avit
sap evamo</w>
s abbi
ro polit
rit i
ric icl
raccol to</w>
pu t</w>
proposit o,</w>
posi zion
pi aci
persön lich</w>
par co</w>
otti ma</w>
oh n,</w>
obb y</w>
no zione</w>
natur ale.</w>
nas cita</w>
mort e,</w>
mei ste</w>
medizin ische</w>
mar g
man i,</w>
loc ale</w>
lich ?</w>
l' informazione</w>
l' aspetto</w>
l' architettura</w>
l egno</w>
kommuni zier
k ins</w>
jen er</w>
intern o.</w>
inter essi
inizi ai</w>
in ne</w>
immagin azione</w>
iment o.</w>
ier i,</w>
h i.</w>
gigant es
ges amm
gefrag t,</w>
far l
fall en,</w>
et h
espon enzi
equival ente</w>
ent steht</w>
e zu
dur ata</w>
drei ,</w>
dis si,</w>
di cono,</w>
de di
coper t
continu o</w>
consumat ori</w>
conos co</w>
colleg a</w>
cer chio</w>
c ine</w>
c ass
blei ben,</w>
bess er.</w>
bekann te</w>
be züglich</w>
b at</w>
au t</w>
ativ e,</w>
at han</w>
ap po
amm inist
americ ano</w>
alt o,</w>
abb ond
Zivilis ation</w>
Wor ten</w>
Willi am</w>
Websi te</w>
W en
Vor fahren</w>
Sp eich
Sinn ,</w>
Sha kespe
S pen
R ac
Phän omen</w>
Nachbar n</w>
N ationen</w>
Maßst ab</w>
Masch in
Mal aria</w>
L ernen</w>
Krei sl
Kon stru
J a
Gr enze</w>
Gr enz
Gew inn
Gener al</w>
Führ ungs
Ex trem
Erklär ung</w>
Er folg
Entdeck ung</w>
Ein en</w>
E C
Dig it
Chicag o</w>
C op
C :</w>
Betra cht
Bet rieb
Best and
Bes onder
Bedürf nisse</w>
Be ',</w>
B h
Ausma ß</w>
Ant eil</w>
An gestell
8 0%</w>
2 9</w>
Über zeug
Ä l
zi r
wis st</w>
werden ?</w>
wel l</w>
wei ch
web ,</w>
w üs
volont à</w>
viel e,</w>
ver ità,</w>
ven uta</w>
v egli
utilizz ato</w>
ut i,</w>
ur en,</w>
uman e</w>
ul teri
ugu ale</w>
tras formazione</w>
tos sic
tor niamo</w>
test o</w>
techn ischen</w>
tatsäch lich,</w>
super are</w>
stra hl
str ö
stell a</w>
spr uch</w>
spr u
sp eich
sostanzi almente</w>
sol ange</w>
seit dem</w>
secon do,</w>
scienzi ato</w>
schwar zen</w>
schi f
sch es</w>
sali re</w>
ros so</w>
riusci vo</w>
richt et</w>
ricer catori</w>
respons abile</w>
relativ amente</w>
re vol
ram ma</w>
radi o</w>
r ott
quant a</w>
qu a.</w>
portati le</w>
popol azione.</w>
perio do,</w>
partecip are</w>
par ole.</w>
par am
p essi
p ec
ov unque.</w>
ologi a,</w>
off re</w>
oce an
o ten</w>
nicht -
n eri</w>
muover si</w>
monit or
man chen</w>
ma chte,</w>
lung o.</w>
lich ste</w>
larg o</w>
lamp ad
l' un</w>
l' altro.</w>
l à.</w>
l ob
komm erzi
k ö
k art
interessan ten</w>
ingegn er
ing -
illu str
id ro
i z
hö re</w>
her um,</w>
gros sa</w>
gra v
giust a.</w>
giorn ale</w>
gew and
getro ffen</w>
ger u
gemeinsam e</w>
geleg en
gel i
ge zeigt,</w>
fün f
forma .</w>
folgen de</w>
fec ero</w>
far li</w>
f ede</w>
ex tra
erwart et</w>
er o.</w>
entstand en</w>
ell i.</w>
dott or
dop pel
dit à</w>
dis sero</w>
dis ser
dic evano</w>
dia positiv
di o,</w>
di eta</w>
di alog
dam al
c’ è</w>
conos cer
con segn
con e</w>
comport amenti</w>
compas sione,</w>
co di
ci f
cat astr
car ica</w>
cambi ando</w>
bil den,</w>
bi ,</w>
bass o.</w>
bambin a</w>
b ere</w>
azion e?</w>
aut o,</w>
auf tr
auf s</w>
ass egn
as ci
ari e.</w>
and rà</w>
and ar
an trop
an :</w>
aff ron
acca dendo</w>
a der
Z ehn
Wahrnehm ung</w>
Ver stehen</w>
Ver g
Universu m
U hr
Tr ov
To il
T asch
Sü ß
Sy l
Stra hl
St and</w>
Schul e.</w>
Schrift stell
Schlüs sel
Schl uss
Ric ord
R and</w>
Quest '
Problem en</w>
Pr em
Phili p</w>
P in
P azi
Ovvi amente</w>
O b</w>
Müt ter</w>
Mex ik
Li ber
Leist ung</w>
Kü ste</w>
Kl ini
Kam pag
Kaff ee</w>
Inform ations
I mm
Gri pp
Geschi chten,</w>
Gesch äf
Funk tion</w>
Forsch er</w>
Fl üssig
Elek tro
DN A,</w>
D utz
Co si
Californi a</w>
Bru der</w>
Bon ob
Aut o
Ausr üst
Aus stellung</w>
Aus bildung</w>
Au ff
Angel es</w>
Ach se</w>
A ri
2 8</w>
. ♫</w>
" St
ö s</w>
ä ter</w>
Ü bri
Ä thi
zu stellen,</w>
zi o,</w>
x .</w>
wor den,</w>
wirk lich.</w>
weiß e</w>
versu chten</w>
verrück t</w>
tä glichen</w>
trau m
tratt amento</w>
ti m
t äusch
t a
stär k
str ana</w>
sov ra
so weit</w>
sinist ra.</w>
sig keit</w>
sier te</w>
sent ite</w>
sen den</w>
seltsam e</w>
sco pri
sci enza.</w>
sc ann
salut e.</w>
ris posto</w>
ricord ate</w>
rel ev
raff in
ra zione.</w>
quarti ere</w>
qu in
pr äch
post -
pi ú</w>
perc ep
pensier i</w>
peggi o</w>
passier en.</w>
p ur</w>
osserv ato</w>
or io</w>
off enen</w>
o po
nö tig</w>
nutz t</w>
natur ale,</w>
muc chio</w>
mi ra
mas sic
market ing</w>
ma cht
m esse</w>
län der</w>
lieg en.</w>
libr o.</w>
lass t</w>
l' inizio</w>
l' impatto</w>
l' aria</w>
l umin
l otta</w>
l aden</w>
k ogn
j et
irgend eine</w>
intell ettu
integ ri
ini zi</w>
inc ro
hab it
gän z
gros sen</w>
gran di,</w>
gioc atori</w>
gh i</w>
get ragen</w>
get an.</w>
gesell schaft
ger en</w>
genü gend</w>
gen za</w>
ge ometri
ge fl
gab e</w>
fu er</w>
frei e</w>
fr etta.</w>
fl ut
f ami
fami liar
ex trem
evol uti
et ro
erseit s</w>
er s,</w>
er heb
equilibri o</w>
ens pi
en ...</w>
elim inare</w>
el ten</w>
effic ace</w>
ef f</w>
dor mi
diff u
dies ,</w>
der ung</w>
dell' Africa</w>
d ri
d einer</w>
d anza</w>
cres cono</w>
cre ativit
consider iamo</w>
cominci ai</w>
comin cer
co ordin
cli ma</w>
ci ò
cas o.</w>
cal ore</w>
c e-
bring t,</w>
brev e,</w>
beweg t,</w>
bene fici</w>
bell issimo</w>
be kommt,</w>
av voc
aut ent
au l
assum ere</w>
asso miglia</w>
arri vo</w>
ar mi.</w>
anten ati</w>
ander s.</w>
am ano</w>
aggi orn
ag h
afrik anische</w>
a do</w>
Zeit ung</w>
YouTu be</w>
V ul
Uom o:</w>
Test s</w>
Te en
Su dafric
St ick
Sob ald</w>
S zen
Ru anda</w>
Produk tion</w>
Pot rei</w>
Philos op
P itt
Ox for
Nich ol
N ähr
N eg
Möglich keiten.</w>
Mäd chen,</w>
Medi a</w>
Mag ari</w>
M ak
Land schaft</w>
L ’
L inu
Kl ein
Kinder n,</w>
K A:</w>
J :</w>
In tu
H em
H andel</w>
Gr ande</w>
Gott es</w>
G öt
G ran
Fir ma,</w>
Era vamo</w>
Epi demie</w>
Ent wur
Engl and</w>
En d
Durch schnitt
Da für</w>
Ch ina,</w>
Bi bel</w>
B I
Aus druck</w>
Asp ekt</w>
Ap par
All es,</w>
Ak ti
A tem
A steroi
3 50</w>
3 .000</w>
2 2</w>
19 3
10 .</w>
00 .</w>
. ]</w>
- ,</w>
Ä hn
zi o.</w>
wäs ser
wunder baren</w>
west lichen</w>
w ehr
vul ner
vor bei</w>
vide o,</w>
vi vi
veränder t,</w>
verfüg bar</w>
verbess ern</w>
v ono</w>
v ino</w>
uti g</w>
ung sp
ul i</w>
tr ock
tr anne</w>
teil weise</w>
taus enden</w>
suffici ente</w>
su per</w>
su ona</w>
stess a.</w>
ster ben,</w>
steig t</w>
steh ung</w>
stad t</w>
st am
sping e</w>
spiel te</w>
speci e.</w>
sopravviv enza</w>
simmetri a</w>
si amo.</w>
sch rän
s et</w>
ris chen</w>
ric av
re kt
rad doppi
prov en
prov ando</w>
pl atz</w>
perc ezione</w>
per man
p alla</w>
os s</w>
os cur
origin ale</w>
ogi a</w>
of t,</w>
obbli g
nied rig
mus ste,</w>
mu sul
moral ischen</w>
moment an</w>
meccan ismo</w>
m ezza</w>
lu stig
loc ali</w>
lang ,</w>
l à,</w>
jung er</w>
j u
itu dine</w>
interessier t,</w>
in dov
impres a</w>
imprendit ori</w>
imp or
immagin i.</w>
immagin e,</w>
ic amente.</w>
hiel ten</w>
gi f
ge wicht</w>
form ato</w>
form ano</w>
for ti</w>
flu i
fig ura</w>
felic e.</w>
fatt ore</w>
el son</w>
dr aus
dit a.</w>
dispi ac
dev ast
dett a</w>
den do,</w>
demo crat
dar ò</w>
copi a</w>
confl itto</w>
confin i</w>
comun e.</w>
co er
chi ese</w>
cel eb
cap isco</w>
c ast
brillan te</w>
blau e</w>
bil ità.</w>
ber u
benö tigen</w>
behau p
beg eister
beeinflus st</w>
be komme</w>
be kamen</w>
aut o.</w>
aus sehen.</w>
atz ,</w>
att ori</w>
at omi</w>
at omi
assi eme</w>
allu cin
alist i</w>
accor do</w>
a ste</w>
Z erstör
Z ahn
Weg .</w>
W äl
Unter nehmer</w>
Uni vers
Tier e,</w>
The ater</w>
Tag es
T an
Sonnen licht</w>
Schimpan sen</w>
Sch ül
Sch o
S us
Region en</w>
R ot
R el
Or te,</w>
Mitt ag
McDonal d'
Ma y
M eg
Lond ra</w>
Lei der</w>
Las s</w>
L aden</w>
Krei s</w>
Kohlenst off
Keit h</w>
J ill</w>
J eff</w>
J e</w>
Ingenie ur
Hilf s
Ha iti</w>
Glück ,</w>
Frei wil
For d</w>
F eb
E uch</w>
Dov remmo</w>
Diskus sion</w>
Di vent
Desig n,</w>
D A</w>
C ambi
Bev or</w>
B ,</w>
An sicht</w>
200 6</w>
00 ,</w>
“ .</w>
ück sich
über leben</w>
über leben.</w>
zog en,</w>
z äh
wäch st</w>
wenig stens</w>
wel t,</w>
visu elle</w>
vide o.</w>
verwend et,</w>
veder lo</w>
v en</w>
v as
uscit e</w>
uom o.</w>
ungs -
un' enorme</w>
un ten.</w>
un mittel
uman ità.</w>
torn a</w>
tir are</w>
tig keit.</w>
ter ò</w>
tecni che</w>
t ast
su bit
stell ung,</w>
spr ach,</w>
sp on
sp eso</w>
soci ali,</w>
sfrutt are</w>
sex u
setz ten</w>
schl üs
sch reit
s oc
s conosci
ro te</w>
risp ett
ris e</w>
ric co</w>
ri c</w>
r on</w>
r ar
qualc uno,</w>
progett azione</w>
pri or
pr ess
potr esti</w>
pot essi</w>
por to</w>
poli zia</w>
pol izi
piet ra</w>
piccol o,</w>
piatta forma</w>
pass ano</w>
parl ar
par adig
pan or
paes i.</w>
pad re,</w>
osserv ate</w>
os ser
ogn una</w>
offri re</w>
o ]</w>
not te.</w>
nenn t.</w>
n de</w>
mitt lerweile</w>
mit ,</w>
mi amo</w>
men zion
mapp e</w>
m ü
m m</w>
m ann
lu ci</w>
li ef
les en,</w>
l' obiettivo</w>
l att
k i</w>
it .</w>
is ci</w>
in sol
in fine,</w>
ident ità</w>
heit en.</w>
geschaff t</w>
ges u
gel esen</w>
fri ed
frequ enza</w>
for este</w>
flieg en.</w>
figli a</w>
fi la</w>
fer ma</w>
ex pon
ev a.</w>
etz en</w>
et i</w>
ernst haft</w>
erk un
er oi</w>
er leben</w>
er fahren</w>
entschei den</w>
en g</w>
emp ati
einzi g
einig es</w>
einfach es</w>
dubbi o</w>
drü ben</w>
do po
diver so,</w>
dist in
discut ere</w>
denar o.</w>
de -
darüber .</w>
d' acqua</w>
crom os
conten uti</w>
con ti</w>
col a</w>
co :</w>
co -
cap ite</w>
cap elli</w>
br eite</w>
beli ebi
b elle</w>
b .</w>
atti mo</w>
att eggi
ar ma
ambi enti</w>
alist en</w>
aiut ato</w>
aggi .</w>
accad uto</w>
ac coppi
abi li,</w>
ab e</w>
Zeich n
Z ent
Wes entlichen</w>
W üst
Vor der
U p
T ö
T op
T ext
Sp e
Schlüs sel</w>
Rück en</w>
Rönt gen
Rät sel</w>
Result at</w>
Res p
Rech en
Proz ent
Po wer
P yr
P ep
Oh ne</w>
Og gi,</w>
N ort
N ad
Mut ter,</w>
Molekü l</w>
Mo der
Min ute</w>
Mil itär
Mar te.</w>
M el
Lan gl
Kra ft
Kommunik ation</w>
Karri ere</w>
Indi en.</w>
Goog le,</w>
Fri ed
Flü cht
F ast</w>
Emo tionen</w>
E ’</w>
De an</w>
Cra ig</w>
Comput er,</w>
Br ücke</w>
Blu t</w>
B C</w>
Arth ur</w>
Ab hängi
A qu
A dam</w>
4 ,
2 5
... .</w>
. or
- D
" Bene,</w>
ö ck
ä ck
zugän glich</w>
wor um</w>
w ander
w al
versu chen.</w>
verlor en.</w>
ver bringen</w>
v ac
um fass
u ri
truc co</w>
tonnell ate</w>
tol l</w>
tig en.</w>
ten gono</w>
successi va</w>
stän de</w>
stell e,</w>
sp esso,</w>
sosteni bile</w>
simil e.</w>
sicur o.</w>
si le</w>
servi amo</w>
seggi ol
se der
scris se</w>
schätz en</w>
schwi mm
schließ en.</w>
sar emmo</w>
rist ot
ricer ca,</w>
ric e</w>
ri g</w>
res i
rag en.</w>
r ati
pun kt,</w>
prog etti
produ ktiv
prender si</w>
pre -
potr anno</w>
poll o</w>
pic chi
pf er</w>
pf en.</w>
perch é.</w>
par assi
ov i</w>
on ore</w>
on -
ol umin
od ore</w>
no sti
no ch.</w>
nah me,</w>
na zione,</w>
n üt
n ur
n ett
n 'è</w>
mu ster</w>
mot ori</w>
mostr i</w>
molec ol
mo dell</w>
mis ura
min er
mi k
mei ster</w>
masch ine</w>
mach e,</w>
m oll
lich :</w>
li bero</w>
l ap
l a,</w>
kultur elle</w>
k ing</w>
inspiri ert</w>
im per
ic ità</w>
i per
i ...</w>
herzu stellen,</w>
handel n</w>
großar tig.</w>
gorit h
giusti zia</w>
gio ia</w>
gew ohn
gel ebt</w>
gall eggi
för mi
fron ti
fr em
fl ei
fi si
f el</w>
f eb
f e,</w>
f asi</w>
est ra
es alt
es a,</w>
ern st</w>
er h
entfern t,</w>
ent schlos
enor me.</w>
en a.</w>
en .“</w>
embr e,</w>
ell .</w>
ec chie</w>
dur o</w>
diff onder
dentr o.</w>
dann eggi
d o:</w>
cresci uta</w>
cortec cia</w>
cor pi</w>
con ven
collabor azione</w>
chie do</w>
chi o
chi av
ch ar
cellul ari</w>
bell o.</w>
behandel n</w>
beh ör
be zieh
av o,</w>
attiv a</w>
ass ur
arriv ò</w>
an che,</w>
amm inistr
altr e.</w>
allu zin
all em,</w>
aktu elle</w>
aggi ,</w>
aer ei</w>
ad esi
acc ur
ac chi
a k</w>
a ir
Zw eck</w>
Zei chen</w>
Z immer</w>
West en</w>
Werkzeu g</w>
Wei se.</w>
W ein
W agen</w>
Videos pi
Uni ver
Trag ö
T un
T im</w>
Stu hl</w>
Stre et</w>
Sp ann
Sk y
Signi fica</w>
Sch öpf
Sch ätz
Sch auspiel
S ett
S ei
S cot
Restau ran
Re pu
R ett
Pren diamo</w>
Pens avo</w>
P ur
Occi dent
Nicht- Null
Netzwer ke</w>
Molek ül
Mil l
Men gen</w>
Man ag
M um
M r.</w>
M ani
L or
L achen</w>
Kultur ,</w>
Komm ent
Kind heit</w>
K lang</w>
Inter fac
In halt</w>
Hin der
Gut .</w>
Gl et
Gef ahr
G all
F ok
F ino</w>
Exist enz</w>
Ex pedi
Ent schuldig
Elektriz ität</w>
E ti
Design -
D ec
D ann
Coll ege</w>
Chr omos
Char li
Blut gefä
Bil lionen</w>
Beweg ungen</w>
Ber echn
Be weise</w>
B ay</w>
Ar z
An tri
An gi
Al lo</w>
Al gorith
A ristot
9 0%</w>
200 1</w>
- --</w>
"O ka
" E</w>
äng nis</w>
Äthi opi
wär en.</w>
wass erst
vor sich
visi ta</w>
vi di</w>
versorg ung</w>
veloc emente.</w>
v es</w>
us cita</w>
uman it
tar di,</w>
t ?"</w>
svilupp o,</w>
su olo</w>
stoff en</w>
st amin
spr achen</w>
speci fic
sp un
sogen annten</w>
simu li
sier en,</w>
sic ura</w>
si s</w>
sent iamo</w>
secon do.</w>
schrit t
schein end</w>
scel ta.</w>
rivolu zion
ri gen</w>
re agieren</w>
rappresent azione</w>
r endo</w>
prot o
previ sioni</w>
pover tà,</w>
po mer
piac eva</w>
perf etto</w>
pat ri
p one</w>
orologi o</w>
orig ami</w>
ologi e.</w>
occup a</w>
occa sione</w>
ni po
nach denken.</w>
na i</w>
n ata</w>
mondi ale,</w>
meravigli osa</w>
medi a.</w>
ma gli
lok alen</w>
lie b</w>
lent amente</w>
l eh
kl e
kenn t</w>
k g</w>
jün g
itu t</w>
isch en,</w>
is sero</w>
invest ire</w>
interessant er</w>
intell ektu
ins besondere</w>
inizi o.</w>
inizi amo</w>
inc lin
impar ando</w>
immag azz
her an
grü nen</w>
gran di.</w>
gi gan
gewor den,</w>
gewis ser
gewinn en.</w>
gew innen</w>
ger n,</w>
gen z
ge fangen</w>
galas sia</w>
g keit,</w>
fra gi
form ica</w>
for te.</w>
fondament ali</w>
facci ano</w>
fa che</w>
f ed
evolu zion
ett amente</w>
et e:</w>
estr arre</w>
es au
es amin
er o,</w>
er fahren,</w>
entw ickl
ell a,</w>
elektr on
eil ,</w>
effek tiv</w>
ec nologi
e do</w>
dist ur
der iva</w>
dell' acqua</w>
del fin
dedic ato</w>
dau erte</w>
dan k</w>
dacht e:</w>
d sch
d liche</w>
cur va</w>
crei amo</w>
contr over
compas sione.</w>
cominci ando</w>
com 'è</w>
colp isce</w>
coll ass
climat ico</w>
chiam ava</w>
cacci a</w>
bor sa</w>
bil mente</w>
besteh t,</w>
bes org
ben i</w>
be un
b ür
b ,</w>
av reste</w>
autom obi
aus sieht,</w>
ann t</w>
and o?</w>
an gesch
an gem
ami che</w>
al ti</w>
ak a
affascin ante</w>
ad ol
Wur zeln</w>
Wissenschaf t,</w>
Wirt schaft
W är
Vorstell ungen</w>
Tutt avia,</w>
TED x
T eu
T emp
Südafrik a</w>
Su ch
Stra s
So ci
Schließ lich</w>
S u</w>
Revol uti
R ob</w>
Protot yp
Potenti al</w>
Poliz ei</w>
Politik er</w>
Par liamo</w>
P re
P enn
P I
Neu ig
Nach richt
N ai
Mäd ch
Länder ,</w>
Lincol n</w>
Lieb e,</w>
L ogi
Komm en</w>
Kin g</w>
K ern</w>
Jeff er
J er
Him al
Hel den</w>
H at</w>
Gr and</w>
Golf o</w>
Gi bt</w>
Gesch le
Gef ahr</w>
F und
Di am
D R:</w>
Chr is,</w>
Ch il
C ola</w>
Bür ger</w>
Bro o
Blick wink
Anwend ung</w>
A kt
A im
200 3</w>
"S ì,</w>
" Questo</w>
" Io</w>
ün f
über leg
Ö k
zz o</w>
zog en.</w>
zamp e</w>
wunder volle</w>
woll ten.</w>
wes halb</w>
weltwei ten</w>
wach sen.</w>
vor hand
vis o,</w>
versu chte,</w>
verbr eiten</w>
ved remo</w>
us s,</w>
ursprün glich</w>
un' intera</w>
ul ar
trin ken</w>
tradi zione</w>
torn ando</w>
tiv e</w>
ter ra
ter -
te orie</w>
succe dere</w>
sott '
sol e.</w>
sin cer
si ring
segu endo</w>
se dere</w>
schön es</w>
schließ end</w>
schli mmer
schau e</w>
sch ule</w>
sanit ario</w>
san ità</w>
ro -
ret ten</w>
render lo</w>
r äum
pu bb
pr endo</w>
pig ment
pes ca</w>
par ti.</w>
par agon
ox i
ot s</w>
os sa</w>
orb ita</w>
or di
opti mist
on ale</w>
on :</w>
ober en</w>
null a,</w>
niss e.</w>
nicht ."</w>
ni eder
neur osci
mezz o,</w>
ma chte.</w>
m ato</w>
m are,</w>
ling e</w>
lang frist
l' ap
l' amore</w>
l ott
künst liche</w>
jetz t.</w>
ità ?</w>
is o
is mi</w>
inter azione</w>
ing s</w>
individu are</w>
i ?"</w>
hän gen</w>
grü ne</w>
gew esen.</w>
ger ei
genau ,</w>
gen oci
gegang en.</w>
fühl en.</w>
fäll t,</w>
fu i</w>
fu g
flieg en,</w>
fl essi
fic azione</w>
fav ore,</w>
f eu
expon enti
ev o,</w>
esperi enza.</w>
es ie</w>
erzeu gen.</w>
erwä h
erstaun lich</w>
ern euer
ermöglich en,</w>
er si</w>
enseit s</w>
emp find
elektr ische</w>
eigent liche</w>
effici enza</w>
ec cell
dür fen</w>
dr in
dott ori</w>
dimostra zione</w>
diffu sione</w>
diag nost
di av
di ab
dettagli o</w>
den ze</w>
de coll
continu ato</w>
conn essioni</w>
con dann
compl es
co inci
cit azione</w>
chiu dere</w>
cardi ac
capi amo</w>
cam era</w>
brau cht.</w>
bra vi</w>
bl ock
bi t</w>
beweg t.</w>
bet ro
beobacht en,</w>
begeist ert</w>
be wohn
be finden.</w>
av ano,</w>
attravers are</w>
asp etta</w>
ar ten</w>
ang ol
and are.</w>
an hand</w>
aiut ano</w>
ad o
acqui si
Zi ele</w>
Zeit schri
Wich tig
W ar</w>
Vir en</w>
Viet nam
Säu get
System .</w>
Stu dio</w>
Spr achen</w>
Se ele</w>
Schwest er</w>
S we
S qu
Rich tig?</w>
R egno</w>
Pr inc
Pr endete</w>
Pf und</w>
P ari
Or t.</w>
O el</w>
O ce
O K</w>
Natur almente</w>
Natur .</w>
N elson</w>
Medi o</w>
Ma chen</w>
M erk
M aus</w>
L' altro</w>
L ar
Kno chen</w>
K lasse</w>
J ay</w>
J ack</w>
H i
Gra vit
Get rei
Gedank e</w>
G ord
G ehen</w>
F ur
Es s
Erfahr ung,</w>
En zy
Eig ent
Eig en
Don na:</w>
Defin ition</w>
Dan ach</w>
Dam en</w>
D un
D onn
D al
Coll eg
Col um
C ri
Be weis</w>
Au gen,</w>
Ar ten
An diamo</w>
Al an</w>
A li
A IM
. com
" In</w>
" :</w>
ì ?</w>
wor auf</w>
wei sen.</w>
vit e,</w>
vist o,</w>
verbess ern.</w>
verb unden.</w>
ver folg
util e.</w>
uom ini,</w>
unter nehmen</w>
tutt avia</w>
trasform ato</w>
ti eren.</w>
ter s</w>
t euer</w>
t etto</w>
succ esse</w>
studi ando</w>
str ati</w>
star ken</w>
spost are</w>
speci fico</w>
speci e,</w>
son der
sofist ic
sind ?</w>
si g</w>
sfor zo</w>
sel ezione</w>
sco ppi
schön ,</w>
schein t,</w>
scatt ata</w>
sc an
sbagli ato.</w>
rifer imento</w>
ri vista</w>
rac conto</w>
r oll
quattr o,</w>
prot est
pron ta</w>
pro viamo</w>
pren di</w>
pre zi
posi zioni</w>
polit ica,</w>
pl odi
pl an</w>
pl ac
piccol o.</w>
pi oggi
pi ll
pflanz en</w>
person ale,</w>
peggi ore</w>
pas siamo</w>
palazz o</w>
paes aggio</w>
ot a.</w>
os amente</w>
organ ismo</w>
op t
on cin
ok a
o --</w>
nell ’
n omm
n er.</w>
n ave</w>
mur i</w>
mu sik
movi mento.</w>
migli ore,</w>
mei ster
man ia</w>
madr e.</w>
limit e</w>
leist ung</w>
leb ten</w>
lavor iamo</w>
l ato,</w>
konsu mi
is sen</w>
is ca</w>
invol vi
ing redi
indi schen</w>
in far
i -
hät ten.</w>
hil ft,</w>
heraus gefunden,</w>
heraus finden</w>
ha il
h :</w>
guar di</w>
gu ck
gr au
gir o.</w>
gio co,</w>
genu g.</w>
geb er</w>
fü gen.</w>
fin ito.</w>
fil i</w>
fantast ische</w>
fantast ica</w>
fac endo,</w>
f ung</w>
f oll
f ichi</w>
est et
esperi enza,</w>
err y</w>
ermöglich t,</w>
erklär t,</w>
erklär en.</w>
er à.</w>
en ".</w>
em ail</w>
el e.</w>
ein gesetzt</w>
eh ,</w>
drück en</w>
dra st
dov remo</w>
discor si</w>
demo krat
dell' in
dav o</w>
da hin</w>
d ok
d eten</w>
cu sto
cu cina</w>
cre d
cont amin
consider ato</w>
consi st
conqu ist
complet o</w>
chi us
chi o,</w>
cap ita</w>
cap isce</w>
can di
campi oni</w>
calcol o</w>
br on
br in
bottigli a</w>
bo den</w>
blei ben
besser es</w>
ber echn
ber ech
beg leit
be acht
b os
b oll
b agn
aus ser
aus reich
aus gest
auf bau
au di
app en</w>
ant wor
an tro
an sehen</w>
am pio</w>
agi o</w>
ag er
af en</w>
a --</w>
Z y
Z ero</w>
Wrigh t</w>
Wort en,</w>
Wer k</w>
Ver sorg
Ver letz
Ver kehr
T on</w>
Statistik en</w>
Sta ats
Sp itz
Ser ie</w>
Schwef el
Sch aff
S vi
S pl
S no
S fortun
S co
Re chts
Rau m.</w>
R en
Qual cosa</w>
Potenzi al</w>
Nor den</w>
N est
Ma hl
Lag er</w>
L' abbiamo</w>
Kris e</w>
K a
Intervi ew
Inform ation
I mmer</w>
Höh e
Hig h</w>
Her stell
H ong</w>
H ey,</w>
Guer ra</w>
Gesell schaft,</w>
Gef ängnis</w>
Gat es</w>
Fett leibi
F rieden
E u
E ppure,</w>
Di abet
Dev e</w>
Dar stellung</w>
D ör
D ist
D '
C inqu
C her
Bu ck
Beweg ung.</w>
Berei chen</w>
B it
B erk
Arg um
Ar men</w>
Altr i</w>
2 4
ä ut
Über leben</w>
wor an</w>
wo mit</w>
wi esen</w>
w ein
viv enti</w>
videogio chi</w>
vicin o,</w>
viaggi are</w>
vern ünf
verdi enen</w>
verbin den</w>
ver läs
ver ab
vent o,</w>
ven der
va da</w>
v etro</w>
v amente</w>
utilizz ando</w>
untersu chen</w>
unter en</w>
tr itt</w>
tr enn
techn ische</w>
t s,</w>
t at,</w>
succeder à</w>
su s
su ici
stim a</w>
spezi ell</w>
si va</w>
si e?</w>
si amo,</w>
segret o</w>
scor sa</w>
schön er</w>
schnell ,</w>
sagge zza</w>
s periamo</w>
ri bu
recent emente</w>
re gener
ragazz ino</w>
qui ?</w>
quell o.</w>
proi ett
progr essi</w>
proc esso,</w>
prev al
potr ete</w>
pomer ig
pl us</w>
physi kal
perio do.</w>
pass ando</w>
pa i
p aus
oss ession
or et
or en,</w>
om b
ol it
oce ano,</w>
oc col
o !"</w>
nimm t,</w>
muov ono</w>
mol ti
merk wür
ment ale</w>
medi ci</w>
mag ,</w>
m her
lu stig</w>
lan cio</w>
kümmer n</w>
koll ektiv
k arte</w>
ist ischen</w>
invest imenti</w>
insegn amento</w>
ink lu
ing r
ing ere</w>
individu o</w>
ig ,</w>
ier e,</w>
i drog
idrog eno</w>
hier ?</w>
guer re</w>
grundleg enden</w>
grei fen</w>
getr ennt</w>
gel n</w>
gam ma</w>
g s</w>
g o.</w>
g enti</w>
g -
für s</w>
füll t</w>
fu sione</w>
frequ ent
fred do</w>
fra m</w>
fr en
fr anzösi
folgen den</w>
fic a.</w>
fam e</w>
facci amo,</w>
ex plodi
evol e,</w>
et à.</w>
et à,</w>
et hn
et es</w>
esplo sione</w>
errei cht.</w>
er gibt</w>
epi re</w>
entfern t.</w>
en kt</w>
en ",</w>
em al
e h</w>
e -</w>
dott ore</w>
donn a,</w>
do ch,</w>
dimostr ato</w>
diff ondere</w>
dest in
des .</w>
denar o,</w>
demon stri
dell' energia</w>
de gra
dar an.</w>
cresc endo</w>
cres ce</w>
confron ti</w>
con gel
con du
con dotto</w>
comp iti</w>
coinvol ti</w>
civi le</w>
cic l
ci are</w>
chi uso</w>
chi mi
chem ische</w>
boc ca</w>
bl auen</w>
bic chi
betracht et,</w>
bet reff
best and</w>
bess er,</w>
bes i
battagli a</w>
bat tuto</w>
bass o,</w>
basier end</w>
bas e.</w>
b üch
atti vi</w>
ati zz
astron om
ass or
aper ta</w>
anz ,</w>
an wend
an stelle</w>
an on
amb ur
am ica</w>
am i,</w>
ad en,</w>
a de.</w>
Zuck er</w>
Zi el,</w>
Z ur</w>
Z ur
Wü ste</w>
Wol fram</w>
Wirk ung</w>
Wer t
Vi ene</w>
Vertr auen</w>
Versu ch
Ver lust</w>
Ur sprung</w>
Ur heb
Un s</w>
Tech n
T ä
St ücke</w>
Schwierig keiten</w>
Sch alt
Sam en</w>
S z
S atz</w>
S an
S J:</w>
Ri si
Red woo
Raum fahr
R N
Proz ent,</w>
Pro f
Pitt sbur
Ni ve
N ation</w>
N ase</w>
Mar te,</w>
M und</w>
M iss
Lebens erwart
Kor allen
Kop f.</w>
Kohl endi
K lu
Jahr es
Int eg
Himal ay
H eut
H ai
Grün den</w>
Glob al</w>
Gl üh
Gen om</w>
Geg end</w>
Ged ächt
G ang
Fun zion
Fall .</w>
Einst ein,</w>
Dok ument
Diag ramm</w>
Di ff
Design s</w>
D ynami
D ol
Cent er</w>
C amer
Bi enen</w>
Bed ar
Aut or</w>
Ausw ahl</w>
And re
An statt</w>
An hän
Alex ander</w>
A pr
? ",</w>
3 000</w>
3 0,</w>
19 .</w>
än der</w>
äh en</w>
ä nen</w>
Öffent lichkeit</w>
zü gi
zwei mal</w>
zi ge</w>
von einander</w>
vo ci</w>
viellei cht,</w>
viel ,</w>
versu che,</w>
v ort
untersu chen,</w>
ul tra
u .</w>
tum ore</w>
tri bu
tradizion ale</w>
tip ico</w>
tief er</w>
tei dig
t on.</w>
stell e.</w>
stat us</w>
st ill
st a,</w>
sper anza.</w>
sim bol
sig nor</w>
servi va</w>
sel ten
scri ver
scienti fico</w>
schätz en,</w>
schmer z
schlag en.</w>
schein bar</w>
schaf ten,</w>
sch ock
samm eln.</w>
sa che</w>
s ogni</w>
ru b
rom anz
rifl ettere</w>
ri gi
rest itu
region i</w>
refl ek
re ali</w>
radi ci</w>
quadr ato</w>
qu indi
pun ta</w>
pu s</w>
präsent iert</w>
prom u
program m</w>
pro vi
princip almente</w>
poter e.</w>
pot h
port ate</w>
po se</w>
ph il
pens avano</w>
pens ate,</w>
passier t?</w>
passier en,</w>
par tendo</w>
pag ato</w>
pag a</w>
pa k
otti mist
organizz are</w>
organ i</w>
or y</w>
olog o</w>
nütz lich</w>
nonn a</w>
nom e.</w>
natur ali</w>
mö gen,</w>
mus colo</w>
mus col
moder na</w>
mo da</w>
membr o</w>
mei st</w>
m echan
lin o</w>
leb ende</w>
leader shi
l' ambiente</w>
l ab
komplex en</w>
kl ei
kl ar.</w>
kam en.</w>
k tu
j i
it t,</w>
ist a,</w>
ispir ato</w>
irgend jemand</w>
int ens
ingegn eri
in zwischen</w>
in dag
impres e</w>
ich ten</w>
i ."</w>
habit at</w>
h e.</w>
h e,</w>
groß ,</w>
gl ese</w>
gio i
genet ischen</w>
genet ische</w>
gen era</w>
gel eit
gel .</w>
geh ö
gefäll t</w>
ge kommen.</w>
gar a</w>
g no</w>
führ ten</w>
forma ,</w>
finest ra</w>
faci le.</w>
f anno.</w>
evol uti</w>
es cono</w>
er s
er ebbero</w>
er d
entr ato</w>
entdeck t,</w>
enor m</w>
end ste</w>
elektr ischen</w>
ein stimm
eg el</w>
ech sel</w>
e chter</w>
dit o.</w>
disegn i</w>
di ede</w>
di con
de hn
de cor
cult ure</w>
cu cci
corrispon de</w>
cor so.</w>
cor ri
cor all
continu amente</w>
consi glio</w>
comun e,</w>
com o
co str
ch a
cent esim
brit ann
bom be</w>
bom ba</w>
beun ruhig
betei li
ber ücksich
beh err
be findet.</w>
be di
bas a</w>
bar ca</w>
b oo
b eit
b asi</w>
aver lo</w>
auf nahme</w>
ativ er</w>
aspett ativa</w>
articol i</w>
arri vi</w>
ap part
an sieht,</w>
altr u
alt ra,</w>
all e
ak ul
acca dem
acc en
ac i</w>
ab y
ab gesch
Wür de</w>
Vis u
Verwend ung</w>
V it
Ter ra
T sun
Syn th
Syl via</w>
Sta at
St ör
Sout h</w>
Sol dat
Sch utz</w>
Sch nell
Sach en.</w>
Ru f</w>
R äume</w>
R am
Produ ktion
Pri vat
Phant om-
Pfl eg
Pa ese</w>
Mobil telef
Mil ch
M ang
Lebens ,</w>
Konfli kt</w>
Kon zentr
Inst itut</w>
Her stellung</w>
H on
Gri ppe</w>
Grafi k</w>
Gra s</w>
Gl as</w>
Gesicht s
Gebäu de,</w>
G li
G as
F aktor</w>
Ernähr ung</w>
Erfol g.</w>
Ein s</w>
Eff izi
E st
E si
E li
Dar um</w>
D rei</w>
D ir
Co stru
Co de</w>
C A
Brow n</w>
Broo kl
Bra d</w>
Berk el
Berei che</w>
Ber ge</w>
Aus druck
Auf nahme</w>
Alp ha</w>
Ab end
200 4</w>
19 0
- L
"M am
überzeu gen,</w>
än e</w>
zentr um</w>
woh er</w>
wi eg
weis s,</w>
wach st
viel mehr</w>
veloc e.</w>
ve icoli</w>
utilizz o</w>
ut .</w>
ut ,</w>
un' organizzazione</w>
un de.</w>
ucci dere</w>
tras forma</w>
te ."</w>
system e</w>
system ,</w>
superfici e,</w>
sub -
stär ker</w>
str eng
stamm t</w>
sottol ine
soll en,</w>
sintet izz
semplic ità</w>
sem pli
sel ten</w>
scienti fica</w>
scatt ato</w>
s abbia</w>
ros kop
rit u
ridu zione</w>
ri ge</w>
respons abili</w>
ra zioni</w>
ra zione,</w>
ra y</w>
r ant
qu a,</w>
projek t</w>
polit ico</w>
pol vere</w>
po co.</w>
perf etto.</w>
pens are.</w>
pens are,</w>
peggi or
ot i</w>
or a?</w>
oo d</w>
om in
oh le</w>
oce ani.</w>
n arr
mist eri
minist eri
mett ete</w>
met ropolit
mess aggi</w>
mes col
medi co</w>
mal aria</w>
ma gi
ma est
lion i</w>
l' una</w>
l' oceano</w>
l' edificio</w>
l' an
l' am
kre ativen</w>
konzentri eren</w>
k ol
j enseits</w>
ir on
interess i</w>
informa zioni.</w>
inci dent
in no
im a</w>
ik ,</w>
idr ogen
ide .</w>
höch ste</w>
hä ss
heut e.</w>
h üb
gru ppi
gros si</w>
gh e</w>
gest art
gespro chen,</w>
geschieh t,</w>
ger ä
genit ori,</w>
gener azioni</w>
gefrag t</w>
gebor en.</w>
gan is
fü t
för der
fos simo</w>
form t</w>
for te,</w>
fil o</w>
fi t</w>
far mi</w>
fall .</w>
f or</w>
exist ieren</w>
ev ano.</w>
erzähl t,</w>
erst e,</w>
erkenn t</w>
er edi
equ azione</w>
entdeck en,</w>
em ber</w>
divent erà</w>
dire zione.</w>
difficil e,</w>
di rig
di agn
deser to</w>
der selben</w>
dem ogra
dat ab
da hinter</w>
d ose</w>
d eli
d ano</w>
cu ore,</w>
confl it
complet a</w>
colp a</w>
ciasc una</w>
chie dendo</w>
chi p</w>
ch erò</w>
cer chi</w>
cat ore</w>
capi re,</w>
cancr o.</w>
calcol are</w>
ca pr
bi .</w>
bezahl t</w>
best i
bei zu
behaupt en,</w>
ban ca</w>
b ot
b anda</w>
aut ob
attu almente</w>
att a</w>
assu mer
ass unto</w>
as ha</w>
argom ento.</w>
archit ekton
ar li,</w>
ap ag
anim a</w>
ani mazione</w>
and olo</w>
analizz are</w>
al so:</w>
aktiv e</w>
aiut o.</w>
ai r</w>
aggi unto</w>
ag enzi
ad ,</w>
a den
Zi el
Zent im
Web seite</w>
Ver teidig
Ven ezu
U gan
Tief e</w>
Swe en
Str and</w>
Sta at</w>
Spiel .</w>
Spektr um</w>
S and</w>
Ric or
R and
Qu ellen</w>
Programm e</w>
Prinzi pien</w>
Pingu ine</w>
Op en</w>
New ton</w>
Netzwer k
N oti
Metap her</w>
Metap her
Ma c</w>
MI T,</w>
M att
Lev el</w>
Kultur en</w>
Kamer as</w>
Jon athan</w>
Innov ationen</w>
Groß e</w>
Gord on</w>
Glei che</w>
Gesund heit
Geb r
Gal apag
Fot ogra
Famili e.</w>
F ossi
Evol ution
Es sen,</w>
Erinn ern</w>
Erfin der</w>
Ereig nis</w>
Entwicklungsl ändern</w>
Ent stehung</w>
Ent fer
En cel
Einfach heit</w>
E cht
Dok tor
D y
D ani
Con gr
Ci a
C ent</w>
Bü ro
Bam bin
B arb
Av evano</w>
Asp ekte</w>
Ar me
Angi ogen
Amerik a,</w>
Afrik aner</w>
Ab ent
7 2</w>
änder t.</w>
ä ischen</w>
z ün
y mp
wusst en,</w>
wunder bar</w>
web .</w>
vol ere</w>
vitti me</w>
vir us.</w>
viel es</w>
vi ste</w>
vi de</w>
verw and
verkauf en.</w>
ver wirr
ver lei
ver langsam
vacc ino</w>
ut e,</w>
untersu chen.</w>
ungs ver
ungs system</w>
ung st
trov i</w>
tig keit,</w>
t "</w>
sätz e</w>
successi vo</w>
stän dige</w>
st er.</w>
st azione</w>
spä ten</w>
sich er.</w>
sich :</w>
sel ezion
scrit ta</w>
schwi mmen</w>
schw ere</w>
schließ en,</w>
schle cht
s é,</w>
s op
s ogli
rin unci
respi ro</w>
recent e,</w>
ragazzi .</w>
rac co
ra n</w>
quest' anno</w>
pros per
pro blem</w>
pres i
poter lo</w>
poll ine</w>
pli k
pl as
per dono</w>
per de</w>
par ac
ovvi o</w>
otten iamo</w>
or o.</w>
onn en,</w>
ok ay,</w>
obietti vi</w>
nacht s</w>
na m</w>
n den</w>
müs ste</w>
musik al
mon do?</w>
mon di</w>
mit gli
metter si</w>
met abol
meravigli oso.</w>
lok ale</w>
letzt lich</w>
leb t.</w>
l' ora</w>
l ,</w>
könn en?</w>
kosten los</w>
k m
istru zione.</w>
ist it
iss e,</w>
interess anti.</w>
informa zione,</w>
in formi
ih n,</w>
ic otter
iPo d</w>
hö heren</w>
gä be</w>
grupp e</w>
grati s</w>
gi or
ghiacci o.</w>
geschieh t.</w>
gesch lag
gesam t</w>
ger ung</w>
gebrau cht</w>
ge arbeitet.</w>
ge arbeitet,</w>
fähr t</w>
frag te:</w>
fr ar
fotograf o</w>
for schen</w>
fond ato</w>
fi le</w>
fabbr ica</w>
ey :</w>
ex akt</w>
evi dente</w>
etz t,</w>
ess a,</w>
esprim ere</w>
esplor azione</w>
errei ch
er schi
epi demi
entschied en,</w>
entr ata</w>
entdeck en.</w>
ent spricht</w>
ens piel
en k</w>
em i
el o
einand er,</w>
ein geb
ei s
economi a,</w>
dreh te</w>
dimension i.</w>
dig ,</w>
differ ente</w>
descri ve</w>
denz a.</w>
dentr o,</w>
cur are</w>
cultur ale</w>
cosci enza</w>
convin cer
com prender
col t
cl ic
ch ron
cart a.</w>
cancr o,</w>
cad uta</w>
c y
bom bar
bis og
biet et</w>
besch rän
bekann t.</w>
beispiel sweise</w>
be wäl
b ut
ati ?</w>
at icamente</w>
aster oi
as pi
are ."</w>
archit etto</w>
ap profon
anschau t,</w>
ani a.</w>
alber i,</w>
al og</w>
aktiv en</w>
ac ust
ac compagn
Wohl befinden</w>
Wo chen
Wissenschaft ler,</w>
Wi e
Wahrschein lich</w>
W ann</w>
Vorstell ung,</w>
Uni one</w>
Tit el
Sym pt
Stu dent</w>
Sinn e,</w>
Sho w</w>
Se e</w>
Sa i,</w>
S ve
S ier
Re zep
Rag azz
R ek
Punk t.</w>
P e
O ran
Neur onen</w>
Met ern</w>
Mehr heit</w>
Mc C
Mar k</w>
Le e</w>
L ab</w>
Kopf -
Kon gr
Kir che</w>
Inner halb</w>
Ingenie ure</w>
Hot el</w>
Ger äusch
Gem äl
Gef angen
G and
Fü ße</w>
Freun de,</w>
Fortschrit te</w>
F rem
Ex tra
Es sen
Entfer nung</w>
Entdeck ungen</w>
En de.</w>
El ef
E v
D ün
Comput ern</w>
Cl ar
Ch e
Cer c
Boo t</w>
Bildschir m</w>
Bh ut
B lin
B in
B ek
Aut omo
Aus gang
Aufgab en</w>
Au fl
Al ask
Ahn ung,</w>
Ab schluss</w>
A T
7 0,</w>
3 0%</w>
200 .000</w>
"O k,</w>
„ Ich</w>
” ,</w>
“ ,</w>
ü che</w>
ä mm
ä ft
zer r
wört lich</w>
werden ."</w>
weil s</w>
wach sene</w>
w ett
w eck
w a</w>
ver glichen</w>
ver amente,</w>
v ast
ungs fähig
um so</w>
tra scorso</w>
tr arre</w>
toll er
success o?</w>
sti eg
steig en.</w>
statist iche</w>
star b</w>
stand en</w>
sta dio</w>
st agi
spec chio</w>
sol are.</w>
sion s
si ma</w>
settiman e.</w>
settiman e,</w>
schließ t</w>
sch te</w>
sch i</w>
sch alten</w>
scar pe</w>
sah en,</w>
rispost a.</w>
riser ve</w>
ris pos
ris chi</w>
richi esta</w>
rich tig.</w>
ri cht</w>
ri che</w>
recor d</w>
ragion e,</w>
rag en,</w>
raccont ato</w>
raccol ta</w>
quell o,</w>
produzier en.</w>
pro posta</w>
priv ate</w>
pli ziert</w>
pic co</w>
pi atto</w>
parac ad
par li</w>
par ag
pa sto</w>
p hä
ori amo</w>
og en.</w>
occident ale</w>
nev e</w>
n annte</w>
mö chten.</w>
mö cht
muoi ono</w>
mher zi
metter lo</w>
metter ci</w>
mes e.</w>
mes e,</w>
mal en</w>
ma i,</w>
läch er
lont ani</w>
lin ke</w>
lei den
leg ame</w>
las cer
lan ti
l' or
l' al
kommuni zieren</w>
kann te</w>
k -
je der
j eg
it t.</w>
istru zione,</w>
is ce.</w>
invest imento</w>
internazion ale</w>
inter venti</w>
innov azioni</w>
inc lus
in o
in fil
il ,</w>
herauszu finden</w>
her ein
heis st</w>
he orie</w>
h uman
h ef
h am
gover no,</w>
giust o,</w>
gesetz t,</w>
ge zogen</w>
ge eig
g ül
g om
fu hr
fl og</w>
fi li
fam osa</w>
f eh
er schreck
ent a</w>
ell o,</w>
eh emal
eggi o</w>
e du
e 's</w>
durch geführt</w>
dr än
dig n
dicend o:</w>
di rei</w>
di ck
des ,</w>
denz a,</w>
dell' essere</w>
dar unter</w>
d y</w>
d einem</w>
cu ore.</w>
cri st
costru isce</w>
cost antemente</w>
cor alli</w>
convin to</w>
contad ini</w>
compl essa</w>
commer cio</w>
coll oc
citt a'</w>
chil omet
ch e
cer e
cat eg
car rier
cambi amento.</w>
bring e</w>
bloc co</w>
beweg ung</w>
best ä
beschreib t</w>
ber g</w>
beginn t,</w>
bau te</w>
bar riera</w>
av o.</w>
aus schließlich</w>
atten zione,</w>
ass e.</w>
ass as
as so</w>
archit etti</w>
ar te,</w>
applic azione</w>
applic are</w>
ant ic
ann un
ang oli</w>
and omi</w>
an ia</w>
amp li
alt es</w>
all ora.</w>
al so.</w>
al ia</w>
al a,</w>
ag e.</w>
aci do</w>
abbi amo,</w>
[ un
Wer den</w>
Wel ten</w>
Vier tel</w>
Versu ch,</w>
Ver zwei
Vat er,</w>
Vag in
Untersuch ung</w>
Universu m,</w>
Un ter</w>
Treib haus
Technologi en,</w>
T re</w>
Stift ung</w>
St äm
Spieg el</w>
Smit h</w>
Skl aver
Sier ra</w>
Scien ce</w>
Schul e,</w>
S eg
Rei cht
Qu asi</w>
Psych ologie</w>
Produk tiv
Pol y
Pati ent</w>
Par adig
Orig ami</w>
Op ti
O L
Normal erweise</w>
Nat ur,</w>
Nachbar schaft</w>
N ick</w>
N as
Musi k.</w>
Monter ey</w>
Mon d
Mo de
Mit arbeiter</w>
Minut en.</w>
Mik e</w>
Manhatt an</w>
Ma gi
M ai</w>
Liter atur</w>
Leon ardo</w>
L ek
Kü hl
Kö pf
Juli a</w>
Inspir ation</w>
I g
Häus er</w>
Hand .</w>
H or
H aus.</w>
H ard
Gro en
Gi pfel</w>
Gesch äfte</w>
Gen om
Gehir ne</w>
Flugzeu ge</w>
Fl ag
Famili e,</w>
F älle</w>
F ut
F ru
F ei
F a</w>
Desig n.</w>
C at
C apit
Br ück
Blät ter</w>
Bibliot hek</w>
B este</w>
B ein</w>
Auß en
Atm osphä
Arm str
Ant ar
Analy se</w>
An führer</w>
6 0.000</w>
3 0
ün sche</w>
ä st
Änder ungen</w>
zu g
z el</w>
wunder schöne</w>
wirk en</w>
wird ?</w>
wach sen,</w>
w in</w>
voll .</w>
verr anno</w>
verfol gen</w>
ven gano</w>
untersu cht</w>
unterschied lich</w>
ung e
ucci der
ucc ello</w>
u razione</w>
tö ten</w>
trop po,</w>
tiv a</w>
tion en.</w>
ti po.</w>
televi sione</w>
teles copio</w>
sym met
superi ori</w>
stori e,</w>
steh e</w>
st ag</w>
sitz e</w>
sin i</w>
sin da
simb olo</w>
sein ."</w>
scorr ere</w>
scor so,</w>
scim mi
schütz en.</w>
schwarz es</w>
schlech t.</w>
schick en.</w>
sc e</w>
sbagli ato</w>
sar ò</w>
sam e</w>
salv ato</w>
sag e:</w>
s é.</w>
s mettere</w>
s bar
rom pic
ritorn are</w>
ris on
ris al
riguar do.</w>
rifu gi
ricostru ire</w>
ricor der
ric ca</w>
reg no</w>
ragazz ini</w>
racco gl
ra ppor
proveni enti</w>
proteg ger
prot ezione</w>
profess ore</w>
produtt ori</w>
proc ed
preven ire</w>
pot ente.</w>
porter à</w>
por te</w>
popol o</w>
polit ica.</w>
performan ce</w>
partit a</w>
parl are,</w>
os cu
op edi
ol la</w>
og ramm
o ut
o par
no te</w>
nah men,</w>
n eig
n eb
mis ero</w>
meto di</w>
medizin ischen</w>
matemat ica,</w>
mas sa.</w>
mangi ano</w>
ma x
m ito</w>
m isch
m est
lungh ezza</w>
lung he</w>
lu st
lieg en,</w>
lieb en,</w>
lei chter</w>
langsam er</w>
land .</w>
l' importanza</w>
l le</w>
l atte</w>
jem anden,</w>
itu din
ispi razione</w>
ipot esi</w>
intern ationale</w>
interessier t.</w>
inter amente</w>
inklu sive</w>
inizi arono</w>
in fizier
in contra
in -
imm en
ik .</w>
ide ,</w>
ic e.</w>
i chter</w>
i ".</w>
hin sichtlich</w>
gol f</w>
gir o,</w>
giorn alista</w>
gewor fen</w>
gewisser maßen</w>
gewinn en,</w>
gew onnen</w>
gew esen,</w>
ges ün
ges unden</w>
ger ät</w>
ger ade
gen i.</w>
gehör en</w>
gehab t</w>
ge kommen,</w>
g oc
felic i.</w>
felic e,</w>
facci amo.</w>
estrem ità</w>
estern o.</w>
erkenn ung</w>
er scheint</w>
ent war
ent en.</w>
en a,</w>
el en
ein s,</w>
eil .</w>
eg ger
ed .</w>
economi sti</w>
ec o</w>
ec co
e p</w>
e e,</w>
e da</w>
dok ument
dis positivi</w>
dipl omat
dif esa</w>
den en,</w>
den ."</w>
da n</w>
d '</w>
cre do.</w>
cre deva</w>
contr ario</w>
conosc ete</w>
compr om
compr a</w>
com batt
coinvol to</w>
coinvol gere</w>
clin ica</w>
cattiv o</w>
can ali</w>
cambi ano</w>
cal do</w>
cal da</w>
caff è</w>
bri cht</w>
bra ch</w>
bisogn o,</w>
betr ä
berfl äche</w>
be fest
bas e,</w>
b arb
b all</w>
auf gebaut</w>
au ,</w>
att ore</w>
at elo</w>
arriv ate</w>
ar m</w>
appar ire</w>
ap p</w>
antwor ten</w>
anti biot
amerik a</w>
am ico,</w>
ag enti</w>
aff err
accett are</w>
abbast anza.</w>
a sta</w>
a da,</w>
Zukun ft,</w>
Zei traum</w>
Wo w.</w>
Wi de</w>
Wer be
Weih na
W itz
W echsel
Vort eil</w>
Vorstell ungskraft</w>
Ver lauf</w>
Ver anst
Tran sport
Tr ends</w>
To y
T orn
T ami
Str ei
Stan ford</w>
Stan for
St ock
Spa ß.</w>
Sign al</w>
Semplic emente</w>
Sch atten</w>
SET I</w>
S ä
Rät sel
Res ear
R an
Problem s</w>
Pop ul
P E
Os serv
O pfer</w>
Nutz ung</w>
Nigeri a,</w>
N elle</w>
N ah
Mut ter
Mensch ,</w>
Mar s
M E
L a
L E
Kun st,</w>
Ko ch
Kl avi
Kat astrop
Kapit al
Kaliforni en</w>
J es
Inf ek
In halte</w>
In dem</w>
Hin blick</w>
H alluzin
H ad
Guar diamo</w>
Gro und</w>
Gesprä ch</w>
Gedank en,</w>
Gebi ete</w>
G ru
Fün f</w>
Frau en.</w>
For m.</w>
For m,</w>
Fol gen</w>
Fok us</w>
Fo ie</w>
Fak ten</w>
Erfahr ung.</w>
Er forschung</w>
El tern,</w>
Dunk el
Deutschl and</w>
Dann y</w>
Dal ai</w>
D re
D ou
D AR
Clint on</w>
Cas a</w>
C' é</w>
Buchst aben</w>
Blog s</w>
Beispiel :</w>
B rief</w>
Ausw ahl
Augen blick</w>
At hei
Amei se</w>
Al bert</w>
A sh
A gen
4 7</w>
4 0
3 -
2 1
17 .</w>
10 %</w>
- K
" Ci</w>
" Chi</w>
übri g</w>
überwäl ti
à :</w>
zähl en</w>
zwei t
zusätz lich</w>
zentr ale</w>
zei t,</w>
z en.</w>
wi s</w>
weltwei te</w>
vor rebbe</w>
voll es</w>
vol ume</w>
visu ellen</w>
viel er</w>
vi erte</w>
vertrau t</w>
versteh t</w>
ven dit
vai olo</w>
v ap
ursprün gliche</w>
tutt avia,</w>
tutt '
ts un
tranqu ill
trage dia</w>
traff ico</w>
tr ink
tr ice</w>
ti ?</w>
testim oni
ter z
te or
t ali</w>
system at
syn th
succe dendo.</w>
su chte</w>
stra de,</w>
st ät
st anza.</w>
spür en</w>
spin ta</w>
spettac ol
sp egn
sor presa</w>
sogg etto</w>
soffer enza</w>
si cht,</w>
ser io</w>
sei d</w>
segu e</w>
segn al
schö pf
schau ten</w>
sch nelle</w>
scat en
satz ,</w>
sap evano</w>
sag en?</w>
rivel a</w>
ristor ante</w>
ricch ezza</w>
ri guardano</w>
ri a</w>
re gier
ra va</w>
pubblic it
promu overe</w>
proc esso.</w>
prev edere</w>
prei s</w>
pr ech
pover tà.</w>
port arlo</w>
po esia</w>
pianific azione</w>
pi eni</w>
physi sche</w>
per der
passier te.</w>
p f</w>
p atter
otti .</w>
onlin e,</w>
on da
oc ort
o ia</w>
nor mal</w>
na zione.</w>
n ungs
n av
n ati</w>
mo bili</w>
mitt eln</w>
minut o.</w>
minist er</w>
met ho
ment i.</w>
medi cine</w>
meccan ismi</w>
ma gia</w>
m ord
lung hi</w>
letz ter</w>
leb e</w>
l anden</w>
kü ste</w>
kre ative</w>
kam ent</w>
je weils</w>
itä ts
itt o.</w>
it ten</w>
ist ico</w>
ist a.</w>
isch erweise</w>
irgend welche</w>
ir anno</w>
intitol ato</w>
inter attiv
inter agire</w>
insegn a</w>
ing ann
incredibil e,</w>
implic azioni</w>
immagin i,</w>
im br
ic o?</w>
i vano</w>
i i</w>
i gi
höch sten</w>
hunder t
hervor ra
ha st,</w>
grei fen,</w>
grav ità</w>
gewöhn lichen</w>
gestalt en.</w>
geschrieb en,</w>
geschlos sen.</w>
gelang en.</w>
ge fühl
fü gt</w>
fung hi</w>
fro h,</w>
frag t,</w>
fornis ce</w>
form en.</w>
for t.</w>
fol la</w>
flus s
fis ica,</w>
fi ori</w>
fest .</w>
felic ità,</w>
far le</w>
f e.</w>
f anden,</w>
evolu zione.</w>
et ?</w>
es pressione</w>
er kt</w>
er finden</w>
entwor fen</w>
ell en,</w>
el -
e ppure</w>
e chtes</w>
disegn ato</w>
dir etta</w>
dipen denza</w>
differ ente.</w>
dicon o:</w>
dicev a:</w>
di vis
di v
de utig</w>
dar si</w>
dar .</w>
d ung.</w>
cre det
così ?</w>
controll o.</w>
cont are</w>
con corr
cominci amo</w>
col onia</w>
cif re</w>
ch er
cert amente,</w>
centesim i</w>
cap i</w>
can ale</w>
cam po.</w>
ca si,</w>
brit ischen</w>
br ano</w>
bor do</w>
bio tik
bet reib
bes essen</w>
berfl äch
berei t,</w>
bekann t,</w>
beinhalt et</w>
begr ün
beeinflus sen</w>
b lieb</w>
b ahn
b ack
av an
außer ord
automat icamente</w>
auti st
aut ore</w>
aument a</w>
aufger eg
ation al</w>
at ica</w>
archi vi
ar co</w>
anz e.</w>
ani k</w>
angeh ens
an scheinend</w>
amminist razione</w>
am pia</w>
all ung
all en,</w>
ali ?</w>
aerop lan
ad ess
a de,</w>
a '.</w>
Zuck er
Zeit alter</w>
Wun der</w>
Will en</w>
Welt bevölker
Waff en</w>
Universu m.</w>
Un ite</w>
U V
Treff en</w>
Tr äume</w>
Ton y</w>
Tok y
Ter min
T ot
T au
Symmetri e</w>
Su cc
Sputni k</w>
Se att
Sch ok
S eri
S agen</w>
Reg el
R ut
R in
R eb
R ach
Program mier
Problem e.</w>
Po iché</w>
Phot os
Ordn ung.</w>
On lin
Ness una</w>
Nerv enz
Natur almente,</w>
Mus li
Mondi ale</w>
Mom ent.</w>
Mo z
Metho de,</w>
Meer ess
M äus
M ei
M alt
L icht,</w>
L '</w>
Köni g</w>
Krieg es</w>
Korrup tion</w>
Kor allen</w>
Kli ma</w>
Kat r
K leb
Ju gend
Jos ep
Jo e</w>
Interak tion</w>
Inn en
Inghil terra</w>
Her angehens
Ha are</w>
H ekt
H ef
H aut
Großmut ter</w>
Gol d
Gl amour</w>
Geschicht en
Ges ichter</w>
Gerä t,</w>
Gerech tigkeit</w>
Gehir n,</w>
Gegen wart</w>
G or
Freun din</w>
Frag en.</w>
Fr on
Flug zeug
F rieden</w>
F las
Esi ste</w>
Erst ens,</w>
Erst aun
E mil
E am
Dis zipl
Di partimento</w>
Dar über</w>
Dar auf</w>
Cos 'è</w>
Charak ter
Ch ines
C olli
C D
Bo den
Ber at
B ör
B at
B arri
Augen blick
Auf bau</w>
Au gen.</w>
At em</w>
Anti -
A dor
9 5</w>
8 0
6 0
4 8</w>
3 D</w>
200 9</w>
200 7,</w>
2 :</w>
1, 5</w>
1 30</w>
. '</w>
&amp ;
"Oka y,</w>
äh ne</w>
zwei tes</w>
zi mmer</w>
zer o,</w>
zeichn et.</w>
zei t.</w>
y p</w>
weiß .</w>
vor remmo</w>
vin cer
viel fäl
veränder te</w>
verli eren,</w>
ver ità.</w>
ver gi
ver a,</w>
ver ,</w>
util i</w>
us c
un' ottima</w>
ul en</w>
uccis o</w>
u t</w>
trov ai</w>
tr on
tiv o</w>
tem po
telef oni</w>
telec amera</w>
t aten,</w>
t al</w>
succeder ebbe</w>
steig en,</w>
stat unit
stagi one</w>
st ?</w>
sotti le</w>
sol are,</w>
sol a.</w>
sim met
si li</w>
ser io.</w>
sentir si</w>
sem i</w>
schreck liche</w>
sam keit</w>
s vel
s bal
rob a.</w>
ridi col
ri de</w>
rett en,</w>
reb s</w>
r ato</w>
qualcos 'altro.</w>
puli re</w>
prog re
profon de</w>
pr ont
poter e,</w>
po pul
po l</w>
pl atz
pir amide</w>
perf ekt</w>
pens ato:</w>
p h</w>
os cura</w>
oper azione</w>
oo d
oni zz
ob bi
not evole</w>
niss e,</w>
n ör
n ott
mus ste.</w>
mod alità</w>
mit zu
mis i</w>
minim o</w>
migli ori.</w>
mer n</w>
mehr eren</w>
mas sa,</w>
mar ito</w>
mani puli
man ca</w>
ma ch</w>
m är
m ul
m ische</w>
li g.</w>
li ev
leg ato</w>
leg ati</w>
lasci o</w>
l' oggetto</w>
l' influenza</w>
l' età</w>
l' au
l' attenzione</w>
l' America</w>
l un
l enk
konzentri eren,</w>
kl eb
ist ische</w>
ist i.</w>
ist i,</w>
ir gend</w>
inter fer
intellig ente.</w>
insom ma,</w>
inser ire</w>
informa zione.</w>
inferi ore</w>
inci denti</w>
impar ano</w>
im possibile.</w>
illu sione</w>
i en</w>
her stellen.</w>
heiß e</w>
grupp o.</w>
gros sar
gra fica</w>
gewöhn liche</w>
geteil t</w>
geschwindi gkeit</w>
geschrieb en.</w>
gen d,</w>
gegang en,</w>
ge fr
führ enden</w>
funzion are.</w>
fum etti</w>
fr atell
fogli o</w>
fant asi
f ett
f and.</w>
ev ent
es ."</w>
erkann te</w>
er stellt</w>
er scheinen</w>
er a:</w>
entr ambi
ent fer
ent en,</w>
en es</w>
el io</w>
el icotter
el ek
el e,</w>
ek t,</w>
eil en,</w>
ec t</w>
e den</w>
duc endo</w>
dreh en,</w>
dr in</w>
diver s
diav olo</w>
dev amo</w>
den sità</w>
decis e</w>
dar ci</w>
d anni</w>
cul tura,</w>
copert ina</w>
contrib uto</w>
concent razione</w>
con i
compet izione</w>
colp ito</w>
ci ò.</w>
chiest o:</w>
chi o.</w>
bu chi</w>
bre chen.</w>
besch rieb
besch reiben</w>
besch ei
ber .</w>
bemerkenswer te</w>
be frei
b a,</w>
attac chi</w>
ascolt ato</w>
appar ten
ant ica</w>
andav ano</w>
an das
alz are</w>
altern ative</w>
all' improvviso</w>
all' età</w>
aiut arci</w>
acc edere</w>
abil it
abb at
a zin
Zerstör ung</w>
Z ig
Z eh
Wel traum</w>
Wei ßt</w>
W ähr
W etter
W at
Vö gel</w>
Unter nehmen,</w>
T hail
T erz
Stand punkt</w>
St ein</w>
Sonnens ystem
So w
Sim ul
S et
Risi ken</w>
Religion en</w>
Pakist an,</w>
Ogn uno</w>
Nai ro
Mor al</w>
Medik ament
M ün
Li vello</w>
Le wis</w>
L eit
L aw
Körper s</w>
Kur z</w>
Kreb s
Kon dom
Kin des</w>
K üh
K ohle</w>
Joshu a</w>
Jeden falls</w>
Isl and</w>
Instrum ente</w>
Instrum ent</w>
Insel n</w>
Hy per
Hand ys</w>
H unde</w>
H emis
H am
Gleich ung</w>
Gemein schaft,</w>
Geg enden</w>
Gar ten</w>
Erinner ung</w>
Er zieh
E hem
Durch schnitt</w>
Dinosauri er</w>
Dienst leist
Deb atte</w>
Dank e,</w>
D opp
D ici
D ek
Cosi '</w>
Chemik alien</w>
Chanc en</w>
C u
C ro
Bru st
Bl ack
Bild ung.</w>
Bet t</w>
Bel ast
At tra
Anti biotik
An streng
An gelegen
Afghanist an,</w>
A ir</w>
A gr
A gn
8 5</w>
5 -
4 0.000</w>
3 7</w>
18 5
- P
' essere</w>
" I
ä ß</w>
ä ten</w>
Über all</w>
Äl ter
Ä g
zw anzi
zusetz en.</w>
zunehmen d</w>
zucch ero</w>
zerstör t</w>
z ö
z en,</w>
wähl en,</w>
wich ti
weiß t</w>
war um.</w>
w ü
w as.</w>
vorzu stellen,</w>
visit are</w>
vide oc
verwend et.</w>
verschieden er</w>
verschie den</w>
ver pflicht
ver kün
ven isse</w>
ur ch</w>
unterstütz en</w>
unter halb</w>
un ten,</w>
um welt
u a</w>
tä gliche</w>
trasport are</w>
ti l
tem pi.</w>
te oria,</w>
t ori</w>
t eu
sugger isce</w>
stabili re</w>
sta gion
st op
st er,</w>
st ar</w>
st ."</w>
spä t</w>
spettac olo</w>
sp ort</w>
sp ekt
sor gen,</w>
soprat tutto,</w>
sopr a.</w>
situ azione.</w>
si n</w>
si gen</w>
sfor zi</w>
segn o</w>
schwier ige</w>
schwer .</w>
schlimm sten</w>
schi acci
sch utz</w>
sch on
scen ario</w>
sap uto</w>
sah .</w>
s ".</w>
ro ul
rifi uti</w>
re cht.</w>
re ak
proz ess
prot oti
princi pi
present are</w>
preci pit
pp i</w>
pot evi</w>
pot enti
piccol i.</w>
pian o,</w>
pi ov
peri fer
passier te,</w>
pass en,</w>
otten gono</w>
ot o,</w>
orni amo</w>
or o,</w>
or ecchi
o ft
nucle ari</w>
nucle are.</w>
norm ali</w>
ni ente,</w>
ness uno.</w>
nas costo</w>
nas cit
nah e
n en
n ann
mitt el,</w>
miliar di.</w>
mer idi
materi al</w>
mammifer i</w>
mach en."</w>
letter atura</w>
lavor are.</w>
lasci amo</w>
laggi ù</w>
l' attività</w>
l' acqua,</w>
l' abilità</w>
l' E
kün dig
kontrolli eren</w>
kl asse</w>
kauf te</w>
k ä
k ron
k einem</w>
itt o,</w>
isch -
is ce,</w>
ir rit
ir razion
invest ieren</w>
inter faccia</w>
inn eren</w>
inn ere</w>
informa zioni,</w>
infin ite.</w>
infanzi a</w>
in cu
imbr ogli
ih m,</w>
ide ale</w>
ic lett
ic a:</w>
iPh one</w>
i amo.</w>
häu fig
hä r
hei ßen</w>
halt ung</w>
hab en:</w>
gr enz
glaub t,</w>
gi ù,</w>
gew alt
ger weise</w>
ger t</w>
gent il
gel assen</w>
gegrün det</w>
geb eten</w>
ge zw
ge omet
funzion ato</w>
form ul
fo ie</w>
fl üs
fl äche</w>
filos o
fic a,</w>
farma co</w>
fal schen</w>
f eder
exist iert.</w>
evi denzi
et ern
erstaun lichen</w>
ero e</w>
ern eu
erfun den.</w>
er schaff
er ei
enor men</w>
el a.</w>
einzi ges</w>
ein st</w>
ein deutig</w>
edific io,</w>
eco sistema</w>
e ur</w>
e ...
dr ing
dr amm
diver se,</w>
di vin
di lem
di eren</w>
di co,</w>
der er</w>
dell' E
dann ?</w>
dall' inizio</w>
da ch
d'accor do.</w>
d' arte</w>
d ini</w>
cru del
cre ati</w>
contr ario,</w>
conclu sione</w>
conc ret
comput er
comport amento.</w>
comp or
circu ito</w>
cin esi</w>
cer to.</w>
cav allo</w>
cart a,</w>
caratterist ica</w>
cami on</w>
bigli etto</w>
bibliot eca</w>
bi z
betriff t,</w>
beh in
bau ten</w>
batter io</w>
ban is
bal ene</w>
b t,</w>
außergewöhn liche</w>
aus ger
auf gewachsen</w>
atti ,</w>
ativ es</w>
at m
ass orb
arri viamo</w>
are "</w>
apr e</w>
app one</w>
ann o?</w>
ang ,</w>
andav o</w>
and ovi</w>
and o
americ ana</w>
am o:</w>
am i.</w>
all' anno</w>
all arg
ai a,</w>
ag it
ad ulti
a qu
a j
Zwei tens</w>
Zeu g,</w>
Zentr al
Wä re</w>
Win dow
Wi eder</w>
Weg en</w>
V ic
T ol
Sü den</w>
Sti ll
So ur
Sk elett
Sinn .</w>
Scot t</w>
Schn itt
Sch le
S oll
S ent
S anta</w>
S S:</w>
Richt ungen</w>
Rich ard,</w>
Restau rant
Res erv
Re du
R over</w>
Projek t.</w>
Pro j
Pres idente</w>
Prei se</w>
Philos oph
P ent
Oberfl ächen</w>
Num ero</w>
Nichol as</w>
Ness un</w>
Nat asha</w>
Mär kte</w>
Mot or</w>
Mom ente</w>
Modell ,</w>
Mo ore</w>
Me et
Materi ali
Mang el</w>
M ale</w>
Lav or
L' anno</w>
Kohlendi oxi
Ken ia</w>
K üch
K ä
Jan u
J ane</w>
Ira q</w>
Hung er</w>
Hunder te</w>
Hig h
H äu
H enr
Groen lan
Gi appone</w>
Gh ana</w>
F oli
F lieg
F G:</w>
Evol uti
Erleb nis</w>
Erkennt nis</w>
El ement</w>
E i
Dollar -
Ding en.</w>
Di enst</w>
Di agn
Det ail</w>
D il
Com pan
Ch an
Cambrid ge</w>
C in
Busin ess</w>
Bild ung,</w>
Bi osphäre</w>
Besch ei
Baum kron
B undes
B ir
Ar ten,</w>
Ant hr
Americ ani</w>
All' inizio</w>
Abhängi gkeit</w>
A scol
1 5.</w>
&amp ;</w>
öff nen.</w>
öff entlich</w>
ärm sten</w>
Über trag
zuneh men.</w>
y pt
wen det</w>
war ten.</w>
w em</w>
w ay</w>
vit ale</w>
visi vo</w>
virtu ellen</w>
vin cit
vill aggi</w>
versteh e</w>
verstand en,</w>
verschwin den</w>
verli eren.</w>
verbr auch</w>
ver sich
ver si</w>
ver i
vent o.</w>
ungeh euer</w>
ung "</w>
un' ora</w>
trei ben</w>
toll .</w>
toll ,</w>
ti pic
test ,</w>
ter m
ter ete</w>
tempor ale</w>
tagli are</w>
strukt ur</w>
stimm t.</w>
st ein</w>
st eigen
st ato,</w>
sprech e,</w>
spekt akul
so b
sion en,</w>
sier o
sicurezz a,</w>
si schen</w>
si s
sens ori</w>
sel vat
scopr e</w>
scimpanz é</w>
schli mmer</w>
sch au</w>
salt are</w>
sal to</w>
s fer
ru ota</w>
romper e</w>
rit orno</w>
risol uzione</w>
risol to</w>
ris k
rima sta</w>
ries iges</w>
ricer ca.</w>
ric re
ri dur
rest o.</w>
raccogli e</w>
ra zza</w>
r etro</w>
produzier en,</w>
problem e</w>
pro viene</w>
pro -
precis o</w>
post i,</w>
possibil ità.</w>
port a,</w>
por ti</w>
pingu ini</w>
piccol i,</w>
physi schen</w>
pe zzi.</w>
par ad
paes i,</w>
p e.</w>
osserv azione</w>
ol e
ogi e</w>
off izi
nor male.</w>
ni do</w>
neben bei</w>
n ic
mus .</w>
mo ?</w>
mittl eren</w>
mini str
minacci a</w>
mi ster
matt ino</w>
län dlichen</w>
lingu e</w>
liber a</w>
li bell
lasci atemi</w>
l' acqua.</w>
l ast
kontrolli eren.</w>
kon kur
k y</w>
k es</w>
it ali
is h</w>
irgend einer</w>
irgend einem</w>
invent are</w>
intro durre</w>
interessi eren</w>
insi st
innov azione.</w>
inizi ale</w>
ingl ese.</w>
imm unit
ier e.</w>
identific are</w>
hot el</w>
hin auf</w>
hie ß</w>
her stell
handel n.</w>
hab en."</w>
h or
grande zza</w>
gra zi
gr ano</w>
gioc a</w>
gi ra</w>
gen aus
gel ehr
g ünst
g o,</w>
funzion amento</w>
for mer
flu g
fic ato</w>
fi el
fehl t</w>
f o</w>
et t,</w>
et ik</w>
et a,</w>
espres sioni</w>
esegu ire</w>
es sione,</w>
es port
es "</w>
er i,</w>
er eb
end ung</w>
en -</w>
emer gere</w>
el ast
ein en,</w>
ein be
effic a
econom ico.</w>
econom ici</w>
e fl
e e
durch zu
dun klen</w>
dot ta</w>
distrug gere</w>
dir etto</w>
dig keit</w>
di ert</w>
descrit to</w>
den selben</w>
dell' evoluzione</w>
deb ole</w>
dar gli</w>
da zu
cre dete</w>
copr ire</w>
con veni
con sci
compl e
col li
ci occol
ci ma.</w>
chied ono</w>
centin aio</w>
ca de</w>
c andel
c ab
bra vo</w>
bra va</w>
bra chte.</w>
bo l</w>
bl üh
bitt e.</w>
biolog i</w>
bio diversità</w>
besag t,</w>
ber eich</w>
bem üh
bell i</w>
begann en,</w>
be vorzu
att esa</w>
art en.</w>
arg ument
ar t,</w>
ar chia</w>
anz it
ant ico</w>
anim ale.</w>
ani a,</w>
ang olo.</w>
anf ing,</w>
and en.</w>
anal og
an fän
amm al
americ ani.</w>
am ore.</w>
alizz ato</w>
alisier t</w>
al en,</w>
ag greg
affin ché</w>
ad .</w>
a !"</w>
Zu frieden
Versu chen</w>
V aku
Unterhalt ung</w>
Univers o.</w>
Ul ti
Tradi tion</w>
To ten</w>
Teles kop
T um
T A
Strategi e</w>
St ahl
Sp eci
Schw ein
Schrit te</w>
S per
S ergi
S B:</w>
Resp ekt</w>
R itu
R .
Qu ar
Qu anten
Pun kt
Produ kt
Physi ker</w>
Pazi fi
Pan banis
P oll
Orig in
O hren</w>
O hr
Nat han</w>
Nami bia</w>
N azionale</w>
Mor al
Mitgli ed</w>
Mi o.</w>
Medi um</w>
Medi kament</w>
Mar gar
Mag azin
Lu ft.</w>
Lieb es
Lebenserwart ung</w>
L ini
König in</w>
Kra ft,</w>
Kol onie</w>
Kno chen
Kapit al</w>
K eni
Jeffer son</w>
Jam ie</w>
J acqu
Inst all
In ten
In si
Impf stoff</w>
Hoffn ung,</w>
Hir n</w>
H eli
H all</w>
H ab
Gu t</w>
Groß en</w>
Gre en
Gew ebe</w>
Gesundheits wesen</w>
Gen i
Gem ü
Gegent eil</w>
Ge ometri
G eck
G as</w>
Ex x
Ever est</w>
Et hi
Erst ens</w>
Ereig nisse</w>
Erd b
Epi demi
Ent fern
E ric</w>
Dutz end</w>
Ding er</w>
Dev ono</w>
Del hi</w>
Dani el</w>
D ad
D E
Chr is.</w>
Cer t
C ur
C amp
C N
Bo w
Bl umen</w>
Bil der,</w>
Bibbi a</w>
Bi ologen</w>
Bel ohn
Ban ca</w>
B ö
B and</w>
Aufmerksam keit.</w>
Archit ekt</w>
Ar me</w>
An stieg</w>
An fän
Al ler
A dr
9 8</w>
100 %</w>
. 500</w>
' 6
" Und</w>
" K
ül l</w>
über tragen.</w>
än z
zi mmer
zeichn ungen</w>
zeich nen,</w>
y righ
w !</w>
vor hin</w>
vi vendo</w>
vest iti</w>
verknü pf
verbin den.</w>
ver mehr
ver gewal
ver de.</w>
ver a.</w>
vend uto</w>
valut are</w>
unterstütz en.</w>
unter halt
un' opportunità</w>
un' idea.</w>
un ver
umge kehr
um gehen</w>
u h,</w>
tut a</w>
tradition elle</w>
tra t</w>
to t</w>
test are</w>
tatsäch liche</w>
t !</w>
sy l
su ono.</w>
studi eren</w>
strut tura.</w>
st ato.</w>
sor gen</w>
sol o,</w>
soci ali.</w>
simul azione</w>
ser ra</w>
scim mia</w>
sci ogli
schlä gt</w>
sch rieben</w>
sc ett
sc ende</w>
satz .</w>
sangu ign
s üch
s forz
s contr
ru fen,</w>
ris erv
ri vest
ri guard
ren diamo</w>
ren dendo</w>
rel azion
reg ole,</w>
radi o
ra b
ra ?</w>
quar ta</w>
probabil mente,</w>
prest ito</w>
pres up
preced enti</w>
pover i.</w>
pover a</w>
post i.</w>
posi tiv</w>
popol azioni</w>
popol are</w>
pir ami
pian o.</w>
pericol oso</w>
pens ai</w>
pazi ente.</w>
par e,</w>
pak ist
p est
p elle.</w>
os serviamo</w>
orizz ont
oni amo</w>
og en,</w>
occhi ali</w>
nuot are</w>
necess aria</w>
nazion ale.</w>
nahe zu</w>
n ete</w>
mor ti.</w>
molti plic
mo di.</w>
mil li
mein en,</w>
matrimon io</w>
matemat ici</w>
mar ci
mar chio</w>
malatti a.</w>
m ung</w>
lung o,</w>
loc ale,</w>
lern t</w>
leg gen
l' op
l' avete</w>
l etto,</w>
l ach
kämpf en</w>
kre ativ</w>
konzentri ert</w>
komplizier te</w>
komm enden</w>
klassi sche</w>
kauf s
k ul
k oh
j enen</w>
inter i
intellig ente,</w>
ins on</w>
ins gesamt</w>
incenti vi</w>
in mitten</w>
in :</w>
impres sione</w>
impi anti</w>
im pon
hoff nungs
he y,</w>
handel n,</w>
hal ben</w>
h ü
gän gi
guar di
größ e</w>
gli a</w>
giudi zio</w>
gi ù.</w>
gi .</w>
getroff en,</w>
gest eu
gelang en,</w>
geh e,</w>
gef ähr</w>
gebi ete</w>
geb eten,</w>
ge wähl
g ung</w>
fu hren</w>
frü heren</w>
fossi li</w>
fis ici</w>
filosof ia</w>
fil antro
fi um
fest stellen,</w>
fav ore.</w>
fass ung</w>
far ebbe</w>
ezz e</w>
ett uale</w>
est er</w>
esser ne</w>
es sione.</w>
ermut ig
erforsch en.</w>
er lebt</w>
er lang
er fahr
entusi ast
ent stand</w>
enn en.</w>
end sten</w>
en c
el o.</w>
eci .</w>
ecc etto</w>
ecc .</w>
e uren</w>
drück t</w>
doman de,</w>
doll ari
disastr o</w>
den de</w>
dell' oceano</w>
de gn
dar stell
dall' altro</w>
d ut
d ung,</w>
costru ita</w>
cos ic
cor rel
contra ddi
continu iamo</w>
com preso</w>
co in
cht ?</w>
centr o,</w>
cel a</w>
cart ello</w>
car te</w>
c ino</w>
c ena</w>
bu ff
br auch</w>
bl as
bil ità,</w>
besitz en</w>
beschlos s</w>
bes a
beg riff
be weisen,</w>
b le</w>
b ano</w>
b ai</w>
aw a</w>
au gur
atmosfer a.</w>
ati k</w>
atem ber
argom enti</w>
architett on
aper tura</w>
anz e,</w>
anti chi</w>
ant an
anni ?</w>
am e,</w>
al ie</w>
al e"</w>
akti vi
ak e</w>
ad oro</w>
acquist are</w>
acci aio</w>
accad de</w>
ac ca</w>
X ,</w>
Wor t,</w>
Wohl stand</w>
Wissenschaft lern</w>
Win ter</w>
Wel ches</w>
Weis heit</w>
Weihna chts
Wasserst off
W ein</w>
Vor träge</w>
Vog el</w>
Viel zahl</w>
Vergn ügen</w>
Ver schw
Ver brechen</w>
Ver brauch
V ölker
V öl
V eg
Ur sprün
Ur kn
Unter nehm
Un gleich
Un gefähr</w>
Um feld</w>
Tr enn
Tim es,</w>
Tim e</w>
Temper atur
T ar
St ur
St art
Spieg el
Shakespe are</w>
Ser vic
Schwefel wasserst
Schu he</w>
Sch lu
Satur n</w>
Satell it
Sah ara</w>
S hir
S av
S AR
Ro man</w>
R öhr
R echte</w>
R aub
Qu ante</w>
Pri or
Pra x
Person .</w>
Penn syl
PI L</w>
Nob el
N ollywoo
N eb
Mur ray</w>
Mitgli eder</w>
Mit arbei
Mann .</w>
Lö cher</w>
Laptop s</w>
L icht.</w>
Kon zer
Investiti onen</w>
Interess ant
Ins ekten</w>
In oltre</w>
In de
Ident ität</w>
ID E
I M:</w>
I -
Herausforder ung,</w>
Hemis phä
H erkun
Grupp e,</w>
Gra ce</w>
Gr ön
Got t.</w>
Gal il
G än
Führ er</w>
Funktion en</w>
Frank reich</w>
Fran ci
Fl ick
Fant ast
F ond
F anno</w>
Er schein
Ein heit</w>
Effizi enz</w>
Dor f
Dici amo</w>
Demok rati
Dank esch
Da zu</w>
D .
Car ne
C ric
C .
Bud get</w>
Bibliot hek
Besch reib
Beri cht</w>
Berechn ungen</w>
Bedroh ung</w>
Bedar f</w>
Bang al
Bab y
B äum
B rem
B all</w>
Ar chi
Antwor t.</w>
Anru f</w>
Angeb ot</w>
Ang st,</w>
An pass
Americ an</w>
6 .000</w>
3 6</w>
3 0.</w>
20 -
"N a
" È</w>
" Per</w>
über tragen</w>
äl testen</w>
Ökon omen</w>
Änder ung</w>
zz a,</w>
zusätz liche</w>
zusetz en,</w>
zuneh men,</w>
z elle</w>
yl :</w>
wunder vollen</w>
wu er
winzi gen</w>
vor h
viver e,</w>
visi bile</w>
vi er,</w>
verkauf t.</w>
verfol gt</w>
ver anst
ven zione</w>
un end
un des</w>
un aus
um her
trov avo</w>
trov arsi</w>
tri st
tradizion ali</w>
tra scor
tion s
ti re</w>
ti ert,</w>
territ orio</w>
te ur
tar di.</w>
tal k</w>
t or</w>
t lich</w>
t edes
t 's</w>
system .</w>
svilupp ando</w>
super ato</w>
sum men
su che</w>
stimm en</w>
stamin ali</w>
spä ter.</w>
spr ingen</w>
sping ere</w>
spin to</w>
spiel t.</w>
speriment are</w>
sor ge</w>
sor ella</w>
soprav viss
sogg etti</w>
soddis f
soci al</w>
signific ato.</w>
sign ora</w>
sich t.</w>
seri amente</w>
scon vol
scienzi ati,</w>
schlä ge</w>
schle chtes</w>
schel et
schau t,</w>
sch ä
sc app
sa ßen</w>
ros a</w>
risult ato,</w>
riser va</w>
ries ci</w>
riconos ce</w>
ri lass
repräsent iert</w>
rech n
rapi da</w>
r end
quest e,</w>
produ ktion</w>
present ato</w>
prat ic
pp en,</w>
posi zione,</w>
port at
poch ino</w>
pi st
pen n
pen de</w>
peggi ori</w>
pas st.</w>
par ol
p ecc
otti mi
ot a,</w>
ossigen o.</w>
ori e.</w>
organizz ato</w>
on or
olog isch</w>
ograph ic
o zi
nuov a.</w>
nu kle
nimm t.</w>
neu lich</w>
necess arie</w>
na io</w>
n ationale</w>
mö gen.</w>
mus sten,</w>
mort o.</w>
mit .</w>
miglior amento</w>
migli ori,</w>
met allo</w>
meccan ica</w>
matemat ico</w>
m all
leiden schaft
leben dig</w>
leb t,</w>
laut et</w>
lang e,</w>
lac ri
l' essere</w>
l' area</w>
künst ler
kultur ellen</w>
kra ft,</w>
kom pliziert</w>
kenn en
kap ut
j ag
itä r</w>
istitu zione</w>
ist er</w>
is cono.</w>
ir dischen</w>
invest ig
invest ieren,</w>
intorn o,</w>
interr og
infra strutture</w>
in oltre,</w>
in aspett
important e?</w>
immag ino</w>
imbar c
id ride</w>
ick ,</w>
i ;</w>
hör ten</w>
hin unter
hi amo</w>
heraus gefunden</w>
her ò</w>
her stellen,</w>
halt e,</w>
ha hi
h ig
h as
gän ge</w>
guadagn are</w>
grün dete</w>
gri ff</w>
gra f
glück lich.</w>
giard ino</w>
get an,</w>
gest imm
ger e.</w>
gefähr lich</w>
gebro chen</w>
ge fallen</w>
gan g.</w>
fü gen,</w>
funzion a,</w>
funktionier en,</w>
frei wil
form e.</w>
fol gen.</w>
fl üssig
fin ita</w>
fall ,</w>
fa sti
fa ?</w>
ex u
evi dent
et an
essenzi ale</w>
esi a,</w>
eserci zio</w>
esempi .</w>
erzeu gen,</w>
errei cht,</w>
er warten,</w>
er möglichen</w>
equi p
ep pi
ep iso
ent hüll
enh agen</w>
emotion ale</w>
em o.</w>
elek tro
effici ente</w>
edific io.</w>
e o
dra n</w>
dov unque</w>
dol or
disc o</w>
dig es</w>
diagn osi</w>
di o.</w>
di ch
descri ver
der zei
den n,</w>
dar stellt.</w>
d' oro</w>
cresci uti</w>
cre der
cre ate</w>
cre ata</w>
cos e?</w>
corru zione</w>
consider o</w>
conn etter
condi vis
conc etti</w>
con fine</w>
col ori.</w>
col ore,</w>
cogn iti
chines ischen</w>
chim ici</w>
chiam ò</w>
chi esi</w>
chem ischen</w>
cerebr ale</w>
car iche</w>
c ann
bet rieb
bes ei
berühr t</w>
benutz t,</w>
bem erkt</w>
beh alten</w>
beantwort en.</w>
bal z
b ul
b on
b and</w>
b aller
avvi ato</w>
aut ori</w>
au str
at ro
ass ung</w>
aspett ando</w>
arbeit ung</w>
ar y</w>
ar rest
ar anci
appo ggi
ap prov
ap or
ap e</w>
anz .</w>
ani ma
ange fangen,</w>
ander s,</w>
all' idea</w>
all zu</w>
ag u
abitu ati</w>
Zu g</w>
Yor ker</w>
Wiss en,</w>
Wis st</w>
Wirt schaft,</w>
Wikipedi a,</w>
Wer b
Wei b
Vort eile</w>
Vol k</w>
Videospi ele</w>
Ver h
V ill
Us hahi
Un abhängi
Trot z
T enn
T ed</w>
T S:</w>
T -S
Su l</w>
Stim men</w>
St reck
St euer
St eu
St eine</w>
Spr ache,</w>
Spiel ,</w>
Schok ol
Rich tige</w>
Reih en
Re ag
Quest o,</w>
Qu ant
Princ et
Pr ü
Pr in
Pr esse</w>
Pop ulation</w>
Phil anthr
Ok ?</w>
Nive au</w>
Neg ro
N ull</w>
N eig
Musi ker</w>
Moskit on
Mo unt
M ul
M ap
Länder n.</w>
Lou is</w>
Leg o</w>
L' ultima</w>
L ut
L ektion</w>
L auf</w>
Kont ak
Kommunik ations
Kohlenst off</w>
Kin d.</w>
Kenn edy</w>
Kat astroph
Kam pf
Jahrzehn t</w>
Inter pret
Im pul
Hüh n
Höhe punkt</w>
Gut en</w>
Gr amm
Gleich gewicht</w>
Gew inn</w>
Gemein schaften</w>
Gemein den</w>
Geist es
G it
G ig
Flu gh
Fil m,</w>
Feb ru
Explo sion</w>
E van</w>
Durch mess
Di en
D ann,</w>
D ach</w>
Cos '
Comput er-
Cinqu e</w>
Cher yl:</w>
Carne gie</w>
Cany on</w>
Californi a,</w>
C el
Budd ha</w>
Bo ot
Bi en
Best imm
Best ech
Beru f
Band breite</w>
B äumen</w>
B eit
Arbeit er</w>
An nahme</w>
An erkennung</w>
Ab sicht</w>
@ TED</w>
4 3</w>
4 0%</w>
1 -
"S ì
über nehmen</w>
über all.</w>
über ,</w>
ökonom ischen</w>
än den</w>
zü ge</w>
zz ato</w>
zion e?</w>
zentr alen</w>
wissenschaft ler</w>
wir ?</w>
wahr en</w>
w ahn
vo to</w>
vo :</w>
visi va</w>
verteil t</w>
verrück t.</w>
verhin dern,</w>
verbess ert</w>
ver stär
ver gleichen</w>
ver bringen,</w>
ven ite</w>
vel o</w>
va sta</w>
utt o,</w>
ursprün glichen</w>
univers ale</w>
ung ."</w>
un endlich</w>
un be
un .</w>
um s,</w>
um geben</w>
u rist
tu bo</w>
trover ete</w>
trei bt</w>
ti ert.</w>
tent ato</w>
tecnologi e,</w>
tas si</w>
superfic i</w>
su mm
student i,</w>
stra d
ster ben
stat t.</w>
st as
spiel e</w>
son da</w>
sol i.</w>
softwar e,</w>
soddis fare</w>
sitz en,</w>
sit o.</w>
simi li.</w>
simi li,</w>
sicht bar</w>
sho w</w>
sh mall
sf ähig
ser p
sent imenti</w>
segu ir
scopr endo</w>
schreib t</w>
schi zo
scher mo.</w>
satell ite</w>
sangu ig
s ",</w>
riusci va</w>
risparmi are</w>
risor se.</w>
ris ulta</w>
ris ale</w>
riconosci mento</w>
ricev ono</w>
religion e,</w>
rei se</w>
re :</w>
rappresent are</w>
rappor ti</w>
r one</w>
r ann
quest a:</w>
qual ität</w>
qual 'è</w>
punt ini</w>
prov ano</w>
prot eine</w>
pro pag
privile gio</w>
prim itiv
prepar ato</w>
pr oli
post eri
post er</w>
possibil ità,</w>
positiv o.</w>
po vero</w>
person alità</w>
perio di</w>
pass eggi
particol are.</w>
pal co.</w>
pad re.</w>
pac ch
p ura</w>
p -
orig ini</w>
or en.</w>
onn a</w>
on don
ol .</w>
ographi c</w>
näm lich,</w>
no cci
ni r
ner vo
nenn e.</w>
nell' universo</w>
nell '</w>
nec es
nas cost
nas cere</w>
nas ce</w>
mor ale.</w>
molt issimi</w>
mol te.</w>
mo to</w>
mini stro</w>
mich :</w>
mezz '
mar kt
man :</w>
mach st</w>
mach e.</w>
lu ci
ll en</w>
lin ie</w>
li s</w>
li ger</w>
leist ungs
leist en.</w>
lei ten</w>
laboratori o.</w>
labor atori</w>
l' innovazione</w>
l' aiuto</w>
l ohn
l .</w>
kurz er</w>
kre u
konzent rier
kompl ette</w>
komm en?</w>
ist ica</w>
intra pp
interr utt
intern et.</w>
interessant es</w>
intellig enti.</w>
int re
int o.</w>
inc is
in fiziert</w>
impieg ato</w>
im o</w>
ier ,</w>
hoff en</w>
hiel t,</w>
handel te</w>
h ent
guar dia</w>
grundleg end</w>
großar tiger</w>
großar tig</w>
groß e,</w>
glück licherweise</w>
glamour .</w>
gir ato</w>
giov ani.</w>
giorn ali</w>
gi o,</w>
gewöhn lich</w>
gesti one</w>
gesell schaft</w>
geschick t</w>
gesch rit
gesag t.</w>
ges piel
geometri a</w>
gekauf t</w>
gebi et</w>
ge ogra
fäll en</w>
fram menti</w>
frag en.</w>
fol le</w>
fo ste</w>
fis ico.</w>
fi zieren</w>
fest a</w>
ferti lizz
fer ro
fat ti.</w>
fass en,</w>
f anno,</w>
event u
ett en
erk rank
er ungen</w>
er halt
entdeck te</w>
ent werfen.</w>
ent ità</w>
emer ge</w>
embr e.</w>
el be</w>
ek t.</w>
eccit ante</w>
e pt
e ol
dustri e</w>
dr ome</w>
dov e,</w>
divent ò</w>
divent ate</w>
din amiche</w>
dig .</w>
differ enza,</w>
diff usa</w>
dies e,</w>
dic endo,</w>
di venti</w>
di fen
deut lich
der à</w>
dell' uomo</w>
dell' universo</w>
dell' anno</w>
del ic
decenni o</w>
de ."</w>
dar auf.</w>
cor aggio</w>
cool .</w>
contribu ire</w>
continu ano</w>
con cor
compl esso,</w>
colleg are</w>
coll ezion
ciasc un</w>
ci ata</w>
chiest o,</w>
chiam ati</w>
cent o.</w>
cattur are</w>
carbur ante</w>
calcol i</w>
ca po
c int
br eiten</w>
bit te,</w>
bic iclett
bezahl en</w>
bewus st.</w>
besch rieben</w>
beobacht en.</w>
benefic io</w>
bemerk en</w>
bar acco
bal ena</w>
bab w
b t.</w>
atur e.</w>
atti .</w>
atteggi amento</w>
at t.</w>
ass ai</w>
asi at
architett ura.</w>
ang .</w>
and arono</w>
and ammo</w>
an teri
an t.</w>
an sehen.</w>
an elli</w>
an da
am ere</w>
allgem einen</w>
all' altro.</w>
all ine
all en.</w>
ali sieren</w>
al em</w>
al e
aka dem
aff ari.</w>
aff am
ac o</w>
a da.</w>
a c</w>
Zu hör
Z o
W ähl
W a
Volk s
Ver sch
Umstän den</w>
Train ing</w>
Teil ,</w>
T ax
T asche</w>
Sym bol</w>
Sta di
Sp esso</w>
Sicht weise</w>
Schwi mm
Schreib t
Schne e</w>
Schlag zei
Sch on</w>
S w
S ost
S af
Ro y
Restauran t</w>
Reak tionen</w>
RI S
R at
Prozess ,</w>
Pro ben</w>
Pl ötz
Person e</w>
P ollen</w>
P M:</w>
P .</w>
Onlin e-
N ein
N M:</w>
N G
Mut ter.</w>
Mus eo</w>
Mass ach
Magaz in</w>
Ma ch</w>
M .</w>
Lut her</w>
Lu x
Körper .</w>
Könn te</w>
Kranken häus
Kom m</w>
Kol um
Kan di
Kampag ne</w>
K erl
Jon es</w>
Jahrzehn te</w>
J etzt,</w>
Inform ationen,</w>
In d
I van</w>
Heut zutage</w>
Hawai i</w>
Gra zie,</w>
Gr ü
Glüh bir
Gi ov
Gelegen heit,</w>
Geheim nis</w>
Gedank e,</w>
Gebr auch</w>
G ehr
G ab
Franci s</w>
Fort un
F atemi</w>
Exper ten</w>
Erwachsen en</w>
Er laub
En g
Em ma</w>
Eis en
Eigenschaf t</w>
Di rekt
D issi
D eck
Cre diamo</w>
Con tr
Comic s</w>
Chem ie</w>
Cer to</w>
Californi a.</w>
C y
C art
Bu s</w>
Bu ch.</w>
Blickwink el</w>
Ber lin
Bar mherzi
Bar ack</w>
B ol
B lei
B ett
B etr
B ern
B ag
B abi
Austr alien</w>
Ausrüst ung</w>
Ander son</w>
An wäl
Ad esso,</w>
A mat
9 7</w>
3 4</w>
20 10</w>
2 %</w>
16 .</w>
"A h,</w>
" non</w>
" la</w>
" Aber</w>
überrasch t</w>
äu fer</w>
Ü b
Ökos ystem</w>
zi .</w>
zeig e,</w>
y a</w>
wohl hab
wo zu</w>
winzi ge</w>
will st</w>
wer det</w>
vorh anden</w>
vor bei.</w>
voll ständig
vol i</w>
vol a</w>
viv evano</w>
viaggi o,</w>
vern etz
verkauf te</w>
verg ogn
verg essen,</w>
verb or
ver zweifel
ver lassen,</w>
us s.</w>
uom ini.</w>
universit à.</w>
uman e.</w>
um ini
um ar
u i</w>
tut ela</w>
tun nel</w>
tracci a</w>
tra fen</w>
tocc are</w>
teat ro</w>
t at.</w>
t '
su ppor
städt ischen</w>
straordin arie</w>
stra pp
star ten</w>
st ücke</w>
st ein
sp unt
sozi aler</w>
sorprend ente.</w>
sol ari</w>
sli de</w>
sist ono</w>
sin n</w>
sim p
sig ar
si ge</w>
servi re</w>
selbst verständlich</w>
sel n</w>
secon di.</w>
scri vendo</w>
schw itz
schaff te</w>
sch m
scambi o</w>
sap ete.</w>
sangu e,</w>
sah ari
s è</w>
s enti</w>
s al</w>
ros si</w>
ro ck
rius cita</w>
risult ato.</w>
riman gono</w>
rie chen</w>
ricer c
ric a</w>
ri gener
ri fic
ri e</w>
resist enza</w>
ren da</w>
religion i</w>
rein vent
rei cher</w>
re per
re agi
rapid amente.</w>
radic almente</w>
r aus,</w>
r aub
pu zz
pron te</w>
problem at
pres cin
preoccup a</w>
pover i,</w>
pol i</w>
pi ante.</w>
pi ante,</w>
percent o.</w>
par a
ot ti</w>
ori e,</w>
organi siert</w>
or ecchie</w>
oni k</w>
om bra</w>
om .</w>
og ramm</w>
occident ale.</w>
oc rat
nucle are,</w>
nott ur
niem anden</w>
neu esten</w>
neu .</w>
nah men.</w>
na stro</w>
n ord
n ationalen</w>
müs sten</w>
mus coli</w>
motiv azione</w>
mor ire.</w>
mor ale,</w>
mi a.</w>
mess en.</w>
ment alità</w>
matemat ica.</w>
masch i</w>
mapp a.</w>
ma il
liefer t</w>
leg gendo</w>
las ci</w>
l' umanità</w>
l' 11</w>
l ä
l ati</w>
kra ft.</w>
kr äf
kor re
kont inu
kon zep
klein e,</w>
kl ag
kat astrop
k te,</w>
k a</w>
je der,</w>
izz azione</w>
issi mo,</w>
ir rig
intro dotto</w>
inten zion
inten siv
inst alli
ins etti</w>
ingl ese,</w>
industri elle</w>
impul so</w>
impl ement
impi anto</w>
impar a</w>
ig e,</w>
ier ende</w>
identi fizier
ic a?</w>
i o:</w>
i "</w>
hoff en,</w>
halt s
guid ato</w>
gr am
glück lich,</w>
glaub en.</w>
gi o.</w>
ghiacci o,</w>
gew onnen.</w>
gew andel
get est
gest alten</w>
gesch lagen</w>
gerett et</w>
gen ös
gen ."</w>
gefähr liche</w>
ge wählt</w>
g ono.</w>
fundament ale</w>
fru stri
form uli
for t,</w>
flu g</w>
fir ma</w>
fin ora</w>
fin ale.</w>
figli o,</w>
felic i,</w>
fatt oria</w>
faszinier ende</w>
fantast ico,</w>
famili are</w>
facci o.</w>
f rieden</w>
ev er</w>
erforsch en,</w>
er stellen,</w>
er g
er freu
entr ate</w>
ent liche</w>
ent gegen
enor m
enn en,</w>
em ett
ein mal.</w>
ein mal
eg al.</w>
eder ,</w>
econom ico,</w>
econom ica,</w>
ec co,</w>
ec chi</w>
e zione,</w>
e e.</w>
e ',</w>
du s</w>
drück en,</w>
dop am
dit a,</w>
distingu ere</w>
disser o:</w>
dip into</w>
di t</w>
determin a</w>
defin ito</w>
defin itiv
dau ern
dar à</w>
d etti</w>
cost ante</w>
cor e
consi gli</w>
conosc enza,</w>
combusti bile</w>
coltiv atori</w>
colleg ati</w>
cli ente</w>
ciò ?</w>
ciel o.</w>
cic li</w>
chines ische</w>
chi es
ch ter
ch mal,</w>
cell a</w>
cap p
canz oni</w>
c ricket</w>
bu s</w>
bra sili
bo dsch
bit ten</w>
bild et,</w>
bi eten.</w>
besu chen</w>
besor gt</w>
besch ütz
besch wer
berühm ten</w>
beobacht et</w>
bel ast
bedeut en</w>
be finden,</w>
b ole</w>
b an</w>
aut orit
aus ch</w>
aus breit
aus :</w>
auf bauen</w>
arl e,</w>
ari e,</w>
ar mi,</w>
ar chie</w>
ap pen
ann ehmen,</w>
ander es,</w>
an fangen.</w>
amm er</w>
amb ito</w>
am olo</w>
allgem ein</w>
alber i.</w>
ah nen</w>
ag o</w>
adol esc
Z ü
Wür den</w>
Wel traum
Wei ter
Weg e,</w>
Wasserst off</w>
W elle</w>
W ander
Vir tu
Vier tel
Vi viamo</w>
Vi el</w>
Verzwei fl
Ver teilung</w>
V edo</w>
Urheb er
U S</w>
Typ ,</w>
Transi stor
Tesz ler</w>
Teil chen
Tag en,</w>
T äusch
St reben</w>
St au
Sprach e.</w>
Sp ace</w>
Skl av
Skelett mus
Shang hai</w>
Schul d</w>
Schn itt</w>
Schi ff</w>
Schalt krei
Sch ä
Sch af
S ist
S MS</w>
Roh stoff
Rech ner</w>
Re ich</w>
Re gi
Ra dio</w>
R ig
Präsident en</w>
Projek ten</w>
Prei s
Pl ay
O ut
Nor man</w>
Neu es</w>
Nat ura</w>
N arr
Metho den</w>
Metapher n</w>
Me ere</w>
Mat hemat
Massach us
M ett
Lond ra,</w>
Lieb e.</w>
Li ve
Lasci atemi</w>
L att
L .
Könn ten</w>
Kreu z
Kra b
Kr äf
Konsument en</w>
Kon vers
Ki ber
Kat egori
K ro
K atz
J oh
J as
Intu ition</w>
Inn enst
Indi ens</w>
In vec
In tendo</w>
I I
Hy poth
Hig g
Ha ar
H arry</w>
H af
Gol dene</w>
Glob alisierung</w>
Gebäu den</w>
Gebi et,</w>
Ganz en</w>
Found ation</w>
Flu g</w>
Fing er
Fin anzi
Fig ur</w>
Fel sen</w>
Er ste</w>
Elektr on
Ein zi
E E
Dis ney</w>
De z
D ick
D aw
Cri sti
Cor ea</w>
Cominci amo</w>
Coc a-
Co sta</w>
C amm
Bril li
Br un
Betra chten</w>
Ber ech
At lanti
Alter s
Al koh
Ak tion</w>
Agn es</w>
Afrik an
A ka
A A
9 0
200 0,</w>
20 20</w>
2, 5</w>
18 0</w>
1 %</w>
" Le</w>
ü ft
änder te</w>
ä her
Ä ra</w>
zz i</w>
zwei einhalb</w>
zu verläs
zon a.</w>
zion e:</w>
zeig ten</w>
wunder schönen</w>
wohl ,</w>
wir ft</w>
wel t.</w>
wei ger
w enn
vul can
vor wärts</w>
vor rà</w>
volont ari</w>
virtu elle</w>
viel mal
vielmal s.</w>
verwandel n.</w>
verg ess
verdien en.</w>
verbra cht</w>
ver tik
ver einfach
venti on</w>
veloc e,</w>
val ore.</w>
us e
us arlo</w>
unterschei den</w>
un' unica</w>
un möglich.</w>
um a</w>
uff ici</w>
trop pe</w>
tridimension ale</w>
tri ste</w>
traspor to</w>
tras mettere</w>
tr ent
top o</w>
toll es</w>
tief en</w>
tief e</w>
tent are</w>
tem pi,</w>
techn isch</w>
t oss
t ett
t ag</w>
svilupp a</w>
su d
strum enti,</w>
str eit
str ano,</w>
stell ungen</w>
stand s
st ür
st ün
st ets</w>
st el</w>
spieg ato</w>
son no</w>
sogen annte</w>
softwar e.</w>
sit z</w>
sing ole</w>
sicur o,</w>
sen :</w>
selt sam</w>
segret i</w>
sed uta</w>
scult ura</w>
schreck lich</w>
schlu g</w>
schl au</w>
schl au
schick te</w>
schiavit ù</w>
schi cht</w>
sch e.</w>
sap pia</w>
sag t.</w>
s äu
s se</w>
rocci a</w>
risult ati.</w>
ringrazi are</w>
ricom inci
ricev e</w>
rice ver
ric i</w>
ri produ
ri pensare</w>
ri dotto</w>
ri -
reci pro
re p
re cit
re ."</w>
ration al</w>
raccol ti</w>
pun kte</w>
pul s
pubbl ici</w>
prod otti.</w>
proc ur
priv aten</w>
pri mi
present e,</w>
pr inzi
pr e</w>
possi ede</w>
positiv en</w>
po vere</w>
po co,</w>
plo mat</w>
pl u
perfek ten</w>
pa ci
ott o,</w>
os fer
orchest ra</w>
olog en,</w>
ol tre.</w>
ograph ie</w>
offer ta</w>
offensicht lich,</w>
odi ern
ni e.</w>
nell' ultimo</w>
nell' industria</w>
nei gen</w>
n annten</w>
music ale</w>
mus sten.</w>
mus ,</w>
montagn a.</w>
mont are</w>
mitt el.</w>
mil itä
mer ito</w>
materi ali,</w>
ma schi
lich er,</w>
li er
leg te</w>
leg ate</w>
laboratori o,</w>
kun ft</w>
kti s</w>
konzentri eren.</w>
klein ere</w>
kl ear
is ole</w>
is cono,</w>
invit ato</w>
intre cci
intrapp ol
intern o,</w>
intern et,</w>
inter vist
infermi ere</w>
indi sche</w>
import anti,</w>
immagazz in
i ett
i amo,</w>
hol en,</w>
heut ige</w>
hal t,</w>
größ eres</w>
großar tiges</w>
[...]
