 
£
¥
©
«
®
°
²
³
´
»
¼
½
¾
˚
β
ѐ
–
—
‘
’
“
”
„
‟
…
‹
€
™
♪
♫
，
-
--
---
--@@
-,
-@@
-B@@
-D@@
-F@@
-K@@
-L@@
-P@@
-S@@
-St@@
-t@@
-T@@
-U@@
-und-@@
-Ver@@
,
–,
“,
”,
,"
,@@
,000
,5
;
;@@
:
:@@
!
!“
!"
!",
!".
!@@
?
?“
?”
?'
?"
?",
?".
?@@
.
.“
.”
.♫
.,
.:
..
...
....
..."
...@@
...e
..@@
.'
."
.]
.@@
.00@@
.000
.000,
.000.
.500
.B.
.com
.com,
.com.
.com@@
.or@@
.org
'
',
':
'?
'.
''
''@@
'"
'@@
'000
'50
'6@@
'60
'70,
'8@@
'80,
'9@@
'90
'altro
'altro.
'anni
'anni,
'é
'è
'essere
's
's,
's.
'The
"
"-@@
",
";
":
"?
".
"...
"]
"@@
"a
"A
"A@@
"Abbiamo
"Aber
"Ah,
"An@@
"B@@
"Be@@
"Beh,
"Bene,
"Bitte
"C@@
"Che
"Chi
"Ci
"Come
"Cosa
"D@@
"Das
"Der
"die
"Die
"Du
"E
"è
"È
"E'
"E@@
"Ehi,
"Ein
"Eine
"Er
"Es
"F@@
"G@@
"Gli
"Guar@@
"Guarda,
"H@@
"Hai
"Hey
"Hey,
"Ho
"I
"I@@
"Ich
"Ihr
"il
"Il
"in
"In
"Io
"Ist
"J@@
"Ja,
"Ja."
"K@@
"L'@@
"L@@
"la
"La
"Lasst
"Le
"Lo
"M@@
"Ma
"Mam@@
"Mamma,
"Mein
"Mi
"N@@
"Na
"Na@@
"Naja,
"Nein,
"Nein@@
"No,
"non
"Non
"Nun,
"O@@
"Oh
"Oh,
"Ok,
"OK,
"Oka@@
"Okay,
"P@@
"Per
"Perché
"Qual
"Quando
"Questa
"Questo
"R@@
"S@@
"Sai,
"Sap@@
"Sch@@
"Se
"Sei
"Sì,
"Si@@
"Sì@@
"Siamo
"Sie
"So
"Sono
"St@@
"T@@
"The
"Tu
"U@@
"Un
"Und
"V@@
"Ver@@
"Vi@@
"Voglio
"W@@
"War@@
"Warum
"Was
"Was@@
"Weißt
"Wenn
"Wer
"Wie
"Wir
"Wissen
"Wo
"Wo@@
"Wow,
(@@
)
)@@
[
[@@
[un@@
[undeutlich@@
]
],
].
]@@
@
@@
 @@
£@@
«@@
°@@
²@@
´@@
»@@
¼@@
½@@
β@@
к@@
–@@
– @@
—@@
‘@@
’@@
‚@@
“@@
”@@
„@@
…@@
‹@@
›@@
♪@@
♫@@
@@@
@TED
*
*@@
/
/@@
&@@
&amp;
&amp;@@
#@@
%
%,
%.
%@@
`
`@@
^
^@@
+
+@@
=
=@@
$
$@@
0
0-@@
0,
0,@@
0.
0.@@
0.000
0@@
0%
00
00,
00.
00.000
00@@
000
0er
0ern
1
1-@@
1,
1,@@
1,2
1,3
1,5
1:
1.
1.@@
1.000
1.100
1@@
1/@@
1%
10
10-@@
10,
10,000
10.
10.000
10@@
10%
100
100-@@
100,
100.000
100@@
100%
1000
11
11,
11.
110
12
12,
12.
12.000
12@@
120
125
13
13.
13@@
130
14
14@@
140
15
15,
15.
15.000
15@@
150
150.000
1500
16
16,
16.
16@@
160
17
17.
17@@
170
18
18,
18.
18@@
180
185@@
186@@
188@@
189@@
19
19.
19@@
190@@
192@@
193@@
194@@
1945
195@@
1950
196@@
1960
1960,
197@@
1970
198@@
199@@
1990
1991
1994
1994,
1995
1996
1998
1999
2
2-@@
2,
2,@@
2,5
2:
2.
2.@@
2.000
2@@
2/@@
2%
20
20-@@
20,
20.
20.000
20@@
20%
200
200.000
200@@
2000
2000,
2000.
2001
2001,
2002
2003
2004
2004,
2005
2005,
2006
2006,
2006.
2007
2007,
2008
2008,
2008.
2009
2009,
2010
2015
2020
2020.
2050
21
21.
21@@
22
22.
23
24
24@@
25
25.000
25@@
25%
250
250.000
26
26@@
27
28
29
3
3-@@
3,
3,@@
3,5
3,7
3:
3.
3.@@
3.000
3@@
3%
30
30-@@
30,
30.
30.000
30@@
30%
300
300.000
300@@
3000
31
32
33
34
35
35.000
350
36
37
38
3D
3D-@@
3D,
4
4,
4,@@
4.
4.@@
4.000
4@@
4%
40
40,
40.000
40@@
40%
400
400.000
400@@
4000
42
43
44
45
450
46
47
47.
48
49
5
5-@@
5,
5.
5.@@
5.000
5@@
5%
50
50-@@
50,
50.
50.000
50@@
50%
500
500.000
5000
50ern
52
55
56
57
6
6,
6,@@
6.
6.000
6@@
6%
60
60.000
60@@
600
6000
60er
60ern
65
66@@
7
7,
7.
7.@@
7.000
7@@
7%
70
70,
70.000
70@@
70%
700
72
73
75
75%
76
78
8
8-@@
8,
8.
8.@@
8.000
8@@
8%
80
80@@
80%
800
83
85
9
9,
9.
9@@
90
90@@
90%
900
92
95
95%
96
97
98
99
99"
99@@
a
a♫
A
á
à
a--
a-@@
A-@@
a-croce-@@
a,
A,
à,
a;
a:
A:
à:
a!
a!"
a?
à?
a?"
a.
A.
à.
a..
a...
à...
a...@@
a."
à."
a.@@
a'
a',
a'.
a"
a",
a".
a]
a@@
A@@
á@@
à@@
â@@
ä@@
Ä@@
ã@@
ā@@
aa@@
AA@@
ab
Ab
ab,
AB:
ab.
ab@@
Ab@@
AB@@
äb@@
abb@@
abband@@
abbandon@@
abbandonare
abbandonato
abbass@@
abbassare
abbast@@
abbastanza
abbastanza,
abbastanza.
abbat@@
abbattere
abbi@@
abbia
abbiamo
Abbiamo
abbiamo,
abbiamo.
abbiano
abbiate
abbond@@
abbondanza
abbrac@@
abbracci@@
abe
abel
aben
abend
Abend
Abend@@
Abendessen
abends
Abent@@
Abenteuer
aber
Aber
aber,
Aber,
aber@@
Aber@@
abet@@
abge@@
abgel@@
abges@@
abgesch@@
abgesehen
Abh@@
abhän@@
abhängi@@
Abhängi@@
abhängig
Abhängigkeit
abi@@
abil@@
abile
abile,
abile.
abili
abili,
abili.
abili@@
abilit@@
abilità
abilità,
abilità.
abilität
abilmente
abilmente,
abit@@
abitanti
abiti
abitu@@
abituati
abitudine
abitudini
Abkommen
abl@@
Abl@@
able
ablen
abol@@
abor@@
Abra@@
Abraham
Abschluss
Abschnitt
absich@@
Absicht
Absichten
absichtlich
absol@@
Absol@@
absolut
absolut@@
absolute
absoluten
absorbi@@
Abstamm@@
Abstand
abstra@@
absur@@
Abu
abusi@@
aby@@
abyte
abzu@@
abzul@@
ac
ac@@
Ac@@
acc@@
Acc@@
acca
acca@@
accad@@
accada
accadde
accade
accade.
accadem@@
accadendo
accadendo.
accadere
accadrà
accaduto
accanto
accedere
acceler@@
accelerare
accen@@
accendere
accenn@@
accessi@@
accessibile
accessibili
accesso
accett@@
accettare
accettato
acch@@
acchi@@
acci@@
acciaio
accident@@
acco
acco@@
accogli@@
accompagn@@
accoppi@@
accor@@
accordi
accordo
accorger@@
accres@@
accumul@@
accumulo
accur@@
ace
ach
ach,
ach.
ach@@
Ach@@
äch@@
ache
äche
ache,
achen
ächen
Achse
ächst
acht
acht.
acht@@
Acht@@
ächt@@
ächte
achten
achten,
achtet
achtung
aci
aci@@
acido
ack
ack,
ack@@
äck@@
ackt
aco
acom@@
acqu@@
acqua
acqua,
acqua.
acque
acqui@@
acquisi@@
acquist@@
acquistare
acquisto
Act
acul@@
Acumen
acust@@
ad
Ad
ad,
ad.
ad@@
Ad@@
äd@@
ada
ada,
ada.
ada@@
Adam
Adam@@
adatt@@
adatta
adattare
adatto
add@@
addestr@@
addi@@
addirittura
addosso
ade
ade,
ade.
ade@@
adegu@@
adel@@
aden
äden
aden,
aden.
aden@@
ader
ader@@
adere
ades@@
adesi@@
adesivo
adess@@
adesso
Adesso
adesso,
Adesso,
adesso?
adesso.
adi
adi@@
Adi@@
adig@@
ädig@@
ado
ado@@
adol@@
adolesc@@
Adop@@
ador@@
Ador@@
adoro
Adoro
adott@@
adottare
adozione
Adr@@
adul@@
adult@@
adulti
adulti.
adulti@@
adulto
aer@@
aerea
aerei
aereo
aereo,
aero@@
aerop@@
aeroplan@@
aeroporto
af
af@@
Af@@
äf@@
afen
aff@@
Aff@@
affam@@
affari
affari,
affari.
affascin@@
affascinante
affascinante.
affascinato
affatto
Affen
affer@@
afferma
afferma@@
affermare
affermazione
afferr@@
affetto
affi@@
affid@@
affida@@
affidabile
affil@@
affin@@
affinché
affoll@@
affron@@
affront@@
affronta
affrontando
affrontare
affrontato
Afghan@@
Afghanist@@
Afghanistan
Afghanistan,
Afghanistan.
afor@@
afric@@
Afric@@
Africa
Africa,
Africa.
africani
Africani
africani,
africani.
africano
afrik@@
Afrik@@
afrika
Afrika
Afrika,
Afrika.
Afrikan@@
Afrikaner
afrikanische
afrikanischen
Afrikas
äft
äft@@
äfte
ag
AG:
ag@@
Ag@@
Äg@@
age
age,
age.
agen
agen,
agen.
Agen@@
Agent@@
agente
agenti
agenzi@@
agenzia
ager
äger
ager,
ager@@
aggeg@@
aggi
aggi,
aggi.
aggi@@
Aggi@@
aggio
aggio,
aggio.
aggiorn@@
aggiun@@
aggiung@@
aggiunge
aggiungere
aggiungiamo
aggiunta
aggiunto
aggiust@@
aggr@@
aggra@@
aggreg@@
aggressi@@
agh@@
agi@@
agier@@
agieren
agio
agire
agiscono
agit@@
agli
agli@@
aglia
agliar@@
aglio
agn@@
Agn@@
agna
agna,
agna.
agne
Agnes
agnost@@
ago
agog@@
agon@@
Agr@@
Agrar@@
agric@@
agricol@@
agricoltori
agricoltura
agricoltura,
agricoltura.
agu@@
Ägyp@@
ah
ah,
Ah,
ah!
ah.
ah@@
Ah@@
äh@@
ahe
ähen
äher@@
ähig@@
ahl
ahl@@
ähl@@
ähle
ahme
ahn
ahn@@
Ahn@@
ähn@@
Ähn@@
ähne
ahnen
ähnlich
ähnlich,
ähnlich.
ähnliche
ähnlichen
ähnlicher
ähnliches
Ahnung
Ahnung,
Ahnung.
ahr
ähr
ahr@@
ähr@@
ai
Ai
ai,
ai:
ai.
ai@@
Ai@@
aia
aia,
aia.
AID@@
AIDS
AIDS-@@
AIDS,
AIDS.
ail
ail@@
Aim@@
AIM@@
Aimee
AIMS
ain
ain@@
aio
aio,
aio.
air
Air
air@@
Air@@
Airstre@@
ais@@
äischen
aiss@@
aiut@@
aiuta
aiutando
aiutano
aiutarci
aiutare
aiutarmi
aiutati
aiutato
aiuti
aiuti@@
aiuto
aiuto,
aiuto.
aj@@
ak
ak,
ak@@
Ak@@
aka@@
Aka@@
akadem@@
Akademi@@
ake
Akkor@@
akt
Akt
akt@@
Akt@@
akte
akter@@
akteri@@
akti@@
Akti@@
Aktion
aktiv
aktiv@@
Aktiv@@
aktive
aktiven
aktiver
aktivi@@
Aktivi@@
Aktivität
Aktivitäten
aktor
aktu@@
aktuelle
aktuellen
aku@@
akul@@
akust@@
akzep@@
akzept@@
akzeptieren
al
Al
al-@@
al,
al.
al@@
Al@@
AL@@
äl@@
Äl@@
ala
ala,
ala.
Alab@@
Alan
alare
Alask@@
Alaska
alb@@
Alb@@
alber@@
Alber@@
alberi
alberi,
alberi.
albero
albero,
albero.
Albert
alc@@
alcol@@
alcun
alcun@@
Alcun@@
alcuna
alcune
Alcune
alcuni
Alcuni
alcuno
ald
ale
äle
ale,
ale:
ale?
ale.
ale."
ale"
ale".
ale@@
alem
alen
älen
alen,
alen.
aler
ales
Alessand@@
Alex
Alex@@
Alexand@@
Alexander
Algen
algh@@
alghe
algorit@@
Algorith@@
Algorithmen
algoritmi
Alh@@
ali
ali,
ali:
ali?
ali.
ali@@
Ali@@
alia
alie
alien
alien@@
alieni
aliforni@@
aliment@@
alimentare
alimentare.
alimentato
alimentazione
alimenti
alisier@@
alisieren
alisiert
alisierte
alisierten
alisierung
alisierung,
alismo
alismo.
alismus
alist
alist@@
alista
alisten
alisti
alistischen
alit@@
alità
alità,
alità.
alität
alität,
alizz@@
alizzare
alizzato
alizzazione
alizziamo
Alkoh@@
all
All
all-@@
all,
all.
all'
all'@@
All'@@
all'altra
all'altro
all'altro,
all'altro.
all'anno
all'anno,
all'anno.
all'epoca
all'esterno
all'età
all'idea
all'improvvis@@
all'improvviso
all'in@@
all'incirca
all'infin@@
all'inizio
All'inizio
all'inizio,
all'interno
all'interno.
all'Università
all@@
all’@@
All@@
alla
Alla
allarg@@
allarme
alle
Alle
älle
alle,
alle.
alle@@
alleg@@
allein
Allein
allein.
alleine
allem
allem,
allen
Allen
allen,
allen.
allen@@
aller
aller@@
Aller@@
allerdings
Allerdings
allererst
alles
Alles
alles,
Alles,
alles.
allev@@
allevi@@
allgegenwär@@
allgem@@
Allgem@@
allgemein
allgemein@@
Allgemein@@
allgemeine
allgemeinen
alli
alli@@
Allig@@
alline@@
allmäh@@
allo
Allo
allo,
allo.
Allo@@
allont@@
allontan@@
Allor@@
allora
Allora
allora,
Allora,
allora?
allora.
alls
Alltag@@
alltäglichen
allu@@
allucin@@
allucinazioni
allung@@
alluzin@@
ally
allzu
almeno
Almeno
alment@@
almente
almente,
almente.
alo
alog
alog@@
alop@@
Alp@@
Alpha
Alphab@@
alquanto
als
Als
als.
also
Also
also,
Also,
also:
also.
alt
alt,
alt.
alt@@
Alt@@
alta
alta,
altamente
alte
alte,
alten
alten,
alten.
alter
Alter
älter
alter,
alter.
alter@@
Alter@@
Älter@@
ältere
älteren
Altern
altern@@
Altern@@
alternativa
alternative
Alternative
Alters@@
Älterwerden
altes
älteste
ältesten
altet
altezza
alti
alto
alto,
alto.
altr@@
Altr@@
altra
altra,
altra.
altre
Altre
altre,
altre.
altrett@@
altrettanto
altri
Altri
altri,
altri.
altri@@
Altri@@
altrimenti
altro
altro,
altro?
altro.
altrov@@
altrove
altru@@
altung
altung,
altung.
altungs@@
Alumini@@
alve@@
aly@@
alz@@
Alz@@
alza
alzare
alzate
Alzate
alzato
Alzhei@@
Alzheimer
am
Am
am,
AM:
am.
am@@
Am@@
AM@@
äm@@
ama
ama,
Ama@@
amano
amare
amat@@
Amat@@
amato
Amaz@@
Amazon
Amazon@@
Amazz@@
amb@@
ambe
ambi
ambi@@
Ambi@@
ambient@@
ambientale
ambientale,
ambientali
ambientalist@@
ambiente
ambiente,
ambiente.
ambienti
ambigu@@
ambito
ambizi@@
ambul@@
Ambul@@
ambur@@
ame
ame,
ame.
Amei@@
Ameise
Ameisen
Ameisen,
Ameisen@@
amen
ament
ament@@
amente
amente,
amente.
amenti
amenti,
amenti.
amento
amento,
amento.
amer@@
Amer@@
amera
amere
americ@@
Americ@@
America
America,
America.
American
americana
americana.
americane
americani
Americani
americani,
americani.
americano
Americano
americano,
americano.
amerik@@
Amerik@@
amerika
Amerika
Amerika,
Amerika.
amerikan@@
Amerikan@@
Amerikaner
Amerikaner,
amerikanische
amerikanischen
Amerikanischen
amerikanischer
Amerikas
ami
ami,
ami.
ami@@
amiamo
amica
amiche
amici
amici,
amici.
amici@@
amico
amico,
amico.
amide
amili@@
amin@@
amit
amm
amm@@
ämm@@
ammal@@
ammas@@
ammen
ammer
ämmer@@
ammettere
ammi@@
amminist@@
amministr@@
amministratori
amministrazione
ammir@@
ammo
amo
Amo
amo,
amo:
amo?
amo.
amo...
amo@@
amoci
amolo
amor@@
amore
amore,
amore.
amour@@
amp@@
Amp@@
ampf
ämpf@@
ampi@@
ampia
ampio
ampli@@
amput@@
ams
Amster@@
amt@@
Amy
an
An
an-@@
an,
an:
an?
an.
an."
an@@
An@@
än@@
Än@@
ana
ana,
ana.
anal@@
Anal@@
anali@@
analisi
analizz@@
analizzare
analog@@
analogia
Analogie
analy@@
Analy@@
Analyse
Analysi@@
anat@@
anc@@
ance
anch'@@
anch'io
anch@@
anche
Anche
anche,
anche.
anci@@
anco@@
ancor
ancor@@
Ancor@@
ancora
Ancora
ancora,
Ancora,
ancora.
and
and,
and?
and.
and@@
And@@
anda
anda,
anda.
anda@@
andai
Andai
andal@@
andamento
andammo
andando
andar@@
andare
andare,
andare.
andarono
andas@@
andata
andate
Andate
andati
andato
andau@@
andauern@@
andav@@
andava
andavano
andavo
ande
ände
ände,
andel
andel@@
anden
änden
anden,
anden.
ander
änder
änder,
änder.
ander@@
Ander@@
änder@@
Änder@@
andere
Andere
andere,
andere.
anderem
anderen
anderen,
anderen.
anderer
anderes
anderes,
anderes.
ändern
ändern,
ändern.
anders
Anders
anders,
anders.
anders@@
Anderson
Anderson:
ändert
ändert,
ändert.
andert@@
änderte
anderthalb
änderung
Änderung
Änderungen
andi
andi@@
andiamo
Andiamo
andin@@
andl@@
andlung
andlungen
ando
andò
ando,
ando:
ando?
ando.
ando@@
andoci
andola
andole
andoli
andolo
andomi
andosi
andovi
Andr@@
andrà
andranno
Andre@@
andremo
Andrew
andrò
ands
Andy
ane
äne
ane,
ane.
aned@@
anelli
anello
anen
änen
aner
Anerkennung
anf@@
anfäl@@
anfän@@
Anfän@@
Anfang
Anfang,
Anfang.
Anfang@@
anfangen
anfangen,
anfangen.
anfing
anfing,
Anführ@@
Anführer
ang
ang,
ang.
ang@@
Ang@@
äng@@
anga
ange
änge
ange@@
angeb@@
Angeb@@
angeblich
Angebot
angebracht
angefangen
angefangen,
angefangen.
angeh@@
angehen
angeht,
angeht.
angekommen
angel@@
Angel@@
angeleg@@
Angelegen@@
Angelegenheiten
Angeles
Angeles,
Angeles.
angem@@
angemess@@
angen
ängen
angen@@
angeneh@@
angenehme
angenommen
angepasst
änger
anger@@
änger@@
anges@@
Anges@@
angesch@@
angesehen
angesehen,
Angesicht
angesichts
Angestell@@
Angestellten
anget@@
angetrieben
angewand@@
angewandt
angewendet
angi@@
Angi@@
angiogen@@
Angiogen@@
Angiogenese
angl@@
ängnis
angol@@
angoli
angolo
angolo,
angolo.
Angriff
Angriff@@
Angriffe
angs@@
Angst
Angst,
Angst.
ängstig@@
Anhän@@
anhand
Anhänger
ani
ani,
ani:
ani.
ani@@
Ani@@
ania
ania,
ania.
anidride
anie
anik
anim@@
Anim@@
anima
anima@@
animale
animale,
animale.
animali
animali,
animali.
Animation
animazione
animi@@
anische
anischen
anischer
anisches
ank@@
anlage
Anlage
Anleit@@
ann
Ann
ann,
ann@@
anna
annäher@@
annähernd
Annahme
Annahme,
Annahmen
anne
anne,
anneg@@
annehmen
annehmen,
annen
anni
anni,
anni?
anni.
anni@@
anniversar@@
anniversario
anno
anno,
anno?
anno.
annst
annt
annte
annten
annu@@
annun@@
annunci@@
annunciato
annuncio
ano
ano,
ano:
ano?
ano.
anom@@
anon@@
anony@@
anpass@@
Anpass@@
anpassen
Anpassung
anreg@@
Anrei@@
Anreize
Anru@@
Anruf
ans
Ansatz
anschau@@
anschauen
anschauen,
anschauen.
anschaut,
anscheinend
anschließend
ansehen
ansehen,
ansehen.
ansi@@
Ansicht
Ansichten
ansieht,
ansonsten
anspr@@
Anspruch
anspruchs@@
anst@@
anstatt
Anstatt
ansteck@@
anstelle
Anstelle
Anstieg
Anstreng@@
Anstrengungen
ant
ant,
ant.
ant@@
Ant@@
anta
antan@@
Antar@@
Antarkt@@
Antarktis
Antarti@@
antast@@
ante
ante,
ante:
ante.
ante@@
Anteil
antemente
antemente.
anten
anten,
anten.
anten@@
Anten@@
antenati
antenn@@
anter
anteri@@
Anth@@
anthr@@
Anthr@@
anthrop@@
Anthrop@@
anti
anti-@@
Anti-@@
anti,
anti.
anti@@
Anti@@
antiangiogen@@
antibiot@@
antibiotici
Antibiotik@@
Antibiotika
antic@@
antica
antiche
antichi
antici@@
anticipo
antico
anticor@@
Antik@@
Antikör@@
anto
Anton@@
antrei@@
antreiben
Antri@@
Antrieb
Antrieb@@
antro@@
antrop@@
antwor@@
Antwor@@
Antwort
Antwort.
antwort@@
Antwort@@
antworten
Antworten
Antworten.
antwortete:
Anw@@
Anwäl@@
Anweis@@
anwend@@
Anwend@@
anwenden
anwenden,
Anwendung
Anwendungen
anz
anz,
anz.
anz@@
änz@@
anza
anza,
anza.
Anzahl
anze
anze,
anze.
Anzeichen
Anzeige
anzen
anzi
anzi,
Anzi,
anzi@@
anziani
anziché
anzieh@@
Anzieh@@
anzit@@
anzitutto
anzö@@
anzu@@
anzugehen.
anzun@@
anzus@@
anzusehen,
anzusehen.
anzust@@
anzut@@
ap
ap@@
Ap@@
Apart@@
ape
aper@@
apert@@
aperta
aperta,
aperti
aperto
aperto,
aperto.
apertura
Apfel
api
api@@
apicol@@
apie
apit@@
apo@@
Apollo
apor@@
app
app@@
App@@
appar@@
Appar@@
appare
apparecchi@@
apparentemente
apparire
appariva
appart@@
apparten@@
appartiene
appassion@@
appassionato
appe
appell@@
appello
appen
appen@@
appena
Appena
appl@@
Appl@@
applau@@
Apple
applic@@
applica
applicare
applicato
applicazione
applicazioni
appo@@
appoggi@@
appren@@
apprendere
apprendimento
appreso
apprezz@@
apprezzare
approc@@
approccio
approfon@@
appropri@@
approssi@@
approv@@
appunt@@
appunto
appy
apr@@
Apr@@
apre
apri@@
aprir@@
aprire
aqu@@
Aqu@@
aquil@@
ar
är
ar,
ar.
ar@@
Ar@@
AR@@
är@@
Är@@
ara
Ära
ara.
Ara@@
arab@@
arabischen
aranci@@
arancione
Aravin@@
arb@@
Arb@@
arbei@@
Arbei@@
arbeit
Arbeit
arbeit,
Arbeit,
Arbeit.
arbeit@@
Arbeit@@
arbeite
arbeite,
arbeite.
arbeiten
Arbeiten
arbeiten,
arbeiten.
arbeiter
Arbeiter
Arbeiter@@
arbeitet
arbeitet,
arbeitet.
arbeitete
arbeitete,
arbeitete.
arbeiteten
arbeiteten,
Arbeits@@
Arbeitsk@@
Arbeitspl@@
Arbeitsplätze
arbeitung
arbit@@
arbuck@@
arch@@
Arch@@
archi@@
Archi@@
archia
archie
archit@@
Archit@@
Architekt
Architekt@@
Architekten
architekton@@
architektonische
Architektur
Architektur,
Architektur@@
architett@@
architetti
architetto
architetto,
architetton@@
architettura
architettura.
archivi@@
archivio
arci
arci,
arci.
arci@@
arco
ard
ard-@@
ard,
ard.
ard@@
ardi@@
ardo
ards
are
äre
are,
are:
are?
are?"
are.
are...
are."
are"
are".
are@@
area
area,
area.
aree
aren
ären
aren@@
ärer
äres
arg@@
Arg@@
Argent@@
Ärger
ärger@@
argli
argom@@
argoment@@
argomenti
argomento
argomento,
argomento.
Argum@@
Argument
argument@@
Argument@@
ari
ari,
ari.
ari@@
Ari@@
aria
aria,
aria.
ariamente
arica
arie
arie,
arie.
arien
ario
ario,
ario.
arische
arischen
Aristot@@
Aristotel@@
arit@@
arità
arium
arizz@@
Arkans@@
arktischen
arl@@
arla
arla,
arla.
arle
arle,
arle.
arli
arli,
arli.
arlo
arlo,
arlo?
arlo.
arm
Arm
arm,
arm@@
Arm@@
ärm@@
Ärm@@
arma
arma@@
armat@@
arme
Arme
Arme@@
Armee
armen
Armen
armente
armi
armi,
armi.
armi@@
armon@@
armonia
ärmsten
Armstr@@
Armstrong
Armut
Armut,
Armut.
Armut@@
Armuts@@
arn@@
arne
aro
arono
arono,
arono.
arr@@
arrabbi@@
arram@@
arrampic@@
arrampicarsi
arre
arre@@
arren
arrest@@
arri@@
Arri@@
arric@@
arriv@@
Arriv@@
arriva
Arriva
arrivai
arrivando
arrivano
arrivare
arrivare.
arrivarono
arrivata
arrivate
arrivati
arrivato
arrivava
arrivavano
arriver@@
arrivi
arriviamo
arrivo
arrivò
arrot@@
arry
arsi
arsi,
arsi.
art
Art
art,
Art,
Art.
art@@
Art@@
arte
arte,
arte.
Artef@@
arten
Arten
arten,
Arten,
arten.
Arten.
Arten@@
Artenviel@@
Artenvielfalt
Arth@@
Arthur
arti
arti,
arti.
arti@@
articol@@
articoli
articolo
artifici@@
artificiale
artificiale,
artificiale.
artige
artigen
artigi@@
artik@@
Artik@@
Artikel
artist@@
artista
artisti
artisti,
artistico
arvi
arvi,
arvi.
ary
Arz@@
ärz@@
Ärz@@
Arzt
Ärzte
Ärzte,
as
as,
as.
as@@
As@@
AS@@
äs@@
asc@@
ascens@@
asch@@
asche
aschen
asci@@
ascin@@
ascol@@
Ascol@@
ascolt@@
Ascolt@@
ascoltando
ascoltare
ascoltare.
ascoltate
ascoltato
ascolto
ase
ase,
asen
äser
ash
ash@@
Ash@@
asha
asi
asi,
asi.
asi@@
Asi@@
Asia
Asia.
asiat@@
asie
asien
Asien
ask@@
asp@@
Asp@@
Aspekt
Aspekte
aspett@@
Aspett@@
aspetta
aspettando
aspettano
aspettare
aspettativa
aspettative
aspettavo
aspetter@@
aspetti
aspettiamo
aspetto
aspetto,
aspetto.
aspi@@
ass
aß
äß
ass@@
äß@@
assai
assas@@
assassin@@
asse
asse,
asse.
assegn@@
assem@@
assembl@@
assen
aßen
assen,
assen.
assenza
assero
assi
assi@@
assic@@
assicur@@
assieme
assimo
assist@@
Assist@@
assistenza
asso
asso@@
associ@@
Associ@@
associata
assol@@
assolut@@
assoluta
assolutamente
assoluto
assomigli@@
assomiglia
assomigliano
assomigliare
assor@@
assorb@@
assorbi@@
assozi@@
asst
assu@@
assum@@
assume
assumer@@
assumere
assun@@
assung
assunto
assur@@
ast
ast@@
äst@@
asta
aste
aster
aster@@
asteroi@@
Asteroi@@
asteroide
Asteroiden
Asth@@
ästh@@
Ästh@@
astr@@
Astr@@
astro
Astrolabi@@
astron@@
Astron@@
astronom@@
astrop@@
astroph@@
at
ät
at,
ät,
at.
ät.
at@@
At@@
AT@@
ät@@
ata
ata,
ata?
ata.
atamente
atamente,
atamente.
atar
ate
ate,
ate:
ate?
ate.
ate@@
atell@@
atelo
Atem
atem@@
Atem@@
atember@@
atemberauben@@
atemi
aten
äten
aten,
aten.
ater
äter
ater@@
atevi
atezza
ath@@
athan
Athei@@
Atheisten
Äthi@@
athie
Äthiopi@@
Äthiopien
ati
ati,
ati:
ati?
ati.
ati."
ati@@
atica
aticamente
atiche
atici
atico
atik
ation
ation,
ation.
ation@@
ational
ationale
ationalen
ationen
ationen,
ationen.
ations@@
ativ
ativ,
ativ.
ativ@@
ativa
ativa,
ativa.
ativamente
ative
ative,
ative.
ativen
ativer
atives
ativi
ativi,
ativi.
ativit@@
ativo
ativo,
ativo.
atizz@@
atl@@
Atlant@@
Atlanta
Atlanta,
Atlanti@@
Atlantico
Atlantik
atlet@@
atm@@
Atm@@
atmen
atmen.
atmos@@
atmosfer@@
atmosfera
atmosfera,
atmosfera.
Atmosphä@@
Atmosphäre
Atmosphäre.
ato
ato,
ato:
ato?
ato.
ato...
ato."
ato"
ato".
ato@@
atom@@
Atom@@
Atome
Atomenergie
atomi
atomi@@
ator
ator,
ator.
ator@@
atore
atore,
atore:
atore.
atoren
atori
atori,
atori.
atori@@
atorio
atri@@
atric@@
atrice
atrice.
atrici
atro@@
ats@@
atsäch@@
att
att,
att.
att@@
atta
atta,
atta.
attac@@
attacc@@
attaccare
attaccato
attacchi
attacco
atte
atte.
atteggi@@
atteggiamento
atten
atten@@
Atten@@
attent@@
attentamente
attenzione
attenzione,
attenzione.
atter@@
attere
atterr@@
atterrare
attesa
atti
atti,
atti.
atti@@
attimo
attimo,
attimo.
attin@@
attirare
attiv@@
attiva
attivi
attivi.
attività
attività,
attività.
attivo
atto
atto,
atto.
attor@@
attore
attori
attorn@@
attorno
attr@@
attra@@
Attra@@
attraktiv@@
attraver@@
attravers@@
attraversa
attraversando
attraversano
attraversare
attraversato
attraverso
Attraverso
attrazione
attrezz@@
attrezzatura
attrib@@
attribu@@
attu@@
attuale
attuale,
attuale.
attualmente
atu@@
atur
atur.
atur@@
atura
atura,
atura.
ature
ature,
ature.
aturen
aturi@@
atz
atz,
atz.
atz@@
ätz@@
ätze
ätze,
ätzen
au
au,
au.
au@@
Au@@
äu@@
aub@@
aube
auben@@
aubere
äubi@@
auch
Auch
auch,
auch.
auch@@
auda@@
audi@@
auen
auf
Auf
auf,
auf:
auf?
auf.
auf@@
Auf@@
Aufbau
aufbau@@
aufbauen
aufbauen,
äufe
aufeinander
aufen
aufen.
äufer
auff@@
Auff@@
Auffassung
Aufgab@@
Aufgabe
Aufgabe,
Aufgabe.
Aufgaben
aufge@@
aufgeb@@
aufgebaut
aufgeh@@
aufgenommen
aufgenommen,
aufgenommen.
aufger@@
aufgereg@@
aufgeregt,
aufgest@@
aufgewach@@
aufgewachsen
aufgrund
aufhin
aufhören
aufhören,
Aufklär@@
Aufl@@
Auflös@@
Auflösung
aufmerksam
Aufmerksam@@
Aufmerksamkeit
Aufmerksamkeit.
aufnahme
Aufnahme
aufnahmen
Aufnahmen
aufnehmen
aufnehmen.
aufre@@
aufrecht
aufregend
aufregend.
aufregende
aufs
Aufstieg
auftau@@
auftr@@
Auftrag
aufw@@
aufwuch@@
Aufzeichnungen
aufzu@@
aufzubauen,
aufzubauen.
Aug@@
Auge
Augen
Augen,
Augen.
augen@@
Augen@@
Augenblick
Augenblick,
Augenblick@@
äugi@@
äugige
augu@@
augur@@
August
aul@@
aum
äum@@
äume
äumen
äumen.
aument@@
aumenta
aumentando
aumentano
aumentare
aumentato
aumento
aun@@
aus
Aus
aus,
aus:
aus?
aus.
aus@@
Aus@@
äus@@
Ausbildung
ausbreit@@
Ausbruch
ausch
ausch@@
äusch@@
äuschen
Ausdruck
Ausdruck@@
ausdrück@@
auseinander
auseinander@@
Auseinander@@
ausführ@@
Ausgabe
Ausgaben
Ausgang@@
Ausgangs@@
ausge@@
ausgeb@@
ausgeben
ausgebildet
ausgedrück@@
ausgegeben
ausgehend
ausgelö@@
ausger@@
ausgesetzt
ausgesprochen
ausgest@@
ausgestatt@@
ausgewähl@@
ausgewählt
ausi@@
auslän@@
auslö@@
Ausma@@
ausmachen.
ausmacht.
Ausmaß
Ausnahme
auspiel@@
ausprobi@@
Ausr@@
ausreich@@
ausreichend
Ausrüst@@
Ausrüstung
auß@@
Auß@@
äuß@@
Äuß@@
Aussage
Ausschau
ausschließlich
Ausschnitt
ausseh@@
aussehen
aussehen,
aussehen?
aussehen.
außen
Außen@@
außer
ausser@@
außer@@
Außer@@
außerdem
Außerdem
äußeren
außergewöhn@@
außergewöhnlich
außergewöhnliche
außergewöhnlichen
ausserhalb
außerhalb
außerord@@
äußerst
aussieht
aussieht,
aussieht.
Ausstellung
aust
aust@@
Aust@@
Austausch
austr@@
Austr@@
Australi@@
Australia
Australia,
Australien
Ausw@@
Auswahl
Auswahl@@
auswei@@
Auswirk@@
Auswirkung
Auswirkungen
auszu@@
auszul@@
auszus@@
auszut@@
aut
aut,
aut.
aut@@
Aut@@
äut@@
autent@@
Auth@@
authent@@
auti
auti@@
Autismus
autist@@
auto
Auto
auto-@@
auto-organizz@@
auto,
Auto,
auto.
Auto.
auto@@
Auto@@
autob@@
Autob@@
autobus
autom@@
Autom@@
automat@@
automaticamente
automatisch
automo@@
Automo@@
automobi@@
Automobil@@
automobile
automobili
automobilist@@
auton@@
Auton@@
autonom@@
Autor
autor@@
Autor@@
autore
Autoren
autori
autorit@@
autorità
Autorität
autorizz@@
autos
Autos
Autos,
Autos.
autun@@
av
av@@
Av@@
ava
ava,
ava.
avamo
avamo,
avamo.
avan@@
avanguardia
avano
avano,
avano.
avanti
avanti,
avanti.
avanz@@
avanzata
avate
ave
Avel@@
Aven@@
avendo
aver
aver@@
avere
Avere
avere,
avere.
averla
averlo
avermi
averne
avervi
avesse
avessero
avessi
avessimo
aveste
avete
Avete
aveva
Aveva
avevamo
Avevamo
avevano
Avevano
avevi
avevo
Avevo
avi
avi@@
avia
avia,
avigli@@
avit@@
avo
avo,
avo.
avol@@
avor@@
avrà
avranno
avrebbe
avrebbero
avrei
Avrei
avremmo
avremo
avreste
avresti
avrete
avrò
avuto
avvelen@@
avven@@
avvenendo
avvent@@
avventura
avvenuto
avver@@
avvi@@
avviare
avviato
avvic@@
avvicin@@
avvicina
avviene
avviso,
avvoc@@
avvocati
avvol@@
aw@@
awa
awatt
awi@@
ax@@
Ax@@
ay
ay,
ay@@
az@@
azi
azi@@
azien@@
aziend@@
azienda
azienda,
aziende
aziende,
aziende.
azin@@
azion@@
azionale
azionale.
azione
azione,
azione:
azione?
azione.
azioni
azioni,
azioni.
azoto
azz
azz@@
azzi,
azzi@@
azzur@@
b
B
b,
B,
B:
b.
B.
b@@
B@@
ba
ba,
ba.
ba@@
Ba@@
bab@@
Bab@@
Babb@@
Babbo
Babi@@
Babies
babw@@
Baby
Baby,
Baby@@
Babys
bac@@
bacch@@
baci@@
back
back@@
Bäck@@
bag@@
Bag@@
bagli@@
bagn@@
bagno
Bah@@
bahn
bahn@@
bahnbrech@@
bai
bai@@
bakteri@@
Bakteri@@
Bakterien
Bakterien,
Bakterium
bal@@
Bal@@
Balance
bald
balen@@
balena
balene
Balken
ball
Ball
ball@@
Ball@@
baller@@
ballo
Ballon
balz@@
bam@@
Bam@@
bambin@@
Bambin@@
bambina
bambine
bambini
bambini,
bambini.
bambino
bambino,
Bambino:
bambino.
ban
ban@@
Ban@@
banca
Banca
bancar@@
banche
banchi@@
band
Band
band@@
Band@@
banda
Bandbreite
bandi@@
bandiera
Bang@@
Bangal@@
Bangl@@
Banglades@@
Bangladesch
Bangladesh
banis@@
Banj@@
bank
Bank
bank,
Bank,
bank@@
Bank@@
Banken
bano
bar
bar,
bar.
bar@@
Bar@@
baracco@@
baraccopoli
Barack
baratt@@
barb@@
Barb@@
Barbi@@
barca
barca.
bare
baren
barer
bares
barkeit
barkeit,
Barmherzi@@
Barmherzigkeit
Barr@@
barra
Barri@@
barrier@@
barriera
barriere
Barry
Bart@@
barung
barzell@@
bas@@
Bas@@
basa
basata
basate
basati
basato
basci@@
base
base,
base.
baseb@@
Baseb@@
basi
Basi@@
basier@@
basierend
basiert
basierte
basil@@
Basis
bass@@
bassa
bassi
basso
basso,
basso.
bast@@
Bast@@
basta
Basta
basta.
bastone
bat
bat@@
Bat@@
batt@@
battagli@@
battaglia
batte
batter@@
Batter@@
battere
batteri
batteri,
batteri.
Batteri@@
batteria
batterie
Batterie
Batterien
batterio
batti@@
battito
battut@@
battuta
battuto
bau
Bau
bau@@
Bau@@
Bauch
Bauch@@
bauen
bauen,
bauen.
bauer
Bauern
baum
Baum
Baum@@
Bäum@@
Bäume
Bäumen
Baumkron@@
Baust@@
Bausteine
baut
baut.
baute
bauten
Bay
Bay,
Bay@@
bb@@
BB@@
bbi@@
bbl@@
BC
be
be,
Bè,
be.
Be',
be@@
Be@@
beacht@@
beachten
Beachten
Beam@@
beängstig@@
beantwort@@
beantworten
beantworten.
beauf@@
Bech@@
Beck
Beck@@
Bed@@
Bedar@@
bedarf
Bedarf
bedeck@@
bedeckt
Bedenken
bedeut@@
Bedeut@@
bedeuten
bedeuten,
bedeuten.
bedeutend
bedeutende
bedeutet
bedeutet,
bedeutet.
bedeutete
bedeutete,
Bedeutung
Bedeutung,
Bedeutung.
bedeutungs@@
bedi@@
Bedi@@
Bedien@@
beding@@
Beding@@
bedingt
bedingungen
Bedingungen
bedroh@@
Bedroh@@
bedroht
Bedrohung
Bedürf@@
Bedürfnis
Bedürfnisse
beein@@
beeindruck@@
beeindruckende
beeinflus@@
beeinflussen
beeinflussen,
beeinflussen.
beeinflusst
beenden
beenden.
Bef@@
befassen
befassen.
befest@@
befestig@@
befinden
befinden,
befinden.
befindet
befindet.
befrei@@
befriedi@@
befür@@
beg@@
Beg@@
begann
begann,
begann.
begann@@
begannen
begannen,
begegn@@
Begegn@@
begegnen
begeist@@
begeister@@
Begeister@@
begeistert
begeistert,
Begeisterung
Beginn
beginn@@
Beginn@@
beginne
beginnen
beginnen,
beginnen.
beginnt
beginnt,
beginnt.
begleit@@
begleitet
begonnen
begonnen,
begonnen.
begr@@
begra@@
begrei@@
begrenz@@
Begrenz@@
begrenzt
begrenzten
Begriff
begriff@@
Begriff@@
begrü@@
begrün@@
Begrün@@
beh,
Beh,
beh@@
Beh@@
behalten
behalten,
behalten.
behandel@@
behandeln
behandeln,
behandeln.
behandelt
behandelt.
Behandl@@
Behandlung
Behandlung,
Behandlung.
Behau@@
behaup@@
behaupt@@
Behaupt@@
behaupte
behaupten,
behauptet,
beherber@@
beherr@@
behin@@
behinder@@
behör@@
Behör@@
behörde
bei
Bei
bei,
bei.
bei@@
Bei@@
beibringen
beibringen,
beide
Beide
beiden
beides
beigebracht
beim
Beim
Bein
bein@@
beinahe
Beine
Beine.
Beinen
beinhalt@@
beinhaltet
Beispiel
Beispiel,
Beispiel:
Beispiel.
beispiel@@
Beispiel@@
Beispiele
Beispiele.
beispielsweise
beit@@
Beit@@
Beitrag
beizu@@
Bek@@
bekam
bekam,
bekam.
bekamen
bekämpf@@
bekann@@
Bekann@@
bekannt
bekannt,
bekannt.
bekannte
bekannten
bekannter
bekomm@@
bekomme
bekommen
bekommen,
bekommen?
bekommen.
bekommt
bekommt,
bel
bel@@
Bel@@
belast@@
Belast@@
Belastung
Beleucht@@
beli@@
belieb@@
beliebi@@
beliebigen
beliebtesten
bell'@@
bell@@
Bell@@
bella
belle
bellezza
bellezza,
bellezza.
belli
bellissi@@
bellissima
bellissime
bellissimo
bellissimo.
bello
bello,
bello.
Beloh@@
belohn@@
Belohn@@
Belohnung
bem@@
Bem@@
bemerk@@
Bemerk@@
bemerken
bemerkenswer@@
bemerkenswert
bemerkenswerte
bemerkt
bemerkt,
bemerkte
bemerkte,
bemüh@@
Bemüh@@
ben
Ben
ben,
ben?
ben.
ben@@
Ben@@
benché
bend
bende
bene
bene,
Bene,
bene?
bene.
Bene.
bene@@
benefic@@
benefici
benefici@@
beneficio
benen
benessere
benessere.
beni
benissimo
Benjam@@
Benjamin
Benki
Benn@@
benö@@
benötig@@
benötigen
benötigen,
benötigen.
benötigt
benötigt,
benötigt.
benötigte
bens@@
bensì
benutz@@
Benutz@@
benutze
benutzen
benutzen,
benutzen.
Benutzer
benutzt
benutzt,
benutzt.
benutzte
benutzten
benz@@
Benz@@
Benzin
Benzin@@
benzina
beob@@
Beob@@
beobacht@@
Beobacht@@
beobachten
beobachten,
beobachten.
beobachtet
beobachtet,
Beobachtung
bequ@@
ber
ber,
ber.
ber@@
Ber@@
Berat@@
bere
bere,
berech@@
Berech@@
berechn@@
Berechn@@
Berechnung
Berechnungen
berei@@
Berei@@
bereich
Bereich
Bereich,
bereich@@
Bereich@@
Bereiche
Bereichen
bereit
bereit,
bereit.
bereit@@
Bereit@@
bereiten
bereiten.
bereits
berer@@
berfl@@
berfläch@@
berfläche
berfläche.
berg
Berg
Berg@@
Berge
Bergsteiger
beri@@
Beri@@
Bericht
bericht@@
Berichte
berichten
berichten,
berichten.
berichtet
Berk@@
Berkel@@
Berkeley
Berlin
Berlin@@
Bern@@
bero
bert
beru@@
Beru@@
berücksich@@
Beruf
beruf@@
Beruf@@
beruh@@
berühm@@
berühmt
berühmte
berühmten
berühr@@
Berühr@@
berühren
berührt
berührt,
berührt.
bes@@
Bes@@
besa@@
besag@@
besagt,
besch@@
Besch@@
beschädig@@
beschäf@@
Beschäf@@
beschaff@@
beschäftig@@
beschäftigen
beschäftigen,
beschäftigen.
beschäftigt
beschäftigt,
beschäftigte
beschei@@
Beschei@@
Bescheid
beschleun@@
beschleunig@@
Beschleunig@@
beschlos@@
beschloss
beschlossen
beschlossen,
beschrän@@
beschreib@@
Beschreib@@
beschreiben
beschreiben,
beschreiben.
beschreibt
Beschreibung
beschrieb@@
beschrieben
beschul@@
beschütz@@
beschwer@@
besei@@
besessen
besetz@@
besi@@
besied@@
Besitz
besitz@@
Besitz@@
besitzen
besitzen,
besitzen.
Besitzer
besitzt
besitzt,
besonder@@
Besonder@@
besondere
besonderen
besonders
Besonders
besor@@
besorg@@
besorgt
bess@@
Bess@@
besser
besser,
besser.
besser@@
bessere
besseren
besserer
besseres
best@@
Best@@
bestä@@
bestän@@
bestand
Bestand@@
Bestandteil
Bestandteile
beste
Beste
Bestech@@
Bestechung
besteh@@
bestehen
bestehen,
bestehen.
besteht
besteht,
besteht.
bestell@@
besten
Besten
besti@@
bestimm@@
Bestimm@@
bestimmen
bestimmen,
bestimmt
bestimmt,
bestimmt.
bestimmte
bestimmten
bestimmtes
besu@@
Besu@@
Besuch
besuchen
besuchen,
besucht
besuchte
bet
bet@@
Bet@@
betei@@
beteili@@
beteilig@@
Beteilig@@
beteiligt
beten
beton@@
betonen,
betr@@
Betr@@
betra@@
Betra@@
beträ@@
Betracht
betracht@@
Betracht@@
betrachten
Betrachten
betrachten,
betrachten.
betrachtet
betrachtet,
betrachtet.
Betrachtung
Betrag
beträgt
betreff@@
betreib@@
betreiben
betrieb@@
Betrieb@@
betrieben
Betriebs@@
betriff@@
betrifft
betrifft,
betrifft.
betroff@@
betroffen
betrü@@
Bett
Bett@@
beu@@
beun@@
beunruhig@@
beut@@
bev@@
Bev@@
bevölker@@
Bevölker@@
Bevölkerung
Bevölkerung,
Bevölkerungs@@
bevor
Bevor
bevor@@
bevorzu@@
bewahr@@
bewäl@@
beweg@@
Beweg@@
bewegen
bewegen,
bewegen.
bewegt
bewegt,
bewegt.
bewegte
bewegung
Bewegung
Bewegung,
Bewegung.
bewegungen
Bewegungen
Bewegungs@@
Bewei@@
Beweis
Beweis@@
Beweise
beweisen,
bewer@@
bewerkstell@@
bewirk@@
bewirken
bewirken.
bewohn@@
Bewohner
bewunder@@
bewus@@
bewusst
bewusst,
bewusst.
bewusst@@
Bewusst@@
Bewusstsein
Bewusstsein@@
Bez@@
bezahl@@
Bezahl@@
bezahlen
bezahlen,
bezahlen.
bezahlt
bezahlt.
bezeichn@@
bezeichnen
bezeichnet
bezeichnet.
bezieh@@
Bezieh@@
beziehen
bezieht
Beziehung
Beziehungen
Bezir@@
Bezug
bezüglich
BF:
Bh@@
Bhut@@
Bhutan
bi
bi,
bi.
bi@@
Bi@@
BI@@
bia
bia,
bia.
biamo
bian@@
Bian@@
bianca
bianchi
bianco
bianco,
bianco.
Bibbi@@
Bibbia
Bibel
bibliot@@
Bibliot@@
bibliotec@@
biblioteca
Bibliothek
Bibliothek@@
bic@@
bicchi@@
bicchiere
bici
bicicl@@
biciclett@@
bicicletta
Bien@@
Bienen
Bier
biet@@
bieten
bieten,
bieten.
bietet
Big
bigli@@
biglietti
biglietto
bil@@
Bil@@
bilanci@@
Bilba@@
bild
Bild
Bild,
Bild.
bild@@
Bild@@
bilden
bilden,
bilden.
bilder
Bilder
Bilder,
Bilder.
Bilder@@
Bildern
bildet
bildet,
bildet.
bildet@@
bildete
bildeten
Bildhau@@
Bildschir@@
Bildschirm
bildung
Bildung
bildung,
Bildung,
bildung.
Bildung.
Bildungs@@
Bildungssystem
bile
bile,
bile.
bili
bili,
bili.
bili@@
bilità
bilità,
bilità.
bilität
Bill
Bill@@
billi@@
Billi@@
billig
billige
billiger
Billion
Billionen
bilmente
bim@@
bimbo
bin
Bin
bin,
bin.
bin@@
Bin@@
Bindung
bio
Bio-@@
bio@@
Bio@@
biodiversità
biolog@@
Biologen
biologi
biologi@@
biologia
biologia,
biologia.
biologica
biologico
biologico,
biologico.
Biologie
Biologie.
biologisch
biologische
biologischen
biologischer
biologo
biolumin@@
Biolumin@@
Bioluminesz@@
biom@@
biomassa
Biomasse
Biosphäre
biot@@
Biot@@
biotecnologi@@
biotik@@
BIP
bir@@
Bir@@
birra
bis
Bis
bis@@
Bis@@
biscot@@
bisher
bislang
bisog@@
bisogn@@
Bisogn@@
bisogna
Bisogna
bisognava
bisogni
bisogno
bisogno,
bisogno.
biß@@
bisschen
bist
bist,
bit
bit@@
Bit@@
bitt@@
Bitt@@
bitte
Bitte
bitte,
bitte.
bitten
bitten,
biz@@
bizz@@
bizzar@@
bizzarro
BL:
bl@@
Bl@@
bla
Black@@
Blair
blas@@
Blas@@
Blase
Blasen
blät@@
Blät@@
Blatt
Blätter
blau
blau,
blau@@
Blau@@
blaue
blauen
ble
blei@@
Blei@@
bleib@@
bleiben
bleiben,
bleiben.
bleiben@@
bleibt
bleibt.
blem
blem@@
bli@@
blick
Blick
blick@@
Blick@@
blicken
blicken,
Blickwink@@
Blickwinkel
blieb
blik@@
blin@@
Blin@@
blind
Blind@@
blo@@
blö@@
bloc@@
blocc@@
blocchi
blocco
Block
block@@
Block@@
blog
Blog
blog,
blog@@
Blog@@
blogger
Blogger
Blogs
bloß
blu
blu,
blu.
blu@@
Blu@@
blü@@
Blue
blüh@@
Blum@@
Blumen
Blut
blut@@
Blut@@
Blutgefä@@
BM
BM@@
BMW
bo
bo,
bo.
bo@@
Bo@@
BO@@
bö@@
Bö@@
Bob
boc@@
bocc@@
bocca
bocca.
boden
Boden
Boden,
Boden.
Boden@@
bodsch@@
Boein@@
bohr@@
Bohr@@
bol
bol@@
Bol@@
bole
boli@@
boll@@
bolla
bolle
Bollywoo@@
bom@@
Bom@@
bomba
Bomba@@
bombar@@
bombe
Bombe
Bomben
bon@@
Bon@@
Bond
Bonn@@
Bono
Bonob@@
Bonobo
boo@@
Boo@@
boom
boom@@
Boot
Boot@@
bor@@
Bor@@
Bör@@
Bord
bord@@
bordo
borsa
Börse
Börsen@@
bos@@
Bos@@
Böse
Bosni@@
Bost@@
Boston
bot
bot@@
Bot@@
boten
Botschaft
Botschaft,
Botsw@@
bott@@
Bott@@
bottigli@@
bottiglia
bottiglie
bottone
Boul@@
Bow@@
Box
Box@@
Boy@@
br@@
Br@@
bra
bra@@
Bra@@
brac@@
bracci@@
braccia
braccio
braccio,
brach
brachte
brachte,
brachte.
brachten
Brad
braio
bran@@
Bran@@
branche
Branche
brand@@
Brand@@
brano
Brasile
Brasile,
Brasile.
brasili@@
Brasili@@
Brasilien
brau@@
Brau@@
bräu@@
brauch
brauch@@
brauche
brauchen
brauchen,
brauchen.
braucht
braucht,
braucht.
brauchte
brauchte,
brauchten
brava
bravi
bravo
bre
bre,
bre.
bre@@
Bre@@
brech@@
brechen
brechen,
brechen.
brei@@
breit
breit@@
Breit@@
breite
breiten
breitung
brem@@
Brem@@
brenn@@
Brenn@@
Brennstoff@@
Bret@@
Bretagna
brev@@
breve
breve,
breve.
brevemente
brevi
bri@@
Bri@@
Brian
bricht
brid@@
Brid@@
Brief
Brief@@
Brig@@
bril@@
Bril@@
brill@@
brillan@@
brillante
brillanti
Brille
brilli@@
Brilli@@
brin@@
bring@@
bringe
bringen
bringen,
bringen.
bringt
bringt,
bringt.
brio
brit@@
Brit@@
britann@@
Britann@@
britanni@@
britische
britischen
British
bro@@
Bro@@
bron@@
Bron@@
Bronx
Broo@@
Brookl@@
Brooklyn
brot
Brot
Brot@@
Brother@@
Brow@@
Brown
Browne
bru@@
Bru@@
brü@@
Brü@@
Bruce
bruch
bruch@@
brüche
Bruchteil
bruci@@
Brück@@
Brücke
Bruder
Brüder
brun@@
Brun@@
Brust@@
brut@@
Brut@@
brutt@@
brutta
brutte
brutto
Brutto@@
Bruttoin@@
bt
bt,
bt.
bu@@
Bu@@
bü@@
Bü@@
buch
Buch
Buch,
Buch.
buch@@
Buch@@
büch@@
Büch@@
bücher
Bücher
Bücher,
Büchern
Buches
buchi
buchst@@
Buchst@@
Buchstab@@
buchstäb@@
Buchstaben
buchstäblich
Buck@@
Buckel@@
Buckminster
buco
bud@@
Bud@@
budd@@
Budd@@
buddh@@
Buddh@@
Buddha
budget
Budget
buff@@
Buff@@
büh@@
Büh@@
Bühne
Buil@@
buio
bul@@
Bulg@@
bull@@
Bundes@@
bung
buon
buon@@
Buon@@
buona
buona.
buone
buoni
buono
buono,
buono.
bur@@
Bur@@
bür@@
Bür@@
burg
Bürger
Bürger@@
Bürgermeister
Büro
Büro.
Büro@@
Büros
bus
Bus
bus@@
Bus@@
Bush
Bush-@@
Bush,
Bush.
busin@@
Busin@@
business
Business
business,
business.
Business@@
but@@
But@@
butt@@
by
by@@
bzw.
c
C
ć
C,
C:
C.
C.@@
C.A.:
c'@@
C'@@
c'é
C'é
c'è
C'è
c'è.
c'e'
C'e'
c'entra
c'era
C'era
c'erano
C'erano
c@@
c’@@
C@@
ć@@
ç@@
Ç@@
ca
ca,
CA:
ca.
ca@@
CA@@
cab@@
cabl@@
cacci@@
caccia
cacciatori
cad@@
cade
cadere
cadono
caduta
Caf@@
caff@@
caffé
caffè
caffetter@@
cal@@
Cal@@
calam@@
calc@@
calcio
calcol@@
calcolare
calcolato
calcoli
calcolo
calda
calde
caldo
caldo,
calen@@
cali@@
Californi@@
California
California,
California.
calore
calorie
Calt@@
cam@@
Cam@@
Camb@@
cambi
cambi@@
Cambi@@
cambia
cambia.
cambiamenti
cambiamenti.
cambiamento
cambiamento,
cambiamento.
cambiamo
cambiando
cambiano
cambiare
cambiare,
cambiare.
cambiata
cambiate
cambiato
cambiato.
cambierà
cambio
Cambogi@@
Cambrid@@
Cambridge
Cambridge,
camer@@
Camer@@
camera
Cameron
cami@@
camion
camm@@
Camm@@
cammin@@
cammina
camminando
camminare
camminare,
cammino
camp@@
Camp@@
campag@@
campagn@@
campagna
campagne
campan@@
campi
campi.
campi@@
campion@@
campione
campioni
campo
campo,
campo.
can@@
Can@@
Canada
Canada,
canale
canali
canc@@
cancell@@
cancer@@
cancro
cancro,
cancro.
candel@@
candi@@
cane
cane,
cani
cann@@
cano
canop@@
cant@@
Cant@@
canta
cantare
canti
canti@@
canto
canto,
Cany@@
Canyon
canz@@
canzone
canzone,
canzoni
caos
caot@@
cap@@
Cap@@
capac@@
capace
capaci
capacità
capacità.
Cape
capelli
capi
capi@@
capiamo
capii
capir@@
capire
capire,
capire.
capis@@
capisce
capisco
capiscono
capit@@
Capit@@
capita
capitale
capitalismo
capitato
capite
capite,
capito
capito.
capitolo
capo
Capo
capo,
capo.
capo@@
capp@@
cappello
capr@@
car
car@@
Car@@
caram@@
caratter@@
carattere
caratterist@@
caratteristica
caratteristiche
caratterizz@@
carb@@
Carb@@
carboidr@@
carbon@@
carbone
carbone,
carbone.
carboni@@
carbonica
carbonio
carbonio,
carbonio.
carbur@@
carburante
carcer@@
cardi@@
cardia@@
cardiac@@
care
care,
care.
carest@@
Cargill
cari
caric@@
carica
caricare
cariche
carichi
carico
Carl
Carl@@
carne
carne,
Carne@@
Carnegie
caro
Carol@@
Carolina
Carolyn
carrier@@
carriera
carriera,
cart@@
Cart@@
carta
carta,
carta.
carte
cartell@@
cartelli
cartello
Carto@@
cartone
cas@@
Cas@@
casa
Casa
casa,
casa.
case
case,
case.
casi
casi,
casin@@
caso
caso,
caso.
cass@@
casse
Cassini
cast@@
casu@@
casuale
cat@@
Cat@@
cata
cata.
catalizz@@
catalog@@
catastro@@
catastrof@@
categ@@
categori@@
categoria
catena
catene
Catherine
cato
catore
catori
cats
catt@@
catti@@
cattiv@@
cattiva
cattive
cattivi
cattivo
cattur@@
cattura
catturare
catturato
cau@@
caus@@
causa
causa.
causare
causata
causato
cause
cav@@
cavalli
cavallo
caver@@
cavern@@
cavi
cavo
CB@@
cc@@
cca
cce
cch@@
cchi@@
cci@@
CD
CD@@
ce
Ce
c’è
ce-@@
ce,
ce?
ce.
ce"
ce@@
CE@@
cec@@
cel@@
Cel@@
cela
celeb@@
celebr@@
cell@@
cella
celle
cellul@@
cellula
cellula,
cellulare
cellulare,
cellulare.
cellulari
cellulari.
cellule
cellule,
cellule.
Celsi@@
cem@@
cemento
cen
cen@@
cena
cendo
cene
cens@@
Cent
cent@@
Cent@@
cente,
cente.
Center
centesi@@
centesim@@
centesimi
centig@@
centim@@
centimetri
centin@@
centinaia
centinaio
cento
cento.
centr@@
Central
centrale
centrale,
centrale.
centrali
centralizz@@
centri
centro
Centro
centro,
centro.
cer
cer@@
Cer@@
cerc@@
Cerc@@
cerca
cercando
cercano
cercare
cercate
cercato
cercava
cercavano
cercavo
cercherò
cerchi
cerchi@@
cerchiamo
Cerchiamo
cerchio
cerco
cere
cere@@
cereali
cerebr@@
cerebrale
cerebrali
cerim@@
cert@@
Cert@@
certa
certamente
Certamente
certamente,
certe
certezza
certezza.
certi
certi@@
certo
Certo
certo,
Certo,
certo.
Certo.
cervell@@
cervelli
cervelli.
cervello
cervello,
cervello.
ch
ch,
ch.
ch@@
Ch@@
cha@@
Cha@@
Cham@@
Chan@@
Chanc@@
Chance
Chance,
Chancen
chang@@
Chaos
chaot@@
char@@
Char@@
Charak@@
Charakter
charakter@@
Charakter@@
Charaktere
Charl@@
Charles
Charli@@
Charlie
che
Che
ché
chè
che,
che.
che...
che@@
Che@@
Cheet@@
chef
Chef
Chef@@
cheggi@@
chem@@
Chem@@
Chemi@@
Chemie
Chemik@@
Chemikalien
chemische
chemischen
chen
chen,
chen.
chen@@
chene
cher
cher@@
Cher@@
cherò
Cheryl:
ches
chest@@
Chev@@
chi
Chi
chi,
chi.
chi@@
Chi@@
chia
chiacchi@@
chiacchier@@
chiam@@
chiama
chiamano
chiamare
chiamata
chiamate
chiamati
chiamato
chiamava
chiameremo
chiami@@
chiamiamo
chiamo
chiamò
chiamo,
chiar@@
Chiar@@
chiara
chiaramente
chiaramente,
chiaro
chiaro,
chiaro.
chiat@@
chiav@@
chiave
Chic@@
Chicag@@
Chicago
Chicago,
Chicago.
chie
chie@@
chied@@
chiede
chiede:
chiedendo
chieder@@
chiederci
chiedere
chiederò
chiedersi
chiedete
chiedi@@
chiediamo
chiedo
chiedono
chies@@
chiesa
Chiesa
chiese
chiesi
chiest@@
chiesti
chiesto
chiesto,
chiesto:
chil@@
Chil@@
chilom@@
chilomet@@
chilometri
chilometri.
chim@@
chimi@@
chimica
chimiche
chimici
chimico
Chin@@
China
China,
China.
chines@@
Chines@@
Chinesen
chinesische
chinesischen
chinesisches
chino
chio
chio,
chio.
chio@@
chip
Chip
Chips
chirur@@
Chirur@@
Chirurg
chirurg@@
Chirurgen
chirurghi
chirurgia
chirurgo
chiss@@
chit@@
chiu@@
chiude
chiudere
chiunque
Chiunque
chiunque,
chius@@
chiuso
chmal,
Chol@@
chop
Chop
chr@@
Chr@@
Chri@@
Chris
Chris,
Chris.
Christ@@
Christi@@
Christopher
Chromos@@
chron@@
chst@@
cht
cht,
cht:
cht?
cht.
cht@@
chte
chte,
chte.
chteil
chten
chten,
chten.
chter
chter,
chter@@
chtes
chts@@
ci
Ci
ci,
ci?
ci.
ci@@
Ci@@
CI@@
cia
CIA
cia,
cia.
Cia@@
ciamo
Ciao,
ciare
ciasc@@
Ciasc@@
ciascun
ciascuna
ciascuno
ciat@@
ciata
cib@@
cibi
cibo
cibo,
cibo.
cic@@
cicl@@
cicli
ciclo
ciclopedi@@
cie@@
ciel@@
cielo
cielo,
cielo.
cif@@
cifr@@
cifra
cifre
cifre,
cilin@@
cilindr@@
cima
cima,
cima.
cimat@@
cin@@
Cin@@
cina
Cina
Cina,
Cina.
cine
cinem@@
cinema
cinemat@@
cinese
cinese,
cinesi
cino
cinqu@@
Cinqu@@
cinque
Cinque
cinque,
cint@@
cio
ciò
Ciò
cio,
ciò,
ciò?
cio.
ciò.
cio'
cio@@
Cio@@
ciò@@
cioccol@@
cioé
cioè
cioè,
Cioè,
ciol@@
cipl@@
cir@@
Cir@@
circa
Circa
circa,
circol@@
circolare
circolo
circon@@
circonda
circondati
circost@@
circostanze
circu@@
circuiti
circuito
cit@@
Cit@@
cita
cità
citato
citazione
cito
citt@@
Citt@@
città
Città
città,
città.
citta'
cittad@@
cittadini
cittadino
City
City,
civi@@
civil@@
civile
civilizz@@
civiltà
civiltà.
ck
ck@@
cken
cker
cl@@
Cl@@
CL@@
Cla@@
Clar@@
Clark
clas@@
class@@
classe
classe,
classe.
classi@@
classica
classico
Clay
cle@@
cli@@
Cli@@
clic@@
cliente
clienti
clienti.
clima
clima,
clima.
climat@@
climatici
climatici.
climatico
climatico,
climatico.
clin@@
clinica
cliniche
Clint@@
Clinton
clip
Clip
Cloni@@
clu@@
Clu@@
club
Club
cm
CN@@
co
co-@@
co,
co:
co?
co.
co@@
Co@@
CO@@
CO2
CO2-@@
CO2-Emissionen
CO2,
CO2.
coc@@
Coc@@
Coca
Coca-@@
Coca-Cola
coca@@
cocco@@
coccodril@@
cock@@
Cockt@@
coda
coda.
code
Code
codi@@
codice
codific@@
coer@@
cog@@
cogli@@
cogliere
cogn@@
cogniti@@
cognitiv@@
coi
coin@@
coinci@@
coinvol@@
coinvolgere
coinvolte
coinvolti
coinvolto
col
Col
col@@
Col@@
cola
Cola
coli
coll@@
Coll@@
collabor@@
collaborazione
collass@@
collasso
collater@@
colleg@@
Colleg@@
collega
collegamenti
collegamento
collegare
collegata
collegati
collegato
College
colleghi
collettiv@@
collezion@@
collezione
colli@@
Colli@@
colloc@@
colo
colog@@
Colom@@
coloni@@
colonia
colonie
colonna
colonne
color@@
colore
colore,
colore.
colori
colori,
colori.
coloro
colp@@
colpa
colpire
colpisce
colpiti
colpito
colpo
colt@@
coltiv@@
coltivare
coltivatori
colto
Colum@@
Columbia
com
com'@@
com'è
Com'è
com'era
com@@
Com@@
comand@@
Comand@@
comando
combatt@@
combatter@@
combattere
combin@@
combinare
combinazione
combu@@
combusti@@
combustibile
combustibili
come
Come
come,
Comedy
comi
Comic@@
Comics
comin@@
Comin@@
comincer@@
cominci
cominci@@
Cominci@@
comincia
cominciai
Cominciai
cominciammo
cominciamo
Cominciamo
cominciando
cominciano
cominciare
cominciarono
cominciata
cominciate
cominciato
cominciò
comm@@
Comm@@
comment@@
commento
commer@@
commerci@@
commerciale
commerciale,
commerciale.
commerciali
commercio
commettere
Communit@@
como@@
comp@@
compag@@
compagn@@
compagna
compagni
compagni@@
compagnia
compagnie
compagno
Compan@@
Company,
compar@@
compare
compas@@
compassion@@
compassione
compassione,
compassione.
compati@@
compet@@
competenze
competere
competi@@
competizione
compi@@
compiere
compil@@
compiti
compito
compiuto
compl@@
comple@@
compleanno
comples@@
complessa
complesse
complessi
complessi@@
complessità
complessità,
complessità.
complesso
complesso,
complesso.
complet@@
completa
completa.
completamente
completamente.
completare
completato
completo
compli@@
complic@@
complicata
complicato
complicato.
compon@@
componente
componenti
compor@@
comport@@
comporta
comportament@@
comportamentale
comportamenti
comportamento
comportamento,
comportamento.
comportano
composizione
composta
composti
composto
compr@@
compra
comprare
comprato
compren@@
comprende
comprender@@
comprendere
comprendiamo
comprensi@@
comprensione
compres@@
compreso
comprom@@
comput@@
Comput@@
computer
Computer
Computer-@@
computer,
Computer,
computer.
Computer.
computer@@
Computer@@
Computern
comun@@
comune
comune,
comune.
comuni
comunic@@
comunicano
comunicare
comunicazione
comunicazione.
comunicazioni
comunit@@
comunità
comunità,
comunità.
comunque
Comunque
comunque,
Comunque,
comunque.
con
Con
con@@
Con@@
conc@@
concent@@
concentr@@
concentra
concentrare
concentrarsi
concentrazione
concep@@
concepire
concetti
concetto
concettu@@
concezione
conchigli@@
conci@@
conclu@@
concludere
concludere,
conclusione
conclusione,
conclusioni
concor@@
concorr@@
concorso
concret@@
condann@@
condi@@
condivi@@
condivide
condivider@@
condividere
condividiamo
condividono
condivis@@
condivisione
condiviso
condizion@@
condizione
condizioni
condotto
condu@@
conduce
condurre
cone
conf@@
confer@@
conferenza
conferenza,
conferenza.
conferenze
confi@@
config@@
configurazione
confin@@
confine
confini
confini,
confl@@
conflit@@
conflitti
conflitto
confon@@
confron@@
confront@@
confrontare
confronti
confronto
confu@@
congel@@
Congr@@
Congresso
coni@@
conn@@
Conn@@
Connect@@
Connectic@@
Connectome
conness@@
connesse
connessi
connession@@
connessione
connessioni
connessioni.
connesso
connett@@
connetter@@
connettere
connettersi
connettiv@@
cono
cono,
cono.
conos@@
Conos@@
conosc@@
Conosc@@
conosce
conoscenza
conoscenza,
conoscenza.
conoscenze
conoscer@@
conoscere
conoscete
conoscete,
conosceva
conoscevo
conosci@@
conosciamo
conosciamo.
conosciuta
conosciuto
conosco
Conosco
conoscono
conqu@@
conquist@@
consapevol@@
consapevole
consapevolezza
consapevoli
consci@@
consegn@@
consegu@@
conseguenza
conseguenza,
conseguenze
consenso
consent@@
consente
conserv@@
Conserv@@
conservare
conservazione
consi@@
Consi@@
consider@@
Consider@@
considerando
considerano
considerare
considerata
considerate
considerati
considerato
considerazione
consideriamo
considero
consigli
consigli@@
consiglio
Consiglio
consist@@
consiste
consol@@
constat@@
consu@@
consul@@
consult@@
consumat@@
consumatore
consumatori
consumo
cont@@
Cont@@
conta
contad@@
contadini
contagi@@
contamin@@
contano
contare
contatt@@
contatti
contatto
contempl@@
contemporan@@
contemporaneamente
conten@@
contenere
contengono
content@@
contento
contenuti
contenuto
contest@@
contesto
contesto,
contesto.
conti
conti@@
contiene
contin@@
continente
continente.
continu@@
Continu@@
continua
continuamente
continuamente.
continuando
continuano
continuare
continuato
continuava
continuerà
continui
continuiamo
continuo
continuo.
conto
conto,
conto.
contr@@
Contr@@
contra@@
contrad@@
contraddi@@
contrario
contrario,
contrario.
contrast@@
contrasto
contratto
contri@@
contrib@@
contribu@@
contribuire
contribuito
contributi
contributo
contro
contro@@
controll@@
controlla
controllano
controllare
controllato
controlli
controllo
controllo,
controllo.
controver@@
conv@@
conven@@
conveni@@
convenzion@@
conver@@
convers@@
conversazione
conversazioni
convin@@
convincer@@
convincere
convinti
convinto
convinzione
convinzioni
convul@@
cool
cool,
cool.
cool@@
coole
cooper@@
Cooper@@
cooperazione
coordin@@
cop@@
Cop@@
coper@@
Coper@@
copert@@
copertina
coperto
copertura
copi
copi@@
copia
copiare
copic@@
copie
copio
coppi@@
coppia
coppie
copr@@
coprire
copyrigh@@
cor@@
Cor@@
coraggi@@
coraggio
corall@@
coralli
coralline
corallo
corda
corde
core@@
Corea
Corex@@
Corexit
corn@@
Corn@@
corpi
corpo
corpo,
corpo.
corpor@@
Corpor@@
corr@@
corre
corre@@
correg@@
correl@@
corrente
correnti
correre
corrett@@
corretto
corri@@
corrido@@
corrispon@@
corrisponde
corru@@
corruzione
corruzione,
corruzione.
corsa
corsi
corso
corso,
corso.
cort@@
Corte
cortec@@
corteccia
corti@@
corvi
cos'@@
Cos'@@
cos'altro
cos'è
Cos'è
cos'è?
cos@@
Cos@@
cosa
Cosa
cosa,
cosa:
cosa?
cosa.
cosci@@
coscienza
coscienza,
coscienza.
cose
Cose
cose,
cose:
cose?
cose.
cosi
così
Così
così,
Così,
così:
così?
così.
così...
cosi'
Cosi'
cosi@@
Cosi@@
così@@
cosic@@
cosicché
cosid@@
cosiddetta
cosiddetti
cosm@@
cosmol@@
cost@@
Cost@@
costa
Costa
costa,
costano
costante
costante.
costantemente
coste
coster@@
costi
costi.
costi@@
costitu@@
costituisce
costituito
costo
costo,
costo.
costosi
costoso
costr@@
costretti
costring@@
costru@@
Costru@@
costruendo
costruiamo
costruir@@
costruire
costruire.
costruisce
costruiscono
costruita
costruite
costruiti
costruito
costrut@@
costrutt@@
costruzione
costruzione.
costruzioni
cot@@
Coun@@
CP:
cr@@
cra@@
Cra@@
Craig
cran@@
crat@@
crav@@
cre@@
Cre@@
crea
creando
creano
creare
creata
create
creati
creativ@@
creativa
creative
creativi
creativit@@
creatività
creatività,
creatività.
creativo
creativo.
creato
creatore
creatura
creature
creazion@@
creazione
creazione,
cred@@
crede
creder@@
credere
credet@@
credete
credeva
credi
credi@@
crediamo
Crediamo
crediate
credito
credo
Credo
credo,
credo.
credono
creduto
crei
crei@@
creiamo
crem@@
creò
cres@@
cresc@@
cresce
crescendo
crescente
crescer@@
crescere
crescere,
crescere.
cresci@@
crescit@@
crescita
crescita,
crescita.
cresciuta
cresciuti
cresciuto
crescono
cresta
cri@@
Cri@@
Cric@@
cricket
Cricket
Cricket@@
crimin@@
crimine
crimini
cris@@
crisi
crisi.
crist@@
Cristi@@
crit@@
critica
critico
cro
cro@@
Cro@@
croll@@
crom@@
cromos@@
cromosoma
cron@@
cru@@
Cru@@
cruci@@
cruciale
crudel@@
ct@@
cu@@
Cu@@
cub@@
cubo
cucci@@
cucin@@
cucina
cucina.
cug@@
cui
cui,
cul@@
cult@@
cultur@@
cultura
cultura,
cultura.
culturale
culturale.
culturali
culture
cuor@@
cuore
cuore,
cuore.
cuori
cur@@
Cur@@
cura
cura,
cura.
curare
cure
curi@@
curio@@
curiosità
curioso
curv@@
curva
curve
cus
cus@@
cuscin@@
custo@@
custode
cy@@
Cy@@
cyber@@
Cyber@@
d
D
d-@@
D-@@
d,
D,
d:
D:
d?
d.
D.
d.@@
D.@@
D.C.
d'
d'@@
D'@@
d'accor@@
D'accor@@
d'accordo
d'accordo,
d'accordo?
d'accordo.
d'acqua
d'acqua,
d'acqua.
d'affari
D'altro
d'aria
d'arte
d'arte.
d'oro
d"
d@@
D@@
da
Da
DA
dà
da,
Da,
da:
da?
da?"
da.
da."
da'
da@@
Da@@
dabei
Dabei
dabei,
dabei.
Dach
dach@@
Däch@@
dacht
dacht@@
dachte
dachte,
dachte:
dachten
dachten,
Dad@@
dadurch
Dadurch
dadurch,
daf@@
dafric@@
dafrik@@
dafür
Dafür
dafür,
dafür.
dafür@@
dag@@
dageg@@
dagegen
dagli
Dah@@
daher
Daher
daher,
dahin
dahinter
dai
Dai
dai,
dakt@@
dal
Dal
Dal@@
Dalai
dall'
dall'@@
dall'acqua
dall'alto
dall'altra
dall'altro
dall'essere
dall'inizio
dall'interno
dall’@@
Dall@@
dalla
Dalla
Dallas
dalle
dallo
dam
dam@@
Dam@@
damal@@
damals
Damals
damals,
Dame
Damen
damente
damit
Damit
damit,
damit.
Dampf@@
dan
Dan
dan@@
Dan@@
Dän@@
danach
Danach
danach,
dando
Dänemar@@
Dani@@
Daniel
Danimar@@
dank
Dank
Dank,
Dank!
Dank.
dank@@
Dank@@
dankbar
danke
Danke
Danke,
Danke.
danken
danken,
Dankesch@@
Dankeschön.
Dankeschön@@
dann
Dann
dann,
Dann,
dann?
dann@@
Dann@@
danneggi@@
danni
danno
Danny
dano
danz@@
danza
danza.
dap@@
dapper@@
dappertutto
dappertutto.
dar
dar,
dar.
dar@@
Dar@@
DAR@@
darà
daran
daran,
daran.
darauf
Darauf
darauf,
darauf.
daraus
Daraus
darci
dare
darf
darf,
darf.
Darfur.
Darfur@@
dargestellt
dargli
darin
darin,
darin.
dario
darmi
darò
darsi
darstell@@
darstellen.
darstellt.
Darstellung
darüber
Darüber
darüber,
darüber.
darüber@@
darum
Darum
darum,
darunter
darvi
Darw@@
Darwin
Darwin@@
das
Das
„Das
das,
Das,
das:
das?
das?"
das.
das@@
Das@@
dass
Dass
daß
dass,
Dass@@
dasselb@@
dasselbe
Dasselbe
dasselbe.
dat
dat@@
Dat@@
data
datab@@
database
date
Date
daten
Daten
Daten,
Daten.
Daten@@
Datenbank
Datenbank@@
dati
dati,
dati.
dato
Dato
dato.
dau@@
Dau@@
dauer
Dauer
dauer@@
dauerhaft
dauern
dauern,
dauern@@
dauert
dauert,
dauerte
dav@@
Dav@@
dava
davamo
davano
davanti
davanti,
Dave
Davi@@
David
David,
davo
davon
Davon
davon,
davon.
davon@@
davor
davor,
davver@@
davvero
Davvero
davvero,
davvero.
Daw@@
Dawkins
day
dazu
Dazu
dazu,
dazu.
dazu@@
dazwischen
DD@@
ddi@@
de
de-@@
de,
de:
de?
de?"
de.
de."
de"
de@@
De@@
DE@@
Dean
deb@@
Deb@@
Debatte
debba
debbano
debito
debol@@
debole
dec@@
Dec@@
deca@@
decenni
decenni,
decenni@@
decennio
decennio,
deci@@
decidemmo
decidere
decidono
decine
decis@@
decisamente
decise
decisero
decisi
Decisi
decision@@
decisione
decisioni
decisioni.
deciso
deck@@
Deck@@
decken
deckt
declino
decoll@@
decor@@
dedi@@
dedic@@
dedicar@@
dedicare
dedicata
dedicato
dee
defin@@
Defin@@
defini@@
definieren
definieren.
definiert
definir@@
definire
definisce
definita
definiti@@
Definiti@@
Definition
definitiv
definitiv@@
definito
definizione
definizione,
deforest@@
degli
degn@@
degna
degra@@
deh@@
dehn@@
dei
dein
Dein
deine
Deine
deinem
deinen
deiner
deines
Dek@@
dekor@@
del
Del
del@@
Del@@
deleg@@
delfin@@
delfini
delfino
Delhi
Delhi,
deli@@
delic@@
delizi@@
dell
dell'
dell'@@
dell'acqua
dell'acqua,
dell'Africa
dell'Africa,
dell'anno
dell'arte
dell'E@@
dell'economia
dell'energia
dell'essere
dell'evoluzione
dell'I@@
dell'in@@
dell'India
dell'India,
dell'industria
dell'intera
dell'intero
dell'O@@
dell'oceano
dell'ultimo
dell'umanità
dell'umanità.
dell'universo
dell'Universo
dell'universo,
dell'universo.
dell'uomo
dell@@
dell’@@
della
delle
dello
Delp@@
delu@@
dem
Dem
dem,
dem.
dem@@
Dem@@
demi@@
demia
demie
demm@@
demmo
demo@@
democra@@
democrat@@
democrazia
democrazia.
demogra@@
Demok@@
demokrat@@
Demokrat@@
Demokrati@@
Demokratie
demokratischen
demon@@
Demon@@
demonstri@@
demonstriert
demselben
den
Den
den-@@
den,
den:
den?
den?"
den.
den."
den"
den@@
Den@@
denar@@
denaro
denaro,
denaro.
dend@@
dende
dendo
dendo,
dendo.
dendo@@
dendosi
dene
denen
denen,
Deng
denk@@
Denk@@
denke
denke,
denken
Denken
denken,
denken:
denken.
Denkens
denkt
denkt,
denkt.
Denkweise
denn
Denn
denn,
Denn,
Denn@@
Dennett
dennoch
dens@@
denselben
densità
dent
dent@@
dente
denti
denti,
denti.
dentr@@
dentro
dentro,
dentro.
denz@@
denza
denza,
denza.
denze
denzi@@
depon@@
deposi@@
deposit@@
depr@@
depres@@
Depres@@
Depression
depressione
depressione,
der
Der
der-@@
der,
der?
der.
der@@
Der@@
derà
dere
dere,
dere.
deren
derer
deriv@@
deriva
derm@@
dern
dern,
dern.
derò
ders
derselben
dersi
dert
derung
derzei@@
derzeit
derzeitigen
des
des,
des:
des.
des@@
Des@@
descri@@
descrit@@
descritto
descrive
descriver@@
descrivere
descrizione
deser@@
deserto
deserto.
deshalb
Deshalb
desider@@
desideri
desiderio
desiderio.
desig@@
Desig@@
design
Design
Design-@@
design,
Design,
design.
Design.
design@@
Design@@
designer
Designer
designer,
Designer,
designer.
Designs
desse
dessen
dessen,
dest
dest,
dest@@
deste
destens
destin@@
destino
desto
destr@@
destra
destra,
destra.
destro
deswegen
Deswegen
det
det,
det.
det@@
Det@@
Detail
detail@@
Detail@@
Details
dete
dete,
deten
deter@@
determin@@
determina
determinare
determinato
Detro@@
dett@@
detta
dettagli
dettagli@@
dettaglio
detti
detto
detto,
detto:
detto.
deut@@
Deut@@
deutig
deutlich
deutlich@@
Deutschl@@
Deutschland
dev'essere
dev@@
Dev@@
deva
deva.
devamo
devano
devast@@
deve
Deve
devi
Devi
devi@@
devo
Devo
devol@@
devono
Devono
Dez@@
Dezember
dezentr@@
DG:
DH:
di
Di
di,
di.
di...
di@@
Di@@
dia
dia,
dia.
diab@@
Diabet@@
diabete
Diabetes
diag@@
Diag@@
diagn@@
Diagn@@
Diagnose
diagnosi
diagnost@@
diagnosti@@
diagram@@
Diagramm
Diagramm@@
diagramma
Dialog
dialog@@
Dialog@@
dialogo
diam@@
Diam@@
diametro
diamo
Diamo
diamo,
diamo.
diano
diapositiv@@
diapositiva
diapositive
diarre@@
Diät
diate
diav@@
diavolo
dibatt@@
dibattito
dic@@
Dic@@
dica
dice
Dice
dice,
dice:
dice.
dicend@@
dicendo
dicendo,
dicendo:
dicendo.
dicev@@
diceva
diceva,
diceva:
dicevano
dicevano:
dicevo
dicevo,
dich
dich,
dich@@
dichiar@@
dicht
Dichte
Dichter
dici
dici@@
Dici@@
diciamo
Diciamo
diciamo,
dick@@
Dick@@
dico
Dico
dico,
dico:
dicon@@
dicono
dicono,
dicono:
die
Die
die,
die.
dieci
dieci@@
diede
Dieg@@
diejen@@
Diejen@@
diejenigen
Diejenigen
diejenigen,
dien@@
Dien@@
dienen
dienen.
dienst
Dienst
dienst@@
Dienst@@
Dienste
Dienstleist@@
Dienstleistungen
dient
dieren
diert
dies
Dies
dies,
dies:
dies.
dies@@
Dies@@
diese
Diese
diese,
diese.
diesel@@
dieselbe
dieselben
diesem
diesen
Diesen
dieser
Dieser
dieses
Dieses
diesmal
dieta
dietro
dietro,
dietro.
dif@@
Dif@@
difen@@
difesa
diff@@
Diff@@
differ@@
Differ@@
differente
differente,
differente.
differenti
differenti,
differenti.
differenza
differenza,
differenza.
differenze
differenzi@@
diffici@@
difficil@@
difficile
difficile,
difficile.
difficili
difficili.
difficol@@
difficoltà
diffon@@
diffond@@
diffonder@@
diffondere
diffondono
diffu@@
diffusa
diffusione
diffuso
dig
dig,
dig.
dig@@
Dig@@
dige
digen
diger
diges
digit@@
Digit@@
Digital
digitale
digitale,
digitale.
digitalen
digitali
digkeit
dign@@
dignità
Dil@@
dilem@@
Dilem@@
dilemma
dilett@@
Dim@@
dimen@@
Dimen@@
Dimension
dimension@@
dimensionalen
dimensione
Dimensionen
dimensioni
dimensioni,
dimensioni.
diment@@
dimentic@@
dimenticato
dimento
dimento.
diminu@@
diminuzione
Dimit@@
dimostr@@
dimostra
dimostra@@
dimostrano
dimostrare
dimostrato
dimostrazione
din
din@@
Din@@
dinam@@
dinamica
dinamiche
dine
Ding
Ding,
Ding.
ding@@
Ding@@
Dinge
Dinge,
Dinge.
Dingen
Dingen,
Dingen.
Dinger
dings
dini
dinosau@@
Dinosau@@
dinosauri
Dinosauri@@
Dinosaurier
dio
Dio
dio,
Dio,
dio.
Dio.
dip@@
dipartimento
Dipartimento
dipen@@
dipend@@
dipende
Dipende
dipendenti
dipendenza
dipin@@
dipingere
dipinto
dipl@@
Dipl@@
diplo@@
Diplom@@
Diplomat
diplomat@@
dir
Dir
dir,
dir@@
Dir@@
dirà
diranno
dirci
dire
dire,
dire:
dire?
dire.
dire@@
direbbe
direbbero
Direc@@
direi
Direi
direi@@
direkt
Direkt@@
direkte
Direktor
dirett@@
diretta
direttamente
diretto
direttore
direzione
direzione,
direzione.
direzioni
diri@@
dirig@@
dirige
dirit@@
diritti
diritto
dirittura
dirlo
dirlo,
dirmi
dirò
dirvi
dis@@
Dis@@
disastr@@
disastro
disc@@
dische
dischen
dischi
discipl@@
disco
disco@@
Disco@@
discor@@
discorsi
discorso
discorso,
discorso.
discret@@
discus@@
discussione
discussione.
discussioni
discut@@
discutere
diseg@@
disegn@@
disegnare
disegnato
disegni
disegno
disgust@@
Disk@@
Diskus@@
Diskussion
Diskussionen
diskut@@
Disne@@
Disney
dison
disp@@
dispar@@
disper@@
dispi@@
dispiac@@
dispiace
dispiace,
dispiace.
displ@@
Displ@@
display
disponi@@
disponibile
disponibili
disponibilità
dispositivi
dispositivo
disposizione
disposizione.
disposti
disposto
disse
Disse
disse,
Disse,
disse:
Disse:
disser@@
dissero
dissero:
dissi
Dissi
dissi,
dissi:
Dissi:
Dissi@@
dissol@@
dist@@
Dist@@
distante
Distanz
distanza
distanza,
distanza.
distanze
distin@@
distingu@@
distinguere
distor@@
distr@@
distri@@
distribu@@
distribuire
distribuito
distribuzione
distru@@
distrug@@
distrugger@@
distruggere
distrut@@
distrutt@@
distrutto
distruzione
distur@@
disturb@@
disturbi
disturbo
diszipl@@
Diszipl@@
disziplin@@
dit
dit@@
dita
dità
dita,
dità,
dita.
dite
dito
dito,
dito.
ditori@@
ditorium
ditt@@
ditta
div@@
divenne
divennero
divent@@
Divent@@
diventa
diventando
diventano
diventare
diventata
diventate
diventati
diventato
diventerà
diventeranno
diventi
diventò
diver@@
divers@@
diversa
diversa,
diversa.
diverse
diverse,
diverse.
diversi
diversi,
diversi.
diversi@@
diversità
diversità,
diversità.
diverso
diverso,
diverso.
divert@@
divertente
divertente,
divertente.
divertenti
diverti@@
divertimento
divertir@@
divi@@
Divi@@
dividere
divin@@
divis@@
divisione
diviso
divor@@
dizion@@
dizionario
dkrö@@
DL:
dler
dlich
dliche
dlichen
DN@@
DNA
DNA-@@
DNA,
DNA.
DNS
do
dò
do,
do:
do?
do.
do@@
Do@@
dobbiamo
Dobbiamo
doc@@
doch
Doch
doch,
docum@@
document@@
documentario
documenti
documento
Dod@@
dog@@
Dog@@
dok@@
Dok@@
Doktor
Doktor@@
Dokum@@
dokument@@
Dokument@@
Dokumentar@@
dol@@
Dol@@
dolc@@
dolce
dolce.
doll@@
Doll@@
Dollar
Dollar-@@
Dollar,
Dollar.
dollar@@
Dollar@@
dollari
dollari,
dollari.
dollari@@
dollaro
dolor@@
dolore
dolore,
dolore.
dom
dom@@
Dom@@
doman@@
domand@@
domanda
domanda,
domanda:
domanda.
domande
domande,
domande.
domani
domani.
domest@@
domestici
domin@@
Domin@@
dominante
dominio
don
don@@
Don@@
donn@@
Donn@@
donna
donna,
Donna:
donna.
donne
donne,
donne.
Donnell
dono
dono,
dono.
dop@@
Dop@@
dopam@@
Dopam@@
dopo
Dopo
dopo,
dopo.
dopo@@
Dopo@@
dopp@@
Dopp@@
doppel@@
Doppel@@
doppelt
doppi@@
doppia
doppio
dor
dor@@
Dor@@
Dör@@
Dorf
Dorf,
Dorf.
Dorf@@
Dörfern
dormi@@
dormire
dormit@@
dorsale
dort
Dort
dort,
dort.
dort@@
dorthin
dorthin,
dose
dot@@
Dot@@
dotati
doti
Dott.
dott@@
Dott@@
dotta
dotte
dotti
dotto
Dottor
dottor@@
dottorato
dottore
dottore,
dottori
Dou@@
Dougl@@
dov'@@
dov'è
dov@@
Dov@@
dove
Dove
dove,
dover
dover@@
dovere
dovesse
dovessero
dovessi
dovete
Dovete
doveva
dovevamo
Dovevamo
dovevano
dovevi
dovevo
Dovevo
dovrà
dovrebbe
Dovrebbe
dovrebbero
dovrei
Dovrei
dovremmo
Dovremmo
dovremo
dovreste
Dovreste
dovresti
dovrete
dovunque
dovuta
dovuto
dow@@
dozz@@
dozzina
dozzine
DP:
DR:
Dr.
dr@@
Dr@@
DR@@
dra@@
Dra@@
draht@@
drahtlose
Dram@@
dramat@@
dramatisch
dramm@@
dran
dran.
dran@@
drän@@
drängt
drast@@
drauf@@
draus@@
drauß@@
draussen
draußen
draußen,
draußen.
Dre@@
dreck@@
dreh@@
Dreh@@
drehen
drehen,
drehen.
dreht
dreht,
dreht.
drehte
drei
Drei
drei,
drei@@
Drei@@
dreidimension@@
dreidimensionalen
dreimal
dri@@
dril@@
drin
drin.
drin@@
dring@@
dringen
dringend
drinnen
drit@@
Drit@@
dritte
Drittel
Drittel@@
dritten
dro@@
drog@@
Drog@@
Drogen
Drogen@@
droghe
droh@@
Droh@@
drome
dru@@
Dru@@
drü@@
drüben
drüben,
drüber
druck
Druck
druck,
druck@@
Druck@@
drück@@
drücke
drucken
drücken
drücken,
drücken.
drucks@@
drückt
ds
ds,
dsch@@
Dsch@@
Dschung@@
dsel@@
du
Du
du,
Du,
du?
du.
du@@
Du@@
dü@@
Dü@@
dub@@
Dubai
dubbi@@
dubbio
duc@@
ducendo
due
Due
due,
due.
dum@@
dumm
Dumm@@
dumme
dun@@
Dun@@
dün@@
Dün@@
dung
dung,
dung.
dungen
dungs@@
dunk@@
Dunk@@
dunkel
dunkel@@
Dunkel@@
Dunkelheit
dunkle
dunklen
dunque
Dunque
dunque,
Dunque,
dunque.
dur@@
Dur@@
dür@@
dura
dura.
durante
Durante
durata
durch
Durch
durch,
durch.
durch@@
Durch@@
durchaus
Durchbruch
durchführen
durchführen,
durchge@@
durchgeführt
durchgeführt,
durchgeführt.
Durchmess@@
Durchmesser
durchs
Durchschnitt
durchschnitt@@
Durchschnitt@@
durchschnittlich
durchschnittliche
durchschnittlichen
Durchschnitts@@
durchzu@@
dürf@@
dürfen
dürfen,
dürfen.
durfte
duro
durre
dus
dus@@
dustri@@
dustrie
dut@@
dutt@@
Dutz@@
Dutzend
DV@@
DVD
dy
dy@@
Dy@@
dynam@@
dynami@@
Dynami@@
Dynamik
dynamisch
dynamische
e
e♫
E
E’
é
É
è
’è
È
e-
e--
e-@@
E-@@
E-Ma@@
E-Mail
E-Mail@@
e,
E,
é,
è,
e,"
e,@@
e;
e:
E:
é:
è:
e!
e!"
e?
é?
è?
e?"
e?@@
e.
e”.
E.
é.
è.
e...
è...
e...@@
e."
E.@@
e'
E'
e',
e'.
e's
e"
e",
e".
e]
e@@
E@@
é@@
É@@
è@@
È@@
ê@@
ë@@
E8
ea
ea,
ea.
Eam@@
eamente
eamente.
Eames
ear@@
Eart@@
Earth
East
eb
eb.
eb@@
Eb@@
eBay
ebbe
ebbene
Ebbene,
ebbero
ebbi
ebe
eben
eben,
eben.
eben@@
Eben@@
ebene
Ebene
Ebene,
Ebene.
Ebenen
ebenfalls
ebens@@
ebenso
Ebenso
eber@@
ebi@@
ebo@@
ebook
ebr@@
ebra@@
ebre@@
ebt
ebt.
ebung
ec@@
Ec@@
EC@@
eca
ecamente
ecc.
ecc@@
ecca
eccell@@
eccessi@@
eccesso
ecceter@@
eccetera,
eccetera.
eccetto
eccezion@@
eccezionale
eccezione
ecchi
ecchi@@
ecchio
eccit@@
eccitante
eccitante.
ecco
Ecco
ecco,
Ecco,
ecco@@
Ecco@@
eccoci
Eccol@@
eccolo
Eccolo
Eccone
ece
ech@@
Ech@@
echan@@
echn@@
echni@@
echnik
echnologi@@
echnologie
echnologie,
echnologien
echsel
echsel@@
echt
echt.
echt@@
Echt@@
echte
echten
echter
echtes
Echtzeit
eci
eci.
eci@@
eck
eck,
eck.
eck@@
Eck@@
ecke
Ecke
ecken
Ecken
ecken.
eckt
ecnologi@@
eco
eco@@
ecolog@@
ecologia
econ@@
Econ@@
econom@@
Econom@@
economi@@
economia
economia,
economia.
economica
economica,
economica.
economicamente
economiche
economici
economici,
economico
economico,
economico.
economie
economista
economisti
ecosistema
ect
ect@@
ed
Ed
ed-@@
ed,
ED:
ed.
ed@@
Ed@@
eda
edback
ede
eden
edendo
eder
eder,
eder@@
edere
edern
edes@@
edi
edì
edi@@
ediamo
edific@@
edifici
edifici,
edifici.
edificio
edificio,
edificio.
Edison
edit@@
edizione
edo
edono
edr@@
edu@@
Edu@@
Eduardo
educ@@
educativo
educazione
educazione,
educazione.
edy
ee
ee,
ee.
ee@@
EE@@
een
ef
ef@@
efer@@
eff
eff@@
Eff@@
effek@@
effekt
Effekt
Effekte
effektiv
effektiv@@
effektiver
effetti
effetti,
effettiv@@
effettivamente
effetto
effettu@@
effettuare
effic@@
effica@@
efficac@@
efficace
efficace.
efficaci
efficacia
effici@@
efficiente
efficiente.
efficienti
efficienza
effizi@@
Effizi@@
effizient
effiziente
effizienter
Effizienz
efl@@
efly@@
eflyer's
eg
EG
eg@@
Eg@@
egal
egal,
egal.
ege
egel
egel@@
egen
egen,
egen.
eget@@
egger@@
eggi
eggi@@
eggiare
eggio
egi@@
egli
Egli
egli@@
egliar@@
egn@@
egnen
egno
ego@@
egoist@@
egori@@
egt
egu@@
eguagli@@
eh
eh,
eh@@
ehe
Ehem@@
ehemal@@
ehemalige
Ehemann
ehen
ehen,
ehen?
ehen.
eher
ehi,
Ehi,
ehl
ehl@@
ehle
ehmen
ehmen,
ehmen.
ehmi@@
ehn@@
ehr
ehr@@
Ehr@@
ehre
Ehre
ehren
ehrlich
ehrlich,
eht
ei
ei,
ei.
ei@@
Ei@@
eich
eich@@
eidig@@
eien
Eier
eig
eig@@
Eig@@
eigen@@
Eigen@@
eigene
eigenen
eigenes
Eigenschaf@@
Eigenschaft
Eigenschaften
Eigenschaften,
eigent@@
Eigent@@
eigentlich
Eigentlich
eigentlich,
eigentliche
eigentlichen
eil
eil,
eil.
eil@@
eilchen
eile
eile,
eilen
eilen,
eilen.
eilig@@
eils
eilung
eim@@
ein
Ein
ein,
ein.
ein@@
Ein@@
einand@@
einander
einander,
einander.
einander@@
einbe@@
Einblick
eindeut@@
eindeutig
Eindruck
eine
Eine
eine,
eine.
eineinhalb
einem
einen
Einen
einen,
einen.
einer
Einer
eines
Eines
einfa@@
einfach
Einfach
einfach,
einfach.
einfach@@
Einfach@@
einfache
einfachen
einfacher
einfaches
Einfachheit
einfachste
einfallen
Einflus@@
Einfluss
Eing@@
einge@@
eingeb@@
eingebett@@
eingeführt
eingehen
eingel@@
eingeladen
einges@@
eingesch@@
eingeschlossen
eingeschrän@@
eingesetzt
eingesetzt.
eingest@@
einhalb
Einheit
einheit@@
einig
einig@@
einige
Einige
einigen
einiger
einiges
Einkaufs@@
Einkomm@@
Einkommen
Einkommen,
Einkommens@@
Einlad@@
einmal
Einmal
einmal,
einmal.
einmal@@
Einricht@@
Einrichtung
Einrichtungen
eins
Eins
eins,
eins.
Einsatz
einschließlich
Einschränk@@
einsetzen
einsetzen,
einst
Einst@@
Einstein
Einstein,
Einstein.
einstellen
Einstellung
einstimm@@
Einwohn@@
einzel@@
Einzel@@
einzelne
Einzelne
einzelnen
Einzelnen
einzelnes
einzi@@
Einzi@@
einzig
einzig@@
einzigar@@
einzigartig
einzigartige
einzigartigen
einzige
einzige,
Einzige,
einzigen
einziger
einziges
einzu@@
Eis
Eis,
eis@@
Eis@@
Eisb@@
eisen
Eisen@@
eist@@
eit
eit@@
eite
eiten
eiter
ek
ek@@
Ek@@
ekomm@@
ekt
ekt,
ekt.
ekt@@
ekte
ekten
ekten,
ektion
ektiv@@
ektivität
ekton@@
ektor
ektoren
ektr@@
ektu@@
el
El
el-@@
el,
el.
el@@
El@@
él@@
ela
ela,
ela.
elabor@@
elaborazione
elang
elast@@
elbe
ele
ele,
ele.
Elean@@
Elec@@
elef@@
Elef@@
eleg@@
elegante
elek@@
elektr@@
Elektr@@
Elektri@@
elektrische
elektrischen
Elektriz@@
Elektrizität
elektro@@
Elektro@@
elektromagnet@@
elektron@@
Elektron@@
Elektronen
Elektronik
elektronische
elem@@
Element
element@@
Element@@
elementari
Elemente
elementi
elemento
elen
elen@@
eler@@
elett@@
elettor@@
elettr@@
elettric@@
elettrica
elettrica.
elettriche
elettricità
elettricità,
elettricità.
elettrico
elettro@@
elettromagnet@@
elettron@@
elettroni
elettronica
elev@@
elezioni
eli
eli@@
Eli@@
elicotter@@
elicottero
elieg@@
elim@@
elimin@@
eliminare
eline
elio
Elis@@
Elizabet@@
ell
ell-@@
ell,
ell.
ell'@@
ell@@
Ell@@
ella
ella,
ella.
elle
elle,
elle.
ellei@@
ellem
ellen
ellen,
ellen.
ellen@@
eller
elles
elli
elli,
elli.
elli@@
ellig@@
ello
ello,
ello.
ellos
ellow@@
eln
eln,
eln.
eln@@
elo
elo,
elo.
elo@@
eloqu@@
els
els.
elson
elt
elt,
elt.
elte
elten
Eltern
Eltern,
Eltern.
Eltern@@
em
em,
em.
em@@
Em@@
ema
email
email@@
emal@@
eman
emand
emar@@
emat@@
embr@@
embre
embre,
embre.
eme
ement
ement,
ement.
ement@@
emente
emente,
emente.
emer@@
Emer@@
emerg@@
emerge
emergenz@@
emergere
emett@@
emette
emettono
emi
emi,
emi@@
emicran@@
Emil@@
Emily
emis@@
Emis@@
emisfer@@
emisfero
Emissionen
emissioni
emlich
Emma
Emmanu@@
Emmanuel
emmo
emo
emo,
emo.
emo@@
Emo@@
emotion@@
emotionale
emotionalen
Emotionen
emotiv@@
emozion@@
emozione
emozioni
emozioni,
emp@@
Emp@@
empati@@
empatia
empf@@
Empf@@
empfehl@@
empfind@@
Empfind@@
empfinden
empfindlich
empi@@
en
en-
en-@@
en,
en;
en:
en!
en?
en?“
en?"
en.
en.“
en...
en."
en"
en",
en".
en@@
En@@
ena
ena,
ena.
enber@@
enc@@
ence
Encel@@
Encelad@@
enciclopedi@@
enciclopedia
end
end,
end.
end@@
End@@
enda
ende
Ende
ende,
Ende,
ende.
Ende.
Ende@@
Endeffekt
endem
enden
enden,
enden.
ender
ender@@
enderweise
endes
Endes
endet
endet.
endete
endgül@@
endi@@
endlich
endlich,
endo
endo,
endo.
endoci
endolo
endomi
endono
endosi
ends
endste
endsten
endung
ene
ene,
ene.
enen
enen,
ener
ener@@
energet@@
energetica
energetico
energi@@
Energi@@
energia
energia,
energia.
energie
Energie
energie,
Energie,
energie.
Energie.
Energie@@
Energien
Energies@@
enes
enf@@
eng
eng@@
Eng@@
Engag@@
engagier@@
enge
Engine@@
engl@@
Engl@@
England
England,
Englisch
englische
englischen
enh@@
enhagen
enhaus
enheit
eni
eni@@
enica
enk
enk@@
enke
Enkel
Enkel@@
enkreb@@
enkt
enn
enn@@
enne
ennen
ennen,
ennen.
enni
enni@@
ennt
enny
eno
enor@@
enorm
enorm@@
enorme
enorme,
enorme.
enormen
enormi
enormi.
enr@@
Enrico
ens
ens,
ens:
ens.
ens@@
ensatz
ensch
ensch@@
enschaf@@
enschaft
ensei@@
enseit@@
enseits
ensetz@@
enspi@@
enspiel
enspiel@@
enst
enst@@
enswer@@
enswert
ensystem
ensystem@@
ent
ent,
ent.
ent@@
Ent@@
enta
entdeck@@
Entdeck@@
entdecken
entdecken,
entdecken.
entdeckt
entdeckt,
entdeckt.
entdeckte
entdeckte,
entdeckten
Entdeckung
Entdeckungen
ente
ente,
ente.
entemente
entemente,
enten
enten,
enten.
enter
entes
entfer@@
Entfer@@
entfern@@
Entfern@@
entfernen
entfernt
entfernt,
entfernt.
entfernten
Entfernung
entgeg@@
entgegen
entgegen@@
enthält
enthält.
enthalten
entheorie
enthüll@@
Enthusi@@
Enthusias@@
enti
enti,
enti:
enti?
enti.
enti@@
entità
entlang
entlich
entliche
entlichen
ento
ento,
ento.
entr@@
Entr@@
entra
entrambe
entrambi
Entrambi
entrambi.
entrambi@@
entrando
entrano
entrare
entrata
entrate
entrati
entrato
entri
entri@@
entro
Entro
entrò
entro@@
ents
entschei@@
Entschei@@
Entscheid@@
entscheiden
entscheiden,
entscheiden@@
entscheidend
entscheidende
Entscheidung
Entscheidung@@
Entscheidungen
Entscheidungen,
Entscheidungs@@
entschied
entschied,
entschied@@
entschieden
entschieden,
entschlos@@
entschloss
Entschuldig@@
entsetz@@
entspann@@
entspr@@
entsprech@@
entsprechend
entsprechende
entspricht
entstand
entstand@@
entstanden
entstehen
entstehen,
entstehen.
entsteht
entsteht.
Entstehung
enttäusch@@
entusi@@
entusias@@
entusiasmo
entusiast@@
entw@@
Entw@@
entwar@@
entwarfen
entweder
Entweder
entwerfen
entwerfen,
entwerfen.
entwickel@@
entwickeln
entwickeln,
entwickeln.
entwickelt
entwickelt,
entwickelt.
entwickelte
entwickelte,
entwickelten
entwickl@@
Entwickl@@
entwicklung
Entwicklung
Entwicklung,
Entwicklung.
Entwicklungen
Entwicklungs@@
Entwicklungshilfe
Entwicklungsl@@
Entwicklungsländer
Entwicklungsländern
entwor@@
entworfen
entworfen.
Entwur@@
Entwür@@
Entwurf
Entwurf@@
entzün@@
enz
enz,
enz.
enz@@
enza
enza,
enza?
enza.
enze
enze,
enze.
enzeit
enzen
enzen,
enzen.
enzi@@
enzu@@
Enzy@@
Enzyklopä@@
eo
eo,
eo.
eo@@
eol@@
eop@@
ep
ep@@
Ep@@
epi@@
Epi@@
epidemi@@
Epidemi@@
epidemia
Epidemie
epire
episo@@
episodio
epo@@
epoca
epoca,
epoca.
eppi@@
eppure
Eppure
Eppure,
ept@@
equ@@
equazione
equazioni
equi@@
equilibri@@
equilibrio
equip@@
equipaggi@@
equival@@
equivale
equivalente
er
Er
er-@@
er,
er:
er?
er.
er."
er's
er"
er@@
Er@@
ER@@
era
Era
erà
era,
erà,
era:
era.
erà.
era'
Era@@
Eracht@@
erai
eranno
erano
Erano
eranz
eravamo
Eravamo
erb@@
erba
erber@@
erci
erd@@
Erd@@
Erdb@@
Erdbeben
Erde
Erde,
Erde.
Erder@@
Erderwärmung
Erdn@@
Erdo@@
ere
ere,
ere?
ere.
ereb@@
erebbe
erebbero
erec@@
eredi@@
eredit@@
eredità
erei
erei,
erei@@
ereien
ereig@@
Ereig@@
Ereignis
Ereignisse
erem
eremmo
eremo
eren
eren,
eren?
eren.
erende
erenden
erer
eres
ereste
erete
erfahr@@
Erfahr@@
erfahren
erfahren,
erfahren.
Erfahrung
Erfahrung,
Erfahrung.
Erfahrungen
erfand
erfassen
erfin@@
Erfin@@
Erfind@@
erfinden
erfinden,
Erfinder
Erfindung
Erfindungen
erfol@@
Erfol@@
Erfolg
Erfolg.
erfolg@@
Erfolg@@
erfolgrei@@
erfolgreich
erfolgreich@@
Erfolgs@@
erforder@@
erforsch@@
erforschen
erforschen,
erforschen.
erforscht
Erforschung
erfreu@@
erfüll@@
Erfüll@@
erfüllt
erfun@@
erfunden
erfunden.
erg@@
ergeb@@
Ergeb@@
ergeben
ergeben.
Ergebnis
Ergebnis,
Ergebnis.
Ergebnisse
ergi@@
ergibt
ergie
erh@@
erhält
erhalt@@
erhalten
erhalten,
erhalten.
erheb@@
erhielt
erhielten
erhöh@@
erhöhen
erhöht
eri
eri,
eri.
eri@@
eria
eria.
Eric
erie
erie.
erien
erig@@
erin
erin,
erin.
ering
erinn@@
Erinn@@
erinner@@
Erinner@@
erinnere
erinnern
Erinnern
erinnern,
erinnern.
erinnert
erinnert,
erinnerte
Erinnerung
Erinnerungen
erizz@@
erk@@
Erk@@
erkann@@
erkannt
erkannt,
erkannte
erkannte,
erkenn@@
Erkenn@@
erkennen
erkennen,
erkennen.
erkennt
erkennt,
Erkennt@@
Erkenntnis
Erkenntnis,
Erkenntnisse
erkennung
erkl@@
erklär@@
Erklär@@
erkläre
erklären
erklären,
erklären.
erklärt
erklärt,
erklärte
Erklärung
erkrank@@
Erkrank@@
Erkrankungen
erkt
erkun@@
erkunden
erl@@
erlang@@
erlaub@@
Erlaub@@
erlauben
erlauben,
Erlaubnis
erlaubt
erlaubt,
erläut@@
erleb@@
Erleb@@
erleben
erleben.
Erlebnis
erlebt
erledi@@
erledigt
erlei
erlo
ermaßen
ermi
ermögli@@
ermöglich@@
ermöglichen
ermöglichen,
ermöglichen.
ermöglicht
ermöglicht,
ermöglicht.
ermut@@
ermutig@@
ern
ern,
ern:
ern?
ern.
ern@@
Ern@@
ernähr@@
Ernähr@@
ernähren
ernähren.
Ernährung
Ernährungs@@
erne
ernen
Ernest
erneu@@
erneuer@@
erneuerbare
erneut
ernst
ernst.
ernst@@
ernsthaft
ero
Ero
erò
ero,
ero.
erò.
ero'
ero@@
erober@@
eroe
eröffn@@
eröffnet
erog@@
eroi
erot@@
err@@
Err@@
erreg@@
errei@@
erreich@@
erreichen
erreichen,
erreichen.
erreicht
erreicht,
erreicht.
errore
errore.
errori
errori.
Errungenschaf@@
erry
ers
ers,
ers.
ers@@
ersch@@
erschaff@@
Erschaff@@
erschaffen
erschaffen,
erschaffen.
erschafft
Erschaffung
erschein@@
Erschein@@
erscheinen
erscheinen,
erscheint
erscheint,
erschi@@
erschien
erschreck@@
erschüt@@
erschw@@
erseit@@
erseits
erseits,
ersetzen
ersetzen.
ersi
erst
Erst
erst,
erst@@
Erst@@
erstaun@@
Erstaun@@
erstaunlich
erstaunlich,
erstaunlich.
erstaunliche
erstaunlichen
erstaunliches
erste
Erste
erste,
erstellen
erstellen,
erstellen.
erstellt
ersten
ersten,
Erstens
Erstens,
Erstens:
erster
erstes
erstör@@
erstreck@@
ert
ert,
ert.
ert@@
erte
erte,
erten
erter
erung
erung,
erungen
erv@@
erwä@@
erwachsen@@
Erwachsen@@
Erwachsene
Erwachsenen
erwäh@@
erwähn@@
erwähnen,
erwähnt
erwähnt,
Erwärmung
erwart@@
Erwart@@
erwarten
erwarten,
erwartet
erwartet,
erwartet.
Erwartungen
erweck@@
erweise
erweise,
erweiter@@
erweitern
erweitern.
erwi@@
erwis@@
erz@@
erzähl@@
Erzähl@@
erzähle
erzählen
erzählen,
erzählen.
Erzähler:
erzählt
erzählt,
erzählt.
erzählte
erzählte,
erzählten
Erzählung
erzeu@@
erzeugen
erzeugen,
erzeugen.
erzeugt
erzi@@
Erzieh@@
Erziehung
erziel@@
es
Es
es,
es:
es?
es.
es."
es"
es@@
Es@@
ES@@
esa
esa,
esa.
esager@@
esalt@@
esam@@
esame
esamin@@
esaminare
esaminato
esatt@@
Esatt@@
esattamente
esau@@
esauri@@
esc@@
esce
escenza
esch@@
esclu@@
escono
ese
ese,
ese.
esec@@
esegu@@
eseguire
esem@@
esempi
esempi,
esempi.
esempi@@
esempio
esempio,
esempio:
esempio.
esempl@@
esemplare
esemplari
esen
esen,
esen.
eser@@
eserci@@
esercit@@
esercito
esercizio
esi
esi,
esi:
esi.
esi@@
Esi@@
esia
esia,
esia.
esibi@@
esie
esie,
esig@@
esim@@
esima
esimo
esischen
esist@@
esista
esiste
Esiste
esiste.
esistenti
esistenza
esistenza.
esistere
esisteva
esistono
Esistono
eso
eso.
eso@@
esp@@
espan@@
espand@@
espander@@
espandere
espansione
esper@@
esperi@@
esperienza
esperienza,
esperienza.
esperienze
esperim@@
esperiment@@
esperimenti
esperimento
esperimento.
esperti
esperto
espi@@
espl@@
esplic@@
esplo@@
esplodere
esplor@@
esplora
esplorare
esplorato
esplorazione
esplosione
espon@@
esponenzi@@
esponenziale
esponenziale.
esport@@
esposizione
esposto
espres@@
espressione
espressioni
espresso
esprim@@
esprime
esprimere
ess
ess,
ess.
ess@@
Ess@@
essa
essa,
essa.
esse
esse,
esse.
essel@@
essen
Essen
essen,
Essen,
essen.
Essen.
Essen@@
essendo
essenza
essenzi@@
essenziale
essenzialmente
esser
esser@@
esserci
essere
Essere
essere,
essere.
esseri
esserlo.
esserne
essero
essi
Essi
essi,
essi.
essi@@
essimo
ession
ession@@
essione
essione,
essione.
essioni
essità
esso
esso,
esso.
essour@@
esst
essu@@
est
est,
est.
est@@
Est@@
esta
estate
estate,
estate.
este
este,
este?
este.
esten
esten@@
estende
estendere
estensione
ester
ester@@
estern@@
esterno
esterno,
esterno.
estesia
estet@@
esti
esti@@
estin@@
estingu@@
estino
estinzione
esto
estr@@
estra@@
estran@@
estrarre
estratto
estrem@@
estremamente
estremi
estremità
estremo
esz@@
et
et,
et:
et?
et.
et."
et@@
Et@@
eta
età
eta,
età,
eta.
età.
etab@@
etabli@@
etan@@
etc.
etc@@
ete
ete,
ete:
ete?
ete.
etemi
eten
eten,
eten.
eter
eter@@
etern@@
etes
etevi
eth@@
Eth@@
Ethan@@
Ethanol
Ethi@@
Ethik
ethn@@
ethnische
eti
eti@@
Eti@@
etica
etich@@
etichett@@
etichetta
etici
etico
etik
Etik@@
Etiopi@@
etische
etischen
etn@@
eto
etr@@
etri
etro
etro,
etro.
etro@@
ets
ett
ett,
ett.
ett@@
etta
etta,
etta.
ettamente
ettare
ette
ette,
ette.
etten
etten,
etten@@
etter
etter@@
ettere
ettero
etti
etti-@@
etti,
etti:
etti.
etti@@
ettiamo
ettiv@@
ettive
ettivi
ettivo
etto
etto,
etto.
ettore
ettr@@
ettu@@
ettuale
etw@@
etwa
Etwa
etwas
Etwas
etwas,
Etwas,
etwas.
etz
etz@@
etzen
etzt
etzt,
eu@@
Eu@@
euch
Euch
euch,
euch.
eucht@@
euer
euer@@
eur
eur@@
eure
eurem
euren
eurer
europ@@
Europ@@
Europa
Europa,
Europa.
Europä@@
europäischen
eut@@
eute
ev@@
Ev@@
eva
eva,
eva.
evamo
Evan
evano
evano,
evano.
evate
Evel@@
event@@
eventi
evento
eventu@@
eventuell
ever
ever@@
Ever@@
Everest
Everest.
evi
evi@@
evident@@
evidente
evidenza
evidenzi@@
evit@@
evitare
evo
evo,
evo.
evoc@@
evol@@
Evol@@
evole
evole,
evole.
evoli
evoli,
evoli.
evolmente
evoluti
evoluti@@
Evoluti@@
Evolution
Evolution.
evolution@@
Evolution@@
evolutionäre
evolutionären
evoluto
evoluzion@@
evoluzione
evoluzione,
evoluzione.
ew@@
ewi@@
Ewi@@
ewig
ex
ex,
ex@@
Ex@@
exakt
Exempl@@
exi@@
exist@@
Exist@@
Existenz
existier@@
existieren
existieren.
existierenden
existiert
existiert,
existiert.
Expedi@@
Expedition
Exper@@
Experim@@
Experiment
Experiment,
Experiment.
experiment@@
Experiment@@
Experimente
Experte
Experten
explo@@
Explo@@
explodi@@
Explor@@
Explosion
expon@@
exponenti@@
expor@@
ext@@
exter@@
extr@@
extra
Extra-@@
Extra-Dimensionen
extra@@
Extra@@
extrem
extrem@@
Extrem@@
exu@@
Exx@@
Exxon
ey
ey,
ey:
ey.
ey@@
ez
ez@@
ezi@@
ezion@@
ezione
ezione,
ezione.
ezioni
ezioni.
ezu@@
ezz@@
ezza
ezza,
ezza.
ezze
ezzo
f
F
f,
F:
f.
F.
f@@
F@@
fa
Fa
fa,
fa?
fa.
fa@@
FA@@
fä@@
Fä@@
fab@@
Fab@@
fabb@@
fabbr@@
fabbric@@
fabbrica
fabbriche
fabet@@
Fabrik
Fabrik@@
fac@@
Fac@@
facce
faccen@@
facci@@
Facci@@
faccia
faccia,
faccia.
facciam@@
facciamo
Facciamo
facciamo,
facciamo?
facciamo.
facciano
facciate
faccio
Faccio
faccio,
faccio.
Facebo@@
Facebook
facemmo
facend@@
facendo
facendo,
facendo?
facendo.
facesse
faceva
facevamo
facevano
facevo
fach
fach@@
Fach@@
fache
fachen
faci@@
facil@@
facile
facile,
facile.
facili
facilmente
facilmente.
facol@@
facoltà
fäh@@
fähig
fähig@@
Fähig@@
fähigkeit
Fähigkeit
Fähigkeit,
Fähigkeiten
Fähigkeiten,
Fähigkeiten.
fahr@@
Fahr@@
fähr@@
fahren
fahren,
fahren.
Fahrrad
Fahrrad@@
fahrt
fährt
fährt,
Fahrzeuge
fai
fai,
fair
Fair@@
fak@@
Fak@@
Fakt
Fakten
Faktor
Faktor@@
Faktoren
Fakult@@
fal@@
Fal@@
fäl@@
fall
Fall
fall,
Fall,
fall.
Fall.
fall@@
Fall@@
fäll@@
Fäll@@
Falle
fälle
Fälle
fälle,
Fälle,
fallen
fällen
Fällen
fallen,
fallen.
falli@@
fallimento
fallito
falls
Falls
falls,
falls@@
Fallschir@@
fällt
fällt,
fällt.
falsch
falsch,
falsch.
falsch@@
falsche
falschen
falso
falt
falt@@
falten
fam@@
fama
fame
fame,
famigli@@
famiglia
famiglia,
famiglia.
famiglie
famiglie,
famiglie.
famili@@
Famili@@
familiar@@
familiare
familiare,
familiare.
familiari
Familie
Familie,
Familie.
Familien
Familien,
Familien@@
Familienplan@@
famosa
famosi
famoso
fan@@
fän@@
fand
fand,
fand.
fanden
fanden,
fanden.
fang
fang@@
Fang@@
fange
fangen
Fangen
fangen,
fangen.
Fangschreck@@
fängt
fanno
Fanno
fanno,
fanno.
fant@@
Fant@@
fantas@@
fantasci@@
fantasi@@
fantasma
fantast@@
Fantast@@
fantastic@@
fantastica
fantastica,
fantastica.
fantastiche
fantastici
fantastico
fantastico,
fantastico.
fantastisch.
fantastische
fantastischen
fantastisches
far
far@@
Far@@
fär@@
farà
farai
faranno
Farb@@
Farbe
Farbe,
Farben
farbi@@
farcel@@
farci
fare
fare,
fare?
fare.
farebbe
faremo
farete
fargli
farl@@
farla
farle
farli
farlo
farlo,
farlo?
farlo.
Farm
farma@@
farmac@@
farmaceut@@
farmaci
farmaco
Farmer
farmi
farne
farò
Farò
farsi
farti
farvi
fas@@
Fas@@
fascia
fase
fasi
fass@@
Fass@@
fassen
fassen,
fassen.
fasst
fasst,
fasst.
fasste
fassung
fast
Fast
Fast@@
fasti@@
faszin@@
Faszin@@
faszinier@@
faszinierend.
faszinierende
fasziniert
fat@@
fate
Fate
fate.
fatemi
Fatemi
fatica
fatt@@
fatta
fatta,
fatta.
fatte
fatti
fatti,
fatti.
fatti@@
fatto
fatto,
fatto?
fatto.
fattore
fattori
fattoria
fau@@
fav@@
Fav@@
favol@@
favor@@
favore
favore,
favore.
FDA
fe
fe,
fe.
fe@@
Fe@@
feb@@
Feb@@
febbre
Febru@@
Februar
fec@@
fece
fecero
feci
fed@@
fede
feder@@
Feder@@
feg@@
fegato
feh@@
Feh@@
fehl@@
Fehl@@
fehlende
Fehler
Fehler,
Fehler.
fehler@@
Fehler@@
fehlt
fehlt,
fei@@
Fei@@
fein@@
Fein@@
Feind
fel
fel@@
Fel@@
feld
Feld
Feld@@
Felder
felic@@
felice
felice,
felice.
felici
felici,
felici.
felicità
felicità,
felicità.
Felsen
fem@@
Fem@@
femmin@@
femmina
femmini@@
femminile
fen
fen,
fen?
fen.
fen@@
fenom@@
fenomen@@
fenomeni
fenomeno
Fenst@@
Fenster
fer
fer,
fer.
fer@@
Fer@@
fera
fere
ferm@@
ferma
fermar@@
fermare
fermato
fermo
fern
fern@@
Fern@@
Fernseh@@
Fernsehen
Fernseher
ferro
ferro,
ferro@@
ferti@@
fertig
fertig.
fertig@@
Fertig@@
fertigt
fertilizz@@
fess@@
fesseln@@
fest
fest,
fest.
fest@@
Fest@@
festa
feste
festen
festgestellt,
feststellen,
festzu@@
fet@@
Fett
fett@@
Fett@@
fettleibi@@
Fettleibi@@
Fettleibigkeit
feu@@
Feu@@
Feuer
Feuer@@
Feuerwehr@@
ff
ff,
ff@@
ffe
ffekt
ffen
FG:
fi
fi@@
Fi@@
fiam@@
fiamm@@
fian@@
fianco
fibra
fibre
fic
fic@@
Fic@@
fica
fica,
fica.
ficare
ficata
ficato
ficazione
fich@@
fiche
fiche.
fichi
fichiamo
fici
fici.
fici@@
fico
fico,
fico.
fid@@
Fid@@
fidanz@@
fidu@@
fiducia
fiel
fiel.
fiel@@
fig
fig@@
Fig@@
figer
figli
figli,
figli.
figli@@
figlia
figlia,
figlio
figlio,
figlio.
Figur
figur@@
figura
figure
fik@@
Fik@@
Fiktion
fil@@
Fil@@
fila
filamenti
filantro@@
filantropia
file
fili
fili@@
Fili@@
film
Film
film,
Film,
film.
Film.
film@@
Film@@
filmat@@
filmati
filmato
Filme
Filme,
Filmem@@
Filmemach@@
Filmen
filo
filos@@
filoso@@
filosof@@
filosofi@@
filosofia
filtr@@
fin
fin@@
Fin@@
finale
finale,
finale.
finalmente
Finanz@@
finanzi@@
Finanzi@@
finanziamento
finanziare
finanziario
finanziato
finanzielle
finanziellen
finanziert
Finanzierung
finché
finchè
find@@
finde
finde,
finden
finden,
finden.
finden@@
findet
findet,
findet.
fine
fine,
fine.
finest@@
finestra
finestre
fing
Fing@@
fingen
Finger
Finger,
Finger@@
finì
finir@@
finirà
finire
finire,
finire.
finisce
finiscono
finita
finiti
finito
finito,
finito.
fino
Fino
finora
finta
fior@@
fiore
fiori
fir@@
Fir@@
firma
Firma
Firma,
Firma.
Firmen
Firmen,
fis@@
Fis@@
fisch
Fisch
fisch@@
Fisch@@
fische
Fische
Fische,
fischen
Fischer
Fischerei@@
fischi@@
fisi@@
fisica
fisica,
fisica.
fisicamente
fisiche
fisici
fisico
fisico,
fisico.
fiss@@
fissare
fist@@
fit
fit@@
Fit@@
fium@@
fiume
fiume.
fiumi
fix@@
fizier@@
fizieren
fiziert
fl@@
Fl@@
flach
flach@@
fläch@@
Fläch@@
fläche
Fläche
Flag@@
Flagge
flanz@@
Flas@@
Flasch@@
Flasche
Flaschen
Fle@@
flei@@
Flei@@
Fleisch
Fleisch@@
flessi@@
flexi@@
fli@@
Flick@@
Flickr
flieg@@
Flieg@@
fliegen
Fliegen
fliegen,
fliegen.
fliegt
fließ@@
fließen
fließt
flo@@
flog
flogen
flor@@
Flor@@
Flori@@
Florida
Florida,
Florida.
flu@@
Flu@@
flü@@
Flü@@
flüch@@
Flücht@@
Flüchtling@@
Flüchtlingsl@@
flug
Flug
flug@@
Flug@@
Flügel
flügel@@
Flugh@@
Flughafen
Flugzeu@@
Flugzeug
Flugzeug,
Flugzeug@@
Flugzeuge
flui@@
flus@@
Flus@@
flüs@@
fluss
Fluss
fluss@@
Fluss@@
Flüsse
flüssig@@
Flüssig@@
Flüssigkeit
flusso
Flut
flut@@
fluttu@@
fo
fo@@
Fo@@
foc@@
focalizz@@
focus
fogli@@
foglie
foglio
foie
Foie
Fok@@
Fokus
fokus@@
fol@@
Fol@@
folg@@
folge
Folge
folgen
Folgen
folgen,
folgen.
folgen@@
Folgen@@
folgende
folgenden
folgender@@
folgendes
Folgendes
folgendes:
Folgendes:
folgt
folgt.
Foli@@
Folie
foll@@
folla
folle
fon@@
fond@@
Fond@@
fonda@@
fondale
fondament@@
Fondament@@
fondamentale
fondamentale.
fondamentali
fondamentalmente
fondamentalmente,
fondare
fondata
fondato
fondatore
fondazione
Fondazione
fondi
fondo
fondo,
fondo.
font@@
fonte
fonti
foo@@
for
for@@
For@@
för@@
För@@
Force
ford
Ford
forder@@
förder@@
fördern
fördern,
fördern.
fordert
fördert
Förderung
forest@@
foresta
foresta,
foresta.
foreste
form
Form
form,
Form,
form.
Form.
form@@
Form@@
forma
forma,
forma.
forma@@
formaggi@@
formal@@
forman@@
formano
formare
format@@
formato
formazione
forme
forme,
forme.
Formel
formen
Formen
formen,
formen.
Formen.
former@@
formi@@
förmi@@
formica
formiche
formiche,
förmige
formt
formul@@
formula
formuli@@
forn@@
forni@@
fornire
fornis@@
fornisce
forniscono
fornito
forno
forsch@@
Forsch@@
forschen
forscher
Forscher
forschung
Forschung
Forschung,
forschungen
Forschungs@@
forse
Forse
forse,
fort
fort,
fort.
fort@@
Fort@@
forte
forte,
forte.
fortem@@
fortemente
fortgeschrit@@
forti
Fortpflanz@@
Fortschrit@@
Fortschritt
fortschritt@@
Fortschritte
fortun@@
Fortun@@
fortuna
fortuna,
fortuna.
fortunati
fortunato
forz@@
forza
forza,
forza.
forze
fos@@
fosse
fossero
fossi
fossi@@
Fossi@@
fossil@@
fossilen
fossili
fossimo
foste
fot@@
Fot@@
foto
Foto
foto,
Foto,
foto.
fotogra@@
Fotogra@@
Fotograf
fotograf@@
Fotograf@@
fotografare
fotografato
fotografi
fotografi@@
Fotografi@@
fotografia
fotografia,
fotografia.
fotografica
fotografiche
fotografie
Fotografie
fotografie,
fotografiert
fotografo
Fotos
Found@@
Foundation
Foundation,
fr@@
Fr@@
fra
fra@@
Fra@@
frag@@
Frag@@
frage
Frage
Frage,
Frage:
Frage.
fragen
Fragen
fragen,
Fragen,
fragen:
fragen.
Fragen.
fragi@@
fragile
fragt
fragt,
fragt:
fragte
fragte,
fragte:
fragten
fraint@@
frakt@@
Frakt@@
fram@@
framment@@
frammenti
frammento
fran@@
Fran@@
franc@@
Franc@@
francamente,
francese
Franci@@
Francia
Francia,
Francis
Francis@@
Francisco
Francisco,
Francisco.
Frank
Frank@@
Frankl@@
Frankreich
Franz@@
französi@@
Französi@@
französische
frase
frasi
frat@@
fratell@@
fratelli
fratello
fratt@@
frattemp@@
frattempo,
frau
Frau
Frau,
Frau:
Frau.
frau@@
Frau@@
Frauen
Frauen,
Frauen.
frazione
fre@@
Fre@@
frecci@@
fred@@
Fred@@
freddo
freddo,
freddo.
freg@@
frei
frei.
frei@@
Frei@@
freich
freie
freien
freier
Freiheit
Freiheit,
Freit@@
freiwil@@
Freiwil@@
Freiwilligen
Freizeit
frem@@
Frem@@
fren@@
frequ@@
Frequ@@
frequent@@
frequenz
Frequenz
frequenza
frequenze
fres@@
fress@@
fressen
fretta
fretta,
fretta.
freu@@
Freu@@
Freude
freue
freuen
Freun@@
Freund
Freund,
freund@@
Freund@@
Freunde
Freunde,
Freunde.
Freunden
Freundin
fri@@
Fri@@
fried@@
Fried@@
Friede
frieden
Frieden
frieden@@
Frieden@@
Friedens@@
frig@@
fris@@
frisch
frist@@
fristig
frit@@
fro@@
Fro@@
froh
froh,
fröh@@
fron@@
Fron@@
Front
front@@
Front@@
fronte
fronti@@
fru@@
Fru@@
frü@@
Frü@@
frucht@@
früh
früh@@
Früh@@
frühe
frühen
früher
Früher
früheren
Früherkenn@@
Frühl@@
frustr@@
frustra@@
frustri@@
frut@@
frutt@@
ft
ft,
ft.
ft@@
fte
fte,
fte.
ften
fter
ftwar@@
ftware
fu
Fu
fu@@
Fu@@
fü@@
Fü@@
fuer
fug@@
füg@@
fuga
fügen
fügen,
fügen.
fuggi@@
fügt
füh@@
fühl
fühl@@
fühle
fühlen
fühlen,
fühlen.
fühlt
fühlt,
fühlte
fuhr
fuhr,
fuhr@@
führ@@
Führ@@
fuhren
führen
führen,
führen.
führenden
führer
Führer
führt
führt,
führt.
führte
führte,
führte.
führten
führung
Führung
Führungs@@
fui
ful@@
Ful@@
Full@@
füll@@
füllen
füllt
fum@@
fumetti
fumetto
fumo
fun@@
Fun@@
fün@@
Fün@@
Fund
fund@@
Fund@@
fundament@@
Fundament@@
fundamentale
fundamentalen
fünf
Fünf
fünf,
fünf@@
Fünf@@
fung
fung@@
funghi
fungo
Funk@@
Funktion
funktion@@
Funktion@@
Funktionen
funktionier@@
funktionieren
funktionieren,
funktionieren.
funktioniert
funktioniert,
funktioniert.
funktionierte
funktionierte.
Funktionsweise
funzion@@
Funzion@@
funziona
Funziona
funziona,
funziona.
funzionalità
funzionamento
funzionano
funzionano.
funzionare
funzionare.
funzionato
funzionato.
funzione
funzione.
funzioni
funzioni.
fuo@@
fuoco
fuoco,
fuoco.
fuor@@
fuori
fuori,
fuori.
fuori@@
für
Für
fur@@
Fur@@
für@@
Furb@@
furcht@@
fürcht@@
furg@@
furi@@
furono
fürs
fusi@@
fusione
Fuß
Fuß@@
Fußab@@
Fußball@@
Füße
Füßen
fut@@
Fut@@
füt@@
futur@@
futuri
futuro
futuro,
futuro?
futuro.
g
G
g-@@
G-@@
g,
G,
G:
g.
G.
g@@
G@@
ga
ga,
ga.
gä@@
gab
gab,
gab.
gab@@
Gab@@
gabe
gäbe
gäbe,
gaben
gaben,
gad@@
gal,
gal@@
Gal@@
Galapag@@
Galapagos
galassi@@
galassia
galassia,
galassia.
galassie
galassie,
galassie.
galatt@@
Galax@@
Galaxi@@
Galaxie
Galaxien
Galaxien,
Galil@@
Galileo
gall@@
Gall@@
galleggi@@
galleria
Galois
Galva@@
gam@@
Gam@@
gamb@@
gamba
gambe
gambe,
gambe.
gamber@@
gamma
gan
gan@@
Gan@@
gän@@
Gän@@
Gand@@
Gandhi
gang
Gang
gang,
gang.
gang@@
Gang@@
gänge
gänger
gänger@@
Ganges@@
gängi@@
gangs@@
ganis@@
gano
ganz
Ganz
ganz,
ganz@@
Ganz@@
gänz@@
ganze
Ganze
ganzen
Ganzen
ganzer
ganzes
gänzlich
Gap@@
Gapmin@@
gar
gar@@
Gar@@
Gär@@
gara
garage
garant@@
garanti@@
garantire
Garten
Garten@@
Gary
gas
Gas
gas.
gas@@
Gas@@
gase
Gast@@
Gat@@
Gates
gatto
Gau@@
gavi@@
GB:
ge
ge,
ge:
ge.
ge@@
Ge@@
geändert
geändert.
gearbeitet
gearbeitet,
gearbeitet.
geb@@
Geb@@
gebau@@
gebäu@@
Gebäu@@
Gebäude
Gebäude,
Gebäude.
Gebäuden
Gebäudes
gebaut
gebaut,
gebaut.
gebauten
gebe
geben
Geben
geben,
geben?
geben.
geber
gebeten
gebeten,
gebi@@
Gebi@@
gebiet
Gebiet
Gebiet,
Gebiet.
gebiete
Gebiete
gebieten
Gebieten
Gebil@@
gebildet
Gebir@@
Gebirg@@
geblieben
gebor@@
geboren
geboren,
geboren.
gebr@@
Gebr@@
gebra@@
gebracht
gebracht,
gebracht.
gebrau@@
Gebrauch
Gebrauch@@
gebraucht
gebro@@
gebrochen
Gebur@@
Geburt
Geburt@@
Geburts@@
Geburtstag
Geburtstag@@
Geck@@
ged@@
Ged@@
geda@@
gedacht
gedacht,
gedacht.
Gedächt@@
Gedächtnis
gedank@@
Gedank@@
Gedanke
Gedanke,
Gedanken
Gedanken,
Gedanken@@
gedei@@
Gedi@@
Gedicht
Gedichte
gedruck@@
gedul@@
Gedul@@
geeig@@
geeignet
gef@@
Gef@@
gefä@@
Gefahr
Gefahr@@
gefähr@@
Gefähr@@
gefahren
Gefahren
gefährlich
gefährlich,
gefährlich.
gefährliche
gefäll@@
gefallen
gefällt
gefalt@@
Gefän@@
gefangen
Gefangen@@
Gefängn@@
Gefängnis
Gefängnis@@
gefei@@
gefilm@@
gefl@@
geflogen
gefolgt
geform@@
geformt
gefr@@
gefrag@@
gefragt
gefragt,
gefragt:
gefror@@
gefüg@@
Gefühl
Gefühl,
gefühl@@
Gefühl@@
Gefühle
Gefühle,
geführt
geführt,
gefüll@@
gefüllt
gefun@@
gefunden
gefunden,
gefunden.
geg@@
Geg@@
gegangen
gegangen,
gegangen.
gegangen@@
gegeb@@
gegeben
gegeben,
gegeben.
gegen
gegen@@
Gegen@@
Gegend
Gegenden
Gegensatz
gegensei@@
gegenseitig
Gegenst@@
Gegenstand
Gegenstände
Gegent@@
Gegenteil
gegenüber
gegenüber@@
gegenwär@@
Gegenwart
gegenwärtigen
gegessen
geglaub@@
gegn@@
Gegn@@
gegriffen
gegrün@@
gegründet
gegründet,
geh
geh@@
Geh@@
gehab@@
gehabt
gehabt,
gehalten
gehalten,
gehalten.
gehe
gehe,
gehei@@
geheim@@
Geheim@@
Geheimnis
Geheimnisse
gehen
Gehen
gehen,
gehen?
gehen.
gehend
gehende
gehenden
gehens@@
Gehir@@
Gehirn
Gehirn,
Gehirn.
Gehirn@@
Gehirne
Gehirns
Gehirns,
Gehirns.
gehö@@
gehol@@
geholfen
geholt
gehör@@
Gehör@@
gehören
gehören,
gehört
gehört,
gehört?
gehört.
Gehr@@
Gehry
geht
Geht
geht,
geht.
geht's
geht's.
geht@@
gei@@
Gei@@
Geist
geist@@
Geist@@
Geistes
Geistes@@
geistige
gekauf@@
gekauft
gekauft.
gekommen
gekommen,
gekommen.
gel
gel,
gel.
gel@@
Gel@@
geläh@@
Gelände
gelang
gelang@@
gelangen
gelangen,
gelangen.
gelangt
gelangt,
gelassen
gelassen,
gelassen.
gelaufen
gelbe
gelben
geld
Geld
Geld,
Geld.
Geld@@
gelebt
geleg@@
Geleg@@
gelegen@@
Gelegen@@
gelegenen
Gelegenheit
Gelegenheit,
gelegt
gelegt.
gelehr@@
gelehrt
geleist@@
geleit@@
geleitet
gelern@@
gelernt
gelernt,
gelernt.
gelesen
gelesen,
geli@@
geliefer@@
gelingt
Gell-@@
geln
gelö@@
gelöst
gelöst.
gem@@
Gem@@
gemach@@
gemacht
gemacht,
gemacht?
gemacht.
gemacht@@
Gemäl@@
Gemälde
gemäß
gemein@@
Gemein@@
Gemeinde
Gemeinden
gemeinnüt@@
gemeinsam
gemeinsam@@
Gemeinsam@@
gemeinsame
gemeinsamen
Gemeinschaft
Gemeinschaft,
Gemeinschaft.
gemeinschaft@@
Gemeinschaften
gemelli
gemessen
gemis@@
Gemü@@
Gemüse
gen
Gen
gen,
gen;
gen:
gen?
gen.
gen."
gen@@
Gen@@
genann@@
genannt
genannt,
genannt.
genannten
genau
Genau
genau,
genau.
Genau.
genau@@
Genau@@
genaue
genauen
genauer
genaus@@
genauso
Genauso
gend
gend,
gend.
gend@@
gende
genden
gender
gendes
gendo
gene
Gene
Gene,
Gene.
gene@@
genealog@@
genen
Genen
gener@@
Gener@@
genera
General
generale
Generale
generale,
generale.
generalmente
generano
generare
Generation
Generation,
Generation.
Generationen
generato
generazione
generazione,
generazione.
generazioni
generazioni,
genere
genere,
genere.
generell
genet@@
genetica
genetica.
genetico
genetisch
genetische
genetischen
geni
geni,
geni.
geni@@
Geni@@
geniale
Genie
genie@@
genießen
genio
genit@@
genitore
genitori
genitori,
genitori.
genoci@@
genocidio
Genom
genom@@
Genom@@
genoma
Genome
genomm@@
genommen
genommen,
genommen.
genös@@
gens
gens,
gens.
gent@@
gente
gente,
gente.
genti
genti@@
gentil@@
gentile
genu@@
genü@@
genug
genug,
genug.
genügend
genutz@@
genutzt
genutzt.
genz@@
genza
geo@@
geöffn@@
geöffnet
geogra@@
Geographic
Geographic@@
geomet@@
geometri@@
Geometri@@
geometria
Geometrie
Geor@@
geordn@@
George
Georgetow@@
geplan@@
geprä@@
ger
ger,
ger.
ger@@
Ger@@
gerà
gerä@@
Gerä@@
gerade
Gerade
gerade.
gerade@@
geradezu
gerarchia
gerät
Gerät
Gerät,
gerät.
Gerät.
geräte
Geräte
geraten
Geräusch
Geräusch@@
Geräusche
gere
gere,
gere.
gere@@
gerech@@
Gerech@@
Gerechtigkeit
gered@@
gerei@@
geren
gerett@@
gerettet
geri@@
Geri@@
Gericht
gericht@@
gerichtet
Gerichts@@
gering@@
geringen
geringer
Germani@@
Germania
Germania,
germi
gern
gern,
gern.
gerne
gerne,
gers
gersi
gert
geru@@
Gerü@@
gerufen
gerung
Gerüst
gerweise
ges
ges,
ges.
ges@@
Ges@@
gesag@@
gesagt
gesagt,
gesagt:
gesagt.
gesam@@
gesamm@@
gesammelt
gesamt
Gesamt@@
gesamte
gesamten
gesch@@
Gesch@@
geschäf@@
Geschäf@@
geschaff@@
geschaffen
geschaffen,
geschaffen.
geschafft
geschafft,
geschafft.
geschäft
Geschäft
Geschäft.
Geschäft@@
Geschäfte
Geschäfts@@
Geschäftsl@@
geschah
geschah,
geschah.
geschah@@
geschätz@@
geschehen
geschehen.
geschei@@
Geschenk
geschi@@
Geschi@@
geschicht@@
Geschicht@@
geschichte
Geschichte
Geschichte,
geschichte.
Geschichte.
Geschichten
Geschichten,
Geschichten.
Geschichten@@
Geschichtenerzähl@@
geschick@@
geschickt
geschickt,
geschieh@@
geschieht
geschieht,
geschieht.
geschl@@
geschlag@@
geschlagen
geschlagen,
Geschle@@
Geschlech@@
Geschlechts@@
geschlos@@
geschlossen
geschlossen,
geschlossen.
geschlossen@@
Geschmack
Geschmack@@
geschn@@
geschnitten
geschrieb@@
geschrieben
geschrieben,
geschrieben.
geschrit@@
geschütz@@
geschützt
geschw@@
Geschwi@@
geschwindi@@
Geschwindi@@
geschwindigkeit
Geschwindigkeit
Geschwindigkeit,
geseh@@
gesehen
gesehen,
gesehen?
gesehen.
gesell@@
Gesell@@
gesellschaft
Gesellschaft
Gesellschaft,
Gesellschaft.
gesellschaft@@
Gesellschaften
gesellschaftlichen
Gesetz
gesetz@@
Gesetz@@
Gesetze
Gesetzen
gesetzt
gesetzt,
gesetzt.
gesetzte
Gesich@@
Gesicht
Gesicht,
Gesicht@@
Gesichter
Gesichts@@
gesp@@
gespann@@
gespeich@@
gespiel@@
gespielt
gespielt.
gespr@@
Gesprä@@
Gespräch
Gespräch@@
Gespräche
gespro@@
gesprochen
gesprochen,
gesprochen.
gest@@
Gest@@
Gestalt
gestalt@@
gestalten
gestalten,
gestalten.
gestaltet,
Gestaltung
gestart@@
gestartet
gestell@@
gestellt
gestellt,
gestellt.
gestern
Gestern
gesteu@@
gesteuert
gesti
gesti@@
gestimm@@
gestione
gestire
gesto
gesto@@
gestor@@
gestorben
gestorben.
gestoßen
Gesù
gesu@@
gesucht
gesün@@
gesund
gesund@@
Gesund@@
gesunde
gesunden
gesünder
Gesundheit
Gesundheit,
Gesundheit.
gesundheit@@
Gesundheit@@
Gesundheits@@
Gesundheitssystem
Gesundheitswes@@
Gesundheitswesen
get
get@@
Get@@
getan
getan,
getan.
getau@@
gete
geteil@@
geteilt
geteilt.
getest@@
getestet
getöt@@
getötet
getr@@
Getr@@
getragen
Geträn@@
Getrei@@
Getreide
getrenn@@
getrennt
getreten
getrieb@@
getrieben
getro@@
getroff@@
getroffen
getroffen,
getroffen.
gets
gett@@
gettare
getti
gew@@
Gew@@
gewach@@
gewachsen
gewähl@@
gewählt
gewähr@@
gewal@@
Gewalt
Gewalt,
gewalt@@
gewaltige
gewaltigen
gewand@@
gewandel@@
gewann
Gewässer
Gewässer@@
Geweb@@
gewebe
Gewebe
gewesen
gewesen,
gewesen.
gewi@@
Gewi@@
gewicht
Gewicht
Gewinn
gewinn@@
Gewinn@@
gewinnen
gewinnen,
gewinnen.
Gewinner
gewinnt
gewis@@
gewiss@@
gewisse
gewissem
gewissen
gewisser
gewisser@@
gewissermaßen
gewohn@@
Gewohn@@
gewöhn@@
gewöhnlich
gewöhnliche
gewöhnlichen
gewöhnt
gewonnen
gewonnen.
gewor@@
geworden
geworden,
geworden.
geworfen
geworfen.
gewünsch@@
gezeigt
gezeigt,
gezeigt.
gezogen
gezogen,
gezw@@
gezwungen
gger@@
ggi@@
gh
gh@@
Gh@@
ghan@@
Ghana
ghe
ghi
ghi.
ghi@@
ghiacci@@
ghiacciaio
ghiaccio
ghiaccio,
ghiaccio.
ghil@@
Ghrai@@
ght
gi
gi,
gi.
gi@@
Gi@@
gia
già
gia,
gia.
già.
gia'
giall@@
giallo
giamo
giappon@@
Giappon@@
Giappone
Giappone,
Giappone.
giapponese
giard@@
giardino
gib@@
gibt
Gibt
gibt,
gibt.
gibt's
gie
gie@@
gier@@
gif@@
giftigen
gig@@
Gig@@
gigan@@
gigant@@
gigante
gigantes@@
gigantesco
giganti
gil@@
Gil@@
Gilber@@
gill@@
Gilli@@
gilt
gimento
gin@@
gine@@
ging
ging,
ging.
ging@@
gingen
gingen,
gingen.
ginocchi@@
gio
gio,
gio.
gio@@
gioc@@
Gioc@@
gioca
giocando
giocano
giocare
giocato
giocatore
giocatori
giocatt@@
giocattoli
giochi
giochi,
giochi.
gioco
gioco,
gioco.
giocol@@
gioi@@
gioia
gion
gion@@
gione
gior@@
giorn@@
giornale
giornali
giornali,
giornalist@@
giornalista
giornalisti
giornata
giornata,
giornata.
giorni
giorni,
giorni.
giorni@@
giorno
Giorno
giorno,
giorno.
giorno@@
giov@@
Giov@@
giovan@@
giovane
giovane,
giovane.
giovani
giovani,
giovani.
Gipf@@
Gipfel
gir@@
gira
girano
girare
girato
giro
giro,
giro.
Git@@
giù
giù,
giù.
giu@@
Giu@@
giudi@@
giudic@@
giudizi
giudizio
Giuli@@
giun@@
giung@@
giunti
giunto
giust@@
Giust@@
giusta
giusta,
giusta.
giuste
giusti@@
giustizia
giustizia,
giustizia.
giusto
giusto,
giusto?
Giusto?
giusto.
gkeit
gkeit,
gkeit.
gkeit@@
gkeiten
gl@@
Gl@@
glaci@@
glamour
Glamour
glamour.
glamour@@
glänz@@
Glas
Glas@@
glaub@@
Glaub@@
glaube
Glaube
glaube,
glauben
Glauben
glauben,
glauben.
Glauben@@
Glaubens@@
glaubt
glaubt,
glaubte
glaubte,
glaubten
glaubten,
Gle@@
glei@@
Glei@@
gleich
gleich,
gleich.
gleich@@
Gleich@@
gleiche
Gleiche
gleichen
gleichen.
Gleichgewicht
gleicht
Gleichung
Gleichungen
gleichzei@@
gleichzeitig
gleit@@
Glenn
Glet@@
Gletscher
gli
Gli
gli@@
Gli@@
glia
glich
glich@@
gliche
glichen
Glied@@
glielo
glio
glob@@
Glob@@
global
Global
globale
globale,
globale.
globalen
globaler
globales
globali
Globalisierung
globalizz@@
globalizzazione
glori@@
Glu@@
Glück
Glück,
Glück.
glück@@
Glück@@
glücklich
glücklich,
glücklich.
glückliche
glücklicher
glücklicherweise
Glücklicherweise
Glücks
Glücks@@
Glückskek@@
Glüh@@
Glühbir@@
Glühbirne
gn@@
gno
go
go,
go.
go@@
Go@@
goc@@
goccia
goder@@
gol@@
Gol@@
Gold
Gold@@
Goldene
golf
Golf
Golf@@
Golfo
Golfwagen
gom@@
Gom@@
gon@@
gonfi@@
gono
gono,
gono.
Good@@
Goog@@
Google
Google,
Google.
Google@@
Gor@@
Gord@@
Gordon
Gore
got@@
Got@@
göt@@
Göt@@
Gott
Gott,
Gott.
Gott@@
Gottes
Gottes@@
Goul@@
gover@@
Gover@@
govern@@
governance
governat@@
governi
governi,
governo
governo,
governo.
GP@@
GPHI@@
GPHIN
GPS
gr@@
Gr@@
gra@@
Gra@@
graben
graben,
Grace
grad
Grad
gradevol@@
gradi
gradi.
grado
gradu@@
graf@@
graff@@
Grafi@@
grafica
grafici
grafico
Grafik
Grafik@@
Graham
gram@@
gramm@@
Gramm@@
gran
Gran
gran@@
Gran@@
Grand
grande
Grande
grande,
grande.
grande@@
grandezza
grandi
grandi,
grandi.
grandi@@
grandioso.
grano
Graph@@
gras
Gras
gras@@
Gras@@
grasso
grat@@
grati@@
gratis
gratis,
gratis.
gratt@@
gratu@@
grau@@
graus@@
grav@@
grave
gravi
gravi@@
gravit@@
Gravit@@
gravità
gravità,
gravità.
Gravitation
grazi@@
grazie
Grazie
Grazie,
grazie.
Grazie.
gre@@
Gre@@
Great
Green
Green@@
Greenpe@@
Greenpeace
Greg
greg@@
grei@@
greich@@
greif@@
greifen
greifen,
greifen.
greift
grem@@
grenz@@
Grenz@@
Grenze
Grenzen
Grey
grezz@@
gri@@
Gri@@
griech@@
griff
Griff
Griff@@
grigli@@
Gripp@@
Grippe
gro@@
Gro@@
Groen@@
Groenlan@@
Groenlandia
Grön@@
Grönland
gros@@
grös@@
Grös@@
gross
groß
groß,
groß.
groß@@
Groß@@
größ@@
Größ@@
grossa
grossar@@
großar@@
Großar@@
großartig
großartig,
großartig.
großartige
großartigen
großartiger
großartiges
Großbritanni@@
Großbritannien
Großbritannien,
grosse
große
Große
größe
Größe
große,
Größe.
großem
grossen
großen
Großen
großen,
Größen@@
Größenordnung
grosser
großer
größer
größer,
größer.
grösser@@
größere
größeren
größeres
großes
grossi
Großmut@@
Großmutter
grosso
grösste
größte
Großteil
größten
größtenteils
Großvater
großzügi@@
Ground
grov@@
gru@@
Gru@@
grü@@
Grü@@
grün
grün@@
Grün@@
grund
Grund
Grund,
Grund.
grund@@
Grund@@
Grunde
Gründe
Gründe,
gründen
Gründen
gründen,
Gründen,
gründen.
Gründen.
Gründer
gründete
Grundi@@
Grundlage
Grundlagen
grundleg@@
grundlegend
grundlegende
grundlegenden
grundsätz@@
Grundsätz@@
grundsätzlich
Grundstück
Grundstück@@
grüne
grünen
grupp@@
Grupp@@
gruppe
Gruppe
Gruppe,
Gruppe.
gruppen
Gruppen
Gruppen,
gruppi
gruppi.
gruppi@@
gruppo
gruppo,
gruppo.
gs
gste
gt
gt,
gt.
gte
gten
gu@@
Gu@@
Gü@@
guada@@
guadagn@@
guadagnano
guadagnare
guadagnato
guadagni
guai
guai.
guar@@
Guar@@
guard@@
Guard@@
guarda
guarda,
guardando
guardano
guardar@@
guardare
guardare.
guardate
Guardate
guardate,
Guardate,
guardato
guardavo
guarder@@
guardi
guardi@@
Guardi@@
guardia
guardiamo
Guardiamo
guardo
guardò
guari@@
Guatem@@
guck@@
gucken
guer@@
Guer@@
guerra
Guerra
guerra,
guerra.
guerre
gui@@
guid@@
guida
guidando
guidar@@
guidare
guidata
guidato
gül@@
Gummi@@
gung
günst@@
günstig
gur@@
Gur@@
gust@@
Gust@@
gusto
gut
Gut
gut,
Gut,
gut.
Gut.
gut@@
Gut@@
gute
Gute
guten
Guten
guter
Güter
gutes
Gutes
Gy@@
h
H
h-@@
h,
H,
h:
H:
h!
h?
h.
H.
h"
h@@
H@@
H5N@@
H5N1
ha
Ha
ha,
ha.
ha@@
Ha@@
HA@@
hä@@
Haar
haar@@
Haar@@
Haare
hab
hab's
hab@@
Hab@@
habe
habe,
habe.
haben
Haben
haben,
haben:
haben?
haben.
haben."
haber
habit@@
habitat
habt
hack@@
Had@@
Hadron
haf@@
Haf@@
haft
haft,
haft.
haft@@
Haft@@
hafte
haften
hafter
haftes
hai
Hai
Hai@@
Haie
hail@@
Haiti
Haiti,
Hak@@
hal@@
Hal@@
häl@@
Häl@@
halb
halb,
halb@@
Halb@@
halbe
halben
halbes
halbi@@
half
Hälfte
hall
Hall
Hallo
Hallo,
Halluzin@@
Halluzinationen
halt
hält
halt,
hält,
halt.
hält.
halt@@
hält@@
halte
halte,
halte.
halten
halten,
halten?
halten.
halts@@
haltung
ham
ham,
ham@@
Ham@@
han
han,
Han@@
hän@@
Hän@@
hand
Hand
Hand,
Hand.
hand@@
Hand@@
Hände
Handel
handel@@
Handel@@
handeln
Handeln
handeln,
handeln.
Handels@@
handelt
handelt,
handelt.
handelte
Händen
Handgel@@
Handgelenk
Handl@@
Handlung
Handlungen
Handy
Handy,
Handy@@
Handys
hang
hängen
hängen.
hängi@@
hängt
hanno
Hanno
hanno,
hanno.
Hans
har@@
Har@@
här@@
hard@@
Hard@@
Harl@@
harm@@
Harmon@@
Harmonie
Harri@@
Harry
hart
hart@@
harte
Harv@@
Harvard
Harvard,
Harvard.
has@@
häss@@
hassen
hast
hast,
hat
Hat
hat,
hat:
hat?
hat.
hat@@
hät@@
Hät@@
hatt@@
hatte
hätte
hatte,
hätte,
hatte.
hätte.
hatten
hätten
hatten,
hätten,
hatten.
hätten.
hau@@
Hau@@
häu@@
Häu@@
Haufen
häufig
häufig@@
Haup@@
haupt
haupt@@
Haupt@@
Häupt@@
hauptsäch@@
hauptsächlich
haus
Haus
Haus,
Haus.
haus@@
Haus@@
häus@@
Häus@@
Hausauf@@
Hausaufgaben
hause
Hause
Hause,
Hause.
Häuser
Hauses
Haushalt
Haushalts@@
Hausmeisters
Haust@@
haut
Haut
Haut,
Haut@@
Hav@@
Haw@@
Hawai@@
Hawaii
Hawk@@
Hawking
he
he,
he.
he@@
He@@
Head@@
Heat@@
heb@@
Heb@@
heben
heben,
heben.
hebt
hef@@
Hef@@
Hefe
heh,
hei@@
Hei@@
heil@@
Heil@@
heilen
heiligen
Heilung
heim
heim@@
Heim@@
Heimat
Heimat@@
Hein@@
heirat@@
heiraten
heis@@
heiß
heiß@@
heiße
heißen
heisst
heißt
heisst,
heißt,
heißt:
heißt.
heit
heit,
heit.
heit@@
heiten
heiten,
heiten.
heits@@
hek
hek@@
Hekt@@
Hektar
hel@@
Hel@@
Held
Helden
helfen
helfen,
helfen.
Heli@@
Helikop@@
hell@@
Hell@@
hem@@
Hem@@
hemati@@
Hemis@@
Hemisphä@@
Hemisphäre
hen
hen,
hen.
Henr@@
Henry
hent@@
heorie
her
her,
her.
her@@
Her@@
herab@@
heran@@
Herangehens@@
Herangehensweise
heraus
heraus,
heraus.
heraus@@
Heraus@@
herausfand,
herausfanden,
herausfinden
herausfinden,
herausforder@@
Herausforder@@
Herausforderung
Herausforderung,
Herausforderung.
Herausforderungen
Herausforderungen,
herausgefunden
herausgefunden,
herausgestellt,
herausra@@
herauszu@@
herauszufinden
herauszufinden,
Herb@@
herbei@@
Herbie
Herbst
herein@@
heren
hergestellt
hergestellt.
herine
Herkun@@
Herkunft
herò
Hero@@
Herr
herr@@
Herr@@
Herren,
Herrn
herrsch@@
herrscht
herstell@@
Herstell@@
herstellen
herstellen,
herstellen.
Hersteller
Herstellung
herum
herum,
herum.
herum@@
herunter
herunter@@
hervor,
hervor.
hervor@@
hervorra@@
hervorzu@@
Herz
Herz-@@
herz@@
Herz@@
Herzen
Herzinfar@@
Herzkrank@@
herzlichen
herzu@@
herzustellen,
herzustellen.
heut@@
Heut@@
heute
Heute
heute,
heute.
heutige
heutigen
heutzutage
Heutzutage
Hex@@
hey,
Hey,
hh@@
hi
hi,
hi.
hi@@
Hi@@
HI@@
hiamo
hie,
hie@@
hiel@@
hielt
hielt,
hielt.
hielten
hielten,
hier
Hier
hier,
Hier,
hier?
hier.
hier@@
Hier@@
Hierarchie
hierbei
hierfür
hierher
hiervon
hieß
hieu
hig
hig@@
Hig@@
Higg@@
Higgs-@@
High
high-@@
High-@@
High@@
hil@@
Hil@@
hilf@@
Hilf@@
hilfe
Hilfe
Hilfe,
Hilfe.
hilfreich
Hilfs@@
Hilfsmittel
hilft
hilft,
hili@@
Hill
Hill@@
Hillis
Him@@
Himal@@
Himalay@@
Himalaya
himm@@
Himm@@
Himmel
Himmel@@
hin
hin,
hin.
hin@@
Hin@@
hinauf
hinaus
hinaus,
hinaus.
hinaus@@
Hinblick
Hinder@@
Hindernis
Hindernisse
hinein
hinein,
hinein.
hinein@@
hing
hing@@
hingegen
hingehen
Hinsi@@
Hinsicht
hinsichtlich
hint@@
hinten
hinter
hinter@@
Hinter@@
Hintergr@@
Hintergrund
hinunter
hinunter@@
hinweg
Hinweis
Hinweise
hinzu,
hinzu.
hinzu@@
hinzufügen,
hinzufügen.
hir@@
Hir@@
hirl@@
Hirn
Hirn@@
histor@@
Histor@@
historischen
Hit@@
Hitz@@
Hitze
HIV
HIV-@@
HIV,
HIV.
HIV@@
HIV/@@
HIV/AIDS
HIV/AIDS.
hl
hl@@
hlen
hn@@
ho
Ho
ho@@
Ho@@
hö@@
Hö@@
hob
hoch
hoch,
hoch.
hoch@@
Hoch@@
höch@@
höchst
höchste
höchsten
Hock@@
hof
höf@@
hoff@@
Hoff@@
hoffe
hoffe,
hoffen
hoffen,
hoffentlich
Hoffentlich
Hoffn@@
Hoffnung
Hoffnung,
Hoffnung.
hoffnungs@@
hoh@@
höh@@
Höh@@
hohe
Höhe
Höhe,
Höhe.
Höhe@@
hohem
hohen
Höhepunkt
hoher
höher
höher@@
höhere
höheren
Höhl@@
Höhle
Höhlen
hol@@
Hol@@
höl@@
hole
holen
holen,
holen.
Hölle
Hollywoo@@
Hollywood
Holoc@@
holt
holte
holz
Holz
Holz@@
hom@@
Hom@@
Homo
Hon@@
Hong
hop
Hop@@
hor@@
Hor@@
hör@@
Hör@@
höre
höre,
hören
Hören
hören,
hören.
hori@@
Hori@@
Horizon@@
horizont@@
hört
hört,
hörte
hörte,
hörten
hos
Hospit@@
hot@@
Hot@@
hotel
Hotel
Hotel@@
Howar@@
Howard
hr
hr@@
hren
hrend
ht
ht@@
hu@@
Hu@@
hü@@
Hü@@
Hub@@
hüb@@
Hubschrau@@
Hud@@
Hüfte
Hügel
Hüh@@
Hühn@@
Hühnchen
Hul@@
hüll@@
Hülle
Hum@@
human@@
Human@@
Humor
Hun@@
Hund
Hund,
Hunde
hunder@@
Hunder@@
hundert
hundert@@
Hundert@@
hunderte
Hunderte
hunderten
hung@@
Hung@@
Hunger
Hungers@@
hungrig
Hunt@@
Hur@@
Hus@@
husi@@
Hut
Hüt@@
Hütte
hy@@
Hy@@
Hyderab@@
Hyper@@
Hypoth@@
Hypothese
hyth@@
Hyun
i
I
í
ì
i-@@
I-@@
i,
I,
ì,
i;
i:
i?
ì?
i?"
i.
I.
ì.
i...
i."
I.@@
i"
i".
i@@
I@@
í@@
ì@@
î@@
ï@@
İ@@
ia
ia,
ia.
ia@@
iamo
iamo,
iamo.
ian
IBM
IBM@@
ibri@@
ic,
ic.
ic@@
ica
ica,
ica:
ica?
ica.
ica"
ical
icamente
icamente,
icamente.
icare
icato
ice
ice,
ice.
ich
Ich
„Ich
ich,
ich:
ich?
ich.
ich@@
iche
iché
iche,
iche.
ichi
icht
icht,
icht.
icht@@
ichten
ichter
ichts
ici
ici,
ici.
ici@@
icia
icil@@
icio
icità
ick
ick,
ick@@
ickel@@
icken
ickl@@
ickt
icl@@
iclett@@
ico
ico,
ico:
ico?
ico.
icol@@
icoli
icolo
icon
icon@@
icona
icotter@@
ics
ics.
ID
id@@
ID@@
ide,
ide.
ide@@
Ide@@
IDE@@
idea
idea,
idea.
Ideal@@
ideale
idealen
ideato
idee
Idee
idee,
Idee,
idee.
Idee.
Ideen
Ideen,
Ideen.
ident@@
Ident@@
idente
identi
identi@@
identific@@
identificare
identifizier@@
identifizieren
identità
Identität
IDEO
ider@@
idi@@
Idi@@
idr@@
idride
idro@@
idrogen@@
idrogeno
idrogeno,
idrogeno.
ie
ie,
ie.
ien
ier
ier,
ier.
ier@@
iera
iera,
iera.
iere
iere,
iere.
ieren
ieren,
ieren.
ierende
ierenden
ieri
ieri,
ieri.
iero
iert
iert,
iert.
ierte
ierte,
ierte.
ierten
ierter
iertes
ierung
iet@@
iett@@
ific@@
ig
ig,
ig.
ig@@
Ig@@
ige
ige,
igen
igen,
igen.
iger
iges
igi
igi@@
igkeit
igli@@
ign
ign@@
ignor@@
ignorare
ignorieren
ih@@
Ih@@
ihm
ihm,
ihm.
ihn
ihn,
ihn.
ihnen
Ihnen
ihnen,
Ihnen,
ihnen.
Ihnen.
ihr
Ihr
ihr,
ihr.
ihr@@
Ihr@@
ihre
Ihre
ihrem
Ihrem
ihren
Ihren
ihrer
Ihrer
ihres
Ihres
ii
II
II@@
ik
ik,
ik.
ik@@
ikan@@
iker
Ikon@@
ikop@@
il
Il
il,
il.
il@@
Il@@
ile,
ile.
ili
ill
ill@@
Ill@@
illa
illeg@@
illegale
illu@@
Illu@@
illumin@@
illuminazione
Illusion
illusione
illusioni
illustr@@
illustra
im
Im
IM:
im@@
Im@@
IM@@
ima
Image
imbar@@
imbarazz@@
imbarc@@
imbr@@
imbrogli@@
iment@@
imenti
imenti,
imenti.
imento
imento,
imento.
imi
imit@@
Imit@@
imitare
imm
imm@@
Imm@@
immag@@
Immag@@
immagazz@@
immagazzin@@
immagin@@
Immagin@@
immaginare
immaginare,
immaginare.
immaginate
Immaginate
immaginazione
immaginazione,
immaginazione.
immagine
immagine,
immagine.
immagini
immagini,
immagini.
immagini@@
immaginiamo
immagino
Immagino
immat@@
immateri@@
immedi@@
immediatamente
immen@@
immens@@
immensa
immenso
immer
Immer
immer,
immer.
immer@@
immo
immo@@
immobili@@
immort@@
Immun@@
immunit@@
immunitario
Immuns@@
Immunsystem
imo
imp@@
impacch@@
impalc@@
impalcatura
impan@@
impar@@
Impar@@
impara
imparando
imparano
imparare
imparare.
imparato
impariamo
impatto
impazz@@
impazzi@@
impedi@@
impedire
impedisce
impegn@@
impegnarsi
impegnati
impegno
imper@@
Imperi@@
Impf@@
Impfstoff
Impfstoff@@
Impfstoffe
impi@@
impiant@@
impianti
impianto
impic@@
impieg@@
impiega
impiegati
impiegato
impl@@
implement@@
implic@@
implica
implicazioni
impon@@
impor@@
import@@
importa
important@@
importante
importante,
importante?
importante.
importanti
importanti,
importanti.
importanza
impossibil@@
impossibile
impossibile,
impossibile.
impost@@
imprendit@@
imprenditore
imprenditori
imprenditori@@
impres@@
impresa
imprese
impression@@
impressionante
impressionante.
impressione
improvvis@@
Improvvis@@
improvvisamente
improvviso
impul@@
Impul@@
Impuls
impulso
in
In
in-@@
in,
in:
in.
in@@
In@@
ina
ina,
ina.
inaccett@@
inare
inaspett@@
inate
inato
inc@@
incant@@
incar@@
incen@@
incendi@@
incenti@@
incentiv@@
incentivi
inchio@@
inci@@
incident@@
incidente
incidente.
incidenti
incin@@
incir@@
incirca
incis@@
inclin@@
inclinazione
inclu@@
include
inclus@@
inclusi
incluso
incomprensi@@
incontamin@@
incontr@@
incontra@@
incontrai
incontrano
incontrare
incontrato
incontri
incontro
incoraggi@@
incoraggiare
incorpor@@
incredi@@
Incredi@@
incredibil@@
incredibile
incredibile,
incredibile.
incredibili
incredibili.
incredibilmente
increm@@
increment@@
incremento
incro@@
incu@@
ind
ind@@
Ind@@
inda@@
indag@@
Inde@@
indem
Indem
Independent
Inder
indi
indi,
indi@@
Indi@@
India
India,
India.
indiani
indiano
indic@@
indica
indicano
indicare
Indien
Indien,
Indien.
Indiens
indietro
indietro,
indietro.
indietro@@
indipen@@
indipend@@
indipendente
indipendentemente
indipendenti
indirizz@@
indirizzo
indische
indischen
individu@@
Individu@@
individuare
individuazione
individuelle
individuellen
Individuen
individui
individui.
individuo
individuo,
Individuum
Indon@@
indoss@@
indossando
indossare
indov@@
indovin@@
indu@@
industri@@
Industri@@
industria
industria,
industriale
industriale,
industriali
industrializz@@
industrie
Industrie
Industrie,
industrie.
industrielle
industriellen
ine
ine,
ine.
ine@@
inea
inen
iner@@
ines@@
inevit@@
inevitabilmente
inf@@
Inf@@
infanti@@
infantile
infanzi@@
infanzia
infar@@
infatti
Infatti
infatti,
Infatti,
Infek@@
infer@@
inferi@@
inferiore
infermi@@
infermiere
infett@@
infezione
infezioni
infil@@
infin@@
infine
infine,
Infine,
infinite
infinite.
infizier@@
infiziert
infl@@
influ@@
influenz@@
influenza
influenza.
influenzare
influenzato
inform@@
Inform@@
informa@@
informat@@
Information
Information,
Information@@
Informationen
Informationen,
Informationen.
Informations@@
Informationst@@
informazione
informazione,
informazione.
informazioni
informazioni,
informazioni.
informi@@
infra@@
Infra@@
infran@@
infrar@@
Infrar@@
Infrastrukt@@
Infrastruktur
Infrastruktur,
Infrastruktur.
infrastruttura
infrastrutture
ing
ing-@@
ing,
ing:
ing.
ing"
ing@@
ingann@@
inge
ingegen
ingegn@@
ingegner@@
ingegnere
ingegneri
ingegneri@@
ingegneria
ingen
ingen,
ingen.
ingenie@@
Ingenie@@
Ingenieur@@
Ingenieure
Ingenieuren
ingenu@@
inger@@
ingere
Inghil@@
Inghilterra
Inghilterra,
Inghilterra.
ingl@@
Ingl@@
inglese
Inglese
inglese,
inglese.
inglesi
ingoi@@
ingr@@
ingran@@
ingredi@@
ingredienti
ingresso
ings
ingst@@
ingsu@@
ingt
ingt,
ingu@@
Inhalt
Inhalte
ini
ini,
ini.
ini@@
Ini@@
iniamo
inie
inien
inist@@
inistr@@
Initi@@
Initiative
inizi
inizi@@
Inizi@@
inizia
iniziai
Iniziai
iniziale
inizialmente
iniziamo
Iniziamo
iniziando
iniziano
iniziare
iniziare,
iniziarono
iniziata
iniziate
iniziativa
iniziato
Inizier@@
inizio
iniziò
inizio,
inizio.
ink@@
inklu@@
inklusive
inmitten
inn
inn@@
Inn@@
innalz@@
innamor@@
inne
innen
innen,
Innen@@
Innenst@@
Innenstad@@
inner@@
Inner@@
innere
Innere
inneren
Inneren
innerhalb
Innerhalb
innes@@
inno@@
innoc@@
innov@@
Innov@@
Innovation
Innovation,
Innovation@@
Innovationen
innovative
innovazione
innovazione,
innovazione.
innovazioni
ino
ino,
ino.
ino@@
inoltre
Inoltre
inoltre,
Inoltre,
input
inqu@@
inquiet@@
inquin@@
inquinamento
ins
ins@@
Ins@@
insbesondere
inseg@@
insegn@@
Insegn@@
insegna
insegnamento
insegnano
insegnante
insegnanti
insegnanti,
insegnanti.
insegnare
insegnato
insegu@@
Insekten
insel
Insel
Insel@@
Inseln
inser@@
inserir@@
inserire
inserito
insetti
insgesamt
insi@@
Insi@@
insic@@
insiem@@
insieme
insieme,
insieme.
insignific@@
insist@@
insk@@
insol@@
insom@@
Insom@@
insomma
insomma,
Insomma,
inson
insor@@
inspi@@
Inspir@@
Inspiration
inspiri@@
inspirier@@
inspirieren
inspiriert
inst@@
Inst@@
install@@
Install@@
installazione
installi@@
instink@@
instit@@
Instit@@
Institut
Institute
Instituti@@
Institution
institution@@
Institutionen
Institutionen,
Instrum@@
Instrument
Instrumente
insul@@
int
int@@
Int@@
inta.
intangi@@
integ@@
Integ@@
integr@@
integrazione
integri@@
integrier@@
Integrit@@
Intel
intell@@
Intell@@
intellektu@@
intellektuelle
intellektuellen
intellettu@@
intellettuale
intellettuali
intellig@@
Intellig@@
intelligent
intelligent@@
intelligente
intelligente,
intelligente.
intelligenten
intelligenter
intelligenti
intelligenti,
intelligenti.
Intelligenz
Intelligenz,
Intelligenz.
intelligenza
intelligenza,
intelligenza.
inten@@
Inten@@
intendiamo
intendo
Intendo
intens@@
intensità
intensiv
intensiv@@
intenzion@@
intenzione
intenzioni
inter
inter@@
Inter@@
intera
interag@@
interagi@@
interagier@@
interagieren
interagieren,
interagieren.
interagire
interagiscono
Interak@@
Interaktion
interamente
interattiv@@
interazione
interazioni
intere
interes@@
interess@@
Interess@@
interessa
interessan@@
Interessan@@
interessano
interessant
interessant,
interessant.
interessant@@
Interessant@@
interessante
Interessante
interessante,
interessante.
interessanten
interessanter
interessanterweise
Interessanterweise
interessantes
Interessantes
interessanti
interessanti,
interessanti.
interessata
interessati
interessato
interesse
Interesse
interesse,
interesse.
Interessen
interessi
interessi@@
interessier@@
interessiere
interessieren
interessieren,
interessiert
interessiert,
interessiert.
Interfac@@
interfaccia
Interface
interfer@@
interi
interi@@
intern@@
Intern@@
interna
internationale
internationalen
internazion@@
internazionale
internazionali
interne
internet
Internet
internet,
Internet,
internet.
Internet.
Internet@@
interni
interno
interno,
interno.
intero
intero.
interpret@@
Interpret@@
interpretare
Interpretation
interpretazione
interr@@
interrog@@
interrutt@@
interv@@
intervenire
interventi
intervento
intervi@@
Intervi@@
Intervie@@
Interview
interview@@
Interview@@
Interviewer:
Interviews
intervist@@
Intervist@@
intervista
Intervistatore:
interviste
inti@@
Inti@@
intit@@
intitol@@
intitola
intitolato
into
into,
into.
intorn@@
intorno
intorno,
intorno.
intr@@
intra@@
intrapp@@
intrappol@@
intratten@@
intre@@
intrecci@@
intrins@@
intro@@
introdotto
introdu@@
introdurre
intu@@
Intu@@
intui@@
intuiti@@
Intuiti@@
Intuition
intuitiv@@
intuizione
inu@@
inv@@
Inv@@
inva@@
invasi@@
invec@@
Invec@@
invecchi@@
invecchiamento
invece
Invece
invece,
Invece,
inven@@
invent@@
inventare
inventato
inventò
inventore
invenzione
invenzioni
inver@@
inverno
invest@@
Invest@@
investieren
investieren,
investieren.
investiert
investig@@
investimenti
investimento
investire
Investiti@@
Investitionen
investito
investitori
Investoren
invi@@
inviare
invisi@@
invisibile
invisibile.
invit@@
invitati
invitato
invito
invol@@
involvi@@
involviert
inzi@@
inzwischen
io
Io
io,
io:
io.
io@@
ip@@
IP@@
iper@@
iPh@@
iPhone
ipo@@
iPo@@
iPod
ipot@@
ipotesi
ir
ir@@
Ir@@
IR@@
irà
Ira@@
Irak
Iran
Iran,
Iran@@
iranno
Iraq
Iraq,
Iraq.
Iraq@@
irdi@@
irdische
irdischen
ire
ire,
ire.
irgend
irgend@@
Irgend@@
irgendein
irgendeine
irgendeinem
irgendeinen
irgendeiner
irgendetwas
irgendjemand
irgendw@@
irgendwann
Irgendwann
irgendwas
irgendwelche
irgendwie
Irgendwie
irgendwie,
irgendwo
irle
iron@@
Iron@@
ironia
irono
irr@@
irrazion@@
irre@@
irrig@@
irrit@@
irsi
is
is,
is.
is@@
Is@@
isa
Isa@@
Isaac
isca
iscano
isce
isce,
isce.
isch
isch-@@
isch,
isch.
isch@@
ische
ische,
ischem
ischen
ischen,
ischer
ischerweise
isches
ischste
isci
isco
iscono
iscono,
iscono.
iscri@@
ise
ish
ish@@
isi
isl@@
Isl@@
Islam
Islam,
islam@@
Island
Island,
ismen
ismi
ismo
ismo,
ismo.
ismus
ismus,
ismus.
ismus@@
iso@@
isol@@
Isol@@
isola
isolati
isolato
isole
ison
ispi@@
ispir@@
ispirare
ispirati
ispirato
ispirazione
Isra@@
Israel
iss
iss@@
isse
isse,
issen
issen,
issen.
issero
issi
issi@@
issima
issima.
issime
issimi
issimo
issimo,
issimo.
issione
isst
ist
Ist
ist,
ist;
ist:
ist?
ist.
ist."
ist@@
ista
ista,
ista.
istan,
Istan@@
istantan@@
istante
iste
isten
isten,
ister
isti
isti,
isti.
istica
istica.
istiche
istico
istin@@
istische
istischen
istit@@
istitu@@
istituto
istituzion@@
istituzione
istituzioni
istor@@
istru@@
istruzione
istruzione,
istruzione.
istruzioni
it
it,
it.
it@@
It@@
ita
ità
ita,
ità,
ità:
ità?
ita.
ità.
ita'
ita',
ità"
ita@@
ità@@
itä@@
itali@@
Itali@@
Italien
italien@@
itamente
itär
itär@@
itare
itäre
ität
ität,
ität.
ität@@
itäten
itäten,
itato
itäts@@
ite
ite,
ite.
iten
ith@@
iti
iti,
iti.
iti@@
itik
itik@@
ition
itiv@@
itive
ito
ito,
ito?
ito.
itore
itori
itra
itre@@
itt
itt,
itt.
itt@@
itte
itten
itten.
itti@@
itto
itto,
itto.
itu@@
itudin@@
itudine
itudine.
itut
ity
itz
itz@@
itze
itzen
itzt
iv@@
iva
ival
Ivan
ivano
ivo
iz@@
izi@@
izione
izz@@
izzazione
j
J
J:
J.
j@@
J@@
ja
Ja
ja,
Ja,
JA:
Ja!
ja?
Ja?
ja.
Ja.
Ja@@
Jä@@
Jab@@
Jac@@
Jack
Jack@@
Jackson
Jacqu@@
Jacqueline
jag@@
Jag@@
Jah@@
Jäh@@
jahr
Jahr
Jahr,
Jahr.
jahr@@
Jahr@@
jähr@@
jahre
Jahre
Jahre,
Jahre.
Jahren
Jahren,
Jahren.
Jahres
Jahres@@
Jahrhunder@@
Jahrhundert
Jahrhundert,
Jahrhundert.
Jahrhunderte
Jahrhunderts
Jahrhunderts,
Jahrhunderts.
jähri@@
jährig@@
jährige
jährigen
jähriger
jähriges
jährlich
Jahrzehn@@
Jahrzehnt
Jahrzehnte
Jahrzehnten
jam@@
Jam@@
James
Jamie
Jan@@
Jane
Janu@@
Januar
jap@@
Jap@@
Japan
Japan,
Japan@@
japanischen
Jas@@
Jay
JC:
je
Je
je@@
Je@@
jed@@
Jed@@
jede
Jede
jedem
jeden
Jeden
jeden,
jeden@@
Jeden@@
jedenfalls
Jedenfalls
Jedenfalls,
jeder
Jeder
jeder,
jeder@@
jedermann
jederzeit
jedes
Jedes
jedes@@
jedoch
Jedoch
jedoch,
Jeff
Jeff@@
Jeffer@@
Jefferson
jeg@@
jegliche
jek@@
jem@@
Jem@@
jemals
jeman@@
jemand
Jemand
jemand,
jemandem
jemandem,
jemanden
jemanden,
jen@@
jene
jene,
jenem
jenen
jener
jenes
jenigen
jenigen,
Jenni@@
Jennifer
jenseits
Jer@@
Jerry
Jes@@
Jesus
jet@@
Jet@@
jetz@@
jetzt
Jetzt
jetzt,
Jetzt,
jetzt?
jetzt.
jewei@@
jeweils
JH:
ji@@
Jill
Jill@@
Jim
Jimm@@
jizier@@
Jo@@
Job
Job,
Job@@
Jobs
Joe
Joh@@
John
John,
John@@
Johnn@@
Johnson
Jon@@
Jonathan
Jones
Jos@@
Josep@@
Joseph
Joshu@@
Joshua
journ@@
Journ@@
Journal
Journalist
Journalisten
Joy@@
JP@@
ju@@
Ju@@
jü@@
Juan
Jugend
Jugend@@
Juli@@
Julia
Julian
jün@@
jung
jung@@
Jung@@
jüng@@
junge
Junge
Junge,
jungen
Jungen
junger
jünger
jüngeren
junges
Jungs
Jungs,
Juni
Junk@@
Jupit@@
Jur@@
Just@@
k
K
k-@@
K-@@
k,
K:
k.
K.
k"
k@@
K@@
ka
KA:
ka@@
Ka@@
kä@@
Kä@@
kab@@
Kab@@
Kabel
Kabel@@
Kach@@
Kaff@@
Kaffe@@
Kaffee
kal@@
Kal@@
Käl@@
kali@@
Kaliforni@@
Kalifornien
Kalifornien,
Kalifornien.
Kalk@@
Kalori@@
Kalorien
kalt
kalten
Kalten
Kalu@@
Kaluza
kam
kam,
kam.
kam@@
Kam@@
käm@@
Kambodsch@@
Kamel
kamen
Kamen
kamen,
kamen.
kament
Kamer@@
Kamera
Kameras
kampag@@
Kampag@@
Kampagne
Kampf
Kampf@@
kämpf@@
Kämpf@@
kämpfen
kämpfen.
kämpft
kan@@
Kan@@
Kanada
Kanal
Kandi@@
Kandidaten
kann
Kann
kann,
kann?
kann.
kann@@
kannst
Kannst
kannte
kannten
Kanzi
kap@@
Kap@@
Kapaz@@
kapit@@
Kapit@@
Kapital
Kapital@@
Kapitalismus
Kapitel
kaput@@
kar@@
Kar@@
Karen
Kari@@
Karik@@
Karo-@@
Karri@@
Karriere
kart@@
Kart@@
karte
Karte
Karte,
Karte.
karten
Karten
Kartoff@@
Kas@@
Käs@@
Kass@@
kast@@
kasten
kat@@
Kat@@
katastrop@@
Katastrop@@
katastroph@@
Katastroph@@
Katastrophe
Kategori@@
Kath@@
kathol@@
Kathr@@
Kathryn:
Katr@@
Katrina
Katz@@
Katze
Katzen
kau@@
kauf@@
Kauf@@
kaufen
kaufen,
kaufen.
kaufs@@
kauft
kaufte
kauften
kaum
Kay
KB:
ke
ke,
ke.
Ke@@
kehr
kehr@@
kehrt
kei@@
kein
Kein
kein@@
keine
Keine
keinem
keinen
keiner
Keiner
keinerlei
keines
keit
keit,
keit.
keit@@
Keit@@
keiten
keiten,
keiten.
Keith
keits@@
kel
kel@@
Kell@@
Kelly
keln
keln,
ken
Ken
ken,
ken.
ken@@
Ken@@
keni@@
Keni@@
Kenia
kenn@@
Kenn@@
kenne
Kennedy
kennen
kennen,
kennen.
kennen@@
kennt
kennt.
Kent@@
Keny@@
Kenya
Kenya,
Kenya.
Kepl@@
ker
ker,
ker.
ker@@
Ker@@
Kerami@@
Kerl
Kerl@@
kern
Kern
kern@@
Kern@@
Kerz@@
kes
kes@@
kespe@@
ket@@
kette
Kev@@
Kevin
kg
Kh@@
Khmer
ki
ki@@
Ki@@
Kiber@@
Kid@@
Kik@@
kil@@
Kil@@
Kilomet@@
Kilometer
Kilometern
Kim
kin@@
Kin@@
Kind
Kind,
Kind:
Kind.
kind@@
Kind@@
Kinder
Kinder,
Kinder.
Kinder@@
Kindern
Kindern,
Kindern.
Kindersitze
Kindersterb@@
Kindersterblichkeit
Kindes
Kindheit
king
King
kins
kins,
KIP@@
Kir@@
Kirche
Kiste
Kit@@
kk@@
kl@@
Kl@@
klag@@
klam@@
klang
Klang
Klang@@
klapp@@
klar
klar,
Klar,
klar.
klar@@
Klar@@
klär@@
klare
Klass@@
klasse
Klasse
Klassenzi@@
Klassenzimmer
klassi@@
Klassi@@
klassische
klassischen
klat@@
klav@@
Klavi@@
Klavier
kle@@
klear@@
kleb@@
Kleb@@
klei@@
Klei@@
Kleider
Kleider@@
Kleidung
klein
klein,
klein@@
Klein@@
kleine
Kleine
kleine,
kleinen
kleinen,
kleiner
kleinere
kleineren
kleines
kleinste
kleinsten
klen
kler
kletter@@
Kletter@@
klettern
kli@@
Kli@@
klick@@
klicken
Klima
Klima@@
Klimaw@@
Klimawandel
Klimawandel,
Klimawandel.
Klimawandel@@
Klimawandels
klin@@
kling@@
klingt
Klini@@
Klinik
klinische
klop@@
klopä@@
klu@@
Klu@@
klü@@
Kluft
klug
klus
km
km.
km@@
km/@@
kn@@
Kn@@
knall@@
knapp
kni@@
Kni@@
Knie
Kno@@
Knö@@
Knochen
Knochen@@
Knopf
Knoten
knü@@
knüpf@@
ko@@
Ko@@
kö@@
Kö@@
Koch@@
kodi@@
koenn@@
koennen
Koff@@
kogn@@
Kogn@@
kognitiv@@
kognitive
kognitiven
koh@@
Kohl@@
Kohle
Kohlendi@@
Kohlendioxi@@
Kohlendioxid
Kohlenst@@
Kohlenstoff
Kohlenstoff@@
Kok@@
kol@@
Kol@@
koll@@
Koll@@
kollab@@
Kollap@@
Kollegen
Kollegen,
kollektiv@@
Kolli@@
koloni@@
Koloni@@
Kolonie
Kolonien
Kolum@@
kom@@
Kom@@
kombin@@
Kombin@@
Kombination
kombiniert
komisch
komische
komm
Komm
komm@@
Komm@@
kömm@@
komme
komme,
kommen
Kommen
kommen,
kommen?
kommen.
kommenden
komment@@
Komment@@
kommerzi@@
kommerzielle
kommt
Kommt
kommt,
kommt.
kommun@@
Kommun@@
kommuni@@
Kommunik@@
Kommunikation
Kommunikations@@
kommunizier@@
kommunizieren
kommunizieren.
kompet@@
kompl@@
Kompl@@
komplett
komplette
komplex
komplex@@
Komplex@@
komplexe
komplexen
komplexer
komplexes
Komplexität
komplizier@@
kompliziert
kompliziert.
komplizierte
kompon@@
Kompon@@
Komponenten
Komprom@@
kon@@
Kon@@
kön@@
Kön@@
Kondom@@
Kondome
Konfer@@
Konferenz
Konfli@@
Konflikt
Konflikte
konfron@@
konfrontiert
Kong
Kongr@@
Kongress@@
Köni@@
König
König@@
Königin
konkur@@
Konkur@@
konn@@
könn@@
Könn@@
könne
können
Können
können,
können:
können?
können.
können."
könnt
konnte
könnte
Könnte
konnte,
könnte,
konnte.
könnte.
konnten
könnten
Könnten
konnten,
könnten,
konnten.
könnten.
könntest
Konsequ@@
Konsequenzen
konserv@@
Konserv@@
konst@@
konstru@@
Konstru@@
Konstruktion
konsu@@
Konsu@@
Konsum
Konsument@@
Konsumenten
konsumi@@
kont@@
Kont@@
Kontak@@
Kontakt
Kontex@@
Kontext
Kontin@@
Kontinent
kontinu@@
kontinuier@@
kontr@@
Kontr@@
Kontra@@
Kontroll@@
Kontrolle
kontrolli@@
kontrollieren
kontrollieren,
kontrollieren.
kontrolliert
Kontrover@@
konvention@@
Konvers@@
Konversation
Konz@@
konzent@@
Konzentr@@
Konzentration
konzentri@@
konzentrier@@
konzentrieren
konzentrieren,
konzentrieren.
konzentriert
konzentrierte
konzep@@
Konzep@@
Konzept
Konzepte
Konzer@@
kooper@@
Kooper@@
Kooperation
koordin@@
Koordin@@
kop
kop@@
Kop@@
Kopenhagen
Kopf
Kopf-@@
Kopf-Zahl-@@
Kopf,
Kopf.
Kopf@@
köpf@@
Köpf@@
Köpfe
Köpfen
kopi@@
Kopi@@
Kopie
kor@@
Kor@@
kör@@
Kör@@
Korallen
Korallen@@
Körper
Körper,
Körper.
körper@@
Körper@@
körperlichen
Körpers
korre@@
Korrup@@
Korruption
kos@@
Kos@@
kosmischen
Kosov@@
Kosovo
kost@@
Kost@@
kosten
Kosten
kosten.
Kosten.
kosten@@
kosteng@@
kostengünst@@
kostenlos
kostenlose
kostet
kostet,
kr@@
Kr@@
kra@@
Kra@@
Krab@@
kräf@@
Kräf@@
kraft
Kraft
kraft,
Kraft,
kraft.
Kraft.
kraft@@
Kraft@@
kräfte
Kräfte
Krähen
Kram
Kram@@
krank
krank.
krank@@
Krank@@
Kranken@@
Krankenh@@
Krankenhaus
Krankenhaus@@
Krankenhäus@@
Krankenschwest@@
Krankheit
Krankheit,
Krankheit.
Krankheit@@
Krankheiten
Krankheiten,
krat@@
Krat@@
Kraw@@
kre@@
Kre@@
Kreation@@
kreativ
kreative
kreativen
kreativer
Kreativit@@
Kreativität
Kreativität.
Kreaturen
kreb@@
Kreb@@
Krebs
Krebs,
Krebs.
Krebs@@
Kredit@@
krei@@
Krei@@
kreieren
kreieren,
kreieren.
kreiert
Kreis
Kreise
Kreisl@@
Kreislauf
kreu@@
Kreu@@
Kreuz@@
krieg
Krieg
Krieg,
Krieg.
krieg@@
Krieg@@
kriege
Kriege
kriegen
kriegen,
kriegen.
Krieges
Kriegs@@
kriegt
krimin@@
Krimin@@
kris@@
Kris@@
krise
Krise
Krishn@@
Krist@@
krit@@
Krit@@
kriti@@
kritische
kritischen
Kro@@
Krokodi@@
krümm@@
ks
KS:
kt
kt,
kt.
kt@@
kte
kte,
kte.
kten
kter
ktes
kti@@
ktion
ktion,
ktion.
ktion@@
ktionen
ktis
ktischen
ktiv
ktiv@@
ktu@@
ku@@
Ku@@
kü@@
Kü@@
Küch@@
Küche
kugel
Kugel
Kugel@@
Kuh
Kuh@@
küh@@
Küh@@
Kühe
kühl@@
Kühl@@
kühlt
kul@@
Kul@@
kultur
Kultur
Kultur,
Kultur.
kultur@@
Kultur@@
kulturelle
kulturellen
Kulturen
kümmer@@
kümmern
kümmern,
kümmern.
kümmert
kun@@
Kun@@
kün@@
Kün@@
Kunden
kündig@@
künf@@
kunft
kunft@@
Kunst
Kunst,
Kunst.
Kunst@@
künst@@
Künst@@
Künste
Künstler
Künstler,
künstler@@
Künstler@@
Künstlern
künstlich
künstliche
künstlichen
kur@@
Kur@@
kür@@
kurs
Kurs
Kurse
Kurve
kurz
Kurz
kurz@@
Kurz@@
kürz@@
kurze
kurzem
Kurzem
kurzen
kurzer
kurzes
kurzfrist@@
kürzlich
Kurzweil
Küst@@
küste
Küste
kut@@
kw@@
ky
Ky@@
l
L
l,
L:
l.
L.
L.@@
L.A.
l'
L'
l'@@
L'@@
l'11
l'80%
l'A@@
l'abbiamo
L'abbiamo
l'abilità
l'accesso
l'acqua
L'acqua
l'acqua,
l'acqua.
l'Africa
L'Africa
l'Africa,
l'Africa.
l'ag@@
l'agricoltura
l'AIDS
l'aiuto
l'al@@
l'alt@@
l'altezza
l'altra
L'altra
l'altra,
l'altra.
l'altro
L'altro
l'altro,
l'altro.
l'am@@
l'ambiente
l'ambiente,
l'America
l'amore
l'an@@
l'analisi
l'angiogen@@
l'angolo
l'animale
l'anno
L'anno
l'ap@@
l'apprendimento
l'approccio
l'ar@@
l'architettura
l'area
l'argomento
l'aria
l'arte
l'Asia
l'aspettativa
l'aspetto
l'assenza
l'atmosfera
l'attenzione
l'attività
l'attuale
l'au@@
l'aumento
l'aut@@
l'auto
l'av@@
l'avete
l'avrebbe
l'azienda
l'E@@
l'economia
l'edificio
l'educazione
l'effetto
l'efficienza
l'elettricità
l'energia
l'epidemia
l'equivalente
l'es@@
l'esempio
l'esistenza
l'esperienza
l'essere
l'età
l'Europa
l'evoluzione
l'ha
l'hai
l'hanno
l'HIV
l'ho
L'ho
l'I@@
l'idea
L'idea
l'im@@
l'immaginazione
l'immagine
l'impatto
l'importanza
l'impressione
l'in@@
l'India
L'India
l'industria
l'influenza
l'informazione
l'inglese
l'inizio
l'innovazione
l'inquin@@
l'intelligenza
l'inter@@
l'intera
l'interazione
l'interesse
l'interno
l'intero
l'invenzione
l'istruzione
l'O@@
l'obiettivo
L'obiettivo
l'occhio
l'oceano
l'oceano.
l'odore
l'oggetto
l'op@@
l'opportunità
l'or@@
l'ora
l'origine
l'ultima
L'ultima
l'ultimo
L'ultimo
l'umanità
l'un
l'un@@
l'una
l'unica
L'unica
l'unico
L'unico
l'universo
l'Universo
l'uno
l'uomo
l'uso
l@@
l’@@
L@@
L’@@
la
La
là
la,
là,
la.
là.
la'
la@@
La@@
lä@@
Lab
lab@@
Lab@@
labir@@
Labor
Labor,
Labor.
labor@@
Labor@@
laboratori
laboratori@@
laboratorio
laboratorio,
laboratorio.
lac@@
lach@@
Lach@@
läch@@
Läch@@
Lachen
lächer@@
lacri@@
lad@@
Lad@@
läd@@
laden
Laden
laden,
lag
lag,
lag.
lag@@
Lag@@
lage
Lage
lage,
Lage,
lage.
lagen
Lager
laggi@@
laggiù
laggiù.
lago
lam@@
Lam@@
Lama
lament@@
lamp@@
Lamp@@
lampa@@
lampad@@
lampada
lampadina
lan@@
Lan@@
län@@
Län@@
lanci@@
lancia
lanciare
lanciato
lancio
land
Land
land,
Land,
land.
Land.
land@@
Land@@
landen
länder
Länder
Länder,
Länder.
Länder@@
Ländern
Ländern,
Ländern.
Landes
Landes,
Landes.
landete
Landkarte
ländlichen
lands@@
Landschaft
Landschaften
Landwirt@@
Landwirtschaft
lang
lang,
lang.
lang@@
Lang@@
läng@@
lange
Lange
länge
Länge
lange,
lange.
langen
langen,
langer
länger
länger@@
langes
langfrist@@
langfristig
langfristige
Langl@@
Langlebi@@
Langley
langsam
langsam,
langsam.
langsam@@
langsamer
langwei@@
langweilig
Langzeit@@
Lank@@
lant@@
lanti@@
lap@@
laptop
Laptop
Laptop@@
Laptops
lar@@
Lar@@
Lär@@
larg@@
larga
largh@@
largo
Lärm
Larry
las
Las
las,
las@@
Las@@
läs@@
lascer@@
lasci
lasci@@
Lasci@@
lascia
lasciai
lasciamo
lasciando
lasciano
lasciar
lasciare
lasciate
Lasciate
lasciatemi
Lasciatemi
lasciati
lasciato
lascio
lasciò
lasen
laser
Laser
Laser@@
lass
Lass
lass@@
lasse
lassen
Lassen
lassen,
lassen?
lassen.
lassi@@
lässig@@
lasst
Lasst
lässt
lässt,
lässt.
lassù
lassù.
last@@
Last@@
lat@@
Lat@@
Latein@@
later@@
lati
lato
lato,
lato.
latt@@
Latt@@
latte
lau@@
Lau@@
läu@@
laub@@
lauf
Lauf
lauf@@
Lauf@@
laufe
Laufe
laufen
Laufen
laufen,
laufen.
läuft
läuft,
läuft.
laure@@
laurea
Laurie
laut
Laut
laut@@
Laut@@
lauter
lautet
lautet:
Lautsprech@@
lav@@
Lav@@
lava
lavor@@
Lavor@@
lavora
lavorando
lavorando,
lavorando.
lavorano
lavorare
lavorare,
lavorare.
lavorato
lavoratori
lavorava
lavoravano
lavoravo
lavori
lavori.
lavoriamo
lavoro
Lavoro
lavoro,
lavoro.
Law@@
Lawrence
Lay@@
le
Le
le,
le.
le@@
Le@@
LE@@
lea@@
leader
leader.
leader@@
leadershi@@
leadership
Leak@@
lean@@
leb@@
Leb@@
lebe
leben
Leben
leben,
Leben,
leben?
leben.
Leben.
leben@@
Leben@@
lebende
lebenden
lebendi@@
lebendig
Lebens
Lebens,
Lebens.
lebens@@
Lebens@@
Lebenserwart@@
Lebenserwartung
Lebensmittel
Lebensmittel@@
Lebensqualität
Lebensraum
Lebensst@@
Lebensstil
Lebensunter@@
Lebensunterhalt
Lebew@@
Lebewesen
Lebewesen,
lebt
lebt,
lebt.
lebte
lebte,
lebten
lebten,
lech@@
ledi@@
lediglich
Lee
leer
leere
leeren
leg@@
Leg@@
lega
legale
legame
legami
legata
legate
legati
legato
legen
legen,
legen.
legend@@
legg@@
legge
Legge
legge,
legge.
leggen@@
leggendo
legger@@
leggere
leggere,
leggere.
leggermente
leggi
leggi@@
legn@@
legno
Lego
legt
legt,
legte
legten
leh@@
Leh@@
lehn@@
lehnen
lehr@@
Lehr@@
Lehre
lehren
Lehren
Lehrer
Lehrer,
Lehrerin
Lehrern
lehrt
lei
Lei
lei,
lei.
lei@@
Lei@@
leich@@
Leich@@
leicht
leicht,
leicht.
leichte
leichter
leid
Leid
leid,
leid.
leiden
Leiden
leiden.
leiden@@
Leiden@@
Leidenschaft
Leidenschaft,
Leidenschaft.
leidenschaft@@
leider
Leider
leihen
Lein@@
leist@@
Leist@@
leisten
leisten,
leisten.
leistung
Leistung
leistungs@@
leit@@
Leit@@
leiten
Leiter
Lek@@
Lektion
lem@@
len
Len
len@@
lenk@@
lent@@
lentamente
lentamente,
lente
lenti
Leon@@
Leonardo
ler
ler,
ler:
ler.
ler@@
lerin
lern
lern,
lern@@
Lern@@
lernen
Lernen
lernen,
lernen.
lernt
lernt,
lernte
lernte,
lernten
lerweile
les
les@@
Les@@
lese
lesen
Lesen
lesen,
lesen.
Leser
lesi@@
less@@
let@@
lett@@
letter@@
Letter@@
lettera
letteralmente
letteralmente,
letteratura
lettere
letto
letto,
letto.
lettore
lettori
lettura
letz@@
Letz@@
letzt@@
Letzt@@
letzte
letzten
Letzten
letztendlich
letzter
letztes
Letztes
letztlich
leu@@
Leu@@
leucht@@
Leucht@@
leun@@
Leut@@
Leute
Leute,
Leute.
Leuten
Leuten,
lev@@
Lev@@
Level
Levi@@
Lewis
Lewis,
Lewis@@
Lex@@
ley
ley,
ley.
lezione
lezioni
LG:
LH@@
li
Li
lì
Lì
li,
lì,
li?
lì?
li.
lì.
li'
li@@
Li@@
lì@@
lia
liamo
liar@@
Lib@@
libell@@
Libellen
liber@@
Liber@@
libera
liberale
liberali
liberare
libere
liberi
libero
libero,
libertà
libertà,
libertà.
libr@@
Libr@@
libri
libri,
libri.
libri@@
libro
libro,
libro.
libro@@
lic@@
lich
lich,
lich:
lich?
lich.
lich."
lich@@
Lich@@
liche
liche,
liche.
lichem
lichen
lichen,
lichen.
licher
licher,
licherweise
liches
liches,
liches.
lichkeit
lichkeit,
lichkeit.
lichkeit@@
lichkeiten
lichkeits@@
lichste
lichsten
licht
Licht
licht,
Licht,
Licht.
licht@@
Licht@@
lichten
Lichter
lie@@
lieb
lieb@@
Lieb@@
liebe
Liebe
liebe,
Liebe,
liebe.
Liebe.
lieben
lieben,
lieben.
lieber
Liebes@@
Liebling@@
Lieblings@@
liebt
liebte
lied
Lied
lied,
Lieder
lief
lief@@
liefen
liefer@@
Liefer@@
liefern
liefern.
liefert
lieg@@
liegen
liegen,
liegen.
liegende
liegenden
liegt
liegt,
liegt.
lien
lier@@
liert
ließ
ließ,
ließ.
ließ@@
ließen
ließen,
liest
liev@@
lievo
Lif@@
Life
Lifes@@
lig
lig,
lig.
lig@@
lige
ligen
liger
liges
ligkeit
Lim@@
limit@@
limitare
limitato
limite
limiti
lin
lin@@
Lin@@
Lincol@@
Lincoln
Lind@@
line
line@@
linea
linea.
lineare
linee
ling
ling,
ling.
ling@@
linge
lingu@@
lingua
lingua,
linguaggio
linguaggio,
linguaggio.
lingue
lingue.
lini@@
Lini@@
linie
Linie
linien
Linien
link
Link
link@@
Link@@
linke
linken
Linken
links
Links
links,
Links@@
lino
Linsen
Linu@@
Linus
Linux
lion@@
lionen
lioni
liqui@@
liquido
lis
lis@@
list@@
List@@
lista
lista.
liste
Liste
lit@@
Lit@@
Liter
Liter@@
Literatur
Lithi@@
live
Live
Live-@@
Live@@
livell@@
livelli
livello
Livello
livello,
livello.
Liz@@
lizz@@
LK@@
ll@@
lla
lle
lle,
llen
lo
Lo
lo,
lo?
lo.
lo@@
Lo@@
lö@@
Lö@@
lob@@
loc@@
locale
locale,
locale.
locali
locali,
locali.
Loch
Löch@@
Löcher
lock@@
Lock@@
log@@
Log@@
logarit@@
logi@@
Logi@@
logica
Logik
logo
Logo
lohn@@
lohnt
lok@@
Lok@@
lokal
lokale
lokalen
Lond@@
London
London@@
Londra
Londra,
Londra.
Long
long@@
longev@@
lont@@
lontan@@
lontana
lontani
lontano
lontano,
lontano.
lor@@
Lor@@
loro
Loro
loro,
loro:
loro.
los
Los
los,
los.
los@@
lös@@
Lös@@
lose
losen
lösen
lösen,
lösen.
loser
loses
losigkeit
löst
lösung
Lösung
Lösung,
Lösung.
Lösungen
lott@@
lotta
lou@@
Lou@@
Louis
Lov@@
low
low@@
loy@@
lu@@
Lu@@
lü@@
Luc@@
luce
luce,
luce.
luci
luci@@
Luci@@
lück@@
Lücke
Luft
Luft,
Luft.
Luft@@
lui
Lui
lui,
lui.
lumin@@
lun@@
luna
Luna
luna,
luna.
lung
lung@@
Lung@@
lunga
lunga,
Lunge
lungen
lungen,
Lungen@@
lungh@@
lunghe
lunghezza
lunghi
lungo
lungo,
lungo.
luog@@
luoghi
luoghi.
luogo
luogo,
luogo.
lus@@
lust
lust@@
Lust@@
lustig
lustig@@
Lut@@
Luther
Lux@@
Ly@@
Lyn@@
Lyndon
Lynn
m
M
m,
m:
M:
m.
M.
m@@
M@@
ma
Ma
MA
ma,
Ma,
ma:
ma?
ma.
ma...
ma@@
Ma@@
MA@@
Mac
mac@@
Mac@@
macch@@
macchin@@
macchina
macchina,
macchina.
macchine
macchine,
macchine.
MacCread@@
mach
Mach
mach@@
Mach@@
mäch@@
mache
mache,
mache.
machen
Machen
machen,
machen?
machen?"
machen.
machen."
machst
macht
Macht
macht,
Macht,
macht.
Macht.
macht@@
Macht@@
machte
machte,
machte.
machten
machten,
machten.
mächtig
mächtige
mächtigen
mad@@
Mad@@
Mäd@@
Madag@@
Mädch@@
Mädchen
Mädchen,
Mädchen.
madr@@
madre
madre,
madre.
madri
maest@@
mag
mag,
mag.
mag@@
Mag@@
magari
Magari
Magaz@@
Magazin
Magazin@@
Magazine
magazz@@
mage
maggi@@
Maggi@@
maggior
maggior@@
maggioranza
maggiore
maggiore.
maggiori
maggiormente
magi@@
Magi@@
magia
magico
Magie
magischen
magli@@
magn@@
Magn@@
magnet@@
Magnet@@
magnetico
magni@@
magnifico
Mah@@
mäh@@
Mahatma
Mahl@@
mai
Mai
mai,
mai.
mai@@
Mai@@
maiale
maiali
mail
mail@@
mais
Mais
Mais@@
Maitre@@
mak@@
Mak@@
mal
Mal
mal,
Mal,
mal.
Mal.
mal@@
Mal@@
malap@@
malapena
Malari@@
malaria
Malaria
malaria,
malaria.
malatti@@
malattia
malattia,
malattia.
malattie
malattie,
malattie.
Maldi@@
male
Male
male,
male.
maled@@
Maledi@@
malen
malgrado
mall@@
mals
mals,
Malt@@
mam@@
Mam@@
Mama
Mama,
mamm@@
mamma
mamma,
mammifer@@
mammiferi
man
Man
man,
man:
man.
man@@
Man@@
män@@
Män@@
manag@@
Manag@@
Management
manc@@
manca
mancano
mancanza
manche
Manche
manchen
manchmal
Manchmal
manciata
mand@@
mandano
mandare
mandato
Mandel@@
Mandela
Mang@@
Mangel
mangel@@
mangi@@
mangia
mangiamo
mangiano
mangiare
mangiare,
mangiare.
mangiato
Manhatt@@
Manhattan
Manhattan,
mani
mani,
mani.
mani@@
Mani@@
mania
maniera
manifest@@
Manifest@@
manipol@@
manipuli@@
mann
Mann
mann,
Mann,
Mann:
Mann.
mann@@
Mann@@
männ@@
Männ@@
Männchen
männer
Männer
Männer,
Männern
Mannes
mano
mano,
mano.
manov@@
mante
manten@@
mantenendo
mantenere
manti@@
mantiene
manu@@
Manu@@
manuale
manuten@@
manutenzione
Map@@
mapp@@
mappa
mappa,
mappa.
mappare
mappe
mar@@
Mar@@
mär@@
Mär@@
marchi
marchio
marci@@
marcia
marciapi@@
mare
mare,
mare.
marg@@
Margar@@
Margaret
margin@@
margini
mari@@
Mari@@
Maria
Marin@@
marina
marine
Marine
marini
marito
Mark
mark@@
Mark@@
Marke
market@@
Market@@
marketing
Marketing
markt
Markt
markt,
Markt,
Markt.
markt@@
Markt@@
märkte
Märkte
Märkten
marron@@
Mars
Mars.
Mars@@
marsch@@
Marshall
Marshmall@@
mart
Mart
mart@@
Mart@@
Marte
Marte,
Marte.
Martin
martph@@
Mary
mas
mas@@
Mas@@
masch@@
Masch@@
mascher@@
maschi
maschi@@
maschin@@
Maschin@@
maschine
Maschine
Maschine,
maschine.
Maschine.
maschinen
Maschinen
Maschinen,
maschio
Maß
Mass@@
maß@@
Maß@@
mäß@@
massa
massa,
massa.
Massach@@
Massachus@@
Massachusett@@
masse
Masse
Maße
masse,
massen
maßen
Massen@@
massic@@
mäßig
mäßigen
massim@@
massima
massimo
massiv@@
massive
massiven
Maßnahmen
Maßst@@
Maßstä@@
Maßstab
mast@@
Mast@@
master
Master
mat
mat@@
Mat@@
mata
mate
matem@@
matemat@@
matematica
matematica,
matematica.
matematici
matematico
materi@@
Materi@@
materia
materia,
material
Material
Material,
Material@@
materiale
materiale,
materiali
materiali,
materiali.
Materiali@@
Materialien
Materialien,
materie
Materie
Materie,
materiellen
matern@@
Math@@
mathemat@@
Mathemat@@
Mathemati@@
Mathematik
Mathematik.
Mathematiker
mathematische
mathematischen
mati@@
mato
matri@@
Matri@@
matrimon@@
matrimoni
matrimonio
matt@@
Matt@@
mattina
mattina,
mattina.
mattino
mattino,
mau@@
Mau@@
Mauer
Maus
Maus@@
Mäus@@
Mäuse
max@@
Max@@
maxim@@
May@@
mazione
mazz@@
Mc@@
McC@@
McDon@@
McDonal@@
McDonald'@@
McDonald's
McLu@@
me
Me
me,
me.
me@@
Me@@
ME@@
mec@@
meccan@@
meccanica
meccanismi
meccanismo
mech@@
Mech@@
mechan@@
Mechan@@
Mechanismus
med@@
meda@@
medi@@
Medi@@
media
Media
media,
media.
medica
medici
medicin@@
medicina
medicina.
medicine
medico
medico,
medico.
medie
Medien
Medien,
Medien@@
Medik@@
Medikament
Medikament@@
Medikamente
medio
Medio
medit@@
Medium
Medizin
Medizin.
medizin@@
Medizin@@
medizinische
medizinischen
Meer
Meer.
Meer@@
Meere
Meeres@@
Meeresboden
Meeress@@
Meeresspieg@@
Meeresspiegel
Meerjung@@
meet@@
Meet@@
meg@@
Meg@@
megli@@
meglio
meglio,
meglio.
meh@@
mehr
Mehr
mehr,
mehr.
mehr@@
Mehr@@
mehrere
mehreren
Mehrheit
mei@@
Mei@@
Meil@@
Meile
Meilen
mein
Mein
mein@@
Mein@@
meine
Meine
meine,
meine.
meinem
meinen
meinen,
meiner
Meiner
meines
meint
meinte
meinte,
Meinung
Meinung,
Meinungen
meist
meist@@
Meist@@
meiste
meisten
meistens
meister
meister@@
Meister@@
meisters
mel@@
Mel@@
mela
mele
Mell@@
melzen
mem@@
Mem@@
membr@@
membri
membro
Meme
memi
memor@@
memori@@
memoria
memoria,
men
men,
men.
men@@
Men@@
mene
menge
Menge
Menge,
mengen
Mengen
meno
meno,
meno.
Mensch
Mensch,
mensch@@
Mensch@@
Menschen
Menschen,
Menschen.
Menschen@@
Menschheit
menschlich
menschliche
menschlichen
menschlicher
menschliches
Menschlichkeit
ment
ment@@
Ment@@
mentale
mentale.
mentali
mentalità
mente
mente,
mente.
menti
menti,
menti.
mento
mento,
mento.
mentre
Mentre
menzion@@
mer
mer,
mer.
mer@@
Mer@@
meravigli@@
meraviglia
meraviglie
meraviglios@@
meravigliosa
meravigliosa.
meravigliose
meravigliosi
meraviglioso
meraviglioso,
meraviglioso.
merc@@
mercati
mercati.
mercato
mercato,
mercato.
merci
meridi@@
merit@@
meritano
merito
merk@@
Merk@@
merken,
merksam@@
merkwür@@
mern
mes@@
Mes@@
mescol@@
mese
mese,
mese.
mesi
mesi,
mesi.
mess@@
Mess@@
messa
messaggi
messaggio
messe
messen
messen,
messen.
messi
Messico
Messico,
Messico.
messo
Messungen
mest@@
met@@
Met@@
metà
Metà
metabol@@
metafor@@
metafora
metall@@
Metall@@
metallo
metap@@
Metap@@
Metapher
Metapher@@
Metaphern
metaphor@@
mete@@
meteor@@
meter
Meter
Metern
Meth@@
Methan
metho@@
Metho@@
Methode
Methode,
Methoden
Methoden,
meto@@
metodi
metodo
metri
metri,
metri.
metri@@
metro
metropolit@@
metropolitana
mett@@
Mett@@
metta
mette
mettendo
metter@@
metterci
mettere
metterla
metterli
metterlo
mettermi
metterò
mettersi
mettete
metti
metti@@
mettiamo
metto
mettono
Mex@@
Mexik@@
Mexiko
mezz'@@
mezz@@
mezza
mezzi
mezzo
mezzo,
mezzo.
mher@@
mherzi@@
mi
Mi
mi,
MI,
mi:
mi.
mi@@
Mi@@
MI@@
mia
Mia
mia,
mia.
miamo
mic@@
Mic@@
micelio
mich
Mich
mich,
mich:
mich.
mich@@
Mich@@
Micha@@
Michael
Michel@@
Michig@@
micro-@@
micro@@
microbi
microfon@@
micros@@
Micros@@
microscopi@@
microscopio
Microsoft
Microsoft,
Mid@@
midoll@@
midollo
mie
miei
mier@@
mifer@@
Mig@@
migli@@
miglia
miglia,
miglia.
migliaia
migliaio
miglior
miglior@@
miglioramento
migliorare
migliore
migliore,
migliore.
migliori
migliori,
migliori.
migr@@
migra@@
Migrän@@
mik@@
Mik@@
Mike
Mikro-@@
mikro@@
Mikro@@
Mikroskop
mikroskop@@
mil@@
Mil@@
mila
Milch
Milch@@
mili@@
miliar@@
Miliar@@
miliardi
miliardi.
miliardo
milion@@
milione
milioni
milioni,
milioni.
milit@@
militä@@
Militär
Militär@@
militare
militari
mill@@
Mill@@
mille
mille.
millenni@@
Millenni@@
milli@@
Milli@@
Milliar@@
Milliarde
Milliarden
Milliarden.
Million
Million@@
Millionen
Millionen,
Millionen.
Milo
min
min@@
Min@@
minac@@
minacci@@
minaccia
Minder@@
mindestens
mine
miner@@
Miner@@
minerali
mini@@
Mini@@
miniere
minim@@
minima
minimo
minist@@
Minist@@
minister
ministeri@@
ministerium
ministr@@
ministro
Ministro
Minnes@@
minor@@
minore
minster
minü@@
minus
minus@@
minuscol@@
minut@@
Minut@@
Minute
Minute.
Minuten
Minuten,
Minuten.
minuti
minuti,
minuti.
minuto
minuto,
minuto.
mio
Mio
mio,
mio.
Mio.
mir
Mir
mir,
mir:
mir.
mir@@
mira@@
miracol@@
miracolo
mis@@
Mis@@
misch@@
Misch@@
mische
mischen
mischi@@
Mischung
mise
miser@@
misero
misi
miss@@
Miss@@
Missi@@
Mission
mission@@
Mission@@
missione
missione,
missione.
Mississi@@
misst
mist@@
Mister
mister@@
misteri
misteri@@
mistero
misur@@
misura
misura@@
misurare
misurato
misure
mit
Mit
MIT
mit,
MIT,
mit.
MIT.
mit@@
Mit@@
Mitarbei@@
Mitarbeiter
mität
miteinander
mitfühl@@
Mitge@@
Mitgefühl
Mitgefühl,
Mitgefühl.
Mitgefühl@@
Mitgefühls
mitgli@@
Mitgli@@
Mitglied
Mitglieder
mithilfe
miti
mitnehmen
mito
mitt@@
Mitt@@
Mittag@@
Mittagessen
Mitte
Mitte.
mittel
Mittel
Mittel-@@
mittel,
Mittel,
mittel.
mittel@@
Mittel@@
mitteln
mitteln,
Mittelpunkt
mittels
mittelt
mitten
mittl@@
Mittl@@
mittleren
Mittleren
mittlerweile
mitzu@@
mm
mm,
mm@@
mme
mmen
mmen@@
mmer
mmer@@
mmo
mo
mo,
mo:
mo?
mo.
mo@@
Mo@@
mö@@
Mö@@
Mob@@
Möbel@@
mobil@@
Mobil@@
mobile
Mobile
mobili
mobili.
mobili@@
Mobiltelef@@
möcht@@
mochte
möchte
möchte,
möchte.
mochten
möchten
möchten,
möchten.
mod@@
Mod@@
moda
moda,
moda.
modalità
Mode
Mode@@
modell
Modell
modell,
Modell,
Modell.
modell@@
Modell@@
modellare
modelle
Modelle
modelli
modelli,
modello
modello,
modello.
moder@@
Moder@@
modern@@
moderna
moderna.
moderne
modernen
moderner
moderni
moderno
modi
modi.
modi@@
modific@@
modificare
modo
modo,
modo.
modo@@
modul@@
mögen
mögen,
mögen.
mogli@@
mögli@@
möglich
möglich,
möglich.
möglich@@
Möglich@@
mögliche
Mögliche
möglichen
möglicherweise
möglichkeit
Möglichkeit
Möglichkeit,
möglichkeiten
Möglichkeiten
Möglichkeiten,
Möglichkeiten.
möglichst
moglie
moglie,
moglie.
Moh@@
mol@@
Mol@@
Mola
molec@@
molecol@@
molecola
molecolare
molecolari
molecole
molek@@
Molek@@
Molekü@@
Molekül
Molekül@@
molekular@@
molekulare
molekularen
Moleküle
moll@@
molt@@
molta
molte
Molte
molte,
molte.
molte@@
molteplic@@
molteplici
molti
Molti
molti,
molti@@
moltiplic@@
moltissime
moltissimi
moltissimo
molto
Molto
molto,
molto.
mom@@
Mom@@
Moment
Moment,
Moment.
moment@@
Moment@@
momentan
Momente
momenti
momento
momento,
momento.
mon@@
Mon@@
Mön@@
Monat
Monat.
monat@@
Monat@@
Monate
Monate,
Monaten
Monaten,
mond
Mond
Mond@@
mondi
mondi@@
Mondi@@
mondiale
Mondiale
mondiale,
Mondiale,
mondiale.
mondiali
mondo
Mondo
mondo,
mondo:
mondo?
mondo.
mondo@@
mone
moni@@
monit@@
monitor@@
monitorare
monson@@
monsone
mont@@
Mont@@
montagn@@
montagna
montagna.
montagne
Montana
montare
Monte
Monter@@
Monterey
Monterey,
Moor@@
Moore
Moore,
mor@@
Mor@@
Mör@@
Moral
moral@@
Moral@@
morale
morale,
morale.
morali
moralisch
moralische
moralischen
moralità
morbi@@
mord
mord@@
more
morendo
morgen
Morgen
morgens
morì
mori@@
morir@@
morire
morire,
morire.
mort@@
morta
morta.
mortalità
morte
morte,
morte.
morti
morti,
morti.
morto
morto,
morto.
mos@@
Mos@@
Mosk@@
Moskit@@
Moskiton@@
Moskitonetz@@
Moskitonetze
Moskitos
mossa
mostr@@
mostra
mostra@@
mostrando
mostrano
mostrar@@
mostrare
mostrarvi
mostrato
mostrato,
mostrerò
mostri
mostri@@
mostro
mostrò
mot@@
Mot@@
moti@@
motiv@@
Motiv@@
Motivation
motivazione
motivi
motivi@@
motivo
motivo,
moto
motor
Motor
motor@@
Motor@@
motore
motore.
motori
Mount
Mount@@
Mountain@@
mouse
movi@@
movimenti
movimento
movimento,
movimento.
Moz@@
Mozart
mp@@
mpi@@
Mr.
Mr@@
MR@@
ms
MS
MS:
mt
mu@@
Mu@@
mü@@
muc@@
mucc@@
mucche
mucchio
müh@@
Müh@@
mul@@
Mul@@
Müll
Müll@@
mult@@
multi-@@
multi@@
Multi@@
multic@@
multin@@
Mum@@
Mumba@@
mun@@
Mün@@
Mund
mung
muoi@@
muoiono
muore
muov@@
muove
muovendo
muover@@
muovere
muoversi
muoversi.
muovono
mur@@
Mur@@
muri
muro
muro,
muro.
Murray
mus
mus,
mus.
mus@@
Mus@@
müs@@
muscol@@
muscoli
muscolo
muse@@
Muse@@
museo
Museo
Museum
musi@@
Musi@@
music@@
musica
musica,
musica.
musicale
musicale.
musicista
musicisti
Musik
Musik,
Musik.
musik@@
Musik@@
musikal@@
Musiker
Musikstück
Muskel@@
Muskeln
musli@@
Musli@@
muslimischen
muss
muss,
muss.
müssen
müssen,
müssen.
musst
müsst
musste
müsste
musste,
musste.
mussten
müssten
mussten,
mussten.
Must@@
muster
Muster
Muster,
Muster.
Muster@@
Mustern
musul@@
musulmani
mut
Mut
mut@@
Mut@@
Müt@@
mutig@@
mutil@@
Mutter
Mütter
Mutter,
Mutter.
Mutter@@
mutz@@
My
my@@
My@@
Myhrvol@@
mysteri@@
Myth@@
Myzel
n
N
n-@@
n,
n:
n?
n?"
n.
N.
n."
n'@@
n'è
n@@
N@@
ñ@@
na
Na
Na,
na:
na@@
Na@@
nä@@
nach
Nach
nach,
nach.
nach@@
Nach@@
näch@@
Näch@@
Nachbar@@
Nachbarn
Nachbarschaft
nachdem
Nachdem
nachdenken
nachdenken,
nachdenken.
nachdenkt,
Nachfrage
nachgedacht
nachgedacht,
nachhal@@
Nachhal@@
nachhaltig
nachhaltige
Nachhaltigkeit
Nachmitt@@
Nachmittag
Nachri@@
Nachricht
Nachricht,
Nachricht@@
nachrichten
Nachrichten
Nachrichten@@
nächst@@
nächste
nächsten
nächstes
Nacht
Nacht,
Nacht.
nacht@@
Nacht@@
nachts
nachzu@@
nachzudenken
nachzudenken,
nachzudenken.
nack@@
nacque
Nad@@
Nadel
Nag@@
nah
nah@@
Nah@@
näh@@
Näh@@
nahe
Nähe
nahe@@
nahen
näher
näher@@
nahezu
nahm
nahm,
nahm.
nahm@@
nahme
nahme,
nahme.
nahmen
nahmen,
nahmen.
Nahr@@
nähr@@
Nähr@@
Nährstoffe
Nahrung
Nahrungs@@
Nahrungsmittel@@
nai
Nai@@
naio
Nairo@@
Nairobi,
naja,
Naja,
nam
nam@@
Nam@@
näm@@
Näm@@
Name
Namen
Namen.
namens
Nami@@
Namibia
nämlich
nämlich,
nan@@
Nan@@
Nanc@@
Nancy
nann@@
nannte
nannten
nanot@@
Nanot@@
nanotecnologi@@
Nap@@
nar@@
Nar@@
narr@@
Narr@@
narrativa
Narratore:
nas@@
Nas@@
NAS@@
NASA
NASA,
NASA.
nasce
nascere
nascit@@
nascita
nascon@@
nascono
nascost@@
nascosta
nascosti
nascosto
Nase
Nash@@
naso
nastro
nat@@
Nat@@
nata
Natale
Natale,
Natale.
Natalie
Natasha
Nathan
nati
Nation
Nation@@
National
National@@
nationale
nationalen
Nationalpar@@
Nationen
nato
Natur
Natur,
Natur.
natur@@
Natur@@
natür@@
Natür@@
natura
Natura
natura,
natura.
naturale
naturale,
naturale.
naturali
naturali.
naturalmente
Naturalmente
naturalmente,
Naturalmente,
naturalmente.
natürlich
Natürlich
natürlich,
Natürlich,
natürlich.
natürliche
natürlichen
natürlicher
natürliches
nav@@
Nav@@
nave
navi
Navi@@
navic@@
navig@@
navigare
nazion@@
nazionale
Nazionale
nazionale,
nazionale.
nazionali
nazione
nazione,
nazione.
nazioni
Nazioni
nazioni,
nazioni.
nd
ND@@
nde
nden
ne
Ne
né
nè
ne,
ne.
ne@@
Ne@@
neanche
neb@@
Neb@@
neben
neben@@
Neben@@
nebenbei
nebenbei,
nebeneinander
Nebenwirk@@
nec@@
neces@@
necess@@
necessari
necessaria
necessariamente
necessarie
necessario
necessità
neg@@
Neg@@
negative
negativen
negativo
negli
Negli
nego@@
negozi
negozi@@
negozio
Negro@@
Negroponte
neh@@
nehm@@
nehme
nehmen
Nehmen
nehmen,
nehmen?
nehmen.
nehmen@@
nehmer
nehmer@@
nei
Nei
nei@@
neig@@
Neig@@
neigen
Neigung
Neil
nein,
Nein,
nein.
Nein.
nein@@
Nein@@
nel
Nel
nell'
nell'@@
Nell'@@
nell'acqua
nell'Africa
nell'angolo
nell'arco
nell'area
nell'atmosfera
nell'atmosfera.
nell'evoluzione
nell'industria
nell'ultimo
nell'universo
nell'universo.
nell@@
nell’@@
Nell@@
nella
Nella
nelle
Nelle
nello
Nello
Nelson
nem@@
nemici
nemico
nemmeno
nen
nen,
nen.
nen@@
nenn@@
Nenn@@
nenne
nenne,
nenne.
nennen
nennen,
nennen.
nennt
nennt,
nennt.
neo-@@
Neocort@@
neon@@
neppure
ner
ner,
ner.
ner@@
Ner@@
nera
neri
nern
nero
nero,
nero.
nerv@@
Nerv@@
Nervenz@@
Nervenzellen
nervo@@
nervös
nervoso
nes
ness
ness@@
Ness@@
nessun
Nessun
nessuna
Nessuna
nessuno
Nessuno
nessuno,
nessuno.
Nest
Nest@@
net
net.
net@@
Net@@
nete
nett
nett@@
nette
netten
networ@@
Networ@@
network
network.
netz
Netz
netz@@
Netz@@
Netze
Netzwer@@
Netzwerk
Netzwerk@@
Netzwerke
Netzwerken
neu
neu.
neu@@
Neu@@
neue
Neue
neue,
neuen
neuer
neues
Neues
neuesten
Neugi@@
Neugier
neugier@@
neugierig
Neuig@@
Neuigkeiten
neulich
Neum@@
Neumann
neun
neun@@
neur@@
Neur@@
neurale
Neuro@@
neuron@@
Neuronen
neuroni
neuroni.
neurosci@@
neuroscienzi@@
Neuseel@@
neut@@
Neut@@
neutr@@
nev@@
Nev@@
neve
neve.
New
new@@
New@@
News
Newton
ney
NG@@
ni
ni,
ni.
ni@@
Ni@@
NI@@
niamo
nic@@
Nich@@
Nichol@@
Nicholas
nicht
Nicht
nicht-@@
Nicht-@@
Nicht-Null@@
Nicht-Nullsumm@@
Nicht-Nullsummen-@@
nicht,
Nicht,
nicht:
nicht?
nicht.
nicht."
nicht@@
Nicht@@
nichts
Nichts
nichts,
nichts.
Nick
Nicol@@
Nicole:
nido
nie
nie,
nie.
nied@@
nieder@@
Nieder@@
niedri@@
niedrig
niedrig@@
niedrigen
niedriger
niem@@
Niem@@
niemals
nieman@@
niemand
Niemand
niemandem
niemanden
nient@@
niente
Niente
niente,
niente.
Nig@@
nigeri@@
Nigeri@@
Nigeria
Nigeria,
Nigeria.
Nik@@
Nike
nimm@@
nimmt
nimmt,
nimmt.
nipo@@
nipoti
nir@@
Nir@@
nirgend@@
nis
nis,
nis.
nis@@
niss@@
nisse
nisse,
nisse.
nissen
nit@@
nitten
Nive@@
Niveau
Nix@@
NK:
NM:
no
No
no-@@
no,
No,
no?
no.
No.
no@@
No@@
NO@@
nö@@
Nob@@
Nobel
Nobel@@
Nobelprei@@
nocci@@
noch
Noch
noch,
noch?
noch.
noch@@
nochmal
nochmal,
nochmals
nodo
noi
Noi
noi,
noi?
noi.
noi@@
nol@@
Nollywoo@@
nom@@
noma@@
nome
nome,
nome.
nomi
nomin@@
nomm@@
nommen
non
Non
non-@@
non@@
Non@@
nonn@@
nonna
nonna,
nonno
nonostante
Nonostante
nor
nor@@
Nor@@
nör@@
nord
Nord
nord,
Nord,
nord.
Nord.
nord@@
Nord@@
Nordamerik@@
Nordamerika
Norden
Nordpol
Nordpol@@
norm@@
normal
normal.
normal@@
Normal@@
normale
normale,
normale.
normalen
normaler
normalerweise
Normalerweise
normales
normali
normalmente
Norman
norme
Nort@@
North
Norve@@
nos@@
nost@@
nostal@@
nosti@@
nostr@@
nostra
nostra,
nostra.
nostre
nostri
nostro
not@@
Not@@
nota
notare
notate
Notate
notato
note
Noten
noterete
notevole
notevole.
Notfall@@
noti@@
Noti@@
nötig
notizi@@
notizia
notizia.
notizie
notizie,
noto
nott@@
notte
notte,
notte.
nottur@@
notwen@@
Notwen@@
notwendi@@
notwendig
notwendig,
notwendigen
Notwendigkeit
nov@@
Nov@@
nove
November
novità
Novograt@@
nozione
ns
nu@@
Nu@@
nucle@@
nucleare
nucleare,
nucleare.
nucleari
nucleari.
Nug@@
nukle@@
Nuklear@@
nuklearen
Null
null@@
Null@@
nulla
nulla,
nulla.
num@@
Num@@
numer@@
numeri
numeri,
numeri.
numero
Numero
numero,
numerosi
Nummer
nun
Nun
nun,
Nun,
nun@@
nung
nungs@@
nuo@@
nuot@@
nuotare
nuov@@
Nuov@@
nuova
Nuova
nuova,
nuova.
nuovamente
nuove
nuove.
nuovi
nuovo
nuovo,
nuovo.
nur
Nur
nur,
nur:
nur?
nur@@
nut@@
nüt@@
nutri@@
nutrienti
nutrire
nutrit@@
nutrizione
nutrono
nutz@@
Nutz@@
nütz@@
nutzen
Nutzen
nutzen,
nutzen.
nützlich
nutzt
nutzt,
nutzten
Nutzung
nuvol@@
nuvola
nuvole
Ny@@
o
o”
o♫
O
ó
ò
o--
o-@@
O-@@
o,
O,
ò,
o,"
o,@@
o;
o:
O:
ò:
o:@@
o!
o!"
o?
o?"
o.
O.
ò.
o...
o."
o.@@
O.@@
o'
o'.
O'@@
o"
o",
o".
o]
o@@
O@@
ó@@
ò@@
ö@@
Ö@@
ø@@
ob
Ob
ob,
ob@@
Ob@@
Obam@@
Obama
obb@@
obbi@@
obbli@@
obblig@@
obby
Obdach@@
oben
oben,
oben.
ober@@
Ober@@
obere
oberen
Oberfläch@@
Oberfläche
Oberfläche.
Oberflächen
obes@@
obesità
obi@@
obietti@@
obiettiv@@
obiettivi
obiettivo
obiettivo,
obiettivo.
objek@@
Objek@@
Objekt
Objekt,
Objekte
Objekte,
Objekten
obre
obsol@@
obwohl
Obwohl
oc@@
occ@@
occa@@
occasione
occhi
occhi,
occhi.
occhi@@
occhiali
occhio
occhio,
occi@@
Occi@@
occident@@
Occident@@
occidentale
occidentale,
occidentale.
occol@@
occorre
occu@@
occup@@
occupa
occupa@@
occupano
occupar@@
occuparsi
occupazione
occupo
oce
oce@@
Oce@@
ocean@@
oceani
oceani,
oceani.
oceano
Oceano
oceano,
oceano.
och
och,
öch@@
oche
oci
oci@@
ock
ock,
ock.
ock@@
öck@@
öcke
ocken
oco
ococ@@
ocort@@
ocra@@
ocrat@@
ocul@@
od@@
oder
Oder
oder,
Oder,
oder?
Oder?
oder@@
odi@@
odia
odiern@@
odio
odor@@
odore
œ@@
Oel
Oel@@
of
of@@
off
off@@
Off@@
öff@@
Öff@@
offen
offen@@
Offen@@
offenbar
offenbar@@
offene
offenen
offensicht@@
offensichtlich
Offensichtlich
offensichtlich,
offensichtlich.
offensichtliche
öffent@@
Öffent@@
öffentlich
öffentlich@@
öffentliche
öffentlichen
öffentlicher
Öffentlichkeit
offer@@
offerta
offerto
offizi@@
öffn@@
öffnen
öffnen,
öffnen.
öffnet
öffnete
offre
offrendo
offri@@
offrire
offrono
ofis@@
oft
Oft
oft,
oft.
oft@@
öfter
oftmals
og
og@@
Og@@
ogen
ogen,
ogen.
ogen@@
ogg@@
oggetti
oggetti,
oggetti.
oggetto
oggetto,
oggetto.
oggi
Oggi
oggi,
Oggi,
oggi?
oggi.
oggi@@
ogh@@
ogi@@
ogia
ogie
ogli
ogli@@
ogn@@
Ogn@@
ogni
Ogni
ognuna
ognuno
Ognuno
ogra@@
ograf@@
ografi@@
ografia
ografia.
ografie
ografische
ogram@@
ogramm
ogramm@@
ogramma
ograph@@
ographi@@
ographic
ographic@@
ographie
oh
Oh
oh,
Oh,
oh.
Oh.
oh@@
Oh@@
öh@@
Ohi@@
ohle
ohn
ohn,
ohn@@
öhn@@
ohne
Ohne
ohnen
Ohr
Ohr@@
öhr@@
Ohren
oi
oi@@
oia
oie
oio
ois
ok
OK
ok,
Ok,
OK,
ok?
Ok?
OK?
ok.
Ok.
OK.
ok@@
Ok@@
OK@@
ök@@
Ök@@
oka@@
Oka@@
okapit@@
okay,
Okay,
okay?
Okay?
okay.
Okay.
okay@@
Ökologie
ökologischen
ökon@@
Ökon@@
ökonom@@
Ökonomen
ökonomische
ökonomischen
Ökosystem
Ökosystem@@
Ökosysteme
Okt@@
Okto@@
Oktober
Oktop@@
okus@@
ol
öl
Öl
ol,
Öl,
ol.
Öl.
ol@@
Ol@@
OL@@
öl@@
Öl@@
ola
ola,
ola.
olabi@@
oland@@
olare
ole
ole,
ole.
ole@@
oli
oli,
oli.
oli@@
Oli@@
Olimpi@@
oline
olio
olit@@
Oliver
ölker@@
oll
oll@@
olla
olle
ölle
olleg@@
ollen
oller
olli@@
ollo
olly
ollywoo@@
olo
olo,
olo.
olog@@
ologe
ologe,
ologen
ologen,
ologi
ologi@@
ologia
ologia,
ologia.
ologica
ologiche
ologico
ologie
ologie,
ologie.
ologisch
ologische
ologischen
ologischer
ologo
ology
oltre
Oltre
oltre,
oltre.
oltre@@
Olym@@
Olympischen
om
om-@@
om,
om.
om@@
oma
oma,
oma.
omaggi@@
omat@@
omateri@@
omatopo@@
omb@@
ombra
ome
ome.
omen
omen,
omen@@
omeno
omet@@
ometri@@
omi
omi,
omi.
omi@@
omia
omia,
omici@@
omie
omila
omin@@
omini@@
omm@@
omo
omo@@
omos@@
omp@@
on
on-@@
on,
on:
on.
on@@
On@@
ON@@
ön@@
ona
onach
onale
onale,
onale.
oncin@@
ond@@
onda
onda@@
ondata
ondazione
onde
onder@@
ondere
ondon@@
one
One
one,
one.
onen
onen,
onen.
onest@@
ong
ONG
ong@@
ongo
oni
oni,
oni.
oni@@
onia
onia,
oniamo
oniche
onie
onik
onizz@@
Onk@@
Onkel
onlin@@
Onlin@@
online
Online-@@
online,
online.
onn@@
onna
onne
onnen
onnen,
onnen.
onni@@
ono
ono,
ono:
ono?
ono.
onor@@
onore
ons
ons@@
ont@@
önt@@
ontan@@
onto
ONU
ony@@
oo@@
ood
ood@@
ooh,
ook
ool
ooper@@
op
op.
op@@
Op@@
opar@@
ope
opedi@@
open
Open
open-@@
Open-@@
Open@@
oper@@
Oper@@
opera
opera,
opera.
operai
operare
Operation
Operationen
operativo
operazione
operazioni
opere
operni@@
opernik@@
öpf@@
Opfer
opfer@@
oph@@
opher
ophi@@
opi@@
opia
oping
opini@@
opinione
opinioni
opo@@
opol@@
opp@@
oppon@@
opport@@
opportun@@
opportunità
opportunità.
opposto
oppure
Oppure
Oppure,
Opr@@
Oprah
opt@@
opti@@
Opti@@
optimi@@
Optimis@@
Optimismus
optimist@@
optimistisch
optische
opzione
opzioni.
or
ör
or,
or.
or@@
Or@@
ör@@
ora
Ora
ora,
Ora,
ora?
ora.
Oran@@
orang@@
oratori
orb@@
Orbit
orbit@@
orbita
orchest@@
Orchest@@
Orchester
orchestra
ord
ord@@
Ord@@
ordentlich
ordi@@
ordin@@
ordine
ordine,
ordine.
ordini
ordn@@
Ordn@@
ordnung
Ordnung
Ordnung,
Ordnung.
ore
ore,
ore?
ore.
ore@@
orecchi@@
orecchie
orecchio
oren
oren,
oren.
oret@@
orfan@@
org@@
organ@@
Organ@@
Organe
organi
organi@@
organico
organis@@
Organis@@
Organisation
Organisation,
Organisationen
Organisationen,
organisier@@
organisieren
organisieren,
organisieren.
organisiert
organisierten
Organismen
Organismen,
organismi
organismo
Organismus
organizz@@
organizzare
organizzata
organizzato
organizzazione
organizzazione,
organizzazioni
organo
orgas@@
Orgas@@
orgasmo
Orgasmus
orgogli@@
orgoglio
orgoglioso
ori
ori,
ori?
ori.
ori@@
Ori@@
oria
oria,
oria.
oriamo
orie
orie,
orie.
orient@@
Orient@@
orientale
orientale,
orientale.
Oriente
orientiert
orig@@
Orig@@
origami
Origami
origin@@
Origin@@
originale
originale.
origine
origini
orio
oris
orit@@
orizz@@
orizzon@@
orizzont@@
ormai
orn
orn@@
orni@@
orniamo
orno
oro
oro,
oro.
orologi@@
orologio
orr@@
orri@@
orribile
orribile.
orribili
orsi
orso
ort
Ort
Ort,
Ort.
ort@@
ört@@
orta
Orte
Orte,
Orten
Orten,
Orten.
ortex
örtlichen
orto
orto,
orto.
ory
orz@@
os
Os
ös
os-@@
os,
ös,
os.
ös.
os@@
Os@@
ös@@
osa
osa,
osa.
osamente
osau@@
osc@@
osci@@
oscill@@
oscopi@@
oscu@@
oscur@@
oscura
oscura.
ose
öse
ose,
ose.
osen
ösen
öser
osev@@
osexu@@
osfer@@
osfera
osh@@
osi
osi,
osi.
osi@@
osint@@
osità
oso
oso,
oso.
osoph@@
osp@@
osped@@
ospedale
ospedale,
ospedale.
ospedali
ospettiv@@
osphä@@
osphäre
ospit@@
oss
oss@@
öß@@
ossa
ossa,
osse
osse@@
ossen
ossen,
ossen.
osser@@
osserv@@
Osserv@@
osserva
osservando
osservare
osservate
osservato
osservazione
osservazioni
osserviamo
ossession@@
ossessionato
ossi
ossi,
ossi.
ossi@@
ossia
ossido
ossigen@@
ossigeno
ossigeno,
ossigeno.
osso
osso,
ost
ost@@
Ost@@
öst@@
ostac@@
ostacoli
ostacolo
ostante
Osten
Osten,
Osteurop@@
ostil@@
osto,
ot
ot,
ot.
ot@@
Ot@@
öt@@
ota
ota,
ota.
otball@@
ote
ote.
oten
oten,
oten.
oth@@
other@@
oti
oti@@
oto
oto,
oto.
oton@@
ots
ott@@
Ott@@
otta
otte
otten@@
ottenendo
ottenere
ottenete
ottengono
otteniamo
ottenuto
otter@@
otteri@@
otti
otti.
otti@@
Otti@@
ottica
ottiene
ottieni
ottigli@@
ottima
ottimi
ottimi@@
ottimis@@
ottimist@@
ottimo
otto
otto,
otto.
ötz@@
ou@@
our@@
out@@
Out@@
ov@@
Ov@@
ove
over
over@@
overe
ovest
ovi
ovi@@
ovunque
ovunque,
ovunque.
ovvero
ovvi@@
Ovvi@@
ovvia
ovviamente
Ovviamente
ovviamente,
Ovviamente,
ovvio
ovvio,
ovvio.
ow
ow-@@
ow,
ow.
ow@@
ox@@
Ox@@
Oxfor@@
Oxford
Oxford,
Oxford.
oxi@@
oy@@
oz@@
oze@@
Oze@@
Ozean
Ozean,
Ozean.
Ozean@@
Ozeane
Ozeans
ozi@@
p
P
p-@@
p,
P,
P:
p.
P.
p@@
P@@
pa
PA
pa@@
Pa@@
paar
Paar
paar@@
Paar@@
pac@@
Pac@@
pacch@@
pacchetto
pace
Pace
pace,
pace.
paci@@
Paci@@
Pacifico
Pacifico.
pack@@
Pack@@
packen
packen.
packt
packte
pad@@
Pad@@
padre
padre,
padre.
padron@@
paes@@
paesaggi
paesaggio
paese
Paese
paese,
paese.
Paese.
paesi
Paesi
paesi,
paesi.
pag@@
paga
pagano
pagare
pagati
pagato
pagina
pagina,
pagina.
pagine
pagine.
pai@@
paia
paio
paiono
pak@@
Pak@@
pakist@@
Pakist@@
Pakistan
Pakistan,
Pakistan.
pal@@
Pal@@
Palä@@
palazz@@
palazzi
palazzo
palco
palco,
palco.
pall@@
palla
palle
palloncin@@
pallone
palp@@
palu@@
pan@@
Pan@@
Panbanis@@
Panbanisha
pandemi@@
Pandemi@@
pandemia
Pandemie
pane
pane.
panino
pann@@
pannelli
pannello
panor@@
panorama
pant@@
Pant@@
pantal@@
Panz@@
pap@@
Pap@@
Papa
papà
papi@@
Papi@@
Papier
Papier,
Papp@@
par@@
Par@@
para@@
Para@@
parab@@
parac@@
paracad@@
paracadute
parad@@
paradi@@
paradig@@
Paradig@@
paradigma
Paradigma
paradis@@
paradiso
parag@@
paragon@@
paralizz@@
parall@@
Parall@@
parallel
parallelo
param@@
Param@@
parametri
paran@@
Parasi@@
parassi@@
parassiti
parcheggi@@
parcheggio
parco
pare
pare,
pare.
parecchi
parecchi@@
parecchie
parecchio
parent@@
parete
pari
Pari@@
Paris
park
Park
Park,
Park@@
Parkin@@
Parkinson
Parks
parl@@
Parl@@
parla
Parla
parlando
Parlando
parlando,
parlando.
parlano
parlar@@
parlare
parlare,
parlare.
parlarne
parlarvi
parlate
parlato
parlato,
parlato.
parlav@@
parlava
parlavo
Parler@@
parlerà
parleremo
parlerò
Parlerò
parli
parli@@
parliamo
Parliamo
parlo
parol@@
parola
parola,
parola.
parole
parole,
parole.
part@@
Part@@
parte
Parte
parte,
parte.
parteci@@
partecip@@
partecipanti
partecipare
partecipato
partecipazione
partendo
partenza
parti
parti,
parti.
parti@@
Parti@@
partic@@
particella
particelle
particol@@
particolare
particolare,
particolare.
particolari
particolarmente
partimento
partire
partit@@
partita
partito
partner
Partner
partner@@
Partner@@
Party
parzi@@
pas@@
Pas@@
pass
pass@@
Pass@@
passa
passaggio
passando
passano
passare
passata
passate
passati
passato
passato,
passato.
passegger@@
passeggi@@
passen
passen,
passen.
passi
passiamo
Passiamo
passier@@
passieren
passieren,
passieren.
passiert
passiert,
passiert?
passiert.
passierte
passierte,
passierte.
passion@@
passione
passione,
passione.
passiv@@
passo
passò
passo,
passo.
passt
passt,
passt.
passte
past@@
Past@@
pastic@@
pasto
pastor@@
pat@@
Pat@@
patat@@
Path@@
Pati@@
Patient
Patient@@
Patienten
Patienten,
Patienten.
patogen@@
patri@@
Patric@@
patter@@
pattern
pau@@
Pau@@
Paul
paura
paura,
paura.
paus@@
pausa
Pause
pavi@@
pavimento
pazi@@
Pazi@@
paziente
paziente,
paziente.
pazienti
pazienti,
pazienti.
Pazifi@@
Pazifik
pazz@@
pazzes@@
pazzi@@
pazzo
PC
PC@@
pe
pe,
pe.
pe@@
Pe@@
PE@@
pec@@
pecc@@
ped@@
pedi@@
peggi@@
peggio
peggio,
peggio.
peggior
peggior@@
peggiore
peggiori
pein@@
pel@@
peli
pell@@
pelle
pelle,
pelle.
pen
pen@@
Pen@@
pena
pend@@
pende
pendent
pendi@@
pendio
penet@@
penetr@@
penn@@
Penn@@
penna
Pennsylv@@
Pennsylvania
pens@@
Pens@@
pensa
pensai
pensai,
pensai:
pensando
pensando,
pensano
pensarci
pensare
pensare,
pensare:
pensare.
Pensat@@
pensate
Pensate
pensate,
pensato
pensato,
pensato:
pensato.
pensava
pensavamo
pensavano
pensavo
Pensavo
pensi
pensi@@
pensiamo
Pensiamo
pensiate
pensier@@
pensieri
pensiero
pensiero.
pensione
penso
Penso
pensò
penso,
penso.
pent@@
Pent@@
Pentag@@
Pep@@
Pepsi
per
Per
per,
per@@
Per@@
perc@@
perce@@
percent@@
percento
percento.
percentuale
percep@@
percepire
percezione
perch@@
Perch@@
perché
Perché
perchè
Perchè
perché,
Perché,
perchè,
perché?
Perché?
perché.
perche'
Perche'
perché@@
perciò
Perciò
Perciò,
percorsi
percorso
perd@@
perde
perdendo
perder@@
perdere
perdi@@
perdiamo
perdita
perdon@@
perdono
perf@@
Perf@@
perfek@@
perfekt
perfekt.
perfekt@@
perfekte
perfekten
perfett@@
perfetta
perfetta,
perfetta.
perfettamente
perfetto
perfetto,
perfetto.
Perfetto.
perfezion@@
perfino
performan@@
Performan@@
performance
peri@@
periamo
pericol@@
pericolo
pericolo,
pericolo.
pericoloso
pericoloso,
pericoloso.
perifer@@
perim@@
periment@@
perio@@
Perio@@
periodi
periodo
periodo,
periodo.
perlo@@
perman@@
permesso
permett@@
permette
permettendo
permetter@@
permetterà
permetterci
permettere
permettersi
permettono
pern
pero
però
Però
però,
Però,
persino
Persino
perso
person
Person
Person,
Person.
person@@
Person@@
persön@@
Persön@@
persona
persona,
persona.
personaggi
personaggio
personale
personale,
personale.
personali
personali.
personalità
personalizz@@
personalmente
persone
Persone
persone,
persone?
persone.
personen
Personen
Personen,
persönlich
persönliche
persönlichen
Persönlichkeit
Perspektiv@@
Perspektive
persu@@
pert
pes@@
pesa
pesante
pesanti
pesc@@
pesca
pesce
pesce,
pesce.
pesci
pesci,
pesci.
peso
peso.
pessi@@
pessimist@@
pest@@
pestici@@
Pestizi@@
pet@@
Pet@@
petei@@
Peter
petr@@
petroli@@
petrolifer@@
petrolio
petrolio,
petrolio.
petto
pezz@@
pezzett@@
pezzetto
pezzi
pezzi,
pezzi.
pezzo
pezzo,
pezzo.
pf
pf@@
Pf@@
Pfad
pfei@@
pfeil@@
pfel
pfen
pfen.
pfer
pfer@@
Pfer@@
Pferd
pfl@@
Pfl@@
pflanz@@
Pflanz@@
Pflanze
pflanzen
Pflanzen
pflanzen,
Pflanzen,
pflanzen.
Pflanzen.
Pflanzen@@
pfleg@@
Pfleg@@
Pflege
pflicht@@
pft
Pfund
ph
PH:
ph@@
Ph@@
phä@@
phab@@
phän@@
Phän@@
Phänom@@
Phänomen
phänomen@@
Phant@@
Phantom-@@
Pharma@@
Phase
phi@@
phil@@
Phil@@
Philadelphi@@
Philanthr@@
Philanthropi@@
Philanthropie
Phili@@
Philip
Philosop@@
philosoph@@
Philosoph@@
Philosophie
Pho@@
Phot@@
Photos@@
physi@@
Physi@@
Physik
Physik,
physikal@@
physikalischen
Physiker
physische
physischen
pi
pi,
pi.
pi@@
Pi@@
PI@@
pia
piac@@
piacci@@
piacciono
piace
piace,
piace.
piacere
piacere,
piacere.
piacerebbe
piaceva
piacevole
piaci@@
piaciuto
piamo
pian@@
Pian@@
pianet@@
pianeta
pianeta,
pianeta.
pianeti
pianeti,
pianeti.
piang@@
piangere.
piani
piani.
pianific@@
pianificazione
piano
piano,
piano.
piano@@
piant@@
pianta
piantare
piante
piante,
piante.
piastr@@
piatt@@
piatta@@
piattaforma
piatto
piazz@@
pic@@
Pic@@
picchi
picchi@@
picco
piccol@@
piccola
piccola,
piccola.
piccole
piccole,
piccole.
piccoli
piccoli,
piccoli.
piccolissima
piccolo
piccolo,
piccolo.
pie
pie@@
piede
piedi
piedi,
piedi.
piedi@@
pieg@@
piegare
pieghe
piel@@
pien
pien@@
piena
piene
pieni
pieno
Pier@@
piet@@
pietra
pietre
pig@@
pigment@@
pigmentazione
Pik@@
PIL
pil@@
Pil@@
pila
pill@@
Pill@@
pillola
pilo@@
Pilot
pilota
piloti
Pilze
pin@@
Pin@@
pingu@@
Pingu@@
Pinguine
pinguini
Pink
Pink@@
pinn@@
pio
pioggi@@
pioggia
piom@@
pion@@
Pion@@
piov@@
pipistr@@
pir@@
Pir@@
pirami@@
piramide
pire
pis@@
pist@@
Pist@@
pistol@@
pit@@
pitt@@
Pitt@@
Pittsbur@@
Pittsburgh
Pittsburgh@@
pittura
piú
più
Più
più,
più.
piu'
piu@@
più@@
piuttosto
Pix@@
Pizz@@
pl@@
Pl@@
plac@@
Plak@@
plan
Plan
plan@@
Plan@@
Pläne
planen
Planet
Planet,
Planet.
planet@@
Planet@@
Planeten
Planeten,
Planeten.
plank@@
Plankt@@
Planung
plas@@
plast@@
Plast@@
plastica
plastica,
Plastik
Plastik@@
plat@@
platt@@
Platt@@
Platten
Plattform
platz
Platz
platz@@
plätze
Plätze
Play@@
Ple@@
pli@@
plic@@
plica
plik@@
plikationen
plizier@@
plizieren
pliziert
plo@@
plodi@@
plor@@
plötz@@
Plötz@@
plötzlich
Plötzlich
plu@@
plur@@
plus
pluvi@@
PM:
po
po’
pò
po,
po?
po.
po'
po',
po'.
po@@
Po@@
poch@@
poche
pochi
pochino
pochissimi
Pock@@
Pocken
poco
Poco
poco,
poco.
poesia
poesie
poet@@
poeta
Pog@@
poggi@@
poi
Poi
poi,
Poi,
poi.
poich@@
poiché
Poiché
Point
pol
pol@@
Pol@@
Polar@@
polare
poli
poli@@
Poli@@
polim@@
polit@@
politi@@
politica
politica,
politica.
politicamente
politiche
politiche,
politici
politici,
politici.
politico
politico.
politik
Politik
Politik,
Politik.
Politik@@
Politiker
politisch
politische
politischen
politischer
Poliz@@
Polizei
Polizei@@
polizi@@
Polizi@@
polizia
poll@@
Poll@@
Pollen
pollice
polline
pollo
polmon@@
polo
Polo
polver@@
polvere
Poly@@
pomer@@
pomerig@@
pomeriggio
pomodor@@
pomp@@
pompa
pompi@@
pon@@
Pon@@
pone
ponte
ponte,
Pop@@
popol@@
popolare
popolare.
popolazione
popolazione,
popolazione.
popolazioni
popoli
popolo
popul@@
Popul@@
Population
por@@
Por@@
porn@@
porre
porsi
port@@
Port@@
porta
porta,
porta.
portaf@@
portafogli@@
portando
portano
portarci
portare
portarla
portarli
portarlo
portarono
portarvi
portat@@
portata
portate
portati
portati@@
portatile
portatili
portato
portava
porte
porter@@
porterà
porti
portiamo
porto
portò
Portra@@
porzione
pos@@
Pos@@
pose
posi
posi@@
Posi@@
posit@@
positi@@
position
Position
position@@
positiv
positiv@@
positiva
positiva,
positive
positive,
positive.
positiven
positivi
positivi.
positivo
positivo,
positivo.
posito
posizion@@
posizione
posizione,
posizione.
posizioni
poss@@
possa
possano
posse@@
possi@@
possiamo
Possiamo
possiate
possibil@@
possibile
possibile,
possibile?
possibile.
possibili
possibili.
possibilità
possibilità,
possibilità.
possiede
posso
Posso
possono
Possono
post
Post
post-@@
post-bell@@
post@@
Post@@
posta
posta.
poste
poster
Poster
posteri@@
posteriore
posti
posti,
posti.
posto
posto,
posto.
pot@@
Pot@@
potabile
potente
potente,
potente.
potenti
potenti,
potenti@@
Potenti@@
Potential
potenza
potenzi@@
Potenzi@@
Potenzial
potenziale
potenziale.
potenzialità
potenzialmente
poter
poter@@
potere
potere,
potere.
poteri
poterla
poterlo
potesse
potessero
potessi
potessimo
poteste
potete
Potete
poteva
potevamo
potevano
potevi
potevo
poth@@
pothek@@
potr@@
Potr@@
potrà
potranno
potrebbe
Potrebbe
potrebbero
potrei
Potrei
potremmo
Potremmo
potremo
potreste
Potreste
potresti
potrete
potuto
pover@@
povera
povera,
povere
poveri
poveri,
poveri.
povero
povertà
povertà,
povertà.
Power
Power@@
pp@@
ppa
ppe
ppe.
ppell@@
ppen
ppen,
ppen.
ppen@@
pper@@
ppi
ppi@@
ppich
ppo
ppo@@
ppor@@
ppt
ppure
ppure,
PR:
pr@@
Pr@@
Pra@@
prä@@
Prä@@
präch@@
prag@@
pragmat@@
Prak@@
prakt@@
prakti@@
praktisch
praktischen
Pran@@
pranz@@
pranzo
pranzo.
präsent@@
Präsent@@
Präsentation
präsentiert
präsi@@
Präsident
Präsident@@
Präsidenten
prat@@
pratic@@
pratica
pratica,
pratica.
praticamente
Praticamente
pratico
Prax@@
Praxis
präz@@
präzis@@
pre
pre-@@
pre@@
Pre@@
prec@@
prece@@
preced@@
precedente
precedente,
precedenti
precedenti.
precedenza
prech@@
prechen
preci@@
precipit@@
precis@@
precisamente
precisione
preciso
pred@@
predatore
predi@@
predire
predis@@
pref@@
prefer@@
Prefer@@
preferi@@
preferir@@
preferiscono
preferite
preferiti
preferito
preg@@
Preg@@
preghi@@
preghier@@
prei@@
Prei@@
preis
Preis
preis@@
Preis@@
Preise
prelev@@
prem@@
Prem@@
premi
premi@@
Premier@@
Premierminister
premio
Premio
pren@@
Pren@@
prend@@
prenda
prendano
prende
prendendo
prender@@
prenderci
prendere
prenderò
prendersi
prendete
Prendete
prendeva
prendi
Prendi
prendiamo
Prendiamo
prendit@@
prendo
prendono
preoccu@@
preoccup@@
preoccupa
preoccupa@@
preoccupano
preoccupar@@
preoccupata
preoccupati
preoccupato
preoccupazione
preoccupazioni
prepar@@
preparare
preparati
preparato
preparazione
pres@@
Pres@@
presa
prescin@@
prescindere
prescri@@
prese
present@@
presenta
presentano
presentare
presentarvi
presentato
presentazione
presentazione,
presentazione.
presente
presente,
presente.
presenti
presenza
preserv@@
presi
presi@@
presidente
Presidente
preso
press@@
Press@@
pressa
presse
Presse
pressione
pressione,
pressione.
pressioni
presso
prest@@
Prest@@
prestare
prestito
presto
presto,
presto.
presup@@
presupposto
pret@@
prev@@
preval@@
prevalenza
prevede
prevedere
prevedi@@
preven@@
prevenire
prevenzione
previ@@
previsione
previsioni
previsto
prezi@@
prezz@@
prezzi
prezzo
prezzo,
prezzo.
pri@@
Pri@@
priamo
prigion@@
prigione
prigione.
prigionieri
prim@@
prima
Prima
prima,
prima.
prima@@
Primat@@
prime
primere
primi
primi@@
primier@@
primiti@@
primitiv@@
primo
Primo
primo,
Primo,
primordi@@
Prin@@
Princ@@
Princet@@
Princeton
princi@@
Princi@@
princip@@
principale
principale,
principale.
principali
principalmente
principi
principi@@
principio
principio,
prinzi@@
Prinzi@@
Prinzip
Prinzipien
prio
prior@@
Prior@@
priorità
Prioritäten
priv@@
Priv@@
priva
Privat@@
private
privaten
privati
privato
privato,
privile@@
Privile@@
Privileg
privilegi@@
privilegio
Prize
pro
pro-@@
Pro-@@
pro@@
Pro@@
prob@@
Prob@@
probabil@@
probabile
probabilità
probabilmente
Probabilmente
probabilmente,
Probanden
probe
Probe
Proben
probi@@
probieren
probieren.
problem
Problem
Problem,
Problem.
problem@@
Problem@@
problema
problema,
problema:
problema.
problemat@@
probleme
Probleme
Probleme,
Probleme.
Problemen
problemi
problemi,
problemi.
Problems
proc@@
proced@@
procedere
procedi@@
procedura
process@@
processi
processo
processo,
processo.
procur@@
prod@@
prodot@@
prodott@@
prodotta
prodotti
prodotti,
prodotti.
prodotto
prodotto,
prodotto.
produ@@
Produ@@
produc@@
produce
producendo
producono
Produk@@
produkt
Produkt
Produkt,
Produkt@@
produkte
Produkte
Produkte,
Produkten
produktion
Produktion
Produktion@@
Produktions@@
produktiv@@
Produktiv@@
Produktivität
produr@@
produrre
produt@@
produtt@@
produttiv@@
produttività
produttore
produttori
Produzenten
produzier@@
produzieren
produzieren,
produzieren.
produziert
produziert,
produziert.
produzione
produzione,
prof@@
Prof@@
profess@@
Profess@@
profession@@
professionale
professionisti
Professor
professore
professori
profil@@
profilo
profit
profit@@
profitt@@
profon@@
profond@@
profonda
profondamente
profonde
profondi
profondit@@
profondità
profondità,
profondità.
profondo
profondo,
profondo.
profu@@
profum@@
prog@@
Prog@@
progett@@
progettando
progettare
progettato
progettazione
progetti
progetti,
progetti.
progetti@@
progetto
Progetto
progetto,
progetto.
prognosti@@
progr@@
program@@
Program@@
programm
Programm
Programm,
programm@@
Programm@@
programma
programma,
programma.
programmare
programmazione
programme
Programme
programmi
programmi@@
Programmier@@
progre@@
progredire
progres@@
progressi
progressione
progresso
progresso.
proi@@
proib@@
proiett@@
proiezione
proj@@
Proj@@
Project
projek@@
Projek@@
projekt
Projekt
Projekt,
Projekt.
Projekte
Projekte,
Projekten
Projekts
projizi@@
prol@@
proli@@
prolifer@@
prom@@
promett@@
promu@@
promuov@@
promuovere
pron@@
pront@@
pronta
pronte
pronti
pronto
pronunci@@
propag@@
Proph@@
propon@@
propor@@
proporre
proportion@@
proporzion@@
proporzione
proposit@@
proposito
proposito,
proposito.
proposta
proposto
propr@@
propri
propri@@
propria
proprie
propriet@@
proprietà
proprietario
proprio
Proprio
proprio.
propulsione
pros@@
prosegu@@
prosper@@
prospettiv@@
prospettiva
prospettiva,
prospettiva.
prospettive
prossi@@
prossima
prossime
prossimi
prossimo
prossimo.
prostat@@
Prostat@@
prostit@@
prostitu@@
prot@@
Prot@@
protagon@@
proteg@@
protegger@@
proteggere
Protein
protein@@
proteine
Proteine
protesi
protest@@
protezione
protoc@@
Protot@@
prototi@@
prototipi
prototipo
Prototyp
Prototyp@@
Prototypen
prov@@
Prov@@
prova
prova.
provando
provano
provare
provate
Provate
provato
prove
proven@@
provengono
proveni@@
proveniente
provenienti
prover@@
provi
provi@@
proviamo
Proviamo
proviene
Provin@@
provinci@@
provincia
provis@@
provo
provoc@@
provoca
provvis@@
proz@@
Proz@@
Prozent
Prozent,
Prozent.
prozent@@
Prozent@@
Prozentsatz
prozess
Prozess
Prozess,
Prozess.
prozess@@
Prozess@@
Prozesse
Prozesses
prü@@
Prü@@
ps
psi@@
psic@@
psichiat@@
psicolog@@
psicologi
psicologia
Psy@@
psych@@
Psych@@
Psychologen
Psychologie
psychologische
pt
pt:
pt@@
pu@@
Pu@@
pubb@@
pubbl@@
Pubbl@@
pubblic@@
pubblica
pubblica,
pubblica.
pubblicare
pubblicato
pubbliche
pubblici
pubblici@@
pubblicit@@
pubblicità
pubblicità,
pubblicità.
pubblico
pubblico,
Pubblico:
pubblico.
Publik@@
Publikum
Publikum,
Publikum:
Publikum.
pul@@
Pul@@
puli@@
pulire
pulita
puls@@
pulsione
pumpen
pun@@
Pun@@
Punk@@
punkt
Punkt
punkt,
Punkt,
punkt.
Punkt.
punkt@@
Punkt@@
punkte
Punkte
Punkten
punt@@
punta
puntare
punteggio
punti
punti,
punti.
puntini
puntino
punto
punto,
punto.
puntu@@
può
Può
puo'
puoi
Puoi
pur
pur@@
Pur@@
pura
pure
puro
pus
put
put@@
puzz@@
Puzz@@
Py@@
Pyrami@@
Pyramide
q
Q
q@@
Q@@
qu@@
Qu@@
qua
qua,
qua.
quad@@
Quad@@
quadr@@
Quadrat
quadrat@@
Quadrat@@
quadrati
quadrato
quadri
quadri@@
quadro
qual
Qual
qual'è
Qual'è
qual@@
Qual@@
quäl@@
qualc@@
qualche
Qualche
qualcos'@@
qualcos'altro
qualcos'altro.
qualcos@@
qualcosa
Qualcosa
qualcosa,
qualcosa?
qualcosa.
qualcun
qualcuno
Qualcuno
qualcuno,
qualcuno.
quale
Quale
quale,
quali
Quali
quali@@
qualific@@
qualit@@
qualità
qualità,
qualità.
qualität
Qualität
qualsiasi
Qualsiasi
qualunque
Qualunque
quando
Quando
quando,
quant@@
Quant@@
quanta
quante
Quante
Quanten@@
quanti
Quanti
quanti@@
quantist@@
quantistica
quantit@@
quantità
quanto
Quanto
quar@@
Quar@@
quarta
quarti@@
quartier
quartiere
quartieri
quarto
quasi
Quasi
quass@@
quattr@@
Quattr@@
quattro
Quattro
quattro,
quattro.
que
Que@@
quegli
quei
quel
Quel
quell'@@
quell@@
quella
Quella
quelle
Quelle
quellen
Quellen
quelli
Quelli
quello
Quello
quello,
quello.
quer
Quer@@
ques@@
quest'
quest'@@
Quest'@@
quest'altra
quest'anno
quest'anno,
quest'idea
quest'uomo
quest@@
Quest@@
questa
Questa
questa,
questa:
questa.
queste
Queste
queste,
queste.
questi
Questi
questi,
questi.
questi@@
questione
questione.
questioni
questo
Questo
questo,
Questo,
questo:
questo?
questo?"
questo.
quet@@
quette
qui
Qui
qui,
Qui,
qui?
qui?"
qui.
qui@@
quiet@@
quin@@
quindi
Quindi
quindi,
Quindi,
quindi@@
Quindi@@
quinto
quisi@@
quival@@
quivalent
quot@@
quota
quote
quotidi@@
quotidiana
quotidiano
r
R
R-@@
r,
R:
r.
R.@@
R.S.:
r@@
R@@
ra
rà
ra,
rà,
ra:
ra?
ra.
rà.
ra...
ra'
ra@@
Ra@@
rä@@
rab@@
Rab@@
rabbi@@
rabbia
rabbia,
rabbin@@
rac@@
Rac@@
racco@@
raccogl@@
raccogli@@
raccoglie
raccogliere
raccoglit@@
raccol@@
raccolgono
raccolta
raccolti
raccolto
raccom@@
raccon@@
raccont@@
racconta
raccontando
raccontano
raccontare
raccontarvi
raccontato
racconterò
racconti
racconto
Rach@@
Rachel
rad
Rad
rad@@
Rad@@
raddoppi@@
radi@@
Radi@@
radiazione
radic@@
radicale
radicalmente
radice
radici
radik@@
radikal
radikale
radio
Radio
radio,
radio.
radio@@
radun@@
raff@@
raffin@@
rafforz@@
raffred@@
raffredd@@
raft
raft@@
rag
rag@@
Rag@@
ragazz@@
Ragazz@@
ragazza
ragazza,
ragazza.
ragazze
ragazze,
ragazzi
ragazzi,
ragazzi.
ragazzi@@
ragazzini
ragazzino
ragazzo
ragazzo,
ragen
ragen,
ragen.
raggi
raggi@@
raggio
raggiun@@
raggiung@@
raggiunge
raggiungendo
raggiunger@@
raggiungere
raggiungono
raggiunto
raggono
raggrupp@@
ragion@@
ragionamento
ragione
ragione,
ragione.
ragioni
ragioni.
rah@@
Rah@@
rahl@@
Rahmen
rai
rai@@
rak@@
Rak@@
Raket@@
ral
Ral@@
rall@@
rallent@@
rallentare
ram@@
Ram@@
rami@@
ramific@@
ramm
ramm@@
ramma
ran
ran@@
Ran@@
rän@@
Rand
rand@@
Rand@@
Rande
randomi@@
rangi@@
rank
rank@@
ranken
rann@@
ranno
rant@@
rante
rap@@
Rap@@
rapi@@
rapid@@
rapida
rapida,
rapida.
rapidamente
rapidamente,
rapidamente.
rapido
rappor@@
rapporti
rapporto
rappresent@@
rappresenta
rappresentano
rappresentare
rappresentata
rappresentato
rappresentazione
rar@@
raramente
rare
raro
ras@@
Ras@@
rasch
rasch@@
rasse
rat
Rat
rat@@
Rat@@
rate
Rate
räte
rate.
raten
rati
rati@@
ration
ration@@
rational
rato
Rätsel
Rätsel@@
ratti
ratto
rau@@
Rau@@
raub@@
Raub@@
rauch@@
rauf
raum
Raum
Raum,
Raum.
raum@@
Raum@@
räum@@
räume
Räume
Raumes
Raumfahr@@
Raumschi@@
raus
raus,
raus.
raus@@
Rauschen
rauszu@@
rav@@
rava
ray
Ray
razion@@
razione
razione,
razione.
razioni
razz@@
razza
razzi@@
razzo
RB:
RC@@
re
Re
re-@@
re,
re:
re?
re.
re...
re."
re"
re@@
Re@@
reag@@
Reag@@
Reagan
reagi@@
reagier@@
reagieren
reagieren,
reagieren.
reak@@
Reak@@
Reaktion
Reaktionen
real
real@@
Real@@
reale
reale,
reale.
realen
reali
reali,
reali.
realisier@@
realist@@
Realität
Realität.
realizz@@
realizza
realizzando
realizzare
realizzata
realizzate
realizzato
realizzazione
realmente
realt@@
realtà
realtà,
realtà.
realta'
reattori
reazione
reazioni
reb@@
Reb@@
rebbe
rebbe,
rebber@@
rebbero
reben
rebs
rec@@
Rec@@
recent@@
recente
recente,
recente.
recentemente
recenti
rech@@
Rech@@
Rechen@@
Rechenleistung
recher@@
Recher@@
recherchi@@
rechn@@
Rechn@@
rechnen
rechnen,
Rechner
rechner@@
recht
Recht
recht,
recht.
recht@@
Recht@@
rechte
Rechte
rechten
rechter@@
rechts
rechts,
rechts.
rechts@@
Rechts@@
rechtzeitig
reci@@
recin@@
recipro@@
recit@@
reck@@
recl@@
reclut@@
recor@@
record
recu@@
recuper@@
recuperare
recupero
Red
red@@
Red@@
reddi@@
reddito
reddito,
reddito.
rede
Rede
rede,
reden
Reden
reden,
reden.
redet
redete
redi@@
Redner
redu@@
Redu@@
reduzier@@
reduzieren
reduzieren,
reduzieren.
reduziert
Redwoo@@
Refer@@
reff@@
refl@@
Refl@@
reflek@@
reg@@
Reg@@
regal@@
regalo
Regel
regel@@
Regel@@
regelmäß@@
regelmäßig
regeln
Regeln
Regeln,
Regeln.
Regen
Regen@@
regende
regener@@
reggi@@
regi@@
Regi@@
regier@@
Regier@@
Regierung
Regierung,
Regierung.
Regierungen
Regierungs@@
regina
Region
Region.
region@@
Region@@
regionale
regione
regione,
regionen
Regionen
regioni
regista
registr@@
registra@@
registrare
registrato
registrazione
registri@@
regno
Regno
regol@@
regola
Regola
regolare
regole
regole,
regole.
regu@@
reguli@@
Reguli@@
rei
rei@@
Rei@@
reib@@
reiben
reich
Reich
reich,
reich.
reich@@
Reich@@
reiche
reichen
reichen,
reichen.
reicher
reichhal@@
reicht
Reicht@@
Reichtum
Reichweite
Reih@@
Reihe
Reihen@@
Reihenfolge
rein
rein,
rein.
rein@@
Rein@@
reine
reinig@@
reinvent@@
Reis
reise
Reise
Reise,
Reise.
reisen
Reisen
reisen,
reiste
reit@@
reiz@@
Rek@@
rekonstru@@
rekor@@
rekt
rekt@@
rel
rel@@
Rel@@
relativ
relativ@@
relativa
relativamente
relative
Relativit@@
relazion@@
relazione
relazione.
relazioni
relazioni.
relev@@
reli@@
Reli@@
religi@@
religio@@
Religion
Religion,
religion@@
Religion@@
religione
religione,
religione.
Religionen
religioni
religiosa
religiose
religiöse
religiösen
rem
rem@@
remi
remi@@
Remi@@
remmo
remo
ren
ren,
ren.
ren@@
Ren@@
Renaiss@@
rence
rend@@
renda
rende
rendendo
render@@
rendere
renderla
renderle
renderli
renderlo
rendersi
rendete
rendiamo
rendo
rendono
Renn@@
rennen
Rennen
renz@@
rep@@
repar@@
reper@@
replic@@
replicare
replizier@@
Report@@
repräsent@@
Repräsent@@
repräsentiert
Repu@@
repubblic@@
Republik@@
reput@@
res@@
Res@@
resa
rese
Resear@@
Research
reserv@@
Reserv@@
resi
resi@@
resili@@
resist@@
resistente
resistenti
resistenza
reso
Reson@@
resp@@
Resp@@
respek@@
Respekt
respi@@
respir@@
respirare
respiro
respon@@
respons@@
responsabil@@
responsabile
responsabili
responsabilità
responsabilità,
responsabilità.
Ressour@@
Ressourc@@
Ressourcen
Ressourcen,
Rest
rest@@
Rest@@
resta
restano
restare
restau@@
Restau@@
Restauran@@
Restaurant
Restaurant@@
Restaurants
reste
resti
restitu@@
restlichen
resto
resto,
resto.
Result@@
Resultat
Resultate
resulti@@
ret@@
Ret@@
rete
rete,
rete.
reti
retr@@
retro
retro@@
rett@@
Rett@@
retta
retten
retten,
retten.
retti@@
Rettung
Rettungs@@
reu@@
revol@@
Revol@@
Revoluti@@
Revolution
Revolution,
Revolution.
revolution@@
rey
Rez@@
Rezep@@
Rezept
rezz@@
Rhyth@@
Rhythmus
ri
ri-@@
ri,
ri.
ri@@
Ri@@
RI@@
ria
ria,
riabilit@@
riamo
riassumere
rib@@
ribell@@
ribu@@
ric
ric@@
Ric@@
rica
ricambi@@
ricav@@
ricavare
ricca
ricch@@
ricche
ricchezza
ricchi
ricco
rice
rice@@
ricer@@
Ricer@@
ricerc@@
ricerca
ricerca,
ricerca.
ricercatore
ricercatori
ricerche
ricerche,
ricetta
ricev@@
riceve
ricever@@
ricevere
ricevetti
ricevo
ricevono
ricevuto
rich@@
Rich@@
Richard
Richard,
Richard.
riche
riche.
richi@@
richiam@@
richiamo
richie@@
richiede
richiedono
richiesta
richieste
richiesto
richt
richt@@
Richt@@
richten
richten,
richten.
Richter
richtet
richtet.
richtig
richtig,
richtig?
Richtig?
richtig.
Richtig.
richtige
Richtige
richtigen
Richtlinien
richtung
Richtung
Richtung,
Richtung.
richtungen
Richtungen
rici
rici,
ricic@@
ricicl@@
riciclaggio
Rick
rick@@
ricket
ricket.
rico
rico,
rico.
rico@@
ricol@@
ricom@@
ricominci@@
ricompens@@
ricompensa
ricon@@
riconos@@
riconosc@@
riconosce
riconoscer@@
riconoscere
riconosci@@
riconoscimento
riconoscono
ricoper@@
ricor@@
Ricor@@
ricord@@
Ricord@@
ricorda
ricordano
ricordar@@
ricordare
ricordate
Ricordate
ricordate,
ricordato
ricorder@@
ricorderanno
ricordi
ricordo
Ricordo
ricorr@@
ricostru@@
ricostruire
ricostruzione
ricre@@
ricres@@
ricul@@
ride
ridere
ridere.
ridi@@
ridicol@@
ridott@@
ridotto
ridu@@
riduc@@
riduce
ridur@@
ridurre
riduzione
rie
rie@@
rieb
rieb@@
rieben
rieben@@
riech@@
riechen
riecht
rieden@@
rief
rief@@
rieg
rieg@@
riel
riem@@
riemp@@
riempi@@
riempir@@
riempire
rier@@
riere
rieren
riert
ries@@
Ries@@
riesca
riesce
riesci
riesco
riescono
Riesen@@
riesige
riesigen
riesiger
riesiges
rifer@@
riferimento
riferisce
riff
riff@@
riffe
riffen
rifi@@
rific@@
rifiut@@
rifiuti
rifl@@
riflesso
riflett@@
riflette
rifletter@@
riflettere
riforma
Rift
rifu@@
rifugi@@
rifugiati
rig
rig@@
Rig@@
rige
rigen
rigener@@
righ@@
rigi@@
rigkeit
rigor@@
Rigu@@
riguar@@
Riguar@@
riguard@@
riguarda
riguardano
riguardo
riguardo,
riguardo.
rik
rik@@
riken
ril@@
rilass@@
rilev@@
rilevante
rilevante.
rilevare
rim@@
Rim@@
rima@@
riman@@
rimane
rimanere
rimangono
rimar@@
rimase
rimasta
rimaste
rimasti
rimasto
rimbalz@@
rimin@@
rimos@@
rimpiazz@@
rimpic@@
rimpicciol@@
rin@@
Rin@@
rinf@@
ring@@
Ring@@
ringra@@
ringrazi@@
ringraziare
ringrazio
rinnov@@
rinunci@@
rinunciare
Rio
rip@@
ripar@@
riparare
ripensare
ripet@@
ripeto,
ripieg@@
riportare
riportato
ripos@@
riprendere
ripres@@
ripresa
riprese
ripreso
riprist@@
riprodu@@
riproducono
riprodur@@
riprodurre
riproduzione
ripulire
ris@@
Ris@@
RIS@@
risal@@
risale
risali@@
riscal@@
riscald@@
riscaldamento
risch@@
rische
rischen
rischi
rischi@@
rischio
rischio,
rischio.
RISD
rise
riser@@
riserv@@
riserva
riserve
risi@@
Risi@@
risik@@
Risik@@
Risiken
Risiko
risk@@
riso
riso,
riso.
risol@@
risolto
risoluzione
risolver@@
risolvere
rison@@
risonanza
risor@@
risorsa
risorse
risorse,
risorse.
risp@@
rispar@@
risparmi@@
risparmiare
risparmio
rispett@@
rispettare
rispetto
rispon@@
risponde
risponder@@
rispondere
rispondono
rispos@@
rispose
rispose:
risposi@@
rispost@@
risposta
risposta,
risposta.
risposte
risposte.
risposto
risposto:
rist@@
ristor@@
ristorante
ristoranti
risu@@
risucchi@@
risult@@
risulta
risultati
risultati,
risultati.
risultato
risultato,
risultato.
risvegli@@
rit@@
Rit@@
ritar@@
ritard@@
riten@@
Riten@@
ritengo
riti
riti@@
ritiene
ritir@@
ritmi
ritmo
ritorn@@
ritorna
ritornare
ritorno
ritr@@
ritratto
ritro@@
ritrov@@
ritt
ritu@@
Ritu@@
Rituale
riun@@
riuni@@
riunione
riunioni
rius@@
riusc@@
riuscì
riusci@@
riusciamo
riuscir@@
riuscire
riusciremo
riuscissimo
riuscit@@
riuscita
riuscite
Riuscite
riusciti
riuscito
riusciva
riuscivo
rivedere
rivel@@
rivela
rivelare
rivelato
river@@
Riversi@@
Riverside
rivest@@
rivestimento
rivista
riviste
rivol@@
rivolu@@
rivoluzion@@
rivoluzione
rizz@@
RN@@
RNA
ro
rò
ro-@@
ro,
ro?
ro.
ro'
ro@@
Ro@@
RO@@
rö@@
Rob
rob@@
Rob@@
roba
roba,
roba.
Robert
Robic@@
robo@@
Robo@@
robot
robot,
robot.
robot@@
Robot@@
Roboter
Roboter,
Roboter.
Roboter@@
Robotern
robu@@
rocc@@
rocce
rocci@@
roccia
Rock
rock@@
Rock@@
Rockef@@
Rockett@@
Rog@@
Roger
roh@@
Roh@@
Rohr@@
Röhr@@
Rohstoff@@
roll@@
Roll@@
Rolle
Rolle,
Rolle.
rollen
Rollen
Rom
rom@@
Rom@@
Roman
romant@@
Romanti@@
romantische
romanz@@
romanzo
romper@@
rompere
rompic@@
rompicapi
ron
Ron
ron@@
Ron@@
Ronald
rone
rono
ront@@
Rönt@@
Röntgen@@
Roosev@@
Roots
ropolit@@
ror
ror@@
Rory
ros@@
Ros@@
rosa
Rose
roskop
roskop@@
Rosling
Ross
roß@@
rossa
rossi
rosso
rosso,
rosso.
rot
Rot
rot@@
Rot@@
rotazione
rote
roten
Roten
rott@@
rotta
rotte
roul@@
roulotte
rout@@
rov@@
rover
Rover
roves@@
rovin@@
Roy
Roy@@
Royal
RSW:
rt
ru@@
Ru@@
Ruanda
Ruanda,
rub@@
rubato
rüber
rück@@
Rück@@
Rücken
Rückseite
ruf
Ruf
rufe
rufen
rufen,
rufen.
ruft
rug
rug@@
rugo@@
ruh@@
Ruh@@
Ruhe
ruhig
ruhig@@
rühr@@
ruin@@
rum.
rum@@
rumor@@
rumore
rund
Rund@@
runter
runter,
runter.
runter@@
ruolo
ruot@@
ruota
ruotare
rup@@
rupp@@
rur@@
rurale
rurali
rus
rus@@
Rus@@
Russia
Russia,
russischen
Russl@@
Russland
Russland,
rut@@
Rut@@
Rw@@
ry
ry,
s
S
s-@@
S-@@
s,
S,
s:
S:
s!
s?
s.
S.
S.:
s."
S.@@
s'@@
s"
s",
s".
s@@
S@@
ś@@
š@@
sa
sa,
sa.
sa@@
Sa@@
SA@@
sä@@
Sä@@
Saal
sab@@
sabb@@
sabbi@@
sabbia
sabbia,
sabbia.
sac@@
Sac@@
sacch@@
sacco
sach@@
Sach@@
säch@@
sache
Sache
Sache,
Sache.
sachen
Sachen
Sachen,
Sachen.
sacrific@@
Sad@@
Saf@@
Sag
sag@@
Sag@@
sage
sage,
sage:
sage.
sagen
Sagen
sagen,
sagen:
sagen?
sagen.
sagen@@
sagge@@
saggezza
saggio
sagst
sagt
sagt,
sagt:
sagt.
sagt@@
sagte
sagte,
sagte:
sagte.
sagten
sagten,
sagten:
sah
sah,
sah.
sah@@
Sah@@
Sahara
sahari@@
sahen
sahen,
sahen.
sai
sai,
Sai,
sal
sal@@
Sal@@
sala
sala,
sala.
sale
sale,
sali@@
salire
salita
salsa
salt@@
salta
saltano
saltare
saltato
salto
salut@@
salutare
salute
salute,
salute.
salv@@
salvare
salvato
salve@@
sam
Sam
sam,
sam.
sam@@
Sam@@
same
samen
Samen
samer
samkeit
samm@@
Samm@@
sammeln
sammeln,
sammeln.
sammelt
sammlung
Sammlung
Samu@@
San
san@@
San@@
sana
Sand
sand@@
Sand@@
Sandel:
Sandel@@
Sang@@
sangu@@
sangue
sangue,
sangue.
sanguig@@
sanguign@@
sanguigni
sanguigno
sanit@@
sanità
sanitari
sanitaria
sanitario
sanno
sano
sant@@
Sant@@
Santa
sap@@
Sap@@
sapendo
saper@@
sapere
sapere,
sapere.
sapete
Sapete
sapete,
Sapete,
sapete?
sapete.
sapev@@
sapeva
sapevamo
sapevano
sapevo
Sapevo
sappi@@
sappia
sappiamo
Sappiamo
sappiamo,
sappiamo.
sappiate
sapr@@
saputo
sar@@
Sar@@
SAR@@
sarà
Sarà
sara'
Sarah
sarai
saranno
sarebbe
Sarebbe
sarebbero
sarei
saremmo
saremo
sareste
sarete
sari
sarò
SARS
saß
saßen
Sat@@
satell@@
Satell@@
satellit@@
Satellit@@
satellite
Satelliten
Satur@@
Saturn
Saturno
satz
Satz
satz,
satz.
satz@@
Satz@@
sätz@@
sätze
Sätze
sau@@
Sau@@
säu@@
Säu@@
sauber
sauber@@
saubere
sauberes
Sauerst@@
Sauerstoff
Sauerstoff@@
Säuget@@
Säugetiere
Saul
säule
sav@@
Sav@@
SB:
sb@@
sbagli@@
sbagliata
sbagliata.
sbagliate
sbagliato
sbagliato,
sbagliato.
sbal@@
sbalordi@@
sbar@@
sbarazz@@
sbir@@
sbur@@
sc@@
Sc@@
scad@@
scaff@@
scal@@
scala
scala,
scala.
scale
scam@@
scambi
scambi@@
scambio
scan@@
scandal@@
scann@@
scanner
scansione
scapp@@
scar@@
scaric@@
scaricare
scarpe
scarpe.
scart@@
scat@@
scaten@@
scatola
scatole
scatt@@
scattare
scattata
scattato
scav@@
scavare
sce
scegli@@
scegliere
scel@@
scelta
scelta,
scelta.
scelte
scelte,
scelto
scen@@
scena
scenari
scenario
scende
scendere
scendono
scene
sceneggi@@
scesi
sceso
scett@@
sch
sch,
sch.
sch@@
Sch@@
schä@@
Schä@@
Schacht@@
schäd@@
Schäd@@
Schädel
Schaden
Schädig@@
schaf@@
Schaf@@
schaff@@
Schaff@@
schaffen
schaffen,
schaffen.
Schaffens@@
schafft
schafft,
schaffte
schafften
schaft
schaft,
schaft.
schaft@@
schaften
schaften,
schaften.
schafts@@
Schall@@
schalt@@
Schalt@@
schalten
schalten,
schalten.
Schaltkrei@@
schar@@
schär@@
scharfen
Schatt@@
Schatten
schätz@@
Schätz@@
schätze
schätzen
schätzen,
schätzen.
schätzung
Schätzung
schau
schau@@
Schau@@
schaue
schauen
Schauen
schauen,
schauen.
Schauspiel@@
Schauspieler
schaut
schaut,
schaute
schauten
sche
sche,
sche.
schei@@
Schei@@
schein
schein@@
Schein@@
scheinbar
scheinen
scheinend
scheint
scheint,
scheint.
schel@@
schelet@@
scheletro
schem@@
schema
schemi
schen
schen,
schen.
schen@@
schenk@@
Schenk@@
scher
scher@@
schermi
schermo
schermo,
schermo.
scherz@@
Scherz@@
sches
scheu@@
schi
schi.
schi@@
Schi@@
schiacci@@
schiavi@@
schiavit@@
schiavitù
schicht
Schicht
schick@@
Schick@@
schicken
schicken,
schicken.
Schicksal
Schicksal@@
schickte
schickten
schie@@
schied
schied@@
schieden
schief@@
schien
schiena
schießen
schießen.
schif@@
Schiff
Schiff@@
schifo.
schil@@
Schil@@
Schild
Schildkrö@@
Schimpan@@
Schimpansen
schir@@
Schir@@
schizo@@
Schizophr@@
schl@@
Schl@@
schlä@@
Schlä@@
Schlacht@@
schlaf@@
Schlaf@@
schlafen
schlafen.
schlag
schlag,
schlag@@
Schlag@@
Schlagan@@
schlage
schläge
schlagen
schlägen
schlagen,
schlagen.
schlägt
Schlagzei@@
Schlagzeilen
schlau
schlau@@
schle@@
Schle@@
schlech@@
schlecht
schlecht,
schlecht.
schlecht@@
schlechte
schlechten
schlechter
schlechtes
schlei@@
Schlei@@
schli@@
Schli@@
schlicht
schliess@@
schließ@@
Schließ@@
schließe
schließen
schließen,
schließen.
schließend
schliesslich
schließlich
Schließlich
schließlich,
schließt
schlimm
schlimm@@
Schlimm@@
schlimme
schlimmer
schlimmer@@
schlimmste
schlimmsten
schlos@@
schloss
schlossen
schlu@@
Schlu@@
schlug
schlüs@@
Schlüs@@
schluss
Schluss
schluss@@
Schluss@@
schlüsse
Schlüssel
schlüssel@@
Schlüssel@@
schlussendlich
Schlussfol@@
schm@@
schmeck@@
schmei@@
schmer@@
Schmer@@
Schmerz
schmerz@@
Schmerz@@
schmerzen
Schmerzen
Schmu@@
schmut@@
schn@@
Schn@@
Schne@@
Schnee
schnei@@
Schnei@@
schneiden
schneiden.
schnell
schnell,
schnell.
schnell@@
Schnell@@
schnelle
schnellen
schneller
schneller,
schneller.
schnellste
schnellsten
schnitt
Schnitt
schnitt@@
Schnitt@@
schnitte
Scho@@
schö@@
Schö@@
schock@@
Schok@@
Schokol@@
schon
Schon
schön
schon,
schön,
schon.
schön.
schon@@
schön@@
Schön@@
schöne
Schöne
schönen
schöner
schönes
Schönheit
School
schöpf@@
Schöpf@@
schott@@
schrän@@
schränk@@
schrau@@
schreck@@
Schreck@@
schrecklich
schrecklich.
schreckliche
schrecklichen
schrei@@
Schrei@@
schreib@@
Schreib@@
schreibe
schreiben
Schreiben
schreiben,
schreiben.
schreibt
Schreibt@@
Schreibtisch
schreit@@
schreiten
schri@@
Schri@@
schrieb
schrieb,
schrieb@@
schrieben
schrift
schrift@@
Schrift@@
schriften
Schriftstell@@
Schriftsteller
schrit@@
Schrit@@
Schritt
schritt@@
Schritte
schrum@@
scht
schte
schu@@
Schu@@
Schü@@
schüch@@
schuf
schufen
Schuh@@
Schuhe
schul@@
Schul@@
Schül@@
Schuld
schuldig
schuldig@@
schuldigen
schule
Schule
Schule,
Schule.
Schulen
Schulen,
Schüler
Schülern
Schulter
schüs@@
schuss
schüt@@
schüttel@@
schutz
Schutz
schutz@@
Schutz@@
schütz@@
schützen
schützen,
schützen.
schw@@
Schw@@
schwä@@
Schwä@@
schwache
schwachen
schwang@@
Schwanger@@
schwank@@
Schwanz
schwar@@
Schwar@@
schwarz
schwarz@@
Schwarz@@
schwarze
Schwarze
schwarzen
schwarzes
Schwarzschil@@
Schwed@@
Schweden
Schwef@@
Schwefel@@
Schwefelwasserst@@
Schwefelwasserstoff
schwei@@
Schwei@@
Schwein
Schwein@@
Schweine
Schweizer
Schwellen@@
schwer
schwer,
schwer.
schwer@@
Schwer@@
schwere
schweren
schwerer
Schwerkraft
Schwest@@
Schwester
Schwestern
schwi@@
Schwi@@
schwierig
schwierig,
schwierig.
schwierig@@
Schwierig@@
schwierige
schwierigen
schwieriger
Schwierigkeiten
schwierigsten
schwimm@@
Schwimm@@
schwimmen
Schwimmen
schwimmen.
schwimmen@@
schwind@@
Schwing@@
schwitz@@
sci
sci@@
Sci@@
Scien@@
Science
scienti@@
scientific@@
scientifica
scientifiche
scientifici
scientifico
scientifico.
scienza
scienza,
scienza.
scienze
scienzi@@
scienziati
scienziati,
scienziati.
scienziato
scim@@
scimmi@@
scimmia
scimmie
scimmie,
scimp@@
scimpanz@@
scimpanzé
scimpanzé,
scinti@@
scioc@@
sciocc@@
sciogli@@
scivol@@
sco@@
Sco@@
scogli@@
scol@@
scolast@@
scolastico
scom@@
scomo@@
scompar@@
scon@@
sconcert@@
sconfig@@
scono
sconosci@@
scont@@
scontato
scontr@@
sconvol@@
scoper@@
scoperta
scoperte
scoperto
scoperto,
scoperto.
scopi
scopo
scopo,
scopo.
scoppi@@
scopr@@
scopre
scoprendo
scoprì
scopri@@
scopriamo
scoprii
scoprir@@
scoprire
scor@@
scoraggi@@
scorciat@@
scorr@@
scorre
scorrere
scorsa
scorso
scorso,
scorso.
Scot@@
Scott
scre@@
scri@@
Scri@@
scrimin@@
scris@@
scrisse
scrit@@
scritt@@
scritta
scritto
scritto,
scrittore
scrittori
scriv@@
scrivania
scrivania.
scrive
scrivendo
scriver@@
scrivere
scrivo
scu@@
scul@@
scult@@
scultura
sculture
scuol@@
scuola
scuola,
scuola.
scuole
scuole,
scuole.
scus@@
Scus@@
sdra@@
sdrai@@
se
Se
sé
sè
se,
sé,
se:
se?
se.
sé.
se...
se@@
Se@@
SE@@
Sear@@
Seatt@@
Seattle
sebbene
Sebbene
sec@@
secc@@
sech@@
Sech@@
sechs
Sechs
sechs,
sechs@@
secol@@
secoli
secolo
secolo,
secolo.
secon@@
Secon@@
Second
seconda
Seconda
secondar@@
secondi
secondi,
secondi.
secondo
Secondo
secondo,
Secondo,
secondo.
sed@@
sede
seder@@
sedere
sedersi
sedi@@
Sedi@@
sedia
sedie
seduta
sedute
seduti
seduto
See
Seel@@
Seele
seg@@
Seg@@
seggi@@
seggiol@@
seggiolini
segmento
segn@@
segnal@@
segnale
segnali
segni
segno
segret@@
segreti
segreto
segu@@
segue
seguendo
seguente
seguir@@
seguire
seguire.
seguito
seguito,
seguono
seh@@
Seh@@
sehe
sehe,
sehen
Sehen
sehen,
sehen:
sehen?
sehen.
Sehn@@
sehr
Sehr
sehr,
sehr.
sei
Sei
sei,
sei.
sei@@
Sei@@
seid
seien
sein
Sein
sein,
sein;
sein:
sein?
sein.
sein."
sein@@
seine
Seine
seinem
seinen
seiner
seines
seit
Seit
seit@@
Seit@@
seitdem
seite
Seite
Seite,
seite.
Seite.
Seiten
seitige
sek@@
Sek@@
Sektor
Sekunde
Sekunde,
Sekunde.
Sekunden
Sekunden,
Sekunden.
sel
sel@@
Sel@@
selb@@
Selb@@
selbe
selben
selber
selbst
Selbst
selbst-@@
selbst,
Selbst,
selbst.
selbst@@
Selbst@@
Selbstmord@@
selbstverständ@@
selbstverständlich
Selektion
selezion@@
selezione
sell
seln
selt@@
selten
selten@@
seltsam
seltsam.
seltsam@@
seltsame
seltsamen
selv@@
selvat@@
sem@@
Sem@@
sembr@@
sembra
Sembra
sembra@@
sembrano
sembrare
sembrato
sembrava
sembravano
sembri
seme
semi
semi-@@
semi,
semi.
semin@@
sempli@@
semplic@@
Semplic@@
semplice
semplice,
semplice:
semplice.
semplicemente
Semplicemente
semplicemente,
semplici
semplici,
semplici.
semplicità
semplicità.
semplific@@
sempr@@
sempre
Sempre
sempre,
sempre.
sen
sen,
sen:
sen?
sen.
sen@@
Sen@@
Send@@
senden
Sender
sendet
sene
Seni@@
sens
sens@@
Sens@@
sensazione
sensazioni
sensi
sensi.
sensi@@
sensibile
sensibili
sensibilità
senso
senso,
senso.
sensore
sensori
sensori@@
sensu@@
sent@@
Sent@@
sente
senti
senti@@
sentiamo
sentii
sentimenti
sentimento
sentir@@
sentirci
sentire
sentirete
sentirsi
sentita
sentite
sentito
sentito,
sentiva
sentivo
sento
sentono
senz@@
senza
Senza
senzat@@
Sep@@
separ@@
separare
separate
separati
separato
separazione
sepol@@
Septem@@
September
September,
sequ@@
Sequ@@
Sequenz
sequenza
sequenze
sequenzi@@
sequest@@
ser
ser,
ser@@
Ser@@
sera
sera,
sera.
serata
sere
Serge@@
Sergi@@
Sergio
seri@@
Seri@@
seriamente
serie
Serie
serio
serio,
serio.
sero
sero,
serp@@
serra
serv@@
Serv@@
serve
Serve
serve.
servi@@
Servi@@
serviamo
Servic@@
Service
servire
servit@@
serviva
servizi
servizio
servono
ses
sess@@
sessione
sesso
sesso,
sesso.
sessu@@
sessuale
sessuale.
sessuali
sesto
set
set@@
Set@@
SET@@
Seth
SETI
sett@@
Sett@@
sette
sette,
settembre
settembre,
Settembre,
setti@@
settiman@@
settimana
settimana,
settimana.
settimane
settimane,
settimane.
settore
settori
setz@@
setze
setzen
setzen,
setzen.
setzt
setzt,
setzt.
setzte
setzten
setzung
setzungen
seu@@
Sex
sex@@
Sex@@
sexu@@
Sexu@@
sexy
sey
sey,
sezione
sezioni
sf@@
sfähig@@
sfam@@
sfer@@
sfera
sfi@@
sfida
sfida,
sfida.
sfidare
sfide
sfogli@@
sfondo
sfondo.
sfor@@
sfortun@@
Sfortun@@
sfortunatamente
Sfortunatamente
sfortunatamente,
Sfortunatamente,
sforz@@
sforzi
sforzo
sfr@@
sfrutt@@
sfruttamento
sfruttare
sfug@@
sfum@@
sguardo
sh@@
Sh@@
Sha@@
Shakespe@@
Shakespeare
Shang@@
Shangha@@
Shanghai
Shar@@
She@@
Sher@@
shi@@
Shi@@
Shir@@
shmall@@
sho@@
Sho@@
Shoot@@
show
Show
Show.
Show@@
si
Si
SI
sì
Sì
si,
Si,
sì,
Sì,
si:
si?
si.
Si.
sì.
Sì.
si@@
Si@@
SI@@
sia
Sia
sia,
sia.
siamo
Siamo
siamo,
siamo?
siamo.
siano
siasi
siate
sic@@
Sic@@
siccome
Siccome
sich
sich,
sich:
sich?
sich.
sich@@
Sich@@
sicher
sicher,
sicher.
sicher@@
Sicher@@
sichere
sicheren
sicherer
Sicherheit
Sicherheit,
Sicherheit@@
Sicherheits@@
sicherlich
sicherstellen,
sicherzustellen,
sicht
Sicht
sicht,
sicht.
sicht@@
Sicht@@
sichtbar
sichtbare
sichtbaren
sichten
sichtlich
Sichtweise
sicur@@
sicura
sicuramente
Sicure@@
sicurezz@@
sicurezza
sicurezza,
sicurezza.
sicuri
sicuro
sicuro,
sicuro.
sie
Sie
SIe
sie,
Sie,
sie:
Sie:
sie?
Sie?
sie.
Sie.
sieb@@
Sieb@@
sieben
Sieben
sieben@@
sied@@
siede
Sieg@@
sieh@@
siehst
sieht
Sieht
sieht,
sieht.
sier@@
Sier@@
sieren
sieren,
sieren.
siero@@
Sierra
siert
siert,
siert.
sierte
sierten
sierung
siete
Siete
sig
sig@@
Sig@@
sigar@@
sige
sigen
sigkeit
sign@@
Sign@@
Signal
Signale
signi@@
Signi@@
signifi@@
signific@@
significa
Significa
significa,
significa?
significare
significativo
significato
significato,
significato.
significava
significhi
signor
Signor
signor@@
signora
signore
Signore
signore,
signori,
sik@@
sil@@
Sil@@
sile
sile,
sile.
silenzi@@
silenzio
sili
sili@@
Sili@@
silic@@
Silicon
sim@@
Sim@@
sima
simb@@
simbol@@
simboli
simbolo
simi@@
simil@@
simile
simile,
simile.
simili
simili,
simili.
simmet@@
simmetri@@
simmetria
simmetrie
simo
Simon
simp@@
Simp@@
simpat@@
simu@@
simul@@
Simul@@
simulare
Simulation
simulazione
simuli@@
sin
sin@@
Sin@@
sinap@@
Sinc@@
sincer@@
Sinclair
sincr@@
sincron@@
sincronizz@@
sind
Sind
sind,
sind;
sind:
sind?
sind.
sind."
sind@@
sinda@@
sindaco
sindrome
sing@@
Sing@@
Singap@@
singen
singol@@
singola
singole
singoli
singolo
singt
sini
sini@@
sinist@@
sinistr@@
sinistra
sinistra,
sinistra.
sinistro
sinkt
sinn
Sinn
Sinn,
sinn.
Sinn.
sinn@@
Sinn@@
Sinne
Sinne,
Sinnes@@
sinni@@
sino
sint@@
sintesi
sintet@@
sintetizz@@
sintomi
sion
sion,
sion.
sion@@
sione
sione,
sione.
sionen
sionen,
sionen.
sioni
sioni,
sioni.
sions@@
Sir
Sir@@
siring@@
siringa
siringhe
sis
sis@@
sische
sischen
sist@@
Sist@@
sistem@@
sistema
Sistema
sistema,
sistema.
sistemare
sistematicamente
sistemi
sistemi,
sistono
sistor
sit@@
sità
sità,
sità.
sität
siti
sito
sito,
sito.
situ@@
Situ@@
Situation
Situation,
Situation.
Situationen
Situationen,
situazione
situazione,
situazione.
situazioni
sitz
Sitz
sitz@@
Sitz@@
sitze
sitzen
sitzen,
sitzen.
sitzt
sitzt,
sitzt.
siv
siv@@
siva
sivamente
sive
siven
sivi
sivo
sivo.
SJ:
sk@@
Sk@@
skal@@
skek@@
Skel@@
Skelett@@
Skelettmus@@
Skelettmuskeln
Skep@@
skept@@
Ski
Ski@@
Skizz@@
Skl@@
Sklav@@
Sklaver@@
Sklaverei
skrank@@
Skulpt@@
Skulptur
sky
Sky@@
Skycar
Skyp@@
sl@@
Sl@@
SL@@
släu@@
sli@@
slide
slog@@
Slums
sm@@
smesso
smett@@
smettere
Smit@@
Smith
Smo@@
SMS
sno@@
Sno@@
so
So
so,
So,
so:
so?
so.
so...
so."
so@@
So@@
sob@@
Sob@@
sobald
Sobald
sobbor@@
Sobul@@
Sobule:
soc@@
soci@@
Soci@@
social
sociale
sociale,
sociale.
sociali
sociali,
sociali.
societ@@
Societ@@
società
società,
società.
sod@@
sodass
soddis@@
soddisf@@
soddisfare
soddisfazione
soff@@
soffer@@
sofferenza
sofferto
soffi@@
soffitto
soffre
soffri@@
soffrono
sofist@@
sofistic@@
sofor@@
sofort
softwar@@
Softwar@@
software
Software
Software-@@
software,
Software,
software.
sog@@
Sog@@
sogar
Sogar
sogar,
sogen@@
sogenannte
sogenannten
sogg@@
sogget@@
soggetti
soggetto
sogli@@
soglia
sogn@@
sogni
sogni,
sogni.
sogno
Söh@@
Sohn
Sohn,
sol@@
Sol@@
sola
sola,
sola.
solamente
solange
Solar@@
solare
solare,
solare.
Solarenergie
solari
solch
solche
solchen
solcher
solches
Soldat@@
Soldaten
soldati
soldato
soldi
soldi,
soldi.
sole
Sole
sole,
sole.
Sole.
solf@@
solfid@@
soli
soli,
soli.
soli@@
solit@@
solitamente
solito
solito,
solito.
soll
Soll
soll,
soll.
soll@@
Soll@@
solle
sollen
sollen,
sollen.
sollev@@
solleva
sollte
Sollte
sollte,
sollte.
sollten
Sollten
sollten,
sollten.
solo
Solo
solo,
solo.
soltanto
solu@@
solut
soluzione
soluzione,
soluzione.
soluzioni
soluzioni.
som@@
Som@@
somigli@@
somiglia
somit
Somit
somm@@
Somm@@
somma
Sommer
Sommer@@
sommergi@@
son
son,
son:
son.
son@@
Son@@
sonda
sondag@@
Sonde
sonder@@
Sonder@@
sondern
Sondern
Song
[...]
