die 42637
und 36382
der 28986
in 22851
das 22477
zu 21608
ist 21324
es 19958
ich 19343
wir 18470
Und 14969
sie 14824
Sie 14549
von 14436
ein 14191
eine 13728
dass 13546
den 12283
nicht 11661
mit 10832
auf 9515
Ich 9345
wie 9072
sich 8740
für 8191
man 7920
Das 7190
er 7084
als 6801
was 6756
um 6730
Es 6696
so 6345
sind 6271
diese 6122
dem 6027
an 5917
wenn 5817
im 5812
haben 5798
einen 5685
Wir 5495
war 5215
des 5060
über 4920
uns 4821
-- 4579
oder 4565
einer 4340
Aber 4297
aber 4296
en. 4279
einem 4251
Die 4151
en, 4135
auch 4083
sehr 4071
ist, 4032
hier 3896
aus 3879
nur 3785
dann 3603
– 3594
- 3505
hat 3475
also 3204
gibt 3177
dieser 3163
noch 3129
werden 3116
mich 3070
. 2984
etwas 2962
-@@ 2962
, 2949
können 2906
en 2906
kann 2879
nach 2870
"@@ 2861
wird 2818
Menschen 2804
habe 2780
s 2780
e, 2751
Wenn 2732
♫ 2700
t. 2681
t 2675
t, 2623
er@@ 2575
alle 2564
ver@@ 2552
bei 2468
e. 2460
mehr 2453
wirklich 2407
zum 2371
mir 2300
Ihnen 2271
ten 2261
weil 2245
Welt 2228
ung 2181
ist. 2155
an@@ 2146
te 2141
dieses 2114
am 2091
durch 2077
Er 2054
immer 2022
vor 2007
diesem 1973
keine 1949
Also 1944
en@@ 1902
viel 1882
ein@@ 1879
diesen 1870
Was 1866
sehen 1850
da 1842
meine 1832
unsere 1824
ihre 1798
aus@@ 1760
viele 1747
eines 1741
Leute 1734
? 1687
zwei 1647
wo 1644
sein 1633
auf@@ 1633
Art 1632
wurde 1629
Der 1612
einfach 1606
e 1598
haben, 1571
dies 1557
jetzt 1552
ab@@ 1539
andere 1536
zur 1530
bin 1526
In 1522
Zeit 1515
bis 1512
Leben 1511
anderen 1492
: 1479
ihr 1475
s@@ 1469
Dinge 1444
un@@ 1417
damit 1409
Jahren 1386
du 1385
alles 1382
Wie 1366
er, 1357
k@@ 1340
ge@@ 1337
haben. 1327
Jahre 1318
all 1311
Man 1308
müssen 1306
be@@ 1303
hatte 1283
sind, 1265
denn 1243
machen 1235
sind. 1229
es, 1223
ungen 1199
schon 1197
waren 1194
Hier 1194
s, 1189
mein 1185
muss 1172
vielleicht 1157
Ver@@ 1153
selbst 1143
sch@@ 1134
dort 1133
." 1130
war, 1127
ihnen 1124
einige 1123
K@@ 1122
ganz 1122
ung, 1119
S@@ 1117
werden. 1116
sehen, 1107
wissen 1103
" 1102
können. 1092
er. 1092
tatsächlich 1088
wieder 1086
geht 1086
ung. 1084
B@@ 1081
H@@ 1073
ent@@ 1063
paar 1058
ische 1048
werde 1048
drei 1047
Nun, 1042
seine 1041
An@@ 1040
würde 1037
ob 1034
TED 1031
en? 1030
t@@ 1029
nicht, 1028
ihn 1026
s. 1020
über@@ 1013
heute 1012
tun 996
möchte 988
Sie, 987
and 977
Diese 976
nun 974
h@@ 964
R@@ 960
denen 947
Kinder 946
vom 945
sein. 945
st@@ 938
meiner 934
neue 932
gut 930
ischen 929
genau 927
Dies 927
Ein 922
um@@ 922
Geschichte 921
ungs@@ 915
unserer 912
davon 912
vor@@ 907
Jahr 906
zu@@ 904
können, 903
te, 901
Teil 900
hat, 892
kein 889
sondern 881
T@@ 880
sein, 867
an, 865
ern 860
b@@ 856
darüber 850
mal 848
L@@ 848
unter 840
gerade 836
zwischen 833
F@@ 822
sten 818
Millionen 818
lich 815
ich, 815
Als 814
kann. 811
hat. 804
Eine 802
el@@ 802
ohne 798
sagen, 797
werden, 793
P@@ 783
ten, 782
Ein@@ 781
ziemlich 780
Aus@@ 779
ganze 778
sogar 778
gab 775
e@@ 775
w@@ 774
ihren 773
machen. 771
an. 769
wird. 767
während 766
M@@ 764
erste 763
Sch@@ 763
W@@ 762
jeder 758
etwa 757
warum 756
sagen 754
letzten 752
ende 750
E@@ 750
kommen 747
f@@ 740
ersten 739
gehen 739
Talk 735
einmal 733
unser 732
Ab@@ 728
nicht. 724
So 722
Er@@ 718
n@@ 718
m@@ 716
Prozent 716
sieht 716
große 715
Subtitles 713
Transcript: 713
te. 713
nie 711
r@@ 710
hatten 710
Ihre 706
in@@ 704
de 701
Vor@@ 692
könnte 691
meisten 687
welche 686
enden 681
dazu 681
et 680
sagte 679
D@@ 675
z@@ 671
Beispiel 671
war. 668
kommt 668
st 664
liche 662
es. 654
d@@ 654
isch 647
Also, 647
nichts 646
! 645
kann, 644
ert 643
meinem 641
wäre 639
wird, 639
wissen, 636
macht 633
Problem 630
sagte: 629
kleinen 628
N@@ 623
Tag 622
A@@ 621
Arbeit 616
ihrer 615
ins 614
Dann 611
al@@ 610
das, 609
d 609
ter 608
gen 607
el 605
eigentlich 605
dafür 605
aus. 604
kleine 603
wurden 602
eren 601
en: 594
chen 594
G@@ 592
ch@@ 591
meinen 589
ging 588
machen, 586
lichen 586
l@@ 585
gemacht 585
Bild 583
denke, 583
g@@ 583
glaube, 576
Dollar 575
unter@@ 574
her@@ 574
großen 573
Menge 573
o@@ 571
; 570
natürlich 568
Denn 568
10 568
vier 566
keinen 566
Un@@ 565
weiter 565
will 562
Ende 560
ganzen 556
end 556
Idee 555
m 551
y 550
ungen, 549
Im 546
re@@ 545
... 544
kam 544
C@@ 544
doch 544
em 542
tun, 541
et, 541
Ihr 540
?" 533
pro 533
„@@ 532
Frage 531
unseren 531
dabei 530
weniger 529
Geld 529
es@@ 528
Weg 527
ihm 527
hin@@ 526
et. 526
al 525
sehen. 524
zurück 523
et@@ 522
denke 522
p@@ 521
ten. 519
y@@ 517
seiner 517
weiß 514
Wasser 513
ungefähr 513
jemand 511
sagte, 508
jeden 506
en." 506
würden 505
allen 503
n 502
Land 501
on 501
sollte 497
tun. 497
seit 497
durch@@ 495
indem 495
20 494
Seite 494
ger@@ 493
daran 492
St@@ 492
gute 491
at@@ 491
ge 489
besser 488
or@@ 488
gibt, 488
ä@@ 487
gel@@ 487
ation 487
ar@@ 486
sollten 486
wollen 485
Menschen, 485
Da 484
jedes 482
Z@@ 481
stellen 480
wahrscheinlich 479
wenig 479
glaube 479
vielen 478
Auf@@ 478
wollte 476
Jetzt 474
O@@ 473
k 472
on@@ 470
zurück@@ 470
ere 470
eigenen 468
eb@@ 468
darauf 466
etwas, 465
a@@ 463
Mal 462
gegen 462
geben 462
J@@ 461
Weise 458
ste 458
"Ich 458
Technologie 455
di@@ 453
nehmen 449
li@@ 448
konnte 448
Zukunft 447
lange 445
ete 445
beim 444
nächsten 443
fast 443
Erde 443
neuen 439
seinen 439
st, 438
ungen. 438
bisschen 438
lassen 436
fünf 431
Dinge, 431
Afrika 431
g 428
eten 425
brauchen 423
ter@@ 423
Vielen 422
u@@ 422
Wissen 421
Daten 421
jede 420
Sache 420
habe, 419
ja 419
bekommen 419
le 418
eln 418
denken 417
Raum 417
passiert 416
der@@ 416
se 415
wir, 415
e-@@ 414
Du 414
'@@ 413
Weil 413
aus, 412
zusammen@@ 411
it@@ 410
finden 410
". 409
ischer 409
ur@@ 408
wurde. 408
e: 407
ieren 405
kl@@ 404
unserem 403
ens 402
nach@@ 400
enen 399
oft 398
Probleme 398
ja, 397
Person 397
gehen, 396
ei@@ 395
Ideen 394
Milliarden 394
könnten 391
weit 390
arbeiten 388
Warum 388
Planeten 387
d. 386
euch 386
erst 385
Frauen 385
Dank. 385
seinem 385
mit@@ 384
Über@@ 384
ü@@ 383
ern, 382
geb@@ 382
hatte, 382
New 382
leben 381
Welt. 380
ung@@ 379
licher 379
de@@ 378
gesehen 378
denken, 378
j@@ 377
schnell 377
Gehirn 377
d, 376
Nun 374
Kind 374
", 374
irgendwie 374
nen 373
n, 373
später 372
ak@@ 371
Welt, 371
i@@ 371
wurde, 370
Mit 369
bevor 369
Lebens@@ 369
bereits 368
isches 368
ert. 368
zeigt 368
wer 367
Meine 366
rei@@ 366
lich. 365
e? 365
ne 365
zeigen, 364
50 363
namens 363
100 363
genug 362
anzu@@ 361
a, 361
oben 361
Dieses 361
30 359
end@@ 359
überall 358
Be@@ 358
Natur 358
ken 357
gesch@@ 357
ern. 357
ene 356
os@@ 356
all@@ 356
heraus@@ 355
gehen. 355
Fall 355
ber@@ 355
sagt 355
einigen 354
eh@@ 353
ihrem 353
I@@ 353
Mann 352
ri@@ 352
cht@@ 352
n. 352
bringen 351
Arten 349
Ort 349
gerne 349
dachte 348
ek@@ 347
hier, 347
lang 346
Für 346
den, 346
Grund 346
menschlichen 346
fl@@ 345
verschiedene 345
z 344
zeigen 344
weiß, 343
Re@@ 343
Energie 343
vor, 343
kommen. 342
Zu@@ 342
verschiedenen 341
iert 341
Mutter 341
cht 341
au@@ 341
zusammen 341
hätte 340
am@@ 339
hin 339
begann 338
geben, 338
ier@@ 337
mir, 337
t? 337
den@@ 337
el, 337
gar 336
liches 336
wichtig 335
je 335
o 335
Leuten 334
innerhalb 333
Frau 332
Form 332
meine, 332
sie, 332
In@@ 331
Computer 330
System 329
Auf 329
is@@ 328
sah 327
elle 326
eg@@ 326
geben. 326
ot@@ 326
Oder 326
auf, 325
sechs 324
st. 324
einzige 323
sprechen 323
so, 322
gleichen 322
Bilder 321
besonders 321
a 321
en-@@ 321
wegen 320
Moment 320
Stadt 320
ter, 318
uns, 318
gen@@ 317
sp@@ 316
sen 315
ale 315
fen 314
ag@@ 314
igen 314
finden, 314
Buch 314
besten 314
em@@ 313
Unter@@ 313
da@@ 312
heißt 312
tes 311
ra@@ 311
ß@@ 311
lich, 311
habe. 310
beiden 310
halten 310
ges@@ 310
gibt. 309
jedem 309
bi@@ 309
Leute, 308
Wissenschaft 308
dar@@ 306
eben 306
möglich 306
verstehen, 305
Al@@ 304
bringen. 304
Design 304
Mein 304
Minuten 304
aller 304
USA 303
anderes 303
ens@@ 303
Körper 302
Um 301
ul@@ 301
Dieser 301
richtig 300
Gruppe 300
versuchen 300
ö@@ 300
wollen, 299
weiter@@ 299
gleich 298
eren. 298
menschliche 298
Fragen 297
mich, 297
dich 297
machte 296
ig@@ 296
kon@@ 295
Zeit@@ 295
Zeit, 295
weitere 294
men 294
Antwort 294
alen 294
Indien 293
ert, 293
de, 292
Welt@@ 292
bar 292
zwar 290
Gebäude 290
eren, 290
Kl@@ 290
ant@@ 289
Di@@ 289
ro@@ 289
el. 289
eher 289
ell 288
bei@@ 288
15 287
ein, 287
gen, 287
welches 287
ing@@ 287
h 287
än@@ 287
gemacht. 286
Punkt 286
würde. 286
nächste 286
t: 285
Geschichten 284
anders 284
verstehen 283
ige 283
alten 283
stellt 283
gest@@ 283
de. 282
nämlich 282
heraus, 282
ein. 281
gleiche 281
würde, 281
Spiel@@ 281
Ja, 280
geh@@ 280
enk@@ 280
ik@@ 279
hatte. 279
also, 279
lich@@ 279
glauben, 279
Vielleicht 278
sei 278
Schule 278
stehen 276
Stück 276
liegt 276
V@@ 276
überhaupt 275
wohl 275
Doch 275
wer@@ 274
che 274
Gott 274
Um@@ 273
Mädchen 273
musste 273
Vor 272
schw@@ 272
gesagt, 272
Musik 272
Informationen 272
Nicht 271
recht 271
tr@@ 271
Grunde 271
chten 271
gl@@ 270
us@@ 270
ed@@ 269
sagen: 269
bedeutet 268
ieren. 268
Stunden 268
bringen, 268
ellen 268
kommen, 268
tige 267
Lassen 267
letzte 266
finden. 266
bl@@ 266
end. 265
konnten 265
ieren, 265
sich, 265
eigene 264
Mon@@ 264
manchmal 264
dem, 263
as 262
zi@@ 262
sicher 262
alt 262
a. 262
Ist 262
ben 261
ben@@ 261
deren 261
gern 261
ch 260
obwohl 260
Bei 259
weiter. 259
Film 259
ol@@ 258
ell@@ 258
Projekt 258
schen 258
war@@ 258
ationen 258
Licht 257
Kindern 257
auszu@@ 257
steht 257
pl@@ 257
Haupt@@ 257
waren, 256
weg@@ 256
op@@ 256
Schul@@ 256
ti@@ 255
auf. 255
spr@@ 255
geht, 255
braucht 255
Universum 255
end, 254
alt@@ 254
bel@@ 254
direkt 253
schauen 253
sprechen, 253
on, 252
ern@@ 251
Internet 251
dr@@ 251
är@@ 251
ok@@ 250
nehmen, 250
Kopf 250
niemand 250
hier. 249
40 249
Ar@@ 249
Bi@@ 249
Fl@@ 249
.@@ 248
ing 248
gehört 248
Zum 248
sk@@ 248
funktioniert 247
sagt, 247
Ge@@ 246
entwickelt 246
Gesellschaft 246
teil@@ 246
gut. 246
sen@@ 245
lassen. 245
bedeutet, 245
damals 244
Lage 244
jedoch 244
solche 244
hoch@@ 244
isch. 243
Sp@@ 243
si@@ 242
Hilfe 242
3 242
Hand 242
k, 241
Möglichkeit 241
Mar@@ 240
Bau@@ 240
Entwicklung 240
bauen 240
um, 240
heit 240
bar@@ 239
Tiere 239
det 239
Nach@@ 239
os 239
g. 239
s-@@ 239
acht 238
hören 238
Kon@@ 238
k. 238
zweite 238
sieben 238
völlig 238
dir 238
waren. 237
ut@@ 237
den. 237
f 236
chte 236
' 236
o, 236
wollen. 235
möchte, 235
Sehen 235
best@@ 235
kleines 235
sage 235
mi@@ 235
meines 235
chen, 234
CA: 234
Familie 234
unten 233
könnte. 233
b 233
tern 233
sprechen. 232
To@@ 232
tigen 232
müssen, 232
unglaublich 232
ender 232
Regierung 232
[@@ 232
erte 232
2@@ 231
o-@@ 231
Augen 231
arbeiten. 230
Anfang 230
fand 230
darin 230
allem 230
alles, 230
Sachen 228
müssen. 228
Danke. 228
ad@@ 228
ehr@@ 228
as@@ 227
2 227
hätten 227
darüber, 227
kurz 227
anderer 226
enz@@ 226
Sprache 226
Grund@@ 225
ma@@ 225
isch, 225
ab. 224
Art, 224
Wort 223
ten@@ 223
Denken 223
ab 222
ar 222
genauso 222
dessen 222
us 222
zwei@@ 222
wei@@ 222
Haus 221
kamen 221
isch@@ 221
Anzahl 221
Jeder 221
geht. 221
sehr, 220
gen. 220
Gen@@ 219
o. 219
in, 219
zer@@ 218
Auto 218
aufzu@@ 218
gew@@ 218
Jahren, 217
Unsere 217
Lebens 217
gesagt 216
lernen 216
kommt, 216
ah@@ 216
g, 216
dern 216
Glück 216
nimmt 215
hinter 215
chen. 215
führen 214
versuchen, 214
ange@@ 214
Pl@@ 214
Alle 214
los@@ 214
zeigen. 214
neu 214
größte 214
Vater 214
der, 213
ation@@ 213
voll@@ 213
Dingen 213
halten. 212
bringt 212
ist: 212
glauben 212
fahr@@ 212
] 212
Herz@@ 212
ist@@ 212
Stellen 212
er-@@ 211
das? 211
unseres 211
hab@@ 211
fer@@ 211
Länder 211
sie. 211
nahm 210
est@@ 210
fest@@ 210
Schauen 210
Kunst 210
en; 210
5 209
Unternehmen 209
getan 209
kennen 209
jemals 209
York 209
ge, 209
gem@@ 208
Reihe 208
ger 208
größten 208
wurden. 208
8@@ 208
Ziel 208
y. 208
— 208
groß 207
hatten, 207
niemals 207
weg 207
me 207
sagt: 207
3@@ 206
's 206
eins 206
reden 206
Alles 206
u 206
versch@@ 206
4@@ 205
br@@ 205
zehn 205
hatten. 205
ation, 205
ck@@ 205
m, 205
Bl@@ 205
äu@@ 204
cht, 204
"Was 204
schwer 204
will, 203
Viele 203
Vortrag 203
ft 203
arbeiten, 203
Namen 203
dass, 203
kt 203
Rück@@ 202
führ@@ 202
wieder@@ 202
ation. 202
daran, 202
gesamte 202
v@@ 202
Jahren. 202
fanden 201
Tage 201
bare 201
Verbindung 201
falls 201
führt 200
wäre, 200
man, 200
ab, 200
Ihren 200
or 200
ie 200
en?" 200
deshalb 199
and@@ 199
nutzen 199
um. 199
Ch@@ 199
die, 199
fragen 199
ent 199
iert. 199
ni@@ 199
Oberfläche 199
Macht 198
e" 198
schaffen 198
ch, 198
ft@@ 198
6@@ 198
ierte 198
Wasser@@ 197
l 197
Wochen 197
bekommen. 197
Woche 196
genommen 196
lei@@ 196
Hause 195
dachte, 195
erst@@ 195
mag 195
Li@@ 195
ser@@ 195
nachdem 194
tig 194
so@@ 194
ach@@ 194
Eltern 194
cht. 193
kt@@ 193
U@@ 193
Natürlich 193
stellte 193
ür@@ 193
eu@@ 193
alte 193
hoch 193
ausge@@ 192
erkennen, 192
Wer 192
wür@@ 192
Sinn 192
Spiel 192
fe 192
Gefühl 192
4 192
ur 192
schließlich 191
Unterschied 191
los 191
Vereinigten 191
Gel@@ 191
darum 191
Liebe 191
miteinander 191
il@@ 191
anz@@ 191
Teile 191
auch, 191
versucht 191
Str@@ 190
besteht 190
voll 190
liebe 190
einander 190
her 190
bau@@ 190
ter. 190
mussten 189
a-@@ 189
bitte 189
kleiner 189
Technik 189
Monate 189
Nein, 189
pf@@ 189
guten 189
leben. 188
Menschen. 188
Gr@@ 188
"Das 188
En@@ 188
ün@@ 188
Par@@ 188
al. 188
Thema 187
essen 187
m. 187
soll 187
helfen 187
einzu@@ 187
Land@@ 187
nennen 187
Größe 187
wichtig, 186
ann@@ 186
se@@ 186
Rest 186
China 186
mer@@ 186
Qu@@ 186
davon, 186
zeigt, 186
ob@@ 186
Au@@ 186
Autos 185
Gra@@ 185
kommt. 185
Ma@@ 185
daraus 185
denk@@ 185
Von 185
draußen 185
eck@@ 185
beide 185
Se@@ 184
sonst 184
be 184
stellen. 184
zuvor 184
Hand@@ 184
bekommen, 184
großer 184
passiert, 184
at 184
Deshalb 184
om@@ 183
Am 183
mache 183
ler 183
Kor@@ 183
leben, 183
darum, 183
7@@ 183
og@@ 183
Krieg 183
Ent@@ 183
Mit@@ 182
führen. 182
Ihrem 182
lässt 182
könnte, 182
ick@@ 182
absolut 182
aten 182
ir@@ 182
Einige 182
Schritt 182
Kraft 182
fahren 182
Verhalten 182
Video 182
einfache 181
Muster 181
pi@@ 181
danach 181
möglichen 181
Meter 181
Zeit. 181
dazu, 181
zen 181
Mitte 181
"H@@ 181
wi@@ 181
Vi@@ 180
!" 180
endes 180
Y@@ 180
str@@ 180
vi@@ 180
findet 179
neues 179
dafür, 179
ank@@ 179
leg@@ 179
All 179
25 179
herum 179
Gedanken 179
ster 179
Co@@ 179
ers 179
und@@ 179
macht, 179
Atom@@ 179
fen, 178
hier@@ 178
Ihrer 178
Selbst@@ 178
Preis 178
plötzlich 177
ste, 177
Ber@@ 177
5@@ 177
richtige 177
pp@@ 176
Staaten 176
im@@ 176
Ding 176
das. 176
Tatsächlich 176
i 176
bist 176
Blick 176
beg@@ 176
lieb@@ 175
1@@ 175
Mo@@ 175
zurück. 175
sicher, 175
lassen, 175
dann, 175
bauen. 175
ex@@ 175
bet@@ 175
Freunde 175
komm@@ 174
gleich@@ 174
stand 174
heit. 174
gebaut 174
elt 174
x 174
Lösung 174
Nach 174
e." 174
per@@ 174
zeit@@ 174
soziale 174
sl@@ 173
nehmen. 173
ang@@ 173
land@@ 172
Luft 172
ziehen 172
hl@@ 172
Lehr@@ 172
passiert. 172
spiel@@ 172
heit, 172
Richtung 172
iert, 172
gesehen, 172
So@@ 171
oren 170
zeige 170
Essen 170
nahmen 170
Eines 170
herum@@ 170
El@@ 170
chte, 170
funktioniert. 170
Karte 170
y, 170
ch. 170
hal@@ 170
Patienten 170
Mensch@@ 169
Chris 169
Hälfte 169
anstatt 169
Groß@@ 169
schaffen, 169
Grund, 169
Idee, 169
hast 169
Ru@@ 168
worden 168
beginnen 168
sin@@ 168
Meinung 168
zeit 168
Technologien 168
und, 168
Während 168
fragte 168
ph@@ 168
sen, 168
setzen 167
wollten 167
Design@@ 167
entwickeln 167
Schw@@ 167
daß 167
gestellt 167
Bewegung 167
ans 166
Markt 166
konnte. 166
sel@@ 166
Vorstellung 166
Amerika 166
Schl@@ 166
spielen 166
eller 166
scheint 166
verstehen. 165
6 165
Leben. 165
erzählen. 165
Erfahrung 165
macht. 165
schaft 165
einzelne 165
att@@ 165
benutzen 165
Dinge. 165
per 164
innen 164
Prozess 164
chten, 164
Wirtschaft 164
leicht 164
18 164
Pro@@ 164
200 164
Eis@@ 164
Foto 164
gingen 163
12 163
ess@@ 163
Si@@ 163
ati@@ 163
le@@ 163
falsch 163
konnte, 163
man@@ 163
halten, 162
Ihnen, 162
c@@ 162
heiten 162
Heute 162
baren 162
beste 162
seh@@ 162
erzählen, 162
Fahr@@ 162
ef@@ 162
gut, 162
Tat 162
Tier@@ 162
so. 162
Evolution 162
en" 161
sagen. 161
außer 161
ete, 161
Firma 161
Geschichte. 161
komplett 161
leb@@ 161
Kultur 161
ast@@ 161
Boden 160
bekommt 160
gemacht, 160
beweg@@ 160
ff@@ 159
verändern. 159
ru@@ 159
daher 158
al, 158
Können 158
da, 158
Reise 158
1 158
ums 158
Nur 158
schi@@ 158
Licht@@ 158
sehe 158
"S@@ 158
Wal@@ 158
beh@@ 158
ha@@ 158
richtigen 157
jemanden 157
Studenten 157
Öl@@ 157
hinter@@ 157
sterben 157
wurden, 157
lichkeit 157
ca. 157
Regeln 157
bes@@ 157
essen. 157
Computer@@ 157
ap@@ 157
ster@@ 157
tig@@ 157
p 157
Bereich 156
eil@@ 156
Sache, 156
bereit@@ 156
8 156
bauen, 156
ör@@ 156
Super@@ 156
Wahrheit 156
davon. 156
erk@@ 156
Auch 155
ko@@ 155
Team 155
gt 155
stellen, 155
voller 155
Struktur 155
Sonne 155
.“ 155
Modell 155
spricht 154
60 154
hei@@ 154
Ländern 154
Zahl 154
and, 154
ech@@ 154
Veränderung 154
Situation 154
welcher 153
leit@@ 153
sagten, 153
bestimmten 153
gesehen. 153
wachsen 153
Tages 153
Best@@ 152
grün@@ 152
erung 152
erreichen 152
stark 152
Hoch@@ 152
bin@@ 152
Or@@ 152
ändern 152
Lehrer 152
neu@@ 151
erzählt 151
ett@@ 151
wären 151
sagten 151
sen. 151
gleichzeitig 151
ständig 151
wert@@ 151
Frage, 151
verändert 151
heißt, 151
ack@@ 151
af@@ 150
ho@@ 150
Nummer 150
zuerst 150
zumindest 150
ität 150
enten 150
wunder@@ 150
gi@@ 150
egen 150
glücklich 149
Männer 149
drei@@ 149
Neu@@ 149
ment@@ 149
par@@ 149
sofort 149
men@@ 149
schrieb 149
nutzen, 149
deine 149
men, 148
Teil@@ 148
langen 148
hervor@@ 148
erhalten 148
trotzdem 148
7 148
son@@ 148
and. 148
verändern 148
mel@@ 148
Kinder@@ 148
frei@@ 148
gegeben 148
tun? 147
Umwelt@@ 147
ger, 147
Million 147
bewegen 147
gewesen 147
Kunst@@ 147
schön 147
of 147
ß 147
abzu@@ 147
vier@@ 147
19@@ 147
Wirklichkeit 147
qu@@ 146
Ex@@ 146
Architektur 146
ät@@ 146
stell@@ 146
zw@@ 146
9@@ 146
Platz 146
Beziehung 146
wusste 146
wollte, 146
tut 146
Wissenschaftler 145
länger 145
gr@@ 145
erkennen 145
ker 145
Süd@@ 145
x@@ 144
gegenüber 144
Jahrhundert 144
großartige 144
brachte 144
Fähigkeit 144
irgendwo 144
gesamten 144
wirk@@ 144
nur, 144
eig@@ 144
Möglichkeiten 144
Erfolg 143
tion 143
muss. 143
te@@ 143
lag@@ 143
Generation 143
get@@ 143
bar. 143
fangen 143
ihres 143
deut@@ 143
iger 143
Körper@@ 143
fort@@ 143
Wi@@ 143
bil@@ 142
schaffen. 142
Aufgabe 142
Rei@@ 142
Leben, 142
erzählen 142
bin, 142
wichtige 142
interessante 142
zusammen. 142
muss, 142
on. 142
mo@@ 142
Sh@@ 141
Ku@@ 141
mehr. 141
ations@@ 141
halt@@ 141
Ur@@ 141
"Die 141
ähnlich 141
Sk@@ 141
80 141
her. 141
Theorie 141
verwenden 140
rund 140
ich. 140
sowohl 140
bedeut@@ 140
nicht@@ 140
normalerweise 140
bekannt 140
mögen 140
seines 140
Rolle 140
helfen, 140
Publikum 140
äh@@ 140
mach@@ 140
ris@@ 140
besch@@ 140
hen 140
David 139
nen, 139
hi@@ 139
Prinzip 139
interessant 139
Freund 139
Bezug 139
oll@@ 139
Spr@@ 139
oder? 139
Kom@@ 139
bestimmte 139
Bedeutung 139
zu. 139
schl@@ 139
“ 139
Krebs 139
ander@@ 139
kam, 139
fing 139
cher 139
po@@ 139
Zu 138
amerikanischen 138
Tagen 138
Su@@ 138
größer 138
könnten. 138
Orte 138
herauszufinden, 138
bald 138
nis 138
würden. 138
500 138
Kosten 138
Natur@@ 138
einfach@@ 137
pr@@ 137
bereit 137
nutz@@ 137
ich@@ 137
würden, 137
äl@@ 137
wider@@ 137
echte 137
TED-@@ 137
Zwei@@ 137
Geb@@ 137
immer, 136
fen. 136
sich. 136
"Wir 136
schlecht 136
Einfluss 135
bessere 135
Her@@ 135
Ger@@ 135
Beispiel, 135
Wo 135
Bildung 135
ekt@@ 135
hören. 135
erten 135
passieren 135
ner 135
beginnt 135
Gehirn@@ 135
kannst 135
Im@@ 135
ensch@@ 135
weise 134
fall@@ 134
fin@@ 134
denken. 134
t." 134
ens, 134
bo@@ 134
offensichtlich 134
Bo@@ 134
manche 134
hör@@ 134
wir@@ 134
außerhalb 134
neben 133
Nacht 133
bekam 133
er: 133
globalen 133
Problem. 133
sobald 133
Google 133
solchen 133
eigen@@ 133
An 133
laufen 133
aufge@@ 133
fi@@ 133
Tatsache, 133
Mensch 133
Wert 133
Br@@ 133
machten 132
inn@@ 132
Gesundheits@@ 132
dies@@ 132
tausende 132
Kinder, 132
nennen. 132
Stelle 132
viel@@ 132
Straße 132
Gemeinschaft 132
danke 131
ran@@ 131
sollte. 131
konnten. 131
endlich 131
ass@@ 131
versucht, 131
san@@ 131
West@@ 131
20@@ 131
Mann, 131
lernen, 131
% 131
echt 131
ke 131
ente 131
are 130
kaufen 130
sier@@ 130
All@@ 130
selben 130
Monaten 130
riesige 130
Fähigkeiten 130
Mor@@ 130
sieht, 130
tiger 130
Bücher 130
wichtiger 130
ed 129
z, 129
Bevölkerung 129
alter 129
Universität 129
funktionieren 129
Ro@@ 129
age 129
lan@@ 129
Alter 129
Gesch@@ 129
nun, 129
allein 129
Version 129
Dar@@ 129
großes 129
könn@@ 129
ine 129
la 129
anischen 128
treffen 128
setzt 128
enst@@ 128
OK, 128
reg@@ 128
Gebiet 128
Kur@@ 128
in. 128
sagten: 128
Sa@@ 128
Bet@@ 128
kann@@ 127
Geschichte, 127
aler 127
Ju@@ 127
Oh, 127
Okay, 127
einzelnen 127
fragen, 127
Städte 127
Einer 127
dung 126
Maschine 126
vorstellen 126
Gesundheit 126
Ort, 126
hoffe, 126
entweder 126
Denk@@ 126
198@@ 126
Mikro@@ 126
Bakterien 126
her, 126
gutes 126
-S@@ 126
verw@@ 126
näher 126
hol@@ 126
sahen 126
stand@@ 126
könnten, 126
Zahlen 126
genannt 126
natürlich, 126
weltweit 125
tion@@ 125
mal@@ 125
junge 125
onen 125
fel@@ 125
hundert 125
fliegen 125
Roboter 125
itz@@ 125
einge@@ 125
Grenzen 125
na@@ 125
Programm 125
Ja. 125
Sicht 125
ant 125
se, 125
Met@@ 125
Schulen 125
Eis 125
uren 124
eit@@ 124
gezeigt 124
wann 124
De@@ 124
komme 124
fühl@@ 124
gra@@ 124
ma 124
versuche 124
Objekt 124
Mitgefühl 124
spielen. 124
"W@@ 124
os, 123
Beginn 123
acht@@ 123
Wei@@ 123
Herausforderung 123
Angst 123
Menschheit 123
heutigen 123
Raum@@ 123
verwendet 123
schwierig 123
Jahr@@ 123
uns. 123
Konzept 123
z.B. 123
Vergangenheit 123
est 123
Geschäfts@@ 123
heit@@ 122
r 122
sprach 122
gebracht 122
klar, 122
9 122
Mars 122
interessiert 122
ität, 122
ität. 122
,@@ 122
unterschiedliche 122
ären 122
ock@@ 122
Seiten 122
wahr@@ 122
Uhr 122
Prot@@ 122
jetzt, 122
Name 122
Hei@@ 122
du@@ 122
che, 122
zweiten 122
Spezies 122
hören, 122
Leb@@ 121
Tr@@ 121
enz 121
ales 121
aufgrund 121
vor. 121
Sicherheit 121
gemeinsam 121
unglaubliche 121
Ozean 121
Umgebung 121
führte 121
Po@@ 121
Beispiele 121
bewusst 121
ßen 121
nein, 121
essen, 121
Kan@@ 121
langsam 121
Haus@@ 121
– @@ 121
wichtig. 120
ierten 120
lösen 120
dritte 120
wirklich, 120
eten. 120
Gegen@@ 120
So, 120
vorher 120
gelernt 120
kor@@ 120
ne@@ 120
alt. 120
selbst. 119
tig. 119
Amerikaner 119
tiges 119
nah@@ 119
chten. 119
Formen 119
hing@@ 119
lesen 119
enden, 119
War@@ 119
zahl@@ 119
mehrere 119
Gest@@ 119
sozialen 119
nennt 118
Material 118
Wirk@@ 118
eure 118
Umwelt 118
Armut 118
teilen 118
gekommen 118
"Wie 118
Gruppen 118
ber 118
sa@@ 118
oh@@ 117
Monat 117
schneller 117
system 117
sten, 117
wä@@ 117
egal 117
heutzutage 117
schreiben 117
ehen 117
Und, 117
Gemein@@ 117
amm@@ 117
sche 117
begannen 117
lu@@ 117
anz 117
zu, 117
ziehen. 117
Artikel 117
Suche 117
mein@@ 117
Konferenz 117
inter@@ 117
Mal, 116
größeren 116
ebenso 116
Daher 116
Nutz@@ 116
Weg, 116
Jahre, 116
Luft@@ 116
legen 116
suchen 116
sollte, 116
Forschung 116
bisher 116
tionen 116
ord@@ 116
Ri@@ 116
For@@ 116
Information 116
Zi@@ 116
At@@ 116
Entscheidungen 116
öffentlichen 115
Noch 115
Ebene 115
mar@@ 115
Zentrum 115
jungen 115
extrem 115
Designer 115
mer 115
Kar@@ 115
äch@@ 115
Gesicht 115
Öl 115
neun 115
Krankheit 115
gefunden 115
Mal@@ 115
Wel@@ 115
vorstellen, 115
Ne@@ 115
hän@@ 114
John 114
ativen 114
kennen, 114
brauchen, 114
arbeit@@ 114
Orten 114
lö@@ 114
star@@ 114
ismus 114
damit, 114
ll@@ 114
lin@@ 114
tragen 114
Meer 114
Danke 114
möchten 114
sollten. 114
zusammen, 114
veränder@@ 114
verbunden 114
älter 114
Bu@@ 114
Kr@@ 114
kan@@ 114
gier@@ 114
Fotos 114
Ok, 114
Nord@@ 114
app@@ 113
Problem@@ 113
einfachen 113
statt 113
300 113
sti@@ 113
Bar@@ 113
arbeitet 113
geschrieben 113
will. 113
schon, 113
steh@@ 113
ebenfalls 113
erreichen. 113
Dorf 113
zurück, 113
Mi@@ 113
klein 113
schn@@ 112
Auswirkungen 112
nehme 112
gegangen 112
mu@@ 112
ändern. 112
finanzi@@ 112
Himmel 112
län@@ 112
Interesse 112
Linie 112
Jedes 112
Kontrolle 112
heraus 112
bra@@ 112
f. 112
Experiment 112
hab 112
Medien 112
eln, 112
ac@@ 112
kenn@@ 111
eten, 111
Nor@@ 111
Leuten, 111
Reg@@ 111
fall 111
ben. 111
ens. 111
erreicht 111
us, 111
Sinne 111
übrigens 111
wert 111
einfach. 111
Web@@ 111
möglich@@ 111
Morgen 111
Farbe 111
Arbeits@@ 111
einfach, 111
herunter@@ 111
ost@@ 111
Arm 111
"N@@ 110
zul@@ 110
schlechte 110
globale 110
Part@@ 110
Film@@ 110
Tod 110
Durch@@ 110
üs@@ 110
klar 110
Zeitpunkt 110
einig@@ 110
bestimmt 110
Problem, 110
Energie@@ 110
Gene 110
Damit 110
Menschen@@ 110
links 110
kaum 110
echten 110
form@@ 110
stoff@@ 110
Fel@@ 110
Geist 110
eln. 109
sein@@ 109
Man@@ 109
riesigen 109
kom@@ 109
Produkt 109
fehl@@ 109
keiner 109
Künstler 109
mitt@@ 109
Zusammen@@ 109
Realität 109
OK. 109
tig, 109
ate 109
arbeite 109
c 109
Fisch@@ 109
sitzen 108
ft, 108
wenige 108
Sache. 108
Okay. 108
ist? 108
blick@@ 108
mal, 108
Weise, 108
tief 108
Typ 108
tau@@ 108
met@@ 108
weisen 108
Zugang 108
ben, 108
sh@@ 108
Hinter@@ 108
Auge 108
Einzel@@ 108
Hy@@ 107
Energi@@ 107
spann@@ 107
finde 107
wahr? 107
Markt@@ 107
f, 107
stehen. 107
gang 107
Meeres@@ 107
größere 107
Zellen 107
bleiben 107
Frei@@ 107
-T@@ 107
spielt 107
Ergebnis 107
su@@ 107
guter 107
Internet@@ 107
einzigen 107
Blut@@ 106
liegen 106
11 106
vers@@ 106
land 106
mil@@ 106
helfen. 106
Ide@@ 106
re 106
HIV 106
Hirn@@ 106
DNA 106
Verständnis 106
krei@@ 106
entfernt 106
us. 105
ologie 105
entwickeln, 105
Bäume 105
schauen, 105
Pr@@ 105
Möglichkeit, 105
gesprochen 105
197@@ 105
tausend 105
aren 105
il 105
Nahrungs@@ 105
Druck@@ 105
zut@@ 105
sollen 105
ic@@ 105
tigkeit 105
Grad 105
desto 105
erreichen, 105
dein 105
eigenes 105
Per@@ 105
one 105
siert 105
Nahrung 105
18@@ 105
Bil@@ 105
fun@@ 105
Bühne 104
ag 104
Spaß 104
dadurch 104
bilden 104
bleibt 104
keit, 104
nicht? 104
führen, 104
Unser 104
betrachten, 104
hinzu@@ 104
neuer 104
handelt 104
Regel 104
statt@@ 104
trag@@ 104
bewegen. 104
Ak@@ 104
Gi@@ 104
Dort 104
Jahr. 104
Gott, 104
schlag@@ 104
alle, 103
tra@@ 103
ori@@ 103
stelle 103
fallen 103
erz@@ 103
196@@ 103
darauf, 103
fühlen 103
Fehler 103
fertig@@ 103
Industri@@ 103
Krankheiten 103
Musik@@ 103
läuft 103
os. 103
Am@@ 103
Tür 102
Gew@@ 102
alisier@@ 102
testen 102
Dollar. 102
ang 102
Pil@@ 102
Pflanzen 102
Keine 102
Zeug 102
fer 102
Herz 102
Wohn@@ 102
men. 102
Software 102
Land, 102
Le@@ 102
ose 102
Gl@@ 102
geg@@ 102
rat@@ 102
Materialien 102
Aufmerksamkeit 102
Zwei 102
zogen 101
Haben 101
lief 101
Gerät 101
Labor 101
tolle 101
nung 101
Milliarde 101
wär@@ 101
wollte. 101
Publikum: 101
usw. 101
darin, 101
stra@@ 101
Punkte 101
ingen 101
hinaus 101
ort@@ 101
h, 101
fest, 101
ft. 100
gut@@ 100
schul@@ 100
as, 100
gener@@ 100
schaften 100
elles 100
Europa 100
frühen 100
es? 100
lieben 100
sch 100
Teilen 100
off@@ 100
Pal@@ 100
Manchmal 100
Mittel@@ 100
glich 100
alität 100
ück@@ 100
Vari@@ 100
Gesetz 100
fahren, 100
Kopf@@ 100
Trau@@ 100
arbeitete 100
tief@@ 100
fr@@ 100
ott@@ 100
zei@@ 100
auen 100
schön. 100
gestern 99
weiterhin 99
Lösungen 99
früher 99
lige 99
verloren 99
fte 99
jemandem 99
wichtigsten 99
Firmen 99
reden. 99
natürliche 99
Atmosphäre 99
klar@@ 99
Tag, 99
hinein@@ 99
gehört, 99
setzen. 99
dig@@ 99
frei 99
verändert. 99
Test@@ 99
schöne 99
Sprach@@ 99
Job 99
dorthin 99
aden 99
Personen 99
Wasser, 99
tu@@ 99
Selbst 99
ink@@ 99
aut@@ 99
s: 99
geschehen 99
ken, 99
ziehen, 98
Flugzeug 98
betr@@ 98
rechten 98
Masse 98
dasselbe 98
Jahr, 98
he@@ 98
recht@@ 98
sollten, 98
woll@@ 98
sage, 98
müs@@ 98
Bild, 98
stehen, 98
hätte, 98
Dr. 98
konnten, 98
unden 98
mich. 98
kauf@@ 98
geboren 98
nis@@ 98
mir. 98
Bewusstsein 98
üt@@ 98
gefähr@@ 98
Gleich@@ 98
mor@@ 98
tion, 98
Rech@@ 98
Hände 98
ali@@ 97
Wahl 97
Technologie, 97
Nein. 97
ce 97
geworden 97
Organisation 97
Pf@@ 97
irgend@@ 97
stellung 97
nach, 97
Wachstum 97
entwickelt, 97
Innovation 97
scher 97
Zw@@ 97
zus@@ 97
dreht 97
erstes 97
erinnern, 97
tiert 97
My@@ 97
Kern@@ 97
versuchte 97
anten 97
Stunde 97
Stimm@@ 97
bewegt 97
etz@@ 97
linken 97
deck@@ 97
osen 97
tat 97
n? 97
letztes 97
Manche 97
benutzt 97
Tier 97
agen 96
sion 96
dem@@ 96
fähig 96
aller@@ 96
verwenden, 96
ett 96
omi@@ 96
wiederum 96
els 96
Paul 96
Richard 96
Frau, 96
vorher@@ 96
für@@ 96
nenne 96
Niemand 96
gebracht. 96
sozusagen 96
Herr 96
sei@@ 96
ons 96
hoffe 96
Brot 96
Wer@@ 96
Mathematik 96
A 96
Netzwerk 96
Ball@@ 96
erzählte 95
at, 95
Kohl@@ 95
km 95
eut@@ 95
nachdenken, 95
or, 95
dig 95
setzen, 95
ck 95
Wesen 95
fil@@ 95
gab. 95
rechts 95
sodass 95
Fuß@@ 95
raus@@ 95
ßen, 95
Forsch@@ 95
werde, 95
sag@@ 95
Sterne 95
stu@@ 95
har@@ 95
CO2 95
far@@ 95
weg. 95
ließen 95
kostet 95
Sehr 95
gearbeitet 95
Nachricht 95
treten 94
Genau 94
iti@@ 94
amerikanische 94
ganzes 94
wusste, 94
weiter, 94
gestellt, 94
000 94
mon@@ 94
Worte 94
möglicherweise 94
0ern 94
ade 94
Ander@@ 94
Fuß 94
hält 94
for@@ 94
Wand 94
Revolution 94
denkt 94
Sohn 94
Behandlung 94
C 94
Sie. 94
Buch@@ 94
Mil@@ 94
Meilen 93
ator 93
reden, 93
Veränderungen 93
keit. 93
mindestens 93
hängt 93
Regierungen 93
Geschäft 93
Dass 93
aussehen 93
mehr, 93
ansehen, 93
Erd@@ 93
nütz@@ 93
Lei@@ 93
20. 93
fertig 93
ker@@ 93
Kilometer 93
dort, 93
keiten 93
este 93
Geh@@ 93
Drei@@ 93
gende 93
führt. 93
kurze 92
Projek@@ 92
Politik 92
zier@@ 92
stellt, 92
ent. 92
ds 92
frage 92
üch@@ 92
"Oh, 92
den? 92
stellten 92
soll@@ 92
pro@@ 92
setz@@ 92
utz@@ 92
chen@@ 92
der. 92
los. 92
Wasser. 92
Lern@@ 92
sah, 92
TED@@ 92
Arbeit, 92
vermutlich 92
geschieht 92
eine, 92
Dingen, 92
ähn@@ 92
erschaffen 92
wissen. 92
Ster@@ 92
"Es 92
Werte 92
Dank 91
selbst, 91
Projekte 91
hin. 91
äs@@ 91
Bürger@@ 91
enh@@ 91
lebt 91
Liste 91
Massen@@ 91
sein? 91
erklärt 91
Ideen, 91
Beg@@ 91
etten 91
Sen@@ 91
später, 91
Not@@ 91
will@@ 91
Netz 91
d-@@ 91
versteh@@ 91
chter 91
Jung@@ 91
gt, 91
fühle 91
ren 91
ße 91
Pu@@ 91
reichen 91
Bill 90
mas@@ 90
hr@@ 90
wohin 90
AIDS 90
Verfügung 90
16 90
hil@@ 90
gebaut. 90
Jahre. 90
Prei@@ 90
Produkte 90
sicherlich 90
dieselbe 90
Chance 90
Fil@@ 90
hy@@ 90
ligen 90
Ph@@ 90
nahe 90
ften 90
ihnen, 90
sicher@@ 90
tier@@ 90
do@@ 90
erfolgreich 90
rück@@ 90
Spitze 90
ette 90
Arbeit. 90
em, 90
Hän@@ 90
ich: 90
edi@@ 90
I 90
Engl@@ 90
10.000 90
Schei@@ 90
Farb@@ 90
-F@@ 90
Aus 90
Krieg@@ 90
"Nein, 90
ner@@ 89
Stimme 89
Fernseh@@ 89
Todes@@ 89
Haufen 89
Raum, 89
welchem 89
wissenschaftliche 89
ge. 89
Schönheit 89
gaben 89
verschw@@ 89
24 89
Nähe 89
ill@@ 89
Nachrichten 89
z. 89
bli@@ 89
Studie 89
Verhaltens@@ 89
Englisch 89
erinnere 89
antwort@@ 89
Gol@@ 89
bin. 89
San 89
losen 89
Nehmen 89
Gut, 89
Klima@@ 88
hin, 88
dachten 88
fängt 88
Den 88
Verantwortung 88
Gewalt 88
kur@@ 88
gt. 88
äre 88
lernen. 88
weis@@ 88
irgendwann 88
gestellt. 88
anfangen, 88
stimm@@ 88
sau@@ 88
fa@@ 88
Ost@@ 88
no@@ 88
verändern, 88
Eigenschaften 88
erklären, 88
fahren. 88
," 88
emp@@ 88
abl@@ 88
psych@@ 88
nen. 88
Warum? 88
hörte 88
gehe 88
Schn@@ 88
vollständig 88
Person, 88
ini@@ 88
se. 88
wissenschaftlichen 88
Falls 88
Geld@@ 88
chte. 88
Th@@ 88
Augen@@ 88
rische 87
w 87
freund@@ 87
eben@@ 87
Zusammenhang 87
machen? 87
wor@@ 87
ari@@ 87
Geschwindigkeit 87
to@@ 87
0@@ 87
Kre@@ 87
schreiben. 87
Virus 87
Bes@@ 87
reich@@ 87
umzu@@ 87
Abend 87
klein@@ 87
ent, 87
Medi@@ 87
üst@@ 87
benutzen, 87
Kamera 87
ling@@ 87
Fähigkeit, 87
ante 87
Affen 87
teilen. 87
gar@@ 87
ationen. 87
Materie 87
Erde. 87
spielen, 87
wechsel@@ 87
ßen. 87
"A@@ 87
lauf@@ 86
abge@@ 86
heraus. 86
Hel@@ 86
stimmt 86
Familien 86
ppen 86
betrachten 86
gebe 86
Radi@@ 86
Ho@@ 86
sinn@@ 86
des@@ 86
richt@@ 86
hel@@ 86
Ansatz 86
Biologie 86
199@@ 86
heits@@ 86
erlaubt 86
erster 86
worüber 86
begann, 86
möchte. 86
gehört. 86
weiteren 86
Op@@ 86
oni@@ 86
da. 86
vorstell@@ 86
verstanden 86
No@@ 86
ken. 86
brau@@ 86
schei@@ 86
schönen 86
Zustand 86
jene 86
elte 85
kaufen, 85
Entscheidung 85
wen@@ 85
kennen. 85
400 85
produzieren 85
dabei, 85
Studi@@ 85
fizier@@ 85
verb@@ 85
Tisch 85
hunderte 85
genutzt 85
beeindruck@@ 85
plan@@ 85
fällt 85
anderen. 85
ing, 85
Druck 85
Zell@@ 85
unterschiedlichen 85
tigt 85
lau@@ 85
chi@@ 85
nachzudenken, 85
zell@@ 85
Sonnen@@ 85
mm@@ 85
Schi@@ 85
Wahl@@ 85
Höhe 85
weiteres 85
fühlt 85
Wieder@@ 85
merk@@ 85
kt. 85
ationen, 85
wunderbare 85
ete. 85
nächstes 85
Prozent. 85
fu@@ 85
Nacht@@ 85
Vergleich 85
oben. 85
Krei@@ 85
Bauern 85
Hin@@ 84
Aut@@ 84
Kollegen 84
eben. 84
sicht@@ 84
kürz@@ 84
ey 84
ator@@ 84
ging, 84
Sub@@ 84
orn@@ 84
bu@@ 84
fol@@ 84
buchstäblich 84
Kamer@@ 84
Beh@@ 84
Mann: 84
entlang 84
90 84
anfangen 84
erin 84
Hoffnung 84
Leidenschaft 84
Ergebnisse 84
tion. 84
Bis 84
Unterschiede 84
Inter@@ 84
kr@@ 84
mut@@ 84
kurzen 84
Ameisen 84
Fest@@ 84
traf 83
gilt 83
sieren 83
mittel 83
rieb@@ 83
andere, 83
halte 83
Schüler 83
formen 83
analy@@ 83
zehn@@ 83
Großteil 83
Finanz@@ 83
/@@ 83
Plan@@ 83
wichtigste 83
mäch@@ 83
größ@@ 83
Flug@@ 83
Gar@@ 83
enzen 83
passierte 83
Forschungs@@ 83
welchen 83
konstru@@ 83
kenne 83
möglich, 83
hört 83
Idee. 83
hafte 83
unbedingt 83
schaut 83
benutzen. 83
zusamm@@ 83
trei@@ 83
Bef@@ 83
ks 83
flieg@@ 83
Loch 83
bleiben. 83
treffen. 83
politische 83
i. 83
70 83
Karten 83
-B@@ 82
fen@@ 82
modernen 82
fasst 82
produ@@ 82
Geg@@ 82
enn@@ 82
Ressourcen 82
hart 82
sowie 82
Tag. 82
fli@@ 82
gab, 82
wussten 82
folgen 82
"Wenn 82
Sie? 82
ts 82
art@@ 82
irgendetwas 82
Vielfalt 82
wes@@ 82
wach@@ 82
hö@@ 82
Objekte 82
Seite, 82
natürlichen 82
Universums 82
Verbindungen 82
Religion 82
Tal@@ 82
Mö@@ 82
gering@@ 82
Welche 82
aub@@ 81
Sekunden 81
kaufen. 81
is. 81
Indi@@ 81
ig 81
ennen 81
Zeiten 81
verlassen 81
benutz@@ 81
Maschinen 81
Pri@@ 81
anti@@ 81
anderem 81
Spezi@@ 81
pa@@ 81
Gesetz@@ 81
bis@@ 81
sor@@ 81
druck@@ 81
Herzen 81
Mitt@@ 81
ar, 81
Jede 81
Land. 81
as. 81
reich 81
entschied 81
h. 81
du, 81
gewisse 81
schau@@ 81
sich@@ 81
lernte 81
erhalten, 81
ur. 81
Gang 81
vollkommen 81
Wind@@ 81
he 80
Ehr@@ 80
selbst@@ 80
kten 80
Demokratie 80
Sol@@ 80
letztendlich 80
zen@@ 80
diskut@@ 80
schaff@@ 80
sion, 80
Tatsache 80
Mond 80
Tanz@@ 80
zufällig 80
sion. 80
lösen. 80
Wort@@ 80
ernst@@ 80
Tran@@ 80
to 80
hoffentlich 80
ordn@@ 80
Eing@@ 80
Stand@@ 80
komplizier@@ 80
Komplexität 80
hohen 80
stei@@ 80
Regen@@ 80
Lebewesen 80
fisch@@ 80
olog@@ 80
trotz 80
hohe 80
elt. 80
0er 80
suchen, 80
James 80
Frage. 80
Ä@@ 80
pfen 80
anische 80
eter 80
Teilchen 80
Kli@@ 79
nis. 79
hielt 79
Fol@@ 79
Strom 79
besseren 79
log@@ 79
Sommer 79
hilft 79
satz 79
form 79
einiger 79
spar@@ 79
Werkzeuge 79
Seit@@ 79
wur@@ 79
erzeu@@ 79
nichts. 79
fühlen, 79
gewissen 79
männ@@ 79
entschieden 79
ment 79
entdeckt 79
erstaunliche 79
Sti@@ 79
wahr 79
Kinder. 79
ev@@ 79
erinnern 79
rechte 79
miss@@ 79
Lad@@ 79
“@@ 79
ow@@ 79
Prä@@ 79
"Warum 79
Beziehungen 79
ing. 79
nutzen. 79
sionen 79
Glauben 79
nach. 79
zug 79
is, 79
Stufe 79
grundlegende 79
diejenigen 79
afrikanischen 79
Wind 79
e! 78
Einkommen 78
einmal, 78
ste. 78
Ha@@ 78
verbr@@ 78
wirtschaftlichen 78
Arbeit@@ 78
Ern@@ 78
ei 78
äm@@ 78
tigung 78
hätte. 78
Farben 78
ogen 78
ep@@ 78
i, 78
kosten 78
schaft. 78
dagegen 78
ehrlich 78
seit@@ 78
Dat@@ 78
steht, 78
Methode 78
Du@@ 78
bri@@ 78
auftau@@ 78
ative 78
unmöglich 78
faszinier@@ 78
v 78
sf@@ 78
auch. 78
Systeme 78
Fü@@ 78
Ges@@ 78
eri@@ 78
ß, 78
rot@@ 78
total 78
Charles 78
Rau@@ 78
elt, 78
ließ 78
Del@@ 78
Gefühl, 78
Tag@@ 78
un 78
int@@ 78
eben, 78
00@@ 78
fuhr 77
schie@@ 77
hand@@ 77
mögliche 77
Do@@ 77
ös@@ 77
ung? 77
überrasch@@ 77
entwickeln. 77
Ko@@ 77
politischen 77
drück@@ 77
praktisch 77
ihr, 77
flu@@ 77
dachten, 77
änder@@ 77
Netz@@ 77
sicht 77
halb 77
Dollar, 77
werk@@ 77
Fach@@ 77
Te@@ 77
schätz@@ 77
min@@ 77
Pol@@ 77
heiß@@ 77
isten 77
Intelligenz 77
bewegen, 77
Müll@@ 77
Sand@@ 77
Wunsch 77
erhalten. 77
Fi@@ 77
Kann 77
Ter@@ 77
wis@@ 77
kin@@ 77
Fische 77
Neur@@ 77
lieber 77
art 77
eich@@ 77
deinen 77
solch 77
schön@@ 77
dort. 77
hauptsächlich 77
Schlaf@@ 77
hlen 77
mis@@ 77
gro@@ 77
Typen 77
th@@ 77
nisse 77
unde 77
setzung 77
wieso 77
egt 77
ay@@ 77
kürzlich 77
dern, 77
Präsident 77
heb@@ 76
Papier 76
genden 76
zeigte 76
Bur@@ 76
lebens@@ 76
Sauerstoff@@ 76
wäre. 76
entwickelten 76
dessen, 76
ener 76
frag@@ 76
Abl@@ 76
Fortschritt 76
mat@@ 76
s? 76
schlagen 76
Mittel 76
Gegensatz 76
Straßen 76
sam 76
itt@@ 76
eng@@ 76
ausdrück@@ 76
funktionier@@ 76
gefunden. 76
pt@@ 76
stecken 76
taten 76
sei, 76
Ihnen. 76
zentr@@ 76
Sein 76
richtig? 76
Wo@@ 76
Los 76
esten 76
Tür@@ 76
erfüll@@ 76
lig 76
bel 76
Tur@@ 76
sterben. 76
Hund 76
Freude 76
falsche 76
rel@@ 76
scheinen 76
"M@@ 76
ih@@ 76
Frauen, 76
lehr@@ 76
groß@@ 76
zurückzu@@ 76
che. 76
lose 76
"Du 76
fotograf@@ 76
quasi 76
spreche 76
Risiko 76
prä@@ 76
indi@@ 76
gkeit 76
Rede 75
rein 75
mitten 75
voraus@@ 75
vollen 75
150 75
Wirtschafts@@ 75
üb@@ 75
Bei@@ 75
schwarze 75
entwickelt. 75
rau@@ 75
gegeben, 75
US-@@ 75
schaft, 75
Recht 75
immer. 75
anschau@@ 75
geschaffen 75
son 75
wasser 75
co@@ 75
Mut@@ 75
ort 75
Programm@@ 75
ker, 75
Geld, 75
tru@@ 75
DNA-@@ 75
Vide@@ 75
legt 75
Position 75
Fernsehen 75
selber 75
Ki@@ 75
ät 75
experiment@@ 75
zeichn@@ 75
tz@@ 75
Landes 75
musst 75
Seite. 75
wenigen 75
holen 74
Mir 74
Entwicklungs@@ 74
weder 74
dauert 74
punkt 74
10@@ 74
Sicherheits@@ 74
Aber, 74
1,@@ 74
Jahres 74
befinden 74
tere 74
Schrit@@ 74
haf@@ 74
runter 74
Reaktion 74
geleg@@ 74
50@@ 74
zog 74
ger. 74
normalen 74
Gefühle 74
bewahr@@ 74
au 74
Antworten 74
D 74
ast 74
Flu@@ 74
samm@@ 74
"Der 74
Wissenschaft@@ 74
Ordnung 74
Obwohl 74
Bank@@ 74
lag 74
a: 74
erkennen. 74
schen, 74
bekannten 74
Telefon@@ 74
Bitte 74
drehen 74
kraft 74
seien 74
:@@ 74
lös@@ 74
Physik 74
dreh@@ 74
Früh@@ 74
DH: 74
BF: 74
Afrika, 73
sammeln 73
eil 73
deutlich 73
aner 73
Außerdem 73
na 73
11. 73
sar@@ 73
morgen 73
zellen 73
ppe 73
Wege 73
Ad@@ 73
ja. 73
eck 73
füll@@ 73
Seine 73
wobei 73
somit 73
gen? 73
ändern, 73
Sauerstoff 73
aus? 73
dank@@ 73
befindet 73
lern@@ 73
offen 73
sch. 73
Hom@@ 73
Filme 73
Kin@@ 73
Kampf 73
ler@@ 73
Mess@@ 73
Gründe 73
glück@@ 73
Mass@@ 73
Klimawandel 73
Al 72
Anderson: 72
betrachten. 72
pan@@ 72
leider 72
einfacher 72
zü@@ 72
Verw@@ 72
vorzu@@ 72
herum. 72
Modell@@ 72
Museum 72
akzep@@ 72
auff@@ 72
Kontakt 72
Kunden 72
tut, 72
eit 72
zieh@@ 72
"B@@ 72
Finger 72
rate 72
Gu@@ 72
gab@@ 72
Kontin@@ 72
Grün@@ 72
mehr@@ 72
inen 72
kost@@ 72
Medizin 72
lesen. 72
Erfahrungen 72
außerdem 72
14 72
folg@@ 72
"Sie 72
seite 72
Aktivität 72
Hu@@ 72
stand. 72
interessant, 72
genannt. 72
alles. 72
Solar@@ 72
sol@@ 72
Blog@@ 72
Fot@@ 72
Soldaten 72
ähnliche 72
werfen 72
Wohl@@ 72
anschauen, 72
Charakter 72
brauchen. 72
könnt 72
OK? 72
Ärzte 72
gegeben. 71
präsent@@ 71
funktioniert, 71
stoff 71
projek@@ 71
trau@@ 71
Robert 71
erwähn@@ 71
armen 71
organ@@ 71
Gelegenheit 71
Bildungs@@ 71
wichtigen 71
dün@@ 71
Junge 71
kehr@@ 71
Nieder@@ 71
pass@@ 71
Hintergrund 71
keit 71
wart@@ 71
Organismen 71
passier@@ 71
findet, 71
verkaufen 71
Na 71
Botschaft 71
ig. 71
wir. 71
satz@@ 71
repräsent@@ 71
atur@@ 71
alle. 71
Studien 71
volle 71
gemein@@ 71
em. 71
führung 71
sie: 71
Psych@@ 71
dat@@ 71
prü@@ 71
treffen, 71
bemerk@@ 71
weiss 71
Tief@@ 71
rig@@ 71
Objek@@ 71
London 71
Freund@@ 71
ach 71
teil 71
allerdings 71
dige 71
erzeugt 71
bild 71
zerstör@@ 71
verlieren 71
Folge 71
Lag@@ 70
en! 70
"Ja, 70
barer 70
S 70
finde, 70
gehalten 70
starke 70
zuzu@@ 70
rik@@ 70
fach@@ 70
Sachen, 70
200@@ 70
diejenigen, 70
braucht, 70
gebracht, 70
Hum@@ 70
wiederhol@@ 70
haben? 70
Quelle 70
lass@@ 70
lässt, 70
ur, 70
groß. 70
ad 70
Sor@@ 70
gn@@ 70
e; 70
weise, 70
aktiv 70
ende, 70
verkauft 70
zunächst 70
realen 70
wieder. 70
fühlte 70
Mis@@ 70
Far@@ 70
lang. 70
steht. 70
alleine 70
unden@@ 70
jährige 70
Sal@@ 70
steigen 70
meistens 70
atte 70
Fluss 70
drit@@ 70
ehen. 70
George 70
keiten. 70
wahrschein@@ 70
t; 70
sens@@ 70
Gott@@ 70
kop@@ 70
tern, 70
besondere 70
immer@@ 70
omie 70
wel@@ 70
Erde, 70
führt, 70
hinein 70
Wahrscheinlichkeit 70
hä@@ 70
nis, 70
Wörter 70
Win@@ 70
lichkeit, 69
Washington 69
ütz@@ 69
brauche 69
Landwirtschaft 69
Planeten, 69
trifft 69
Bio@@ 69
verdi@@ 69
bares 69
deswegen 69
te: 69
Jungs 69
assen 69
mir: 69
Projekt, 69
gend 69
Sex 69
13 69
begonnen 69
om 69
ologen 69
Nachdem 69
"Nun, 69
empf@@ 69
brauchte 69
beginnen, 69
wirkliche 69
Punkt, 69
del@@ 69
gebaut, 69
leisten 69
Medikamente 69
angefangen 69
dunkle 69
herr@@ 69
erklären 69
Kreativität 69
Jahrhunderts 69
schwer@@ 69
welt 69
ebt 69
gespielt 69
Begriff 69
icht. 69
Nichts 69
soll. 69
aten. 69
Pat@@ 69
Freunden 69
ka@@ 69
Schau@@ 69
Gal@@ 69
rich@@ 69
Spielen 69
zeiten 69
erzähle 68
Kat@@ 68
ung: 68
Lage, 68
Des@@ 68
gelöst 68
ermöglicht 68
erleb@@ 68
Leist@@ 68
mus@@ 68
wohl@@ 68
jährigen 68
Wider@@ 68
pfer@@ 68
alist@@ 68
Bedingungen 68
ierung 68
sprech@@ 68
Über 68
heute, 68
ren@@ 68
1. 68
rein@@ 68
Entdeck@@ 68
Weg@@ 68
tanz@@ 68
vertrau@@ 68
fass@@ 68
Region 68
Stück@@ 68
5.000 68
opp@@ 68
Jemand 68
möglichkeiten 68
ump@@ 68
war: 68
Kal@@ 68
Zuerst 68
fand, 68
sion@@ 68
beobachten 68
heil@@ 68
halbe 68
schein@@ 68
"-@@ 68
ging. 68
Moleküle 68
davor 68
Gehirns 68
achten 68
lässt. 68
achen 68
verlang@@ 68
600 68
liche, 68
geschah 68
mark@@ 68
relativ 68
Sam@@ 68
y-@@ 68
Sozial@@ 68
lichsten 68
Null@@ 68
online 68
nissen 68
Lied 68
ey@@ 67
bekann@@ 67
warten 67
iges 67
kurz@@ 67
sieren. 67
produziert 67
Verbreitung 67
betrachtet 67
geworden. 67
Baum@@ 67
ust@@ 67
krieg@@ 67
passt 67
erfolgreich@@ 67
imm@@ 67
Wil@@ 67
geführt 67
Bel@@ 67
mer, 67
Gesamt@@ 67
erweiter@@ 67
weise. 67
tik@@ 67
ase 67
me, 67
35 67
klapp@@ 67
Rahmen 67
jahr@@ 67
les@@ 67
unglaublich. 67
Ganze 67
T 67
äum@@ 67
interessant. 67
rä@@ 67
fragt 67
om, 67
Kontroll@@ 67
studi@@ 67
reu@@ 67
Vir@@ 67
besu@@ 67
enheit 67
wirst 67
gesagt: 67
erhöh@@ 67
greif@@ 67
schen. 67
schaft@@ 67
laut 67
erfunden 67
Versuch 67
Drittel 67
Büro 67
wirtschaft@@ 67
basiert 67
Tu@@ 67
ente, 67
ts@@ 67
Arzt 67
Ober@@ 67
Zauber@@ 67
ismus, 67
ser 67
Mc@@ 67
akt@@ 67
"The 67
stör@@ 67
Finger, 67
Ti@@ 66
fiel 66
Partner 66
Krit@@ 66
Sorgen 66
ne, 66
rett@@ 66
Durch 66
verursacht 66
det. 66
Wald 66
September 66
Perspektive 66
Infrastruktur 66
ane 66
Vol@@ 66
sub@@ 66
Fr@@ 66
fest 66
abhängig 66
Männern 66
gli@@ 66
haften 66
res@@ 66
agen, 66
habt 66
setzte 66
Dabei 66
Meer@@ 66
Frage: 66
erschaffen. 66
unglück@@ 66
was, 66
schlag 66
jemand, 66
mus 66
mensch@@ 66
ten? 66
Erwachsen@@ 66
alt, 66
entwickelte 66
Kind@@ 66
Sind 66
herauszu@@ 66
kriegen 66
barkeit 66
Physi@@ 66
Wes@@ 66
Park@@ 66
Gesellschaften 66
System, 66
einander. 66
erzeugen 66
Kaffe@@ 66
Krankenhaus 66
freien 66
normale 66
Tre@@ 66
las@@ 66
Afrika. 66
lig@@ 66
traditionellen 66
grund 66
Nachbar@@ 66
Fenster 66
zeig@@ 65
Ganz@@ 65
nahme 65
Baum 65
Energie, 65
Kräfte 65
digen 65
raus 65
bau 65
schnell. 65
Stadt@@ 65
erlauben 65
naja, 65
Industrie 65
mal. 65
wesentlich 65
Schön@@ 65
wohn@@ 65
los, 65
Bildern 65
arbeit 65
ins@@ 65
ese 65
enti@@ 65
teren 65
4. 65
lass 65
esen 65
Fer@@ 65
entscheiden, 65
durch. 65
Bro@@ 65
forder@@ 65
sch, 65
Dan 65
Seit 65
stück@@ 65
lagen 65
vergessen 65
enz. 65
17 65
moderne 65
häufig 65
genauer 65
sollen. 65
ihnen. 65
Feuer 65
Mat@@ 65
Koll@@ 65
gestalt@@ 65
mag@@ 65
la@@ 65
realisier@@ 65
kn@@ 65
Fein@@ 65
Beispiel. 65
Deswegen 65
Kein 65
ze 65
atoren 65
zit@@ 65
Galaxien 65
HIV-@@ 65
Erfindung 64
überprü@@ 64
anderen, 64
rier@@ 64
aktiv@@ 64
genommen, 64
Holz@@ 64
flü@@ 64
beobacht@@ 64
Themen 64
21. 64
denkt, 64
äußerst 64
fallen. 64
Dr@@ 64
entwickel@@ 64
an? 64
höher 64
Bild@@ 64
werk 64
ehen, 64
orient@@ 64
erlaub@@ 64
Phänom@@ 64
Händen 64
Me@@ 64
Tieren 64
spezi@@ 64
genug, 64
zahlen 64
klu@@ 64
woh@@ 64
Stadt, 64
ale, 64
ismus. 64
Brief@@ 64
forsch@@ 64
mischen 64
ischem 64
Ros@@ 64
weg, 64
gebrau@@ 64
lichkeiten 64
Gei@@ 64
Schwer@@ 64
werde. 64
Netzwer@@ 64
lichen, 64
klingt 64
wollten, 64
ind@@ 64
maß@@ 64
Eigentlich 64
Gehirn. 64
lichem 64
gehei@@ 64
verhalten 64
roten 64
mess@@ 64
nah 64
stattdessen 64
menschliches 64
Les@@ 64
öffnen 64
Jungen 64
net@@ 64
Freiheit 64
esi@@ 64
Web 64
ologe 64
erinnert 64
licht 64
Größ@@ 64
Dra@@ 64
möchten, 64
Planeten. 64
Stern@@ 64
ick 64
Sekunde 64
fei@@ 64
messen 64
wahre 63
gewöhn@@ 63
weißen 63
Zunächst 63
bar, 63
arr@@ 63
s" 63
glich@@ 63
wirtschaftliche 63
aufre@@ 63
Unternehmer@@ 63
lichkeit. 63
bilden. 63
Andere 63
Terror@@ 63
Plan 63
riff@@ 63
NASA 63
ingen, 63
Mus@@ 63
ses 63
üh@@ 63
geschichte 63
Fin@@ 63
lediglich 63
Qualität 63
1.@@ 63
basier@@ 63
zusammenzu@@ 63
ologie, 63
legen, 63
scht 63
nein. 63
Ihres 63
ms 63
eder@@ 63
Arbeiten 63
Architekten 63
saß 63
Lebens. 63
hoch. 63
Kam@@ 63
euer@@ 63
zieht 63
ard 63
körper@@ 63
igen, 63
Mau@@ 63
furcht@@ 63
pas@@ 63
Interess@@ 63
persön@@ 63
Seh@@ 63
Dem@@ 63
nennen, 63
verein@@ 63
laufen. 63
tä@@ 63
entdecken 63
ossen 63
Plastik@@ 63
ys 63
Haut 63
Min@@ 63
Gesetze 63
abstra@@ 63
Klei@@ 63
aussieht. 63
Fal@@ 63
erzähl@@ 63
kletter@@ 63
leist@@ 63
dritten 63
Details 63
Galaxie 63
atur 63
positive 63
Video: 63
gei@@ 63
Städten 62
fü@@ 62
stoffe 62
leich@@ 62
Invest@@ 62
Mark@@ 62
Hü@@ 62
arbeiteten 62
langer 62
profit@@ 62
Funktion@@ 62
grundsätzlich 62
Gewicht 62
Bus@@ 62
kämpf@@ 62
45 62
Fra@@ 62
läu@@ 62
Ir@@ 62
Post@@ 62
sten. 62
Präsentation 62
reb@@ 62
täglich 62
pen@@ 62
trä@@ 62
erl@@ 62
Lu@@ 62
erschaffen, 62
Regierungs@@ 62
organisier@@ 62
mittel@@ 62
vorne 62
Materi@@ 62
Ding@@ 62
Fall, 62
mt 62
herausfinden, 62
uch@@ 62
igkeit 62
noch, 62
kultur@@ 62
hat@@ 62
Gutes 62
Michael 62
Modelle 62
noch@@ 62
Beim 62
enden. 62
uner@@ 62
es: 62
Beine 62
inspirier@@ 62
bereich@@ 62
hält, 62
selbe 62
Bereich@@ 62
Herausforderungen 62
National 62
trägt 62
vergröß@@ 62
ähnlichen 62
Etwas 62
Mehr 62
ecke 62
ologische 62
beantwort@@ 62
Daten@@ 62
Verstand 62
atz@@ 62
1.000 62
zer 62
Posi@@ 62
wuchs 62
altet 62
Medien@@ 62
por@@ 62
Recht@@ 62
dert 62
begegn@@ 62
Aff@@ 62
ktion 62
errei@@ 62
Möglichkeiten, 61
dafür. 61
kte 61
Geld. 61
Nutzen 61
ec@@ 61
teilen, 61
sitz@@ 61
e". 61
problem@@ 61
Student@@ 61
funktion@@ 61
det@@ 61
bringt. 61
beschäftigt 61
öffentliche 61
Verantwort@@ 61
unk@@ 61
benötigt 61
Tausende 61
Naja, 61
Tex@@ 61
kre@@ 61
funktionieren. 61
nochmal 61
ay 61
verantwortlich 61
Car@@ 61
Einsatz 61
är 61
bestehen 61
New@@ 61
aff@@ 61
nichts, 61
rech@@ 61
tern. 61
tieren 61
ignor@@ 61
ktion@@ 61
beginnen. 61
Kun@@ 61
liegt. 61
passen. 61
Schluss 61
behandelt 61
ess 61
soll, 61
tieren, 61
dlich 61
Gener@@ 61
or. 61
Fern@@ 61
det, 61
schaute 61
asen 61
zent@@ 61
16@@ 61
verletz@@ 61
Kontext 61
tut. 61
Moment, 61
Sex@@ 61
Men@@ 61
vorstellen. 61
perfekte 61
Glas@@ 61
Quadrat@@ 61
Daten, 61
Daten. 61
Pa@@ 61
sehe, 61
Ins@@ 61
Instrum@@ 61
X@@ 61
Gef@@ 61
ai@@ 61
anschauen 61
modell@@ 61
Feld 61
fingen 61
Indien, 61
entstehen 61
Individuen 61
sä@@ 61
Spieler 61
cool@@ 60
Glück@@ 60
persönlichen 60
Vision 60
system@@ 60
System@@ 60
mö@@ 60
kurzem 60
existiert 60
Dis@@ 60
bedeutet. 60
spricht, 60
bloß 60
ativ 60
Minuten, 60
sucht 60
kun@@ 60
Sinn@@ 60
haft 60
physi@@ 60
del 60
unglaublichen 60
nö@@ 60
up@@ 60
grosse 60
fügen 60
defin@@ 60
legen. 60
morgens 60
Experiment@@ 60
erkenn@@ 60
fre@@ 60
schreib@@ 60
baut 60
fähig@@ 60
tern@@ 60
Bür@@ 60
ecken 60
verwenden. 60
Laufe 60
stand, 60
Stein@@ 60
eilen 60
Schiff@@ 60
erwarten 60
beinahe 60
bekämpf@@ 60
fragen: 60
Den@@ 60
hinaus@@ 60
ure 60
moralische 60
schlechten 60
schreiben, 60
Einstein 60
schli@@ 60
Frau: 60
Traum 60
andlung 60
soviel 60
Weile 60
reicht 60
beruh@@ 60
az@@ 60
schafft 60
früh 60
Schmerz 60
Fisch 60
AB: 60
Ganz 59
Roll@@ 59
Grundlage 59
sam@@ 59
grei@@ 59
Heimat@@ 59
arb@@ 59
Kontinent 59
ausprobi@@ 59
herzustellen. 59
hätten, 59
Voll@@ 59
kraft@@ 59
Basis 59
at. 59
fern 59
design@@ 59
Thomas 59
worden. 59
Staaten, 59
spür@@ 59
Fortschrit@@ 59
gestorben 59
großartigen 59
möglich. 59
sowas 59
Beispiel@@ 59
bieten 59
red@@ 59
gegenüber@@ 59
Ahnung 59
Kriegs@@ 59
Sogar 59
Organis@@ 59
komplexe 59
Gute 59
Kil@@ 59
tri@@ 59
lautet: 59
richten. 59
hierher 59
Erleb@@ 59
internationalen 59
is 59
vorbei@@ 59
Japan 59
Wild@@ 59
Berg@@ 59
digitalen 59
ven@@ 59
viel. 59
tert 59
überzeugt, 59
ra 59
Leute. 59
altung 59
heben 59
tet 59
welt@@ 59
Berg 59
Musik, 59
The@@ 59
Fällen 59
Astron@@ 59
ries@@ 59
kontrolli@@ 59
grund@@ 59
komplex@@ 59
Drit@@ 59
Irak 59
Wieso 59
Verhältnis 59
genommen. 59
agen. 59
ege 59
durchschnittliche 59
Titel 59
Golf 59
retten. 59
Wandel 59
zel@@ 59
getötet 59
Familien@@ 58
Erst 58
Lös@@ 58
Zusammenarbeit 58
Besch@@ 58
Gründe, 58
Papi@@ 58
fas@@ 58
materi@@ 58
Son@@ 58
olle 58
brauchten 58
sierung 58
oh, 58
ische, 58
ff 58
ßt 58
enorme 58
Handy 58
Bru@@ 58
lang@@ 58
was? 58
Ideen. 58
biologischen 58
asch@@ 58
gelegt 58
Jobs 58
Laptop 58
"L@@ 58
tag@@ 58
schütz@@ 58
nachdenken 58
erstaun@@ 58
etische 58
gän@@ 58
unabhängig 58
strei@@ 58
Planet 58
erhält 58
dest@@ 58
Afrikas 58
Sonn@@ 58
Bild. 58
Bot@@ 58
gelernt, 58
Stamm@@ 58
ah 58
brachten 58
spezielle 58
Person@@ 58
schließen 58
wünsch@@ 58
wieder, 58
schreck@@ 58
hoch, 58
gend@@ 58
nachzu@@ 58
Kerl 58
hinweg 58
oo@@ 58
Zelle 58
Linien 58
Verb@@ 58
Spiele 58
Eindruck 58
asi@@ 58
Lo@@ 58
richten 58
kopi@@ 58
fik@@ 58
schu@@ 58
angen 58
Stattdessen 58
e?" 58
Mission 58
Werk@@ 58
Feu@@ 58
dische 58
mei@@ 58
Sel@@ 58
Schutz@@ 58
ösen 58
stolz 58
gel, 58
Büh@@ 58
eli@@ 58
onn@@ 57
Kombination 57
erlaubt, 57
arme 57
rit@@ 57
Probleme, 57
schon. 57
oben, 57
biet@@ 57
iker 57
erei 57
Zukunft. 57
zwei, 57
Computer. 57
den: 57
Prozess@@ 57
Motor@@ 57
äuß@@ 57
hergestellt 57
wähl@@ 57
mittels 57
prozess 57
rief 57
Geräte 57
aber, 57
begrenz@@ 57
Will@@ 57
Lieb@@ 57
egen. 57
begrei@@ 57
motivi@@ 57
bewusst, 57
suchen. 57
ahn@@ 57
Bevölkerungs@@ 57
wa@@ 57
verring@@ 57
gefunden, 57
Kind, 57
gegenseitig 57
leucht@@ 57
sehr. 57
Buch, 57
Erklär@@ 57
Werbung 57
rede 57
persönliche 57
be. 57
Damals 57
Roh@@ 57
Folie 57
Geburt 57
Tochter 57
weiterer 57
erer 57
krank@@ 57
letz@@ 57
Gut@@ 57
hat? 57
bein@@ 57
Strukturen 57
wieviel 57
fragten 57
verbin@@ 57
tem 57
höhere 57
Technologie. 57
öl@@ 57
tot@@ 57
sel 57
Phase 57
ore 57
Lasst 57
Dreh@@ 57
Ozeane 57
KB: 57
solcher 56
Nigeria 56
Vort@@ 56
kam. 56
Kost@@ 56
gesprochen. 56
wofür 56
schauen. 56
bemerkenswer@@ 56
dene 56
gel 56
Risik@@ 56
dieselben 56
Unterstützung 56
Näch@@ 56
Voraus@@ 56
Organisationen 56
wären, 56
wahr. 56
Städ@@ 56
Geheim@@ 56
notwendig 56
Partner@@ 56
zeichnet 56
sitzt 56
steckt 56
Bra@@ 56
lösen, 56
gewisser 56
schwierig, 56
andere. 56
sieht. 56
it 56
lebenden 56
überqu@@ 56
Experimente 56
err@@ 56
automatisch 56
gesetzt 56
ym@@ 56
reiche 56
kombin@@ 56
hoff@@ 56
sig@@ 56
werke 56
Sitz@@ 56
Stadt. 56
0-@@ 56
Bau 56
schlu@@ 56
nachzudenken. 56
Nation@@ 56
Hinsicht 56
bild@@ 56
brechen 56
the 56
streck@@ 56
2000 56
bewusst@@ 56
pu@@ 56
yn@@ 56
"J@@ 56
gesund 56
laufen, 56
Insel 56
ov@@ 56
Elemente 56
näher@@ 56
sü@@ 56
keit@@ 56
5. 56
krank 56
Fehl@@ 56
Eff@@ 56
Osten 56
yl@@ 56
Bal@@ 56
wovon 56
ändert 56
tigen, 56
Institutionen 56
speziellen 56
yp@@ 56
ges 56
falsch. 55
veröffentlicht 55
herstellen 55
ehl@@ 55
fern@@ 55
gesetz@@ 55
tionen, 55
kt, 55
super@@ 55
ell, 55
Glob@@ 55
gh@@ 55
ani@@ 55
National@@ 55
Amerikan@@ 55
glaub@@ 55
Generationen 55
esch@@ 55
eine. 55
aufgenommen 55
holen. 55
Zitat 55
das@@ 55
dennoch 55
aust@@ 55
Lieblings@@ 55
gemeinsamen 55
Fragen, 55
Ecke 55
Go@@ 55
City 55
atten 55
biologische 55
schafts@@ 55
wählen 55
elen 55
Sport@@ 55
läuft. 55
kamen, 55
wirklichen 55
erforder@@ 55
betracht@@ 55
fokus@@ 55
schwer, 55
Wettbewerb 55
Pfer@@ 55
schlechter 55
Tonnen 55
rufen 55
Gemeinde 55
lebte 55
menschlicher 55
Fleisch 55
aden. 55
kel 55
liegt, 55
las 55
Neuro@@ 55
passen 55
etwas. 55
erledi@@ 55
Effekt 55
wand 55
Myth@@ 55
100.000 55
Kart@@ 55
verli@@ 55
Ben@@ 55
ot. 55
beschleunig@@ 55
Mos@@ 55
alter@@ 55
Videos 55
offen@@ 55
Art. 55
lasse 55
Telefon 55
spä@@ 55
gol@@ 55
Mas@@ 55
schicken 55
endet 55
neur@@ 55
hinten 55
bahn 55
gewinn@@ 55
Nan@@ 55
Temperatur 55
Ozean@@ 55
Straß@@ 55
Großbritannien 55
Wahr@@ 54
besser. 54
Mu@@ 54
tor@@ 54
Anteil 54
persönlich 54
setzt, 54
bleiben, 54
fälle 54
dor@@ 54
zusammenge@@ 54
Wur@@ 54
verbreit@@ 54
verbess@@ 54
Nicht@@ 54
Handel@@ 54
Ausmaß 54
zeu@@ 54
bitt@@ 54
schnei@@ 54
195@@ 54
Con@@ 54
Baby 54
plat@@ 54
Nachbarn 54
Entdeckung 54
gemeinsam@@ 54
Bezieh@@ 54
drei, 54
Nam@@ 54
jener 54
Rock@@ 54
Sinn, 54
be, 54
bezüglich 54
töt@@ 54
meiste 54
verbreitet 54
Zer@@ 54
Bedürfnisse 54
rist@@ 54
entsteht 54
druck 54
medi@@ 54
Malaria 54
vergangenen 54
medizinische 54
Zivilisation 54
Lernen 54
cken 54
niss@@ 54
stamm@@ 54
abb@@ 54
Einen 54
lich? 54
gefragt, 54
Nationen 54
Worten 54
As@@ 54
wit@@ 54
zig 54
beeinflus@@ 54
verbrachte 54
tue 54
Führ@@ 54
Erklärung 54
Zusamm@@ 54
Phänomen 54
Website 54
er? 54
gehör@@ 54
Fre@@ 54
Standard@@ 54
fallen, 54
wen 54
pul@@ 54
Wür@@ 54
setzt. 54
di 54
zur@@ 54
Grenz@@ 54
schutz@@ 54
mol@@ 54
Grenze 54
Herr@@ 54
Galaxi@@ 54
ull@@ 54
berühr@@ 54
Führungs@@ 54
Maßstab 54
Vorfahren 54
RB: 54
rieb 53
Konfer@@ 53
Informations@@ 53
handel@@ 53
asse 53
euer 53
Leistung 53
inge 53
wüs@@ 53
aufs 53
Problemen 53
ätz@@ 53
Schlüssel@@ 53
Lin@@ 53
Aktiv@@ 53
viele, 53
herum, 53
Ob 53
fünf@@ 53
abel 53
gemeinsame 53
erwartet 53
gesto@@ 53
uren, 53
kart@@ 53
kar@@ 53
lo@@ 53
folgende 53
nicht-@@ 53
bilden, 53
oten 53
anger@@ 53
technischen 53
äus@@ 53
Bildschir@@ 53
Wor@@ 53
Steve 53
schwarzen 53
steck@@ 53
te? 53
Ausstellung 53
dete 53
digitale 53
Golf@@ 53
eute 53
Elektro@@ 53
sal@@ 53
wichtig@@ 53
speich@@ 53
esen. 53
Forscher 53
höre 53
lichste 53
gezeigt, 53
Stand 53
bat 53
auftr@@ 53
t-@@ 53
interessanten 53
ziert 53
solange 53
entstanden 53
itzen 53
brech@@ 53
ku@@ 53
Süß@@ 53
tatsächlich, 53
Kaffee 53
servi@@ 53
ats@@ 53
Geschichten, 53
ere, 53
seitdem 53
manchen 53
sech@@ 53
schick@@ 53
Wahrnehmung 53
ha 53
sches 53
besonder@@ 53
machte, 53
glamour@@ 53
Test 53
Funktion 53
Schule. 53
bezahl@@ 53
getroffen 53
fris@@ 53
strahl@@ 53
vermut@@ 53
werden? 53
Ausbildung 53
ahn 53
Wol@@ 53
Dimensionen 53
Bruder 53
wisst 53
Gripp@@ 53
male 53
Mütter 53
Verstehen 53
Küste 53
Achse 53
enz, 52
egal, 52
Sobald 52
Handel 52
brenn@@ 52
Atem@@ 52
Jo@@ 52
hren 52
Landschaft 52
Aspekt 52
offenen 52
senden 52
ater 52
bestimm@@ 52
soweit 52
worden, 52
liegen. 52
Philosop@@ 52
bekommt, 52
verrückt 52
Ni@@ 52
versuchten 52
bringt, 52
aut 52
Mann@@ 52
omen 52
ogen@@ 52
elten 52
freie 52
grossen 52
Produktion 52
nutzt 52
seltsame 52
Mont@@ 52
ar. 52
keiten, 52
macht@@ 52
Gottes 52
a" 52
kam@@ 52
schle@@ 52
getan. 52
amp@@ 52
Szen@@ 52
Bedürf@@ 52
passieren. 52
interessier@@ 52
Mem@@ 52
Wunder@@ 52
irgendeine 52
Möglichkeiten. 52
Mach@@ 52
ew@@ 52
unterschei@@ 52
transpor@@ 52
kont@@ 52
anders. 52
Alles, 52
Mädchen, 52
lasst 52
Firma, 52
Red@@ 52
O 52
Dafür 52
ände 52
Ausdruck 52
sierte 52
2. 52
bewegt, 52
Zeitung 52
deiner 52
rag@@ 52
laden 52
nei@@ 52
programmi@@ 52
weiße 52
waff@@ 52
nötig 52
alismus 52
relev@@ 52
liefer@@ 52
Epidemie 52
Kindern, 52
Tests 52
genügend 52
erheb@@ 52
verteil@@ 52
wirklich. 52
Viel@@ 52
Wikipedia 52
Zit@@ 52
Spektr@@ 52
erseits 52
getragen 52
E 52
Reak@@ 52
extrem@@ 52
fuer 52
ches 52
pflanz@@ 52
Sur@@ 52
Bibel 52
2,@@ 52
Mik@@ 52
afrikanische 52
teilweise 51
musste, 51
so: 51
Bevor 51
omm@@ 51
niedrig@@ 51
eres 51
T-@@ 51
Ingenieur@@ 51
Kohlenstoff@@ 51
ungsp@@ 51
av@@ 51
Unternehmer 51
Diskussion 51
benötigen 51
nehm@@ 51
1000 51
bem@@ 51
egen, 51
junger 51
inspiri@@ 51
tausenden 51
blaue 51
bekamen 51
lang, 51
ahl@@ 51
fließ@@ 51
A, 51
emotion@@ 51
interessiert, 51
gegen@@ 51
dies, 51
brauch@@ 51
wie, 51
Zahn@@ 51
arbeitet, 51
inner@@ 51
anal@@ 51
Sonnenlicht 51
ass 51
steigt 51
Ansicht 51
17@@ 51
Bas@@ 51
momentan 51
halb@@ 51
zt 51
lustig@@ 51
Prinzi@@ 51
Tages@@ 51
bekomme 51
Orte, 51
krat@@ 51
weiß@@ 51
Kenn@@ 51
stär@@ 51
richtung 51
integri@@ 51
-, 51
Glück, 51
kühl@@ 51
Schimpansen 51
wunderbaren 51
Ton@@ 51
trock@@ 51
Tiere, 51
Je 51
beeinflusst 51
verbessern 51
Ähn@@ 51
China, 51
platz 51
Freu@@ 51
e", 51
Samm@@ 51
ler, 51
westlichen 51
rischen 51
siv@@ 51
wenden 51
fangen. 51
Oper@@ 51
fäl@@ 51
ala 51
Hö@@ 51
ana 51
tel@@ 51
verblüff@@ 51
en... 51
Kreis 51
eur@@ 51
B 51
stadt 51
laut@@ 51
verändert, 51
Weg. 51
wand@@ 51
Ident@@ 51
spielte 51
ust 51
vorbei 51
fan@@ 51
Regionen 51
ppi@@ 51
Lass 51
sterben, 51
verfügbar 51
einhalb 51
derzeit 51
aussehen. 51
dere 51
pol@@ 51
Leider 51
raum 51
Kultur@@ 51
Euch 51
Fing@@ 51
moralischen 51
Ach@@ 51
Göt@@ 51
setzten 50
fliegen. 50
feld 50
einiges 50
End@@ 50
Brenn@@ 50
erfahren 50
darüber. 50
...@@ 50
verwendet, 50
mü@@ 50
wächst 50
Indien. 50
Schlüssel 50
Ohne 50
pfl@@ 50
überleben. 50
versu@@ 50
rote 50
Militär@@ 50
person@@ 50
heiten. 50
ät, 50
lesen, 50
ernsthaft 50
Kommunikation 50
mittlerweile 50
überleben 50
Einfach@@ 50
Blut 50
Times 50
"T@@ 50
Wesentlichen 50
Text@@ 50
einfaches 50
Cent@@ 50
drüben 50
eleg@@ 50
Sich@@ 50
ungs-@@ 50
Schu@@ 50
wenigstens 50
erleben 50
Real@@ 50
ock 50
ban@@ 50
nde 50
sprach, 50
train@@ 50
Mutter, 50
Gefühl@@ 50
früh@@ 50
entscheiden 50
“. 50
gelesen 50
Resultat 50
Rücken 50
sexu@@ 50
Motiv@@ 50
Emotionen 50
kos@@ 50
ba@@ 50
Ira@@ 50
Rätsel 50
Karriere 50
Sozi@@ 50
mit, 50
itä@@ 50
Sech@@ 50
geschafft 50
tigkeit. 50
sei. 50
de: 50
verg@@ 50
Professor 50
Inst@@ 50
Design, 50
Mot@@ 50
stellung, 50
zäh@@ 50
unten. 50
Kraft@@ 50
atz, 50
etzen 50
fün@@ 50
Molekül 50
Röntgen@@ 50
100@@ 50
verständ@@ 50
Tit@@ 50
Außer@@ 50
visuelle 50
Brücke 50
nennt. 50
teile 50
leu@@ 50
Tö@@ 50
fried@@ 50
Komment@@ 49
ök@@ 49
aktuelle 49
Werkzeug 49
allem, 49
Entscheid@@ 49
raten 49
USA, 49
herzustellen, 49
Mengen 49
erh@@ 49
arbei@@ 49
gelebt 49
industrie 49
eng 49
Entwickl@@ 49
Kindheit 49
Innov@@ 49
Entschuldig@@ 49
versuchen. 49
Kommunik@@ 49
inspiriert 49
ow 49
verloren. 49
gedacht, 49
Computer, 49
Existenz 49
noch. 49
Zimmer 49
Zeichen 49
oli@@ 49
füg@@ 49
unden. 49
Chromos@@ 49
schließen. 49
geschlossen 49
Klang 49
etzt 49
Arz@@ 49
zugänglich 49
Design-@@ 49
toll 49
Rand 49
Je@@ 49
ragen. 49
freu@@ 49
Tom 49
en.“ 49
entlich 49
eucht@@ 49
Zweck 49
muster 49
am, 49
flei@@ 49
verbringen 49
lage 49
School 49
runter@@ 49
Rob@@ 49
Medizin@@ 49
ing-@@ 49
Ergeb@@ 49
Blutgefä@@ 49
träge 49
mann 49
entr@@ 49
Fast 49
itäten 49
pfen. 49
3. 49
Liebling@@ 49
tigen. 49
großartig. 49
worum 49
produktiv@@ 49
link@@ 49
ß. 49
ve 49
75 49
maschine 49
sozi@@ 49
Ereig@@ 49
Illu@@ 49
pack@@ 49
west@@ 49
Kultur, 49
Verbind@@ 49
Molekül@@ 49
Inhalt 49
tiv@@ 49
Stuhl 49
Sei@@ 49
dern. 49
Weise. 49
Gut. 49
Minute 49
Westen 49
Mär@@ 49
Beweise 49
ke, 49
umfass@@ 49
kulturelle 49
kal@@ 49
Netzwerke 49
ernst 49
dis@@ 49
Col@@ 49
entfernt, 49
Elektrizität 49
gewohn@@ 49
modell 49
beding@@ 49
behandeln 49
handeln 49
schätzen 49
Schöpf@@ 49
Bewegungen 49
ne. 49
Wagen 49
Lachen 49
bezieh@@ 49
Billionen 49
abe 49
effektiv 48
effizi@@ 48
CO2-@@ 48
erklär@@ 48
dlichen 48
Politiker 48
Dau@@ 48
verantwort@@ 48
arbeitet. 48
Klein@@ 48
rigen 48
Anwendung 48
Laptop@@ 48
wären. 48
Erzähl@@ 48
regel@@ 48
ischen, 48
insbesondere 48
dauerte 48
Länder, 48
Gefahr 48
gefangen 48
interessanter 48
getr@@ 48
Star@@ 48
bür@@ 48
Okay? 48
Ment@@ 48
Wich@@ 48
dachte: 48
Liebe, 48
ier 48
sogenannten 48
sieren, 48
dur@@ 48
Potential 48
Labor@@ 48
geschi@@ 48
99 48
verst@@ 48
ling 48
Gibt 48
angesch@@ 48
Strom@@ 48
Grupp@@ 48
lich: 48
Es@@ 48
Konfli@@ 48
dank 48
schien 48
stieg 48
gern, 48
P 48
grünen 48
Zeich@@ 48
wissenschaft@@ 48
äng@@ 48
Wurzeln 48
Kommen 48
geworden, 48
Wissenschaft, 48
außer@@ 48
stoffen 48
versorgung 48
erfahren, 48
ard@@ 48
bekomm@@ 48
jüng@@ 48
je@@ 48
jek@@ 48
ero@@ 48
besteht, 48
ler. 48
Kern 48
Helden 48
t?" 48
gewinnen 48
Mädch@@ 48
aussieht, 48
heiten, 48
amer@@ 48
sprachen 48
Büch@@ 48
Autor@@ 48
lokalen 48
hung@@ 48
kennt 48
heran@@ 48
Südafrika 48
Tel@@ 48
Freun@@ 48
oss 48
nu@@ 48
Polizei 48
Wirtschaft@@ 48
Vorstellungen 48
amm 48
Schließlich 48
annt 48
Akt@@ 48
gewinnen. 48
besorg@@ 48
simuli@@ 48
Tab@@ 48
nachdenken. 48
Maß@@ 48
Bürger 48
fache 48
reagieren 48
li 48
E: 48
begeistert 47
aktu@@ 47
net 47
nachhal@@ 47
außen 47
dürfen 47
pot@@ 47
feu@@ 47
genau, 47
verfüg@@ 47
bewohn@@ 47
fäll@@ 47
Afghanistan 47
etc. 47
Wass@@ 47
domin@@ 47
194@@ 47
Kap@@ 47
fühlen. 47
Gedank@@ 47
eht 47
innov@@ 47
Arbeitspl@@ 47
Hem@@ 47
ursprünglich 47
erzeugen. 47
Auto@@ 47
fe, 47
schönes 47
A-@@ 47
Merk@@ 47
Intern@@ 47
Pass@@ 47
eder 47
ermöglichen, 47
Gedanke 47
Danach 47
Seele 47
Richtig? 47
ruh@@ 47
eigentliche 47
betra@@ 47
Viren 47
ograph@@ 47
oberen 47
anhand 47
blau@@ 47
befinden. 47
künstliche 47
eth@@ 47
Maus 47
machte. 47
typ@@ 47
Komplex@@ 47
Machen 47
wollten. 47
zogen. 47
Erfahrung, 47
Unterhalt@@ 47
nieder@@ 47
aun@@ 47
Ort. 47
Definition 47
jetzt. 47
braucht. 47
bewegt. 47
breit@@ 47
Klasse 47
Gehen 47
weshalb 47
retten 47
weltweiten 47
schlimmer@@ 47
Sprachen 47
Afrik@@ 47
gerei@@ 47
rum@@ 47
trinken 47
Augen, 47
schaue 47
Natur. 47
versuchte, 47
ven 47
erstaunlich 47
?“ 47
wachsen. 47
grüne 47
frem@@ 47
gehol@@ 47
andl@@ 47
berühm@@ 47
gegangen. 47
antrei@@ 47
32 47
Wein@@ 47
win@@ 47
schlä@@ 47
halt 47
omet@@ 47
nisse. 47
ki@@ 47
gesetzt. 47
entschei@@ 47
dungen 47
wundervolle 47
alten, 47
Such@@ 47
Schwester 47
erschein@@ 47
räum@@ 47
schule 47
linge 47
verbreiten 47
ter-@@ 47
block@@ 47
Knochen 47
hängen 47
Brit@@ 47
ht 47
arten 47
gewesen. 47
bewirk@@ 47
effektiv@@ 47
beobachten, 47
ta 47
gan@@ 47
Ziele 47
Laden 47
nicht." 47
wissenschaf@@ 47
Blick@@ 47
äß@@ 47
exponenti@@ 47
Eigen@@ 47
Beweis 47
schil@@ 47
überleg@@ 47
ox@@ 47
teilt 47
fällt, 47
Pfund 47
dan@@ 47
Oel 47
Stras@@ 47
elektrische 47
Damen 47
Har@@ 47
fliegen, 47
SW: 47
wärm@@ 46
itze 46
USA. 46
besseres 46
berech@@ 46
System. 46
untersu@@ 46
beschäftig@@ 46
herausgefunden, 46
hätten. 46
mache, 46
Gesellschaft, 46
Rechts@@ 46
Staats@@ 46
kontr@@ 46
erklärt, 46
probi@@ 46
gef@@ 46
annte 46
zeug 46
elle, 46
r, 46
y: 46
nam@@ 46
lebten 46
fantastische 46
Dam@@ 46
Konzep@@ 46
Bewegung. 46
Norden 46
Darstellung 46
vir@@ 46
eingesetzt 46
deten 46
uten 46
Ton 46
Krise 46
Microsoft 46
zähl@@ 46
intelligente 46
schrei@@ 46
World 46
"E@@ 46
eil, 46
aufbau@@ 46
Hat 46
aufger@@ 46
sig 46
ermöglicht, 46
ansehen 46
geber 46
Theater 46
unde, 46
chst@@ 46
verschmutz@@ 46
scheint, 46
Lager 46
verbessern. 46
hilft, 46
gewal@@ 46
27 46
Politik@@ 46
over@@ 46
siv 46
verfolg@@ 46
bruch 46
Potenzial 46
appen 46
pflanzen 46
dahin 46
uch 46
Immer 46
anden 46
äf@@ 46
starken 46
Leg@@ 46
weisen. 46
verbunden. 46
Spi@@ 46
worauf 46
herausfinden 46
bezeichn@@ 46
grau@@ 46
belieb@@ 46
Sau@@ 46
gib@@ 46
Worten, 46
drücken 46
konsumi@@ 46
2005 46
ise 46
Peter 46
tieren. 46
teuer 46
issen 46
Eigent@@ 46
sonder@@ 46
genug. 46
iss@@ 46
langwei@@ 46
eff@@ 46
Spitz@@ 46
Häus@@ 46
vergleich@@ 46
Statistiken 46
s." 46
guck@@ 46
ständig@@ 46
Bereichen 46
Gefängnis 46
Darwin 46
Raum. 46
erklären. 46
profession@@ 46
eln@@ 46
Zy@@ 46
unternehmen 46
wil@@ 46
ber, 46
ungewöhn@@ 46
beacht@@ 46
berechn@@ 46
oss@@ 46
sind? 46
Werk 46
Sens@@ 46
uss, 46
stan@@ 46
fung 46
schön, 46
Armen 46
klär@@ 46
indischen 46
schöner 45
positiv@@ 45
ager 45
Jahres@@ 45
Mein@@ 45
ex 45
betreff@@ 45
geln 45
Regier@@ 45
mag, 45
nimmt, 45
entfernt. 45
schnell, 45
MIT 45
Gebi@@ 45
untersuchen 45
technische 45
Ziel, 45
sieh@@ 45
kümmern 45
Designs 45
tritt 45
anzi@@ 45
Wert@@ 45
Nase 45
onen, 45
Raumfahr@@ 45
ativ@@ 45
ed, 45
entstand@@ 45
fürs 45
Diagramm 45
War 45
Wachst@@ 45
Air@@ 45
besser, 45
wiesen 45
betrachtet, 45
anstelle 45
getrennt 45
hier? 45
Vertrauen 45
trenn@@ 45
durch, 45
reduzier@@ 45
Genom 45
Extrem@@ 45
basierend 45
Satz 45
wenig@@ 45
Stücke 45
explodi@@ 45
Anstatt 45
ernähr@@ 45
Auswahl 45
Zucker 45
chemische 45
winzi@@ 45
merkwür@@ 45
unteren 45
8. 45
verbra@@ 45
Zur 45
Tä@@ 45
Uns 45
doppelt 45
verbinden 45
vernünf@@ 45
ingen. 45
rat 45
Tra@@ 45
Versuch@@ 45
Männ@@ 45
schar@@ 45
schlaf@@ 45
Verlust 45
ergibt 45
sie? 45
test@@ 45
speziell 45
dire@@ 45
Kreb@@ 45
oren, 45
anz, 45
enkt 45
lustig 45
Wüste 45
tat, 45
Kos@@ 45
Typ@@ 45
Mund 45
amb@@ 45
ring@@ 45
Zeu@@ 45
buch 45
mann@@ 45
beginn@@ 45
bestand 45
erforsch@@ 45
ner, 45
regener@@ 45
Ursprung 45
greifen 45
Individu@@ 45
Autor 45
Prozent, 45
dischen 45
Schwierigkeiten 45
womit 45
kat@@ 45
daten 45
digit@@ 45
prakt@@ 45
al-@@ 45
öh@@ 45
blauen 45
Strategi@@ 45
Überleben 45
ten: 45
Gegend 45
grundlegenden 45
erreicht. 45
Sach@@ 45
woran 45
verab@@ 45
daran. 45
gebi@@ 45
uni@@ 45
Parti@@ 45
Fall. 45
dent@@ 45
adi@@ 45
Islam 45
Erst@@ 45
ache 45
büch@@ 45
Meg@@ 45
etes 45
Gründen 45
sb@@ 45
fassen. 45
les 45
Wirkung 45
Ste@@ 45
Samen 45
Kris@@ 45
kollektiv@@ 45
Stell@@ 45
König@@ 45
Kopf. 45
wein@@ 45
folgenden 45
verdienen 45
uss 45
istischen 45
Korallen@@ 45
Obama 45
Nest@@ 45
re, 45
Bienen 45
zweimal 44
Drei 44
histor@@ 44
essi@@ 44
gefällt 44
Eins 44
äumen 44
schock@@ 44
Nation 44
Verfüg@@ 44
Verwendung 44
nützlich 44
Institut 44
selten@@ 44
gesp@@ 44
Staat@@ 44
Asp@@ 44
vielleicht, 44
Entwicklungsl@@ 44
wirtschaft 44
stellt. 44
öff@@ 44
Wir@@ 44
dehn@@ 44
UN@@ 44
sorg@@ 44
de? 44
programm 44
groß, 44
beunruhig@@ 44
auch@@ 44
endste 44
Privat@@ 44
Appl@@ 44
dam@@ 44
Bank 44
passiert? 44
schlagen. 44
viel, 44
Schnell@@ 44
doch, 44
assen, 44
echter 44
still@@ 44
X 44
genetischen 44
Neben@@ 44
unden, 44
meist 44
künst@@ 44
steu@@ 44
Herstellung 44
entdeckt, 44
angeneh@@ 44
ve@@ 44
eiten 44
en". 44
Oh 44
brin@@ 44
irgendjemand 44
änder 44
14@@ 44
ters 44
mögen, 44
aden, 44
elektrischen 44
Stir@@ 44
est, 44
Ernährung 44
ysi@@ 44
Glas 44
komplexen 44
untersuchen, 44
., 44
scheinbar 44
Nad@@ 44
Faktor 44
führten 44
Port@@ 44
Sachen. 44
Ser@@ 44
voneinander 44
Gebäude, 44
Räume 44
Ausdruck@@ 44
sammeln. 44
trag 44
schaften, 44
gehö@@ 44
Stoff@@ 44
Berge 44
nor@@ 44
reflek@@ 44
wird@@ 44
genetische 44
tiefer 44
biolog@@ 44
lebende 44
kamen. 44
Darum 44
Würde 44
Howard 44
Ruf 44
Milch@@ 44
krit@@ 44
Grafik 44
Mathemati@@ 44
.. 44
aufnahme 44
öse 44
zige 44
Klass@@ 44
me@@ 44
Mobiltelef@@ 44
Bereiche 44
beit@@ 44
beherr@@ 44
Organ@@ 44
Gü@@ 44
Aufnahme 44
ma, 44
Erfolg. 44
England 44
versuche, 44
Konflikt 44
ath@@ 44
befindet. 44
schließ@@ 44
angeh@@ 44
Öffentlichkeit 44
gel. 44
abgesch@@ 44
Jon@@ 44
Ac@@ 44
Schutz 44
Schwei@@ 44
klei@@ 44
Serie 44
Kir@@ 44
chem@@ 44
ater@@ 44
gekommen. 44
mechan@@ 44
Nat@@ 44
Stör@@ 44
mäß@@ 44
warten, 44
passieren, 44
schätzen, 44
Lebens, 44
gal@@ 44
langsam@@ 44
ansieht, 44
Bakteri@@ 44
Pi@@ 44
gigant@@ 44
Pfleg@@ 44
Patient@@ 44
inzwischen 44
enorm 44
dramat@@ 44
schmerz@@ 44
Weis@@ 44
fluss 44
präsentiert 44
Gesichts@@ 44
ron@@ 44
blin@@ 44
Müt@@ 44
Ah@@ 44
klar. 44
Stra@@ 44
Sym@@ 44
berücksich@@ 44
richten, 44
Gras 44
Phantom-@@ 44
Grippe 44
Second 44
derselben 43
0. 43
gesprochen, 43
zeigt. 43
Innovationen 43
stammt 43
ange 43
Entwicklungsländern 43
Fossi@@ 43
füt@@ 43
on-@@ 43
Einfachheit 43
alien 43
Staat 43
Level 43
systeme 43
sollen, 43
häss@@ 43
bezahlt 43
weit@@ 43
Kapit@@ 43
dauer@@ 43
geschieht, 43
Cent 43
fein@@ 43
Rak@@ 43
heute. 43
höchste 43
Flü@@ 43
Erfinder 43
Emo@@ 43
entdecken, 43
en", 43
kreativen 43
dahinter 43
häu@@ 43
erzählt, 43
Lauf@@ 43
folge 43
weiss, 43
hüb@@ 43
Code 43
projekt 43
Zuschau@@ 43
Gas@@ 43
wandel@@ 43
klassi@@ 43
des. 43
ret@@ 43
utt@@ 43
Mak@@ 43
Ziel@@ 43
Em@@ 43
Tri@@ 43
beizu@@ 43
uli@@ 43
ig, 43
vielmehr 43
ult@@ 43
aw@@ 43
also: 43
läch@@ 43
Amerika, 43
Kulturen 43
Bit@@ 43
geboren. 43
förder@@ 43
repar@@ 43
konzentrieren 43
selten 43
erste, 43
zeichnen 43
Strand 43
ologischen 43
Spektrum 43
stärker 43
all, 43
Ker@@ 43
Gleiche 43
bildung 43
echnologie 43
Form@@ 43
ober@@ 43
üsse 43
hält. 43
tragen, 43
Webseite 43
Evolution@@ 43
Große 43
Spiel. 43
Doktor@@ 43
Harvard 43
erkennt 43
woher 43
schwierig@@ 43
Familie. 43
nehmen@@ 43
aschen 43
behaupten, 43
Kameras 43
aktive 43
Erinnern 43
geist@@ 43
interpret@@ 43
Ob@@ 43
fall. 43
Aspekte 43
existieren 43
Quellen 43
Schlag@@ 43
Tro@@ 43
"O@@ 43
Anrei@@ 43
klin@@ 43
ämpf@@ 43
gefragt 43
Prinzipien 43
Kont@@ 43
jenseits 43
system, 43
mier@@ 43
ik, 43
Ereignis 43
dien@@ 43
Sand 43
zentrum 43
Gesundheit@@ 43
S: 43
überzeugen, 43
Uni@@ 43
Tiefe 43
Netzwerk@@ 43
eh 43
Afrikaner 43
ton 43
wo@@ 43
vorbereit@@ 43
Essen, 43
sehen? 43
besteh@@ 43
Life 43
Entstehung 43
Metapher 43
Redwoo@@ 43
Pinguine 43
spieg@@ 42
aktiven 42
mitgli@@ 42
ute 42
circa 42
stru@@ 42
gearbeitet, 42
lok@@ 42
ok, 42
oh 42
verwand@@ 42
Fortschritte 42
egel 42
Ingenieure 42
Sinne, 42
entscheiden@@ 42
bietet 42
Mehrheit 42
schluss 42
erreich@@ 42
19. 42
einander, 42
kümmer@@ 42
gäbe 42
nden 42
gebraucht 42
plan 42
Wochen@@ 42
späten 42
gearbeitet. 42
anschaut, 42
Market@@ 42
entdecken. 42
öpf@@ 42
Noti@@ 42
entschieden, 42
vieles 42
our@@ 42
schwere 42
Entdeckungen 42
lebt. 42
bewer@@ 42
Möglich@@ 42
Rek@@ 42
proz@@ 42
Bildschirm 42
Techni@@ 42
de-@@ 42
ou@@ 42
fährt 42
Programme 42
werfen, 42
Punkt. 42
ef 42
gruppe 42
Schwierig@@ 42
grupp@@ 42
Christ@@ 42
Boot 42
wussten, 42
unterstütz@@ 42
ihn, 42
Sil@@ 42
drehte 42
fragte: 42
cm 42
vent@@ 42
wal@@ 42
Gefangen@@ 42
höheren 42
wunderbar 42
Aufgaben 42
heim@@ 42
lokale 42
erschi@@ 42
Neuronen 42
Anti@@ 42
können? 42
dann@@ 42
?@@ 42
müsste 42
sicher. 42
schlecht@@ 42
Vorstellung, 42
ungssystem 42
Geräusch@@ 42
Leut@@ 42
exakt 42
Frau@@ 42
gerung 42
schließen, 42
nachts 42
Student 42
See 42
geschieht. 42
Computern 42
ingt 42
Dün@@ 42
Heil@@ 42
Fe@@ 42
aster 42
fab@@ 42
Kö@@ 42
nerv@@ 42
verlangsam@@ 42
… 42
untersuchen. 42
ächen 42
Soldat@@ 42
tigkeit, 42
musikal@@ 42
Innerhalb 42
pag@@ 42
bekannt. 42
Ende. 42
Frem@@ 42
verkaufen. 42
of@@ 42
Cra@@ 42
Gang@@ 42
Wohlbefinden 42
beispielsweise 42
höh@@ 42
Wissenschaftler, 42
sich: 42
Wahrscheinlich 42
Top@@ 42
verlei@@ 42
ding@@ 42
ön@@ 42
Francisco 42
Kirche 42
len 42
Ahnung, 42
entspricht 42
Fall@@ 42
ina 42
Erfahr@@ 42
ungsver@@ 42
wäl@@ 42
letztlich 42
Entfernung 42
Kompon@@ 42
Titel@@ 42
Metern 42
sätze 42
Ernähr@@ 42
kostenlos 42
beschrän@@ 42
werfen. 42
bewäl@@ 42
wärts 42
isol@@ 42
enspiel@@ 42
kompl@@ 42
schwimmen 42
Abschluss 42
Wann 42
Freunde, 42
Füße 42
JH: 42
ogen. 41
stieg@@ 41
flog 41
Mitarbeiter 41
US@@ 41
ganz@@ 41
Lang@@ 41
Werden 41
näch@@ 41
sions@@ 41
dick@@ 41
Technologien, 41
7. 41
Welten 41
durchgeführt 41
richtig. 41
Pra@@ 41
Inspiration 41
Anführer 41
Flugzeuge 41
Mond@@ 41
äft@@ 41
Hot@@ 41
darf 41
darunter 41
besag@@ 41
Präsent@@ 41
ament@@ 41
ei. 41
hau@@ 41
anne 41
Stiftung 41
Analyse 41
verglichen 41
wörtlich 41
Untersuchung 41
♪ 41
schte 41
esse 41
Comput@@ 41
Off@@ 41
Bis@@ 41
geseh@@ 41
Beste 41
baute 41
Viertel 41
Versuch, 41
ach, 41
informi@@ 41
„Ich 41
Spen@@ 41
arti@@ 41
bewegung 41
ragen, 41
oc@@ 41
produzieren. 41
Nachbarschaft 41
bringe 41
gericht@@ 41
kannte 41
möchten. 41
ickel@@ 41
ewi@@ 41
Fälle 41
standen 41
Häuser 41
g-@@ 41
nannte 41
Blätter 41
ausschließlich 41
rige 41
Natur, 41
High 41
tragen. 41
ont@@ 41
starb 41
herauszufinden 41
verursach@@ 41
Literatur 41
beginnt, 41
entfern@@ 41
Sign@@ 41
deinem 41
gesetzt, 41
Bibliothek 41
Normalerweise 41
dau@@ 41
Miss@@ 41
besitz@@ 41
Gehirne 41
sahen, 41
umso 41
schließt 41
Stär@@ 41
Kühl@@ 41
eien 41
Irgend@@ 41
heisst 41
Char@@ 41
id@@ 41
"Oh 41
pon@@ 41
keits@@ 41
steigen. 41
und. 41
Musik. 41
Vater, 41
Familie, 41
hef@@ 41
Elef@@ 41
Spe@@ 41
age, 41
Uganda 41
kommunizieren 41
itt, 41
möcht@@ 41
Hand. 41
ologi@@ 41
lächer@@ 41
beschreibt 41
Minuten. 41
schalten 41
zz@@ 41
Unter 41
werden." 41
bestä@@ 41
Fig@@ 41
Außen@@ 41
Mode@@ 41
Fried@@ 41
altes 41
erschreck@@ 41
Temp@@ 41
malen 41
C, 41
Zei@@ 41
Brück@@ 41
oll 41
eter@@ 41
Universum, 41
Patient 41
geni@@ 41
herein@@ 41
sit@@ 41
2008 41
außergewöhn@@ 41
Gipfel 41
Mahl@@ 41
Fei@@ 41
Geschäfte 41
go 41
Bein 41
Nahr@@ 41
gezogen 41
also. 41
Auß@@ 41
linke 41
Cam@@ 41
bit@@ 41
Origami 41
Schule, 41
Psychologie 41
Gore 40
Koch@@ 40
Brief 40
Technologi@@ 40
wachsen, 40
invest@@ 40
Qual@@ 40
Vorteil 40
Kalifornien 40
Folgen 40
Auswahl@@ 40
internationale 40
inklusive 40
Deutschland 40
organis@@ 40
Vorstellungskraft 40
bricht 40
Statistik@@ 40
hinsichtlich 40
Erforschung 40
Flugzeu@@ 40
ets 40
Nutzung 40
Milliar@@ 40
gehören 40
liegen, 40
neig@@ 40
Kunst, 40
ogi@@ 40
Hinblick 40
infizier@@ 40
Form, 40
Schne@@ 40
töten 40
eins, 40
gewissermaßen 40
Fru@@ 40
Fokus 40
Gedanken, 40
Spaß. 40
unterschiedlich 40
Buchstaben 40
ore@@ 40
zept@@ 40
fig@@ 40
enten. 40
enzi@@ 40
-K@@ 40
Zeitraum 40
gewinnen, 40
Tim@@ 40
arm 40
Problems 40
S. 40
leichter 40
techn@@ 40
mals 40
jemanden, 40
übri@@ 40
erscheint 40
äst@@ 40
Prof@@ 40
On@@ 40
-L@@ 40
Beispiel: 40
Gespräch 40
verwandel@@ 40
aufgebaut 40
Wun@@ 40
Opfer 40
Erfahrung. 40
Platt@@ 40
Fakten 40
lust@@ 40
gerät 40
zeug@@ 40
plötz@@ 40
Nah@@ 40
tran@@ 40
riffe 40
gesunden 40
nahmen, 40
Num@@ 40
Spiegel 40
Vier@@ 40
mer. 40
“, 40
Zukunft, 40
medizinischen 40
riffen 40
zun@@ 40
port@@ 40
'. 40
gewesen, 40
genie@@ 40
eni@@ 40
reit@@ 40
depres@@ 40
Trends 40
verlieb@@ 40
ain@@ 40
Frauen. 40
lieben, 40
berfläche 40
des, 40
Fünf 40
Valley 40
Poly@@ 40
Form. 40
Letz@@ 40
interessiert. 40
eingel@@ 40
Sä@@ 40
iten 40
sis 40
Verlauf 40
Clu@@ 40
Antwort@@ 40
Blogs 40
ik. 40
dokument@@ 40
Witz@@ 40
verfolgen 40
zug@@ 40
Mensch, 40
Chi@@ 40
geworfen 40
human@@ 40
Ökosystem@@ 40
Inhalte 40
Schatten 40
o: 40
Werbe@@ 40
ball@@ 40
B. 40
Steven 40
schlecht. 40
brach 40
Kapital@@ 40
Eltern, 40
den." 40
stehe 40
Gebiete 40
gewonnen 40
wirken 40
Arm@@ 40
Link@@ 40
sage: 40
ograf@@ 40
Vogel@@ 40
gehabt 40
denen, 40
tel 40
Kab@@ 40
Exper@@ 40
Änderungen 40
Jahrzehn@@ 40
maßen 40
Ok. 40
langsamer 40
licherweise 40
Mutter@@ 40
Haus. 40
untersucht 40
bedroh@@ 40
Indem 40
same 40
verkauf@@ 40
Emp@@ 40
Veranst@@ 40
Augenblick 40
wird? 40
schicken. 40
Kommun@@ 40
itt. 40
schwarzes 40
unge@@ 40
gekommen, 40
zurückkehr@@ 40
bal@@ 40
Signal 40
Infek@@ 40
schützen. 40
netz@@ 40
tionen. 40
lie@@ 40
Ameise 40
wunderschöne 40
ami@@ 40
ric@@ 40
Rätsel@@ 40
Offen@@ 39
Geschicht@@ 39
schrieb@@ 39
Programmier@@ 39
Darüber 39
Larry 39
part@@ 39
Wunder 39
Gerät, 39
api@@ 39
schauten 39
dung. 39
formen. 39
ax@@ 39
schrit@@ 39
ement@@ 39
folgt 39
begrün@@ 39
Aufbau 39
ellen, 39
seid 39
Korruption 39
itäts@@ 39
wiss@@ 39
lieg@@ 39
Berat@@ 39
zen. 39
gewöhnlichen 39
schöpf@@ 39
dit@@ 39
fügt 39
Flugzeug@@ 39
betreib@@ 39
hundert@@ 39
Ordnung. 39
Techn@@ 39
Hey, 39
org@@ 39
vieler 39
dran@@ 39
spüren 39
metho@@ 39
ration@@ 39
kreative 39
bildet 39
ade@@ 39
Treffen 39
zählen 39
sein." 39
küste 39
ener@@ 39
hatt@@ 39
line@@ 39
billi@@ 39
Waffen 39
außerord@@ 39
mitteln 39
behandel@@ 39
zwis@@ 39
versteht 39
letzter 39
geschrieben, 39
ischerweise 39
fragt, 39
Darauf 39
Mel@@ 39
Zeitalter 39
Charakter@@ 39
Jap@@ 39
roll@@ 39
gelangen. 39
entworfen 39
Sagen 39
magnet@@ 39
schnelle 39
Archit@@ 39
Stock@@ 39
jeweils 39
bereit, 39
angeb@@ 39
preis 39
Fort@@ 39
gefühl@@ 39
passierte. 39
anscheinend 39
irgendwelche 39
Rich@@ 39
erfinden 39
äd@@ 39
greifen, 39
normal 39
vertraut 39
sagen? 39
übrig 39
trink@@ 39
beeinflussen 39
Chines@@ 39
Erstaun@@ 39
Jugend@@ 39
Erstens, 39
Probleme. 39
Frieden 39
Großmutter 39
gelang@@ 39
Tor@@ 39
Mag@@ 39
suchte 39
Fragen. 39
Artik@@ 39
prech@@ 39
fest. 39
Gehirn, 39
fluss@@ 39
symmet@@ 39
höchsten 39
satz, 39
heut@@ 39
Magi@@ 39
t" 39
ließ@@ 39
ät. 39
aden@@ 39
Boden@@ 39
König 39
eile 39
Sü@@ 39
besessen 39
ühr@@ 39
Lek@@ 39
froh, 39
zentrale 39
Methode, 39
Wahrnehm@@ 39
zweit@@ 39
Gesichter 39
verr@@ 39
Yo@@ 39
hast, 39
Sag@@ 39
britischen 39
gebor@@ 39
ungst@@ 39
physische 39
vierte 39
gestalten. 39
Ka@@ 39
Show 39
Haare 39
allen, 39
Anim@@ 39
Träume 39
erwart@@ 39
Innen@@ 39
beinhaltet 39
Hau@@ 39
ohn@@ 39
sprach@@ 39
regier@@ 39
Gegenwart 39
Klima 39
Haut@@ 39
General 39
visuellen 39
Krieges 39
so? 39
zeit, 39
Komm@@ 39
aten, 39
geschlossen. 39
bekannt, 39
blieb 39
Musli@@ 39
normal@@ 39
selb@@ 39
Mehr@@ 39
ide@@ 39
Ray 39
Willen 39
volles 39
ursprüngliche 39
Atem 39
Augen. 39
Beweg@@ 39
$@@ 39
Diszipl@@ 39
ogramm@@ 39
hervorra@@ 39
Mom@@ 39
Depres@@ 39
sicht, 39
Universum. 39
überwälti@@ 39
landen 39
echtes 39
Gerechtigkeit 39
zusätzlich 39
lebe 39
one, 39
ole 39
weltweite 39
Moment. 39
Licht, 39
Interaktion 39
Freundin 39
sto@@ 39
anik 39
Kleb@@ 39
ia 39
Symmetrie 39
Korallen 39
Glamour 39
Kurz 38
konzentrieren, 38
Durchschnitt 38
zeichen 38
Transport@@ 38
führenden 38
folgen@@ 38
herstellen. 38
Kohle 38
sauber@@ 38
Insel@@ 38
geschrieben. 38
kleb@@ 38
schluss@@ 38
zeit. 38
Debatte 38
Ökon@@ 38
befrei@@ 38
st? 38
gewöhnliche 38
nör@@ 38
Handys 38
Risiken 38
fantast@@ 38
zy@@ 38
kein@@ 38
vielfäl@@ 38
Inn@@ 38
mach 38
beschreib@@ 38
enes 38
Telef@@ 38
zimmer 38
Bett 38
Mün@@ 38
stän@@ 38
rad@@ 38
mehreren 38
beschrieb@@ 38
Inseln 38
wass@@ 38
wort@@ 38
Stat@@ 38
Chemik@@ 38
Religionen 38
Chancen 38
Leit@@ 38
werden@@ 38
dimension@@ 38
Danke, 38
Unternehmen, 38
Aufgab@@ 38
öffn@@ 38
Design. 38
Zerstörung 38
nisse, 38
musste. 38
fand. 38
veränderte 38
ekt, 38
schreckliche 38
treff@@ 38
Benutz@@ 38
Por@@ 38
richtungen 38
währ@@ 38
gesti@@ 38
uh@@ 38
Res@@ 38
Gegenden 38
me. 38
5, 38
rebs 38
2, 38
beschreiben 38
Oran@@ 38
mern 38
stol@@ 38
äger 38
Chemikalien 38
Vögel 38
erscheinen 38
brechen. 38
Garten 38
heirat@@ 38
irgend 38
Krebs@@ 38
manipuli@@ 38
tö@@ 38
angen@@ 38
Körpers 38
jem@@ 38
gegangen, 38
enten, 38
taten, 38
Bedeut@@ 38
Schwar@@ 38
Bildung. 38
fig 38
mische 38
spiel 38
ps 38
istische 38
alisierung 38
sw@@ 38
Dek@@ 38
Regel@@ 38
Krank@@ 38
endi@@ 38
eilen, 38
Instrumente 38
Martin 38
weiß. 38
Ih@@ 38
Woh@@ 38
Sonnensystem@@ 38
elle. 38
popul@@ 38
Jedenfalls 38
leben@@ 38
Anwend@@ 38
20.000 38
Gleichung 38
Gemeinschaft, 38
Kindes 38
Schil@@ 38
Pen@@ 38
zweites 38
lig. 38
D-@@ 38
samkeit 38
bemerkenswerte 38
Karri@@ 38
häus@@ 38
gur@@ 38
verlieren, 38
Appar@@ 38
Park 38
Fo@@ 38
unterschied@@ 38
platz@@ 38
Q@@ 38
itten 38
erb@@ 38
perfek@@ 38
erstellt 38
zufäl@@ 38
lenk@@ 38
gend, 38
Stein 38
perfekt 38
geschwindigkeit 38
Hor@@ 38
fort. 38
markt 38
beschei@@ 38
Rot@@ 38
steigen, 38
Standpunkt 38
C. 38
Erinnerung 38
grossar@@ 38
Bewusst@@ 38
Instrument 38
mitzu@@ 38
zunehmen@@ 38
geteilt 38
ulen 38
Lan@@ 38
Medikament@@ 38
stütz@@ 38
erkannte 38
Moral 38
retten, 38
Hir@@ 38
ident@@ 38
gere 38
Dinosaurier 38
assi@@ 38
Währ@@ 38
heiße 38
Wetter@@ 38
niedri@@ 38
Hunde 38
zeichnet. 38
drehen, 38
dy@@ 38
Weltraum 38
Aqu@@ 38
avi@@ 38
Scho@@ 38
LG: 38
Foie 38
erfunden. 37
Tau@@ 37
och 37
nett@@ 37
schwer. 37
Redu@@ 37
zieren 37
sorgen, 37
verwendet. 37
Dollar-@@ 37
Wäre 37
unterhalb 37
reib@@ 37
Gh@@ 37
Zweitens 37
passen, 37
enormen 37
gestell@@ 37
Schnitt@@ 37
Mangel 37
atives 37
Koloni@@ 37
Flieg@@ 37
zeuge 37
ationalen 37
kündig@@ 37
"Hey, 37
mittel, 37
investieren 37
Dienst 37
dann? 37
was. 37
biz@@ 37
ästh@@ 37
Oberflächen 37
anf@@ 37
betrifft, 37
Konsu@@ 37
Lö@@ 37
sah. 37
Modell, 37
x, 37
vari@@ 37
verschiedener 37
Arten, 37
k-@@ 37
schlimmsten 37
Still@@ 37
fläche 37
Apple 37
jähr@@ 37
kä@@ 37
zen, 37
ale. 37
Überall 37
wählen, 37
gebeten 37
Erlebnis 37
Projekt. 37
Preise 37
tägliche 37
glichen 37
zusetzen. 37
Dingen. 37
Wegen 37
grenz@@ 37
Pau@@ 37
drin 37
klasse 37
teu@@ 37
gert 37
passierte, 37
glaubt, 37
häufig@@ 37
p, 37
außergewöhnliche 37
Train@@ 37
ug@@ 37
zerstört 37
versor@@ 37
Baumkron@@ 37
Sinn. 37
Bundes@@ 37
machen." 37
kaufte 37
reak@@ 37
Schwarz@@ 37
Brust@@ 37
warum. 37
esen, 37
bericht@@ 37
potenti@@ 37
dring@@ 37
dar. 37
erstaunlichen 37
weißt 37
kra@@ 37
ica 37
spät 37
zunehmend 37
aufgewachsen 37
einziges 37
r. 37
Whit@@ 37
Abhängigkeit 37
0, 37
einst 37
ok. 37
haben: 37
nann@@ 37
material 37
Kä@@ 37
flüs@@ 37
här@@ 37
mp@@ 37
innere 37
Zeug, 37
erschaff@@ 37
misch@@ 37
schon@@ 37
gegründet 37
Erkenntnis 37
ell. 37
ihm, 37
Hunderte 37
ings 37
gelassen 37
derer 37
such@@ 37
falschen 37
existiert. 37
65 37
prozess@@ 37
bekannte 37
draht@@ 37
nä@@ 37
existier@@ 37
Detail 37
Oberfläch@@ 37
bt, 37
Chin@@ 37
gerweise 37
ate@@ 37
vorzustellen, 37
tun@@ 37
ver 37
fra@@ 37
Fu@@ 37
keinem 37
Süden 37
unten, 37
an: 37
gewalt@@ 37
dir@@ 37
eindeutig 37
recht. 37
schwierige 37
inneren 37
enr@@ 37
unterstützen 37
Stu@@ 37
heißen 37
Perspektiv@@ 37
Foli@@ 37
isch-@@ 37
bauten 37
Richtungen 37
haltung 37
et? 37
sigen 37
dreidimension@@ 37
ate, 37
ül@@ 37
Schle@@ 37
ärm@@ 37
ju@@ 37
15@@ 37
Momente 37
Zentral@@ 37
Vö@@ 37
Bildung, 37
öhn@@ 37
Biosphäre 37
Wieder 37
verlor@@ 37
ele 37
verschieden 37
Zun@@ 37
kontrollieren 37
one. 37
schutz 37
Sl@@ 37
ausger@@ 37
21 37
verkün@@ 37
Hunger 37
Feuer@@ 37
nen@@ 37
Märkte 37
verpflicht@@ 37
Eu@@ 37
prei@@ 37
vern@@ 37
2007 37
st." 37
seg@@ 37
atm@@ 37
Küch@@ 37
neg@@ 36
Emissionen 36
Versuchen 36
Unterhaltung 36
Kapital 36
sionen, 36
probleme 36
herstell@@ 36
Zucker@@ 36
ennt 36
ade, 36
region@@ 36
stri@@ 36
ungeheuer 36
handeln. 36
Erstens 36
Zehn@@ 36
Ereignisse 36
Respekt 36
struktur 36
blüh@@ 36
konkur@@ 36
anfän@@ 36
Intellig@@ 36
flug@@ 36
Dutzend 36
ziem@@ 36
dazu@@ 36
kommerzi@@ 36
verl@@ 36
toll, 36
angel@@ 36
Mei@@ 36
Hier@@ 36
Quanten@@ 36
alen, 36
Großen 36
anden, 36
York, 36
Uhr@@ 36
produzieren, 36
ine, 36
Luft. 36
Schritte 36
ate. 36
Pan@@ 36
120 36
Gerä@@ 36
wasser@@ 36
abhängi@@ 36
Religion@@ 36
Moder@@ 36
Anru@@ 36
besagt, 36
hieß 36
Werkzeu@@ 36
verk@@ 36
schlimmer 36
Mac@@ 36
verlieren. 36
genaus@@ 36
Detail@@ 36
JA: 36
denselben 36
"P@@ 36
zunehmen. 36
Hal@@ 36
Million@@ 36
kosten@@ 36
Gegenteil 36
günst@@ 36
Install@@ 36
Element 36
argument@@ 36
wem 36
versich@@ 36
echn@@ 36
verbrauch 36
nebenbei 36
"Und 36
irgendeiner 36
sta@@ 36
Pap@@ 36
fe@@ 36
interessieren 36
Biologen 36
radi@@ 36
anfing, 36
Fut@@ 36
Belohn@@ 36
Beobacht@@ 36
Lini@@ 36
verschwinden 36
bevorzu@@ 36
Blumen 36
vertr@@ 36
haben." 36
wid@@ 36
Hoffnung, 36
Knochen@@ 36
Gewebe 36
Chem@@ 36
etik 36
alisiert 36
Frank 36
Architekt 36
Dinger 36
wie@@ 36
Sek@@ 36
offizi@@ 36
Kraft, 36
Liebes@@ 36
Rom@@ 36
Proz@@ 36
verstanden, 36
ektor 36
mittleren 36
Anstieg 36
mus. 36
treiben 36
Arme 36
Nachhal@@ 36
Tech@@ 36
Impfstoff 36
Bö@@ 36
ition 36
en- 36
steigen@@ 36
Produkt@@ 36
ster. 36
kontrollieren. 36
Medium 36
kü@@ 36
ma. 36
ash@@ 36
Itali@@ 36
verwend@@ 36
einen, 36
Ärz@@ 36
versteck@@ 36
Punkt@@ 36
riesiges 36
öffentlich 36
mmer@@ 36
Teleskop@@ 36
Toten 36
Mitglied 36
risk@@ 36
einbe@@ 36
Elektr@@ 36
L 36
blo@@ 36
Bilder, 36
Internet. 36
durchzu@@ 36
tiv 36
schuldig@@ 36
brachte. 36
spreche, 36
Aufmerksamkeit. 36
irgendeinem 36
Strategie 36
o? 36
enswer@@ 36
Ohr@@ 36
Metho@@ 36
Entfern@@ 36
Tradition 36
bereich 36
Muse@@ 36
stimmt. 36
Minist@@ 36
Dienst@@ 36
fehlt 36
problem 36
Mio. 36
Anti-@@ 36
artige 36
Physiker 36
Male 36
sper@@ 36
ländlichen 36
wohner 36
Stahl@@ 36
stor@@ 36
verstehe 36
bitte. 36
Königin 36
bemüh@@ 36
etr@@ 36
inform@@ 36
Medikament 36
Hirn 36
virtuellen 36
Lebenserwartung 36
Anfän@@ 36
gen: 36
spektakul@@ 36
dunklen 36
Stim@@ 36
ers, 36
physischen 36
Kolonie 36
seltsam@@ 36
Comic@@ 36
uns@@ 36
endung 36
begannen, 36
stück 36
2006 36
Fun@@ 36
Gut 36
toll. 36
Schwein@@ 36
diert 36
Gesundheitswesen 36
bedi@@ 36
arten. 36
heis@@ 36
ärmsten 36
warten. 36
Tradi@@ 36
hinauf 36
hie@@ 36
Ohren 36
mathemat@@ 36
öffnen. 36
Hai@@ 36
Twitter 36
gefl@@ 35
Schuhe 35
fuhren 35
ennen. 35
gemacht@@ 35
Temperatur@@ 35
Effizienz 35
Investitionen 35
getroffen, 35
unterhalt@@ 35
Wohlstand 35
stärk@@ 35
Dorf@@ 35
satz. 35
endsten 35
ektion 35
aktivi@@ 35
uss@@ 35
erlebt 35
kreativ 35
weite 35
euren 35
bt 35
Gruppe, 35
Himm@@ 35
Rus@@ 35
fe. 35
sorgen 35
mung 35
Wett@@ 35
erforschen. 35
ut. 35
Budget 35
gesell@@ 35
Bericht 35
Wasserstoff@@ 35
Origin@@ 35
Skulpt@@ 35
gehe, 35
entdeck@@ 35
Ingenie@@ 35
ure, 35
gebeten, 35
Magn@@ 35
zeichnen, 35
kommenden 35
Vielzahl 35
Insekten 35
Schlu@@ 35
ordnung 35
Satellit@@ 35
Licht. 35
ot 35
insgesamt 35
Mitglieder 35
Eck@@ 35
beweisen, 35
io 35
ee 35
erweise 35
Konstru@@ 35
halben 35
isse 35
Gesell@@ 35
Funktionen 35
Schri@@ 35
Bedrohung 35
ermutig@@ 35
gewähl@@ 35
erfahr@@ 35
700 35
Anruf 35
eb 35
Up@@ 35
Altern@@ 35
feststellen, 35
brauch 35
Wein 35
eil. 35
Speich@@ 35
t! 35
stat@@ 35
Mitarbei@@ 35
we@@ 35
Bedarf 35
Exist@@ 35
y" 35
positiv 35
verbinden. 35
cht? 35
nahezu 35
lernt 35
gelangen, 35
Gri@@ 35
gend. 35
Nerv@@ 35
att 35
Epidemi@@ 35
trop@@ 35
kämpfen 35
kö@@ 35
Schimpan@@ 35
dende 35
Lau@@ 35
Persön@@ 35
dung, 35
studieren 35
hoffnungs@@ 35
Angst, 35
meinen, 35
gung 35
Gem@@ 35
kel@@ 35
schlägt 35
handeln, 35
Röhr@@ 35
fach 35
produzier@@ 35
Demokrati@@ 35
teilung 35
ogen, 35
es." 35
Hotel 35
Gott. 35
ung" 35
erlang@@ 35
Person. 35
konzentriert 35
beschloss 35
derung 35
Ö@@ 35
Geni@@ 35
Einheit 35
vermehr@@ 35
drückt 35
verknüpf@@ 35
Dazu 35
bei. 35
Maschin@@ 35
Herausforderung, 35
begriff@@ 35
imit@@ 35
Ursprün@@ 35
Vorstell@@ 35
Vent@@ 35
tatsächliche 35
Urkn@@ 35
Grafi@@ 35
lach@@ 35
schrieben 35
zimmer@@ 35
eg 35
vorhin 35
jenen 35
Erschein@@ 35
genau@@ 35
fal@@ 35
Bäum@@ 35
umgehen 35
schlimm@@ 35
-D@@ 35
rufen, 35
unterstützen. 35
Antwort. 35
iz@@ 35
Löcher 35
spru@@ 35
Verschw@@ 35
Verbrauch@@ 35
Wort, 35
trat 35
Sicher@@ 35
darstell@@ 35
niem@@ 35
Gefängn@@ 35
besa@@ 35
komplizierte 35
Spiegel@@ 35
Identität 35
fassung 35
"R@@ 35
entstand 35
unver@@ 35
Rechte 35
oper@@ 35
gängi@@ 35
Berechnungen 35
Gas 35
Region@@ 35
Umfeld 35
sinni@@ 35
Stur@@ 35
hü@@ 35
umgekehr@@ 35
Laptops 35
Angebot 35
bedeck@@ 35
Weisheit 35
klassische 35
grös@@ 35
au, 35
Wissenschaftlern 35
Zivilis@@ 35
La@@ 35
größe 35
250 35
ande 35
Ungleich@@ 35
früheren 35
besitzen 35
afrik@@ 35
Reserv@@ 35
Vorträge 35
S-@@ 35
Start@@ 35
frü@@ 35
Theori@@ 35
Führer 35
gs 35
traditionelle 35
ut, 35
religi@@ 35
Vergnügen 35
Frankreich 35
Gän@@ 35
atik 35
Ungefähr 35
inmitten 35
kul@@ 35
Verbrechen 35
Raub@@ 35
Weihnachts@@ 35
fang@@ 35
Welches 35
Völ@@ 35
Winter 35
Vogel 35
gebiete 35
all. 35
ley 35
übertragen. 35
Bibliothek@@ 35
osphä@@ 35
Konzer@@ 35
scher@@ 35
saßen 34
aufen 34
getan, 34
investieren, 34
Gemeinden 34
Prü@@ 34
schä@@ 34
betrieb@@ 34
bleib@@ 34
mit. 34
herstellen, 34
Niveau 34
Vorteile 34
R 34
funktionieren, 34
Angestell@@ 34
erwarten, 34
leidenschaft@@ 34
Deb@@ 34
Wirtschaft, 34
schläge 34
Annahme 34
Elektriz@@ 34
versorg@@ 34
Dann, 34
2001 34
besei@@ 34
produktion 34
kaput@@ 34
Wissen, 34
wirt@@ 34
Jahrzehnt 34
Steuer@@ 34
veranst@@ 34
Kind. 34
Steu@@ 34
et: 34
Absicht 34
vier, 34
tiert, 34
künstler@@ 34
lebt, 34
Wisst 34
mussten, 34
dran 34
Phot@@ 34
Dach 34
lange, 34
bro@@ 34
Kohlenstoff 34
chemischen 34
schlechtes 34
erreicht, 34
system. 34
Mad@@ 34
Kontak@@ 34
Stimmen 34
lautet 34
arbeitung 34
flüssig@@ 34
ik 34
Presse 34
denn, 34
neulich 34
Treff@@ 34
ältesten 34
Erinner@@ 34
Kevin 34
Katastroph@@ 34
bemerkt 34
freiwil@@ 34
Gerü@@ 34
High@@ 34
gestimm@@ 34
Mechan@@ 34
Zug 34
Motor 34
schaut, 34
AR@@ 34
Änderung 34
hinunter@@ 34
irdischen 34
berührt 34
jag@@ 34
dum@@ 34
Sprache, 34
zunehmen, 34
Kommunikations@@ 34
angefangen, 34
Glei@@ 34
kennen@@ 34
Ja@@ 34
zelle 34
in-@@ 34
Explosion 34
Gewinn 34
gefallen 34
mögen. 34
Cha@@ 34
Hilf@@ 34
passt. 34
sweise 34
erzeugen, 34
darstellt. 34
springen 34
Richtige 34
Schokol@@ 34
Bandbreite 34
ermöglichen 34
Verh@@ 34
Geistes@@ 34
wundervollen 34
hörten 34
übertragen 34
ologisch 34
gif@@ 34
umm@@ 34
herausgefunden 34
kraft, 34
Brian 34
gänge 34
folgen. 34
Stephen 34
verkauft. 34
unend@@ 34
oph@@ 34
allzu 34
Lauf 34
Werb@@ 34
teur@@ 34
Ökonomen 34
gründete 34
undes 34
Archi@@ 34
änge 34
sicht. 34
ppen, 34
tlich 34
Musiker 34
Bäumen 34
Reb@@ 34
zusetzen, 34
Git@@ 34
Moral@@ 34
enthüll@@ 34
kompliziert 34
Simul@@ 34
rechn@@ 34
Höhepunkt 34
Steine 34
verschieden@@ 34
illeg@@ 34
Bestimm@@ 34
gebro@@ 34
emotionale 34
später. 34
opti@@ 34
ös 34
beinhalt@@ 34
Juli@@ 34
Gemeinschaften 34
Arbeiter 34
Gleichgewicht 34
Säu@@ 34
Glaub@@ 34
fall, 34
benutzt, 34
ächt@@ 34
Gebäu@@ 34
Film, 34
grundleg@@ 34
Kampf@@ 34
nimmt. 34
winzigen 34
Streck@@ 34
are@@ 34
Chri@@ 34
etw@@ 34
glücklich. 34
Spiel, 34
verd@@ 34
gefährlich 34
umher@@ 34
eur 34
Fir@@ 34
behalten 34
ebi@@ 34
stimmen 34
diges 34
stes 34
Computer-@@ 34
reale 34
spielt. 34
Verk@@ 34
beantworten. 34
verfolgt 34
anz. 34
hält@@ 34
Veränder@@ 34
Anerkennung 34
Popul@@ 34
9. 34
halte, 34
kulturellen 34
blas@@ 34
lebendig 34
ektiv@@ 34
suche 34
strö@@ 34
wuer@@ 34
nationale 34
26 34
Null 34
Beruf@@ 34
Ländern. 34
Ed@@ 34
gebrochen 34
Ba@@ 34
okay, 34
chinesischen 34
zusätzliche 34
Impf@@ 34
Baby@@ 34
not@@ 34
Geschäf@@ 34
Hans 34
Earth 34
Hab@@ 34
Unabhängi@@ 34
ehmen 34
Volk 34
repräsentiert 34
Wach@@ 34
17. 34
Ball 34
Lektion 34
Pet@@ 34
Geist@@ 34
el-@@ 34
Videospiele 34
tions@@ 34
syn@@ 34
Bien@@ 34
Ye@@ 34
unbe@@ 33
hielten 33
fällen 33
bewusst. 33
diese, 33
Freiwil@@ 33
800 33
extra@@ 33
Nähr@@ 33
ungeh@@ 33
verbringen, 33
erungen 33
gebiet 33
gesellschaft 33
Cl@@ 33
hoffen 33
23 33
fragen. 33
Eigenschaft 33
geschickt 33
ung." 33
gekauft 33
machst 33
Komm 33
über, 33
Erfind@@ 33
interessant@@ 33
leistungs@@ 33
Jahrzehnte 33
Gedanke, 33
fassen, 33
sex@@ 33
bitte, 33
interessantes 33
entdeckte 33
ement 33
Band 33
entwerfen. 33
Schnee 33
Kerl@@ 33
Umständen 33
bur@@ 33
großartig 33
"Okay, 33
Gelegenheit, 33
ester 33
Genom@@ 33
Milli@@ 33
50.000 33
Proben 33
konzentrier@@ 33
Hard@@ 33
', 33
kurzer 33
statt. 33
Kolum@@ 33
Adr@@ 33
Gebrauch 33
darauf. 33
engl@@ 33
b, 33
Dollar@@ 33
umgeben 33
Wähl@@ 33
mich: 33
dig. 33
zeich@@ 33
Chr@@ 33
schreibt 33
Hör@@ 33
ber. 33
ekt. 33
ier, 33
bezahlen 33
Stift@@ 33
unglaub@@ 33
äume 33
großartiger 33
sfähig@@ 33
kommen? 33
verstär@@ 33
Erwachsenen 33
Gall@@ 33
grundlegend 33
Guten 33
ner. 33
beobachten. 33
Blät@@ 33
bru@@ 33
linie 33
Hunder@@ 33
überall. 33
Teil, 33
..." 33
reise 33
handelte 33
kreu@@ 33
hem@@ 33
Körper. 33
etten@@ 33
verrückt. 33
tiert. 33
test 33
College 33
bt. 33
Brasili@@ 33
Softwar@@ 33
Com@@ 33
Sicht@@ 33
ügen 33
b. 33
romant@@ 33
sterben@@ 33
sc@@ 33
Ara@@ 33
bell@@ 33
Journ@@ 33
itt 33
Buch. 33
treibt 33
Prozess, 33
unendlich 33
leisten. 33
Neb@@ 33
Grü@@ 33
Chemie 33
reagier@@ 33
beschrieben 33
wahren 33
schüt@@ 33
Vit@@ 33
liger 33
ce. 33
allen. 33
kör@@ 33
übernehmen 33
Restaurant 33
komplette 33
abil@@ 33
ansehen. 33
zir@@ 33
ite 33
Magazin 33
Online-@@ 33
Mutter. 33
ba 33
sitzen, 33
Publik@@ 33
gegensei@@ 33
Dies@@ 33
Saturn 33
Anwäl@@ 33
Geheimnis 33
Akti@@ 33
Open 33
El 33
Volks@@ 33
ursprünglichen 33
eingesch@@ 33
ol 33
verhindern, 33
pel@@ 33
einander@@ 33
ie, 33
Symbol 33
anders, 33
Ausrüstung 33
atom@@ 33
Studio 33
natur@@ 33
vergleichen 33
markt@@ 33
dustrie 33
Nu@@ 33
Krankenhäus@@ 33
Heutzutage 33
verteilt 33
wissenschaftler 33
akti@@ 33
Informationen, 33
Vorder@@ 33
"Aber 33
Blickwinkel 33
hielt, 33
Nein@@ 33
Hi@@ 33
prim@@ 33
nenne. 33
änden 33
glücklicherweise 33
Blei@@ 33
Lux@@ 33
benötig@@ 33
Amat@@ 33
Mann. 33
Kenia 33
sichtbar 33
Könnte 33
gesagt. 33
2.000 33
zentralen 33
multi@@ 33
Schwimm@@ 33
alisieren 33
nämlich, 33
alem 33
Australien 33
Asi@@ 33
wir? 33
itz 33
große, 33
breiten 33
$ 33
Deck@@ 33
uck@@ 33
gros@@ 33
züge 33
Sichtweise 33
Kampagne 33
Gru@@ 33
Experten 33
2.@@ 33
oren. 33
Stadi@@ 33
verbessert 33
spiele 33
erhalt@@ 33
onie 33
realist@@ 33
6. 33
bemerken 33
Tasche 33
erkrank@@ 33
gewöhnlich 33
Reaktionen 33
Überzeug@@ 33
reff@@ 33
infiziert 33
garanti@@ 33
Schon 33
wander@@ 33
Zuhör@@ 33
gedacht 33
akadem@@ 33
formi@@ 33
Jetzt, 33
schnell@@ 33
Frequ@@ 33
my@@ 33
ökonomischen 33
geschütz@@ 33
Wörter@@ 33
Betr@@ 33
Hyper@@ 33
PC@@ 33
leiten 33
Population 33
Ali@@ 33
CE@@ 33
Wör@@ 33
La 33
Rover 33
Pollen 33
katastrop@@ 32
0,@@ 32
Gewinn@@ 32
formuli@@ 32
glauben. 32
Rechner 32
Unterstütz@@ 32
ennen, 32
geschlagen 32
Haiti 32
ahnen 32
glücklich, 32
gestalten 32
Projekten 32
Konsumenten 32
Rohstoff@@ 32
aufbauen 32
ang, 32
Wege, 32
Globalisierung 32
eder, 32
schaffte 32
Weltraum@@ 32
überrascht 32
Neues 32
ürz@@ 32
wozu 32
erie 32
seln 32
raus, 32
Bran@@ 32
son, 32
ige, 32
un, 32
Flug 32
drücken, 32
Spann@@ 32
Figur 32
konzep@@ 32
Liebe. 32
Ganzen 32
Zentr@@ 32
icken 32
Mach 32
hoffen, 32
trafen 32
bitten 32
Prin@@ 32
sequenzi@@ 32
Ökosystem 32
Sequ@@ 32
Strahl@@ 32
belast@@ 32
Wasserstoff 32
Größen@@ 32
besorgt 32
liefert 32
dauern@@ 32
Präsident@@ 32
klag@@ 32
anderes, 32
Schuld 32
erzi@@ 32
beschwer@@ 32
Weiter@@ 32
it, 32
Hoffn@@ 32
frustri@@ 32
York. 32
4, 32
ihr@@ 32
Schiff 32
vorhanden 32
uss. 32
erfreu@@ 32
3,@@ 32
Zü@@ 32
verdamm@@ 32
stücke 32
kleine, 32
gen." 32
riechen 32
ogramm 32
Ther@@ 32
bieten. 32
winzige 32
oft, 32
verlassen, 32
ut 32
trotz@@ 32
lä@@ 32
entschlos@@ 32
University 32
other@@ 32
ausbreit@@ 32
erforschen, 32
allgemein 32
neuesten 32
Fran@@ 32
käm@@ 32
identifizier@@ 32
Ky@@ 32
Gebäuden 32
erstellen, 32
kraft. 32
Typ, 32
ah, 32
?", 32
chts@@ 32
häl@@ 32
bildet, 32
pli@@ 32
Schaltkrei@@ 32
vorbei. 32
Wander@@ 32
ystem@@ 32
-P@@ 32
beobachtet 32
industrielle 32
ie. 32
Viel 32
vollständig@@ 32
Kreuz@@ 32
allgemeinen 32
Reich 32
messen. 32
teste 32
berühmten 32
vernetz@@ 32
gewählt 32
erkann@@ 32
gewonnen. 32
zeige, 32
Haar@@ 32
chter@@ 32
Sher@@ 32
raub@@ 32
Verteilung 32
pe 32
wich@@ 32
Methoden 32
jeder, 32
pun@@ 32
kte, 32
echni@@ 32
Barri@@ 32
sinn 32
Erste 32
Richt@@ 32
tot 32
organisiert 32
pres@@ 32
Konsequ@@ 32
bei, 32
Höh@@ 32
], 32
rem@@ 32
gerettet 32
Diam@@ 32
andel@@ 32
städtischen 32
Chicago 32
gefährliche 32
aus: 32
Job@@ 32
niemanden 32
annehmen, 32
Kräf@@ 32
Betrachten 32
Alkoh@@ 32
ums, 32
Könnten 32
ierende 32
am. 32
oi@@ 32
besuchen 32
Pakistan 32
ogra@@ 32
Basi@@ 32
müssten 32
Toil@@ 32
Felsen 32
installi@@ 32
beschütz@@ 32
Prozent@@ 32
Transistor@@ 32
starten 32
cle@@ 32
Vorher@@ 32
flug 32
Kategori@@ 32
Üb@@ 32
Meere 32
Präsidenten 32
Metaphern 32
Meet@@ 32
Jahrhunder@@ 32
99@@ 32
Viertel@@ 32
Et@@ 32
befinden, 32
neu. 32
Syn@@ 32
iere 32
willst 32
chmal, 32
faszinierende 32
Schnitt 32
entliche 32
Treib@@ 32
Preis@@ 32
nationalen 32
sige 32
Colleg@@ 32
Sklav@@ 32
wohlhab@@ 32
Training 32
ail@@ 32
Vertr@@ 32
gehend 32
nahmen. 32
anfangen. 32
Alters@@ 32
medizin@@ 32
einmal@@ 32
entgegen@@ 32
Köni@@ 32
sach@@ 32
Würden 32
verbor@@ 32
Urheber@@ 32
Aktion 32
einmal. 32
Tagen, 32
reicher 32
bedeuten 32
Sin@@ 32
Afrikan@@ 32
korre@@ 32
Welle 32
Intuition 32
täglichen 32
chinesische 32
werdet 32
Streben 32
verkaufte 32
kräf@@ 32
äufer 32
Brü@@ 32
vergessen, 32
sozialer 32
Sprache. 32
Täusch@@ 32
Gebiet, 32
selbstverständlich 32
Fün@@ 32
Indiens 32
Goldene 32
Hon@@ 32
fundamentale 32
stein@@ 32
Geck@@ 32
Krab@@ 32
Elektron@@ 32
Comics 32
Dank, 31
Phant@@ 31
Paar 31
--@@ 31
Genau@@ 31
geru@@ 31
ral 31
Wandel@@ 31
Empf@@ 31
stands@@ 31
Logik 31
stün@@ 31
vielmals. 31
verwandeln. 31
arbeite, 31
wohl, 31
welt. 31
Konzepte 31
Kapitalismus 31
vorwärts 31
ums@@ 31
absolute 31
Fur@@ 31
bezahlen, 31
Stick@@ 31
hilfe 31
wirft 31
zustellen, 31
Köpfen 31
Vo@@ 31
cool. 31
2003 31
Orbit 31
Spa@@ 31
privaten 31
technisch 31
Laufen 31
Angst. 31
Kunst. 31
Straßen@@ 31
Inneren 31
geschaffen, 31
neigen 31
Subst@@ 31
Mitgli@@ 31
schlau 31
großartiges 31
billiger 31
Pflanzen, 31
draussen 31
quelle 31
Gebäudes 31
.000 31
nannten 31
Zellen, 31
mus, 31
licht@@ 31
verbracht 31
schrecklich 31
Technik, 31
ann, 31
vereinfach@@ 31
das?" 31
Macht, 31
öß@@ 31
Gespräch@@ 31
Kno@@ 31
ak 31
Beding@@ 31
Kurz@@ 31
spl@@ 31
bat@@ 31
Rat@@ 31
Tot@@ 31
mussten. 31
lief@@ 31
Szene 31
Mini@@ 31
Verein@@ 31
Bemerk@@ 31
West 31
Personen, 31
gewähr@@ 31
aktuellen 31
zuverläs@@ 31
Fläche 31
Wörterbuch 31
zeigten 31
Asien 31
dreimal 31
Bus 31
Boston 31
lier@@ 31
Pak@@ 31
brilli@@ 31
%. 31
gesunde 31
kunft 31
"Wissen 31
äter 31
klop@@ 31
sagt. 31
tiefen 31
Waff@@ 31
abhän@@ 31
schreit@@ 31
schlau@@ 31
virtuelle 31
tiefe 31
Bom@@ 31
stein 31
begeister@@ 31
erhielt 31
änderte 31
erforschen 31
weiger@@ 31
schlech@@ 31
Unsicher@@ 31
u, 31
chaot@@ 31
Ära 31
gelö@@ 31
ah. 31
Mr. 31
Geräusche 31
Anthrop@@ 31
vort@@ 31
brachte, 31
amin@@ 31
richtet 31
dest 31
holen, 31
Hause. 31
gleich, 31
koll@@ 31
dungs@@ 31
Strukt@@ 31
RI@@ 31
legte 31
Silicon 31
entsteht. 31
Flüssigkeit 31
geschafft, 31
mittel. 31
offensichtlich, 31
ammer 31
schlug 31
prinzi@@ 31
Sing@@ 31
Menschlichkeit 31
perfekten 31
punkte 31
gefragt: 31
tat. 31
une 31
bieten, 31
authent@@ 31
ologen, 31
Marke 31
Gemälde 31
licher, 31
stets 31
glückliche 31
Kerz@@ 31
englischen 31
tolles 31
Autoren 31
Mexiko 31
halt, 31
beruf@@ 31
üft@@ 31
Cre@@ 31
ffen 31
ster, 31
atz 31
erhöht 31
Flasche 31
aussehen, 31
wunderschönen 31
arm@@ 31
Muster. 31
wässer@@ 31
Blatt 31
militä@@ 31
Medik@@ 31
zweieinhalb 31
unmöglich. 31
einzel@@ 31
Staaten. 31
Verlu@@ 31
fangen, 31
anschauen. 31
"Mein 31
ausgeb@@ 31
eidig@@ 31
sitz 31
kleinere 31
Cal@@ 31
gedank@@ 31
riff 31
geren 31
Material, 31
Brasilien 31
bü@@ 31
Blau@@ 31
Schaf@@ 31
beides 31
fän@@ 31
Hilfs@@ 31
dort@@ 31
izi@@ 31
Lam@@ 31
pal@@ 31
ographie 31
Etwa 31
Sir 31
aufgenommen, 31
Heli@@ 31
bilder 31
zogen, 31
Summe 31
Demon@@ 31
gewissem 31
endete 31
under@@ 31
Ding, 31
größeres 31
toren 31
Spezies, 31
Rechen@@ 31
Erwartungen 31
Einstellung 31
Hitze 31
orit@@ 31
Brüder 31
Sprech@@ 31
Länder. 31
Konsequenzen 31
Schicht 31
Weltkrieg 31
großar@@ 31
Akt 31
unterscheiden 31
besonderen 31
schicht 31
Mobil@@ 31
Oder, 31
Katz@@ 31
gedacht. 31
Ig@@ 31
rational 31
eingeladen 31
heutige 31
Stil 31
Universum@@ 31
enthält 31
Ressourc@@ 31
dro@@ 31
alten. 31
Lab@@ 31
fang 31
verdienen. 31
vergess@@ 31
beschlossen 31
Klini@@ 31
stür@@ 31
China. 31
Schicksal 31
positiven 31
Symptome 31
Rhythmus 31
seltsam 31
1, 31
3-@@ 31
anc@@ 31
Dadurch 31
Näh@@ 31
konzentrieren. 31
Sar@@ 31
exist@@ 31
stellungen 31
Künst@@ 31
Sie: 31
Unterschied. 31
ausgesetzt 31
Stufen 31
hät@@ 31
Interview 31
erwis@@ 31
aul@@ 31
Saal 31
indische 31
Aust@@ 31
gestalten, 31
Beinen 31
Europ@@ 31
vertik@@ 31
prot@@ 31
Gefahr@@ 31
Trans@@ 31
auslän@@ 31
streit@@ 31
schickte 31
Zigar@@ 31
bom@@ 31
Ök@@ 31
rus 31
Stärke 31
Ei@@ 31
bung 31
fress@@ 31
endet. 31
sogenannte 31
Zentimeter 31
e's 31
Kartoff@@ 31
Pyramide 31
Geräusch 31
Dinosauri@@ 31
verschi@@ 30
eingeschrän@@ 30
polit@@ 30
fantastischen 30
Hol@@ 30
wert. 30
Gericht 30
Holz 30
Tode 30
cool 30
eile, 30
Wiederauf@@ 30
engagier@@ 30
sofor@@ 30
ihr. 30
konvention@@ 30
reiste 30
ypt@@ 30
intern@@ 30
Hoffnung. 30
beschaff@@ 30
italien@@ 30
priv@@ 30
geplan@@ 30
ek 30
Raumschi@@ 30
gesu@@ 30
zwar, 30
harte 30
erfolgrei@@ 30
Automobil@@ 30
stände 30
Skulptur 30
weich@@ 30
Gesellschaft. 30
erst, 30
Regen 30
Bab@@ 30
lor@@ 30
Haus, 30
Angriff 30
Steck@@ 30
üll@@ 30
stration 30
betrachtet. 30
Tiefse@@ 30
kompon@@ 30
Betracht@@ 30
zerstören 30
Pock@@ 30
Photos@@ 30
Produk@@ 30
lle 30
Tja, 30
zahlt 30
Witz 30
Links 30
irgendwas 30
er." 30
gefahren 30
era 30
ere. 30
schmut@@ 30
sen: 30
Jim 30
Winter@@ 30
siert. 30
Rick 30
Waren 30
Street 30
Lösung, 30
Umgang 30
-St@@ 30
verbracht, 30
versamm@@ 30
wört@@ 30
einzigar@@ 30
erwähnt 30
flexi@@ 30
geri@@ 30
Somit 30
Autob@@ 30
Besonder@@ 30
voran@@ 30
ci@@ 30
knapp 30
Johnson 30
vorhand@@ 30
Kreisl@@ 30
vermeid@@ 30
leiden 30
reck@@ 30
aufregend 30
fer, 30
Berühr@@ 30
Kontex@@ 30
a? 30
anders@@ 30
pft 30
Projekte, 30
Schaden 30
Bor@@ 30
Körper, 30
D. 30
wirkt 30
gern. 30
folgen, 30
glaubte 30
besucht 30
tur@@ 30
interview@@ 30
geschick@@ 30
versteckt 30
unken 30
reisen 30
l, 30
Frau. 30
unt@@ 30
ra, 30
strukt@@ 30
ahr@@ 30
Brem@@ 30
Rah@@ 30
Oli@@ 30
Reich@@ 30
nirgend@@ 30
Überrasch@@ 30
sieb@@ 30
Eltern@@ 30
Neut@@ 30
ellen. 30
läuft, 30
Ham@@ 30
eröffn@@ 30
Kurve 30
es" 30
Rand@@ 30
Tats@@ 30
wuß@@ 30
Systems 30
abgesehen 30
unterstützt 30
irgendein 30
optimist@@ 30
großartig, 30
.com 30
Wissenschaft. 30
Theorien 30
Bäck@@ 30
runter. 30
gemeinnüt@@ 30
ationale 30
Zuhause 30
veröffent@@ 30
Schwanz 30
offene 30
Hintergr@@ 30
Interessen 30
Besitz@@ 30
agi@@ 30
TED. 30
Schauspiel@@ 30
ais@@ 30
pri@@ 30
tags@@ 30
Mischung 30
Kopf, 30
drinnen 30
Zeug. 30
mache. 30
Jahrhundert. 30
sym@@ 30
hoher 30
gehalten. 30
Jäh@@ 30
front@@ 30
Auff@@ 30
blick 30
Jer@@ 30
statist@@ 30
Bereich, 30
are, 30
definitiv 30
land. 30
cl@@ 30
Aufnahmen 30
ebene 30
eingeführt 30
ra. 30
Militär 30
Feind 30
Frank@@ 30
gemacht? 30
ermöglichen. 30
on: 30
U-Boo@@ 30
2-@@ 30
genannt, 30
ball 30
Kurzem 30
zurecht@@ 30
kei@@ 30
ea 30
übereinstimm@@ 30
religiöse 30
kommunizieren. 30
arch@@ 30
kling@@ 30
00 30
dauern 30
Älterwerden 30
zusätz@@ 30
punkt. 30
beschreiben, 30
Wale 30
Interak@@ 30
bitten, 30
Lehre 30
Kambodsch@@ 30
Fettleibigkeit 30
Teleskop 30
usi@@ 30
Theorie, 30
gänz@@ 30
britische 30
Kapitel 30
ram@@ 30
Krankenschwest@@ 30
Situationen 30
Operation 30
angeht, 30
Charak@@ 30
erlauben, 30
skal@@ 30
ueber 30
Auto. 30
nachhaltige 30
benen 30
[ 30
N 30
sorganis@@ 30
sur@@ 30
Zut@@ 30
Blum@@ 30
Dun@@ 30
Schäd@@ 30
Gesundheit, 30
kreieren, 30
AIDS-@@ 30
Statistik 30
A. 30
tierte 30
Leiden 30
anget@@ 30
Videospiel@@ 30
193@@ 30
ehmen. 30
Mathematiker 30
schließlich, 30
erneuer@@ 30
Regierung, 30
ungser@@ 30
Strö@@ 30
Roten 30
Ruanda 30
Lar@@ 30
energi@@ 30
fasziniert 30
erien 30
Was, 30
esie 30
Zimmer@@ 30
Teppi@@ 30
Roman 30
tre@@ 30
schwimm@@ 30
Tauch@@ 30
Liber@@ 30
Roboter@@ 30
osphäre 30
Geschichtenerzähl@@ 30
Männchen 30
asp@@ 30
WK: 30
quellen 30
lied, 30
Neuig@@ 30
Schriftstell@@ 30
8, 29
Kell@@ 29
ze@@ 29
Energie. 29
beteiligt 29
ang. 29
Woher 29
atmen 29
Wahl. 29
begrenzt 29
haus@@ 29
öck@@ 29
gefäll@@ 29
fertig. 29
Designer, 29
Schaff@@ 29
gebra@@ 29
beton@@ 29
zerbrech@@ 29
Gesicht@@ 29
erstellen 29
Oxford 29
ellem 29
Dok@@ 29
lieben. 29
20-@@ 29
Macht@@ 29
behaup@@ 29
dliche 29
Diskus@@ 29
fir@@ 29
hir@@ 29
ickt 29
fördern, 29
Video@@ 29
hey, 29
30.000 29
nack@@ 29
2004 29
inspirieren 29
lauf 29
egal. 29
1,5 29
staatliche 29
Betriebs@@ 29
Autos, 29
Brennstoff@@ 29
"Naja, 29
hinein, 29
Regeln, 29
Verpflicht@@ 29
geändert 29
Einmal 29
Männer, 29
Pop@@ 29
Mittelpunkt 29
edern 29
Auseinander@@ 29
stel 29
Seg@@ 29
besitzt 29
messen, 29
gesammelt 29
kalt 29
jizier@@ 29
Fant@@ 29
Pocken 29
empfind@@ 29
atori@@ 29
natürlicher 29
raffin@@ 29
ität@@ 29
vorsichtig 29
PC 29
Knopf 29
Dokum@@ 29
Öff@@ 29
Digit@@ 29
leid, 29
Rat 29
Center 29
kreiert 29
Offensichtlich 29
Initi@@ 29
mech@@ 29
bräu@@ 29
Dör@@ 29
sechs@@ 29
dicht 29
mot@@ 29
beschäftigt, 29
ice 29
natür@@ 29
tue, 29
Reichweite 29
Tax@@ 29
rest@@ 29
Lebensmittel@@ 29
Wälder 29
erforscht 29
Entwicklung. 29
Trotzdem 29
Alter@@ 29
Apart@@ 29
fur@@ 29
wissenschaft 29
viellei@@ 29
bemerkt, 29
hinein. 29
mir@@ 29
beschlossen, 29
Status 29
bleibt. 29
zufrieden 29
Abstand 29
fortgeschrit@@ 29
Leiter 29
respek@@ 29
Fläch@@ 29
geli@@ 29
afen 29
tollen 29
zugleich 29
Denkweise 29
alisierten 29
e- 29
jen@@ 29
nern 29
13@@ 29
sammeln, 29
Sexu@@ 29
Aufstieg 29
wirken. 29
nun@@ 29
Zwill@@ 29
Stämme 29
aufrecht 29
biologisch 29
verstanden. 29
Algorith@@ 29
echnologi@@ 29
systems 29
Verpack@@ 29
10, 29
Kapaz@@ 29
Tat, 29
bestimmen, 29
stir@@ 29
sem@@ 29
weiten 29
gelangt 29
Acht@@ 29
siert, 29
erfand 29
mag. 29
ce, 29
entspr@@ 29
wahrscheinlich, 29
Carto@@ 29
Them@@ 29
kleinen, 29
schafften 29
trug 29
Straf@@ 29
graus@@ 29
erstellen. 29
mächtige 29
überraschend 29
tauchen 29
val@@ 29
regelmäßig 29
Internet, 29
intelligenten 29
zeitgenös@@ 29
uren. 29
Rückseite 29
"F@@ 29
echt@@ 29
Hill@@ 29
einzige, 29
klat@@ 29
band 29
azi@@ 29
Sterb@@ 29
Geschäft@@ 29
starben 29
schenk@@ 29
eckt 29
Erwachsene 29
kritische 29
kontinuier@@ 29
pus 29
ema 29
Beitrag 29
Bilder. 29
Plak@@ 29
Poll@@ 29
strateg@@ 29
Boot@@ 29
geht's 29
Transform@@ 29
Feuerwehr@@ 29
3.000 29
berei@@ 29
Zähne 29
massiven 29
ana, 29
unerwart@@ 29
Besitzer 29
raus. 29
straß@@ 29
großzügi@@ 29
fasst. 29
Film. 29
regi@@ 29
ehmen, 29
Homo 29
Robo@@ 29
fäh@@ 29
Bevölker@@ 29
hierfür 29
inst@@ 29
getreten 29
Schulen, 29
vo@@ 29
Onkel 29
Log@@ 29
Sternen 29
regelmäß@@ 29
Wahrscheinlichkeit, 29
gerett@@ 29
nie. 29
Chirur@@ 29
wodurch 29
Fähigkeiten, 29
Dimen@@ 29
schüttel@@ 29
Stern 29
dunkel 29
bildete 29
hinunter 29
beliebi@@ 29
M: 29
1-@@ 29
Island 29
ökologischen 29
Krimin@@ 29
entwerfen 29
Tsunami 29
lung@@ 29
hört, 29
enor@@ 29
raft@@ 29
Fabrik@@ 29
Folgendes 29
Gesundheitswes@@ 29
London@@ 29
gelernt. 29
unabhängi@@ 29
Hüh@@ 29
Europa. 29
enttäusch@@ 29
irr@@ 29
Sno@@ 29
Korrup@@ 29
Fertig@@ 29
schüch@@ 29
Tast@@ 29
drücken. 29
Ag@@ 29
Denn, 29
entspann@@ 29
industri@@ 29
Rhyth@@ 29
dus 29
westliche 29
Pingu@@ 29
davon@@ 29
fri@@ 29
Finger@@ 29
Handlungen 29
gehalten, 29
Kü@@ 29
blind 29
Nas@@ 29
atter@@ 29
EC@@ 29
Gramm@@ 29
Geschmack@@ 29
Wellen 29
Halb@@ 29
film 29
Stap@@ 29
öhr@@ 29
singen 29
gedul@@ 29
start@@ 29
put@@ 29
schicken, 29
Orig@@ 29
detail@@ 29
Tee 29
YouTube 29
Lebensraum 29
Krähen 29
Gor@@ 28
liches, 28
Abendessen 28
eröffnet 28
plus 28
4,@@ 28
nommen 28
punkt, 28
Ausgaben 28
Thema, 28
vermei@@ 28
gegenwär@@ 28
Gelegen@@ 28
entsetz@@ 28
quell@@ 28
stabil@@ 28
freue 28
falls@@ 28
demokrat@@ 28
Drogen@@ 28
unternehmer@@ 28
Weltbevölkerung 28
ensystem@@ 28
Fahrrad 28
getrenn@@ 28
Provin@@ 28
Wohltä@@ 28
entwor@@ 28
US 28
besserer 28
ehn@@ 28
erleben. 28
Ländern, 28
geprä@@ 28
ance 28
Drogen 28
behör@@ 28
Konkur@@ 28
Bob 28
jap@@ 28
anischer 28
agier@@ 28
go@@ 28
geändert. 28
steckt. 28
läs@@ 28
Team, 28
anderes. 28
Resultate 28
Agen@@ 28
weisen, 28
wagen 28
besor@@ 28
Vorschlag 28
ros@@ 28
rad 28
bedeutend 28
Expedition 28
Säuget@@ 28
Komponenten 28
gruppen 28
Überlebens@@ 28
zukünftige 28
pet@@ 28
beteilig@@ 28
führer 28
Trotz 28
doppel@@ 28
lad@@ 28
läng@@ 28
Entwurf 28
sist@@ 28
"St@@ 28
Zähl@@ 28
Gates 28
verlassen. 28
Kabel 28
Wände 28
lichkeits@@ 28
Yorker 28
unmittel@@ 28
siven 28
mengen 28
ges, 28
euch, 28
gkeit. 28
städt@@ 28
Gespräche 28
Gebäude. 28
Künstler@@ 28
Video, 28
kurzes 28
damal@@ 28
sche, 28
effizient 28
benutzt. 28
damit. 28
Nachricht@@ 28
glaubt 28
gelöst. 28
befestig@@ 28
Trink@@ 28
Generation, 28
7, 28
Versorgung 28
Ebenen 28
konzentri@@ 28
Universitäten 28
arbeiter 28
Entwicklungsländer 28
Philosophie 28
Verständ@@ 28
Mitgefühl. 28
19 28
Australi@@ 28
Dre@@ 28
versuchten, 28
Profess@@ 28
stie@@ 28
faszin@@ 28
E-Mail@@ 28
Institute 28
Ikon@@ 28
fange 28
Publikum, 28
gezeigt. 28
romantische 28
12@@ 28
Famili@@ 28
bleiben@@ 28
ulation 28
Durchschnitts@@ 28
ihn. 28
lehren 28
wenden. 28
veran@@ 28
San@@ 28
entdeckt. 28
Universit@@ 28
Spinn@@ 28
Fas@@ 28
monat@@ 28
Tric@@ 28
Taf@@ 28
langfrist@@ 28
Bohr@@ 28
allgemein@@ 28
behandeln, 28
alität, 28
zugeben, 28
träum@@ 28
verbessern, 28
wichtig? 28
enswert 28
Geschmack 28
erkannte, 28
vorbereitet 28
ös, 28
beschäftigen 28
Geschichten. 28
has@@ 28
Schluss@@ 28
zwanzig 28
Läch@@ 28
öffnet 28
Rad@@ 28
Bewegung, 28
Gesich@@ 28
osp@@ 28
wäch@@ 28
Refer@@ 28
ahl 28
Lehrer, 28
Musi@@ 28
verbindet 28
laden, 28
wild 28
Höhl@@ 28
Vorgang 28
an." 28
ografie 28
Fett@@ 28
Prototypen 28
gelben 28
Neue 28
Essen@@ 28
Erfolgs@@ 28
Letztes 28
produkt 28
U 28
verwandelt 28
tigsten 28
Glück. 28
ket@@ 28
ession 28
Marketing 28
bre@@ 28
ärger@@ 28
erkannt 28
Argument@@ 28
Geburtstag 28
May@@ 28
fiziert 28
Hektar 28
Geweb@@ 28
Angeles 28
Inten@@ 28
hof 28
Fund@@ 28
Portra@@ 28
Wen@@ 28
weil, 28
Doppel@@ 28
nett 28
wahnsinni@@ 28
Sy@@ 28
gabe 28
glob@@ 28
x. 28
kräfte 28
fordert 28
33 28
begleit@@ 28
Anweis@@ 28
Don@@ 28
G 28
Fav@@ 28
Leh@@ 28
Bereit@@ 28
rief@@ 28
zahl 28
enge 28
Is@@ 28
wartet 28
verbindet. 28
überzeu@@ 28
basierte 28
sign@@ 28
Simulation 28
Boo@@ 28
interagieren. 28
technologische 28
förmi@@ 28
Gründer 28
Fallschir@@ 28
Sonnensystem 28
Gig@@ 28
Power@@ 28
yr@@ 28
Gegenstand 28
zukünftigen 28
enspiel 28
langes 28
oder, 28
geschehen. 28
Physik, 28
erweise, 28
Result@@ 28
gu@@ 28
koennen 28
verloren, 28
Ra@@ 28
Gebieten 28
ungsan@@ 28
Schwarze 28
erd@@ 28
gewi@@ 28
gemäß 28
kommun@@ 28
Iran 28
afrika 28
zent 28
unheim@@ 28
fotografiert 28
Rec@@ 28
llen 28
massive 28
Schuh@@ 28
rik 28
Stunden, 28
blut@@ 28
krieg 28
Religion, 28
schrecklichen 28
untere 28
Äthiopien 28
ös. 28
un. 28
ausser@@ 28
sprach. 28
drehen. 28
geschaffen. 28
Allgem@@ 28
tag 28
schwerer 28
Schül@@ 28
unterwegs 28
religiösen 28
Plötzlich 28
5-@@ 28
verfolgen. 28
Cli@@ 28
55 28
Tasch@@ 28
danach, 28
äuschen 28
Adam 28
ethn@@ 28
stag@@ 28
diagnosti@@ 28
überw@@ 28
Art@@ 28
akt 28
Batterie 28
absolut@@ 28
bring@@ 28
Zufriedenheit 28
Maschine. 28
Genauso 28
gte 28
gehen? 28
Plastik 28
himm@@ 28
Mam@@ 28
obby 28
Erk@@ 28
Organe 28
Babies 28
vergessen. 28
Eier 28
Anhänger 28
Tanz 28
Nigeri@@ 28
inu@@ 28
Zeitungen 28
kap@@ 28
Animation 28
Verwand@@ 28
Long 28
Werke 28
Ja? 28
Analysi@@ 28
Schwimmen 28
Muster, 28
masch@@ 27
Weißen 27
ette. 27
hinaus, 27
steuern 27
Rechn@@ 27
wesen 27
leistung 27
w, 27
Allgemein@@ 27
politisch 27
primi@@ 27
Pe@@ 27
Bag@@ 27
genau. 27
betroff@@ 27
esse, 27
verhindern 27
ausgegeben 27
klare 27
fortschritt@@ 27
gender 27
Lösung. 27
Dialog 27
anten, 27
Zivil@@ 27
Sta@@ 27
Übertragung 27
verursa@@ 27
John@@ 27
staat@@ 27
hn@@ 27
Wird 27
Armee 27
agieren 27
funktionierte 27
aufzubauen, 27
ruft 27
oten, 27
übrigens, 27
Reisen 27
coole 27
zuhause 27
besser@@ 27
Russland 27
sische 27
okay. 27
Endes 27
ton@@ 27
ausch@@ 27
Phili@@ 27
genen 27
Amerika. 27
halbes 27
intensiv 27
verdammt 27
richtig, 27
é@@ 27
Interpretation 27
Lesen 27
Diesen 27
5000 27
schlüs@@ 27
Grös@@ 27
rot 27
29 27
theoret@@ 27
fehler@@ 27
schnitte 27
Bedenken 27
wichtiges 27
Instit@@ 27
durchge@@ 27
Leiden@@ 27
origin@@ 27
brei@@ 27
fragte, 27
]. 27
rise 27
vit@@ 27
kti@@ 27
well 27
Zero 27
ktionen 27
form, 27
zigen 27
behalten, 27
Wettbewer@@ 27
stürz@@ 27
ruhig 27
druck, 27
Einfach 27
schied@@ 27
ocken 27
Gerüst 27
danken, 27
Größenordnung 27
sche. 27
Alternative 27
kg 27
Hören 27
Pandemie 27
6, 27
stimme 27
vielerlei 27
elektr@@ 27
schär@@ 27
verschwin@@ 27
Heimat 27
Wüsten@@ 27
Müll 27
Programm, 27
einschließlich 27
eilen. 27
Kalk@@ 27
ermut@@ 27
ern? 27
zeichnung 27
Lungen@@ 27
spunkt 27
Muskeln 27
Muskel@@ 27
Can@@ 27
Faktor@@ 27
D, 27
festgestellt, 27
Lein@@ 27
schwarz@@ 27
fantastisch. 27
Lev@@ 27
Prozesse 27
Vereinten 27
Unterschie@@ 27
erhöhen 27
spazi@@ 27
Miner@@ 27
gewaltige 27
schützen 27
Inform@@ 27
erende 27
Dem 27
auszut@@ 27
B: 27
e... 27
Gegent@@ 27
angetrieben 27
allgemeine 27
last@@ 27
Punk@@ 27
sammelt 27
ett, 27
s". 27
Definiti@@ 27
Leben@@ 27
Bri@@ 27
Gemüse 27
Boden, 27
erober@@ 27
revolution@@ 27
hing 27
Großmut@@ 27
Schreib@@ 27
BC 27
Bier 27
od@@ 27
schein 27
ph 27
klü@@ 27
Balance 27
planet@@ 27
Planet@@ 27
elektron@@ 27
ed. 27
Bon@@ 27
King 27
ras@@ 27
Bewohner 27
exi@@ 27
lern, 27
anwend@@ 27
individuelle 27
leh@@ 27
inist@@ 27
erte, 27
schlei@@ 27
ok? 27
verrückte 27
umgehen. 27
graben 27
Jahrhundert, 27
aussieht 27
Wachstums@@ 27
sitzen. 27
Unglaub@@ 27
Mittag@@ 27
Architekt@@ 27
nit@@ 27
Erfol@@ 27
bemerkenswert 27
.00@@ 27
betrieben 27
Alb@@ 27
Kleidung 27
Innenstad@@ 27
William 27
amerikan@@ 27
Struktur, 27
chtes 27
rug 27
beträgt 27
generell 27
flus@@ 27
älteren 27
geschafft. 27
Versicher@@ 27
Einschränk@@ 27
fort, 27
bemerkte 27
Boden. 27
Länge 27
Para@@ 27
ümm@@ 27
artigen 27
Führung 27
drücke 27
bank@@ 27
ozi@@ 27
Handeln 27
Reden 27
dreht. 27
ehr 27
NG@@ 27
kooper@@ 27
kümmert 27
blät@@ 27
riech@@ 27
Block@@ 27
haus 27
machten, 27
weil@@ 27
Darw@@ 27
pat@@ 27
Links@@ 27
Gemeinschaft. 27
live 27
Werkzeuge, 27
Text 27
jü@@ 27
übertrag@@ 27
anzun@@ 27
Radio 27
Informationst@@ 27
dar, 27
umen 27
Babys 27
Signale 27
sierten 27
entsprechend 27
moral@@ 27
weist 27
zeichnen. 27
greift 27
nennt, 27
Jedoch 27
zustimm@@ 27
Philip 27
fär@@ 27
ente. 27
flo@@ 27
Asteroi@@ 27
win 27
Konserv@@ 27
einzigartig 27
Geschle@@ 27
akzept@@ 27
gestartet 27
Einflus@@ 27
tun." 27
ant. 27
Herstell@@ 27
char@@ 27
amen 27
Fluss@@ 27
gesellschaftlichen 27
3D-@@ 27
ong@@ 27
aber@@ 27
do 27
auszus@@ 27
Liefer@@ 27
Beru@@ 27
Cit@@ 27
Gerech@@ 27
Pandemi@@ 27
Ernährungs@@ 27
up 27
Mig@@ 27
an-@@ 27
Herzinfar@@ 27
auslö@@ 27
behandeln. 27
fen? 27
jahr 27
Hand, 27
Alexander 27
Wais@@ 27
Hollywood 27
Chol@@ 27
gestor@@ 27
Theat@@ 27
Besten 27
Winkel 27
"K@@ 27
Sonne, 27
auseinander 27
sensi@@ 27
Tän@@ 27
Zahl@@ 27
griech@@ 27
über. 27
demonstri@@ 27
Dol@@ 27
Benjamin 27
dient 27
Trick@@ 27
boden 27
ums. 27
auseinander@@ 27
kette 27
sprang 27
Entwicklungshilfe 27
Errungenschaf@@ 27
Schmerzen 27
schö@@ 27
Gold 27
mitfühl@@ 27
Meme 27
Rin@@ 27
ografische 27
Geheimnisse 27
3.@@ 27
stap@@ 27
Schweden 27
Durchmesser 27
Karte. 27
Stämm@@ 27
Element@@ 27
Orchester 27
Eg@@ 27
Connectome 27
Bord 26
Ford 26
ette, 26
gedruck@@ 26
schel@@ 26
sparen 26
umweltfreund@@ 26
denkt. 26
Manag@@ 26
geschlossen@@ 26
Unternehmens@@ 26
angeleg@@ 26
Vernun@@ 26
28 26
liegenden 26
durchaus 26
Solarenergie 26
arbeitete, 26
altern@@ 26
fiel@@ 26
Situation, 26
kol@@ 26
Planung 26
Vermut@@ 26
erinnert, 26
entscheidende 26
beschäftigen, 26
altungs@@ 26
aufnahmen 26
Jahrhunderts. 26
bildet. 26
Volk@@ 26
Anal@@ 26
dit 26
Investiti@@ 26
ermaßen 26
schnitt 26
Vier 26
Mut 26
'9@@ 26
Jeff 26
private 26
ep 26
Worüber 26
etischen 26
ändert, 26
wegs 26
Ordnung, 26
schuldig 26
verliebt 26
Dimension 26
Bedeutung. 26
Glaubens@@ 26
karten 26
Grand 26
Party 26
schlagen, 26
Zeichnungen 26
erinnerte 26
dich@@ 26
Fä@@ 26
Craig 26
sität 26
Ozeans 26
einziger 26
Sequenz 26
Organismus 26
Wellen@@ 26
lien 26
Kreise 26
10. 26
ome 26
öl 26
ese, 26
Ausnahme 26
probieren 26
veröffentlich@@ 26
Hil@@ 26
Versionen 26
besitzen. 26
Eisen@@ 26
brechen, 26
schreibe 26
geht's. 26
in: 26
ran 26
KA: 26
hassen 26
vierten 26
Büro@@ 26
Prozess. 26
erstaunlich, 26
sive 26
Überraschung 26
bot 26
sogar, 26
350 26
spont@@ 26
außergewöhnlichen 26
wun@@ 26
gkeit@@ 26
Ven@@ 26
--- 26
Behör@@ 26
ältere 26
Wär@@ 26
Diabetes 26
kämpft 26
Gehir@@ 26
studiert 26
Kultur. 26
angesehen 26
wachstum 26
entfernten 26
Bio-@@ 26
zwei. 26
Zukunft@@ 26
Redner 26
Nelson 26
Schlacht@@ 26
Ehre 26
ational 26
Stammzellen 26
Ner@@ 26
bestimmen 26
erzählt. 26
planen 26
Camp@@ 26
getroffen. 26
drüber 26
Spani@@ 26
Bürgermeister 26
fassen 26
rom@@ 26
besitzen, 26
Gedicht 26
"D@@ 26
wort 26
sozial 26
spezifische 26
abor@@ 26
Perio@@ 26
schaf@@ 26
verrückt, 26
nachhaltig 26
betrifft 26
ausreichend 26
dun@@ 26
Sili@@ 26
Linsen 26
Kn@@ 26
menge 26
Zuck@@ 26
Glücklicherweise 26
Fahrzeuge 26
allgegenwär@@ 26
japanischen 26
treten. 26
entwickl@@ 26
konserv@@ 26
ativer 26
stirbt 26
Übergang 26
9, 26
Wald@@ 26
berühmt 26
Konzentr@@ 26
Wirklich 26
ollen 26
Rezept 26
Blog 26
draußen, 26
bezeichnen 26
entzün@@ 26
est. 26
ame 26
ruf 26
Magazin@@ 26
hielt. 26
Erstens: 26
Wink@@ 26
rin@@ 26
fte. 26
äubi@@ 26
verstand@@ 26
Schätz@@ 26
tens 26
sätz@@ 26
kultur 26
Source 26
erem 26
ück 26
Misch@@ 26
22 26
il, 26
mathematische 26
tigt, 26
ragen 26
Handl@@ 26
automat@@ 26
nacht@@ 26
meist@@ 26
Maschine, 26
sage. 26
real 26
ausseh@@ 26
definiert 26
unsicht@@ 26
Spezial@@ 26
teure 26
billig 26
Modell. 26
kriegt 26
finanziellen 26
dienen. 26
kte. 26
Mör@@ 26
erwartet, 26
Unfall 26
sicherer 26
starb@@ 26
fliegt 26
entwerfen, 26
te." 26
Produktion@@ 26
schnellen 26
Wissens@@ 26
Straße, 26
andlungen 26
Gestaltung 26
Beschäf@@ 26
hen. 26
Leid 26
Ah, 26
,000 26
abgel@@ 26
ach. 26
Aber@@ 26
tem@@ 26
Erfolg@@ 26
"Wer 26
lock@@ 26
jähriger 26
Landes. 26
losigkeit 26
Stammes@@ 26
Katastrophe 26
u. 26
Kopie 26
Februar 26
denken: 26
Keni@@ 26
fläch@@ 26
Junge, 26
verhält@@ 26
radik@@ 26
Armut, 26
haftes 26
liches. 26
räume 26
verwirk@@ 26
gas@@ 26
Richtung. 26
Jahrzehnten 26
ärer 26
Moor@@ 26
gemessen 26
verbreitete 26
pien 26
Biot@@ 26
beschreiben. 26
jung 26
robu@@ 26
Behandl@@ 26
Vortrag@@ 26
Skel@@ 26
frucht@@ 26
gewann 26
Vertri@@ 26
sind: 26
eis@@ 26
Ameisen@@ 26
geleist@@ 26
Hundert@@ 26
Aktivitäten 26
üte 26
großem 26
tot. 26
Stei@@ 26
verstand 26
odi@@ 26
Stift 26
glaubte, 26
Deine 26
draußen. 26
vernicht@@ 26
resulti@@ 26
erenden 26
Selb@@ 26
aben 26
Material@@ 26
involvi@@ 26
glücklicher 26
Ari@@ 26
alisten 26
entgeg@@ 26
Sekunden, 26
50. 26
kleinste 26
beein@@ 26
erschw@@ 26
Sektor 26
staat 26
Beide 26
Nachhaltigkeit 26
Wende@@ 26
pie 26
restlichen 26
enzeit 26
wechseln. 26
Rettung 26
misst 26
ose, 26
hingehen 26
Spur 26
Moment@@ 26
Träum@@ 26
ost 26
bruch@@ 26
Hinweise 26
sicherstellen, 26
Jeden 26
Charaktere 26
Vagina 26
Maus@@ 26
Ansichten 26
16. 26
neugier@@ 26
Kopf-Zahl-@@ 26
Business 26
Mur@@ 26
Einlad@@ 26
tiefer@@ 26
weniger. 26
sac@@ 26
ald 26
wandern 26
erschafft 26
Proph@@ 26
Trupp@@ 26
Gesundheitssystem 26
gie 26
Brow@@ 26
Seri@@ 26
Bret@@ 26
beibringen, 26
architektonische 26
geläh@@ 26
Tour 26
liert 26
dich, 26
Sonne. 26
Hur@@ 26
Sommer@@ 26
Quar@@ 26
geordn@@ 26
ausgest@@ 26
Slums 26
sigkeit 26
fisch 26
gestoßen 26
Mitgefühl, 26
Veränderung. 26
Jupit@@ 26
Kugel 26
gleich. 26
Filmemach@@ 26
benutzte 26
Sammlung 26
Symmetrien 26
á@@ 26
Chip 26
Glet@@ 26
Alpha 26
Muster@@ 26
Atomenergie 26
Cricket 26
öst@@ 25
schri@@ 25
Republik@@ 25
tatsäch@@ 25
erläut@@ 25
gelern@@ 25
U.S. 25
Mani@@ 25
aufhin 25
Verbesserung 25
ey, 25
beibringen 25
vorn 25
Wright 25
drin@@ 25
unterstützen, 25
AS@@ 25
kapit@@ 25
nahme, 25
schlimmste 25
Wiss@@ 25
Zweitens, 25
saubere 25
gewand@@ 25
erwäh@@ 25
andel 25
hilf@@ 25
vention@@ 25
Rut@@ 25
annten 25
Riesen@@ 25
fähr@@ 25
klen 25
höher@@ 25
nächst@@ 25
Sicherheit@@ 25
gestorben. 25
Publikum. 25
wirr@@ 25
verdoppel@@ 25
Rel@@ 25
eite 25
line 25
designer 25
t's? 25
Auto, 25
Besitz 25
wunderbar. 25
Folgendes: 25
Monate, 25
Chef 25
flogen 25
Hölle 25
Bett@@ 25
Wa@@ 25
blau 25
gesamm@@ 25
minim@@ 25
fügen. 25
Frag@@ 25
Kohlendioxid 25
bücher 25
schnitt@@ 25
way 25
berichtet 25
Gerade 25
lig, 25
ehe 25
runter, 25
Dokument@@ 25
Kul@@ 25
erklärte 25
leicht, 25
geglaub@@ 25
elang 25
sprache 25
kab@@ 25
ro-@@ 25
ade. 25
Motivation 25
nachdenkt, 25
Tim 25
schwieriger 25
Stuhl@@ 25
Betra@@ 25
Begegn@@ 25
Stad@@ 25
Sieben 25
Dean 25
gelang 25
Öl. 25
Gefähr@@ 25
werte 25
Benzin 25
ographi@@ 25
orie 25
wald 25
ist; 25
ektoren 25
F 25
begrü@@ 25
wechseln 25
diesmal 25
damals, 25
leid 25
lehrt 25
beigebracht 25
s", 25
Fak@@ 25
führte, 25
Teenager 25
Revolution, 25
mochte 25
Big 25
aktiver 25
begonnen, 25
töten. 25
tatsächlichen 25
Krankheit, 25
einsetzen 25
mäßig 25
FG: 25
bist, 25
Zurück 25
dargestellt 25
Köpfe 25
schließend 25
Last@@ 25
wag@@ 25
Sha@@ 25
aufhören 25
Ruhe 25
Wichtig@@ 25
Psy@@ 25
festen 25
spüren, 25
Trend 25
steigt. 25
Allerdings 25
struktur@@ 25
sammlung 25
kreieren 25
Jan@@ 25
Buches 25
ungen? 25
wachsenden 25
bewus@@ 25
enthalten 25
trans@@ 25
Elektronen 25
Fass@@ 25
risch@@ 25
wasser. 25
kühlt 25
Kolli@@ 25
Produktivität 25
nachzudenken 25
ution 25
den-@@ 25
ular@@ 25
echnik 25
geboren, 25
heisst, 25
Geträn@@ 25
völ@@ 25
Wissenschafts@@ 25
verdient 25
Operationen 25
ann 25
klein, 25
Spuren 25
Apr@@ 25
bestimmtes 25
rechts. 25
gten 25
auf: 25
Ran@@ 25
Schwi@@ 25
dat 25
vention 25
ologischer 25
Einzelnen 25
interagieren 25
Repräsent@@ 25
Pot@@ 25
-U@@ 25
französi@@ 25
Dir 25
Teufel@@ 25
jederzeit 25
benutze 25
unsichtbaren 25
verrück@@ 25
Verfahren 25
I. 25
irdi@@ 25
Schacht@@ 25
Websi@@ 25
Nag@@ 25
Tragödie 25
gefun@@ 25
ession@@ 25
Reichtum 25
theorie 25
durchschnittlich 25
meinte 25
kleinsten 25
dynam@@ 25
Keith 25
besuchte 25
Sav@@ 25
meister@@ 25
ädig@@ 25
Play@@ 25
Fotografie 25
Dank@@ 25
Getrei@@ 25
angem@@ 25
Ordn@@ 25
Anfang. 25
verheirat@@ 25
sek@@ 25
Fotograf 25
moder@@ 25
rö@@ 25
Koordin@@ 25
einen. 25
Sohn, 25
park 25
ss@@ 25
Plankt@@ 25
Faktoren 25
europäischen 25
beli@@ 25
alber@@ 25
Multi@@ 25
stimmt, 25
Bush 25
rt 25
stimmung 25
Kannst 25
trifft, 25
Teilnehmer 25
art, 25
sent@@ 25
falsch, 25
Roboter, 25
Umwelt, 25
Zwisch@@ 25
eventuell 25
Impfstoff@@ 25
dauer 25
Schlussfol@@ 25
reduzieren 25
begann. 25
Schwestern 25
zt, 25
Media 25
konst@@ 25
Oberfläche. 25
ble 25
Asteroiden 25
Wesen, 25
Kranken@@ 25
Katze 25
beispiel@@ 25
Betrieb@@ 25
Ursache 25
unvorstell@@ 25
n: 25
daher, 25
wissenschaften 25
überleben, 25
geschlag@@ 25
aufeinander 25
hinzu. 25
kriege 25
neugierig 25
post@@ 25
offensicht@@ 25
Krat@@ 25
Fabrik 25
bedarf 25
Hund, 25
gkeit, 25
sieben@@ 25
Matt@@ 25
moralisch 25
staatlichen 25
zin@@ 25
Vergnü@@ 25
bewegte 25
Städte, 25
Auswirkung 25
heiraten 25
eigentlichen 25
Sprecher: 25
dabei. 25
Krankheit. 25
anwenden 25
ungspr@@ 25
man. 25
Hollywoo@@ 25
Amerikaner, 25
Wissenschaf@@ 25
Hung@@ 25
Erwärmung 25
Out@@ 25
anci@@ 25
Gold@@ 25
Taliban 25
welt, 25
Tropfen 25
älle 25
lion@@ 25
Herkunft 25
drucks@@ 25
Interview@@ 25
Jesus 25
Ruh@@ 25
Ägyp@@ 25
Klassi@@ 25
verliert 25
over 25
europ@@ 25
atz. 25
netz 25
Erzähler: 25
Individuum 25
weißt, 25
ähnlich. 25
Dienstleistungen 25
Pflanz@@ 25
Initiative 25
Mama 25
ist." 25
back@@ 25
Herren, 25
Bergsteiger 25
Vorgehens@@ 25
animi@@ 25
liber@@ 25
Essen. 25
Quadrat 25
Orchest@@ 25
Gehör@@ 25
2: 25
wärmer 25
Möbel@@ 25
Chinesen 25
Fäll@@ 25
ologie. 25
Gedächtnis 25
assozi@@ 25
oti@@ 25
besteht. 25
Öl, 25
Institution 25
Las@@ 25
Wichtigkeit 25
stellige 25
müh@@ 25
Training@@ 25
ham@@ 25
Raket@@ 25
chron@@ 25
gesellschaft@@ 25
Titan 25
Bron@@ 25
Ethik 25
ol. 25
Oktop@@ 25
Geometrie 25
gegangen@@ 25
Sho@@ 25
Schwefelwasserstoff 25
rechner@@ 25
TEDx@@ 25
wend@@ 24
langen, 24
Freund, 24
Januar 24
Verkehr@@ 24
Rest@@ 24
ora 24
Lehren 24
haft@@ 24
drän@@ 24
Thema. 24
Krankheit@@ 24
ähr@@ 24
Tausenden 24
Bemüh@@ 24
Frieden@@ 24
Cor@@ 24
tert. 24
erinner@@ 24
Durchschnitt@@ 24
reichen. 24
formen, 24
ambi@@ 24
schwierig. 24
rah@@ 24
Systemen 24
global 24
Begriff@@ 24
ökon@@ 24
Kredit@@ 24
üssen 24
ereig@@ 24
teils 24
Engag@@ 24
Af@@ 24
wieg@@ 24
zutiefst 24
Dezember 24
Arbeitsplätze 24
länder 24
Behaupt@@ 24
Wirtschaft. 24
weiterzu@@ 24
Besonders 24
Selektion 24
Na, 24
umge@@ 24
sicheren 24
schmei@@ 24
erfun@@ 24
gebildet 24
Kolonien 24
Ries@@ 24
akzeptieren 24
stände, 24
hinaus. 24
verkehr 24
Unterschied, 24
eingest@@ 24
Team@@ 24
Wollen 24
schickten 24
bekam, 24
Teams 24
Erwart@@ 24
ern: 24
Zeichn@@ 24
Mittagessen 24
"Nein@@ 24
Luft, 24
wahr, 24
Pion@@ 24
famili@@ 24
fasst, 24
herzu@@ 24
kleineren 24
definieren 24
bedingungen 24
Parasi@@ 24
erweitern 24
aufregende 24
ware 24
ansteck@@ 24
Rad 24
wegen, 24
erg@@ 24
Logo 24
fort 24
packt 24
47 24
darin. 24
Kauf@@ 24
kauft 24
Wetter 24
herunter 24
mich@@ 24
legten 24
Journalisten 24
erinnern. 24
Sper@@ 24
DR: 24
unmöglich, 24
arien 24
ekten, 24
zurzeit 24
Familien, 24
Austausch 24
übers 24
Polizei@@ 24
Widerspruch 24
ihm. 24
reinig@@ 24
vermittel@@ 24
Betrachtung 24
mau@@ 24
verbinden, 24
Orten, 24
olit@@ 24
Pferd 24
auß@@ 24
Ty@@ 24
Übrigens, 24
benutzten 24
einzigartigen 24
gerichtet 24
verkehr@@ 24
schafft, 24
nutzt, 24
Metall@@ 24
ote 24
prakti@@ 24
Prostat@@ 24
traurig 24
fördern 24
Bewegungs@@ 24
eiter 24
gewöhnt 24
Geschwi@@ 24
sten@@ 24
klang 24
dumm 24
vergift@@ 24
sinn. 24
können." 24
"Sch@@ 24
Verzweiflung 24
Isra@@ 24
Mittel, 24
Regi@@ 24
schwitz@@ 24
fuhr@@ 24
erin. 24
Rande 24
Labor, 24
fördern. 24
Verletz@@ 24
gewebe 24
beschädig@@ 24
Angriff@@ 24
Angiogenese 24
komplexes 24
komm 24
angepasst 24
Krankheiten, 24
diger 24
gesag@@ 24
würdest 24
st: 24
gebäu@@ 24
nete 24
beauf@@ 24
ney 24
folgender@@ 24
Gehirns. 24
Depression 24
werden: 24
Kluft 24
industriellen 24
weltwei@@ 24
Amerik@@ 24
age. 24
plik@@ 24
schlafen 24
jährlich 24
Amazon@@ 24
Veröffentlich@@ 24
hob 24
merken, 24
Hitz@@ 24
chie@@ 24
lese 24
entstehen. 24
Barb@@ 24
vorge@@ 24
Teil. 24
Dasselbe 24
Landwirt@@ 24
Trick 24
geleit@@ 24
bestimmt. 24
zeitig 24
gang@@ 24
intuitiv@@ 24
berühren 24
mmer 24
maschin@@ 24
lungen 24
ehre 24
Beruf 24
Klar@@ 24
brüche 24
"C@@ 24
toten 24
omat@@ 24
Jack@@ 24
gegessen 24
hiel@@ 24
berg 24
schwar@@ 24
dig, 24
Annahme, 24
Studium 24
abilität 24
leid. 24
seltsamen 24
direkte 24
Dunk@@ 24
ücken 24
verständlich 24
ierter 24
Gab@@ 24
Jag@@ 24
dazu. 24
ör 24
ada@@ 24
Büchern 24
Bücher, 24
ebt. 24
individu@@ 24
Organisationen, 24
Mer@@ 24
rennen 24
gemeinschaft@@ 24
Ende, 24
hüll@@ 24
könne 24
Anlage 24
Weih@@ 24
son. 24
Fotografi@@ 24
haut 24
offenbar@@ 24
atemberauben@@ 24
wie: 24
Rein@@ 24
Caf@@ 24
werb@@ 24
Markt. 24
Sondern 24
keinerlei 24
Milch 24
Tragö@@ 24
80@@ 24
schuf 24
schlecht, 24
machten. 24
rieg@@ 24
Schmu@@ 24
ritt 24
Aussage 24
kostenlose 24
verwirr@@ 24
fälle, 24
schneiden 24
Heb@@ 24
Vorbereit@@ 24
weh@@ 24
befür@@ 24
hierbei 24
Patienten, 24
Absol@@ 24
Dynamik 24
Ausma@@ 24
Besu@@ 24
itive 24
Himmel@@ 24
Umgebung, 24
Gebil@@ 24
Realität. 24
kommunizier@@ 24
station 24
Wolke 24
le. 24
drü@@ 24
Maß 24
Kriege 24
mächtig 24
Ban@@ 24
enspi@@ 24
ond@@ 24
Vorbild 24
arg@@ 24
schlicht 24
H 24
andi@@ 24
anges@@ 24
traf, 24
Zehen 24
Tol@@ 24
vert@@ 24
irgendw@@ 24
drast@@ 24
weniger, 24
Isl@@ 24
Kath@@ 24
finden@@ 24
zeh@@ 24
Sport 24
bestehen. 24
wusst@@ 24
schalt@@ 24
schlussendlich 24
Woche, 24
Hügel 24
Kontra@@ 24
schaften. 24
ha, 24
Grund. 24
dler 24
Enzyklopä@@ 24
Organisation, 24
Eigenschaf@@ 24
Bek@@ 24
Angel@@ 24
absur@@ 24
Ben 24
Stipendi@@ 24
OL@@ 24
the@@ 24
evolution@@ 24
Argument 24
Vorhersagen 24
3, 24
Kollap@@ 24
Rob 24
Öffent@@ 24
zeichnete 24
sum@@ 24
Anders 24
verursacht. 24
aggressi@@ 24
efer@@ 24
Pflanzen@@ 24
Dunkelheit 24
Kreislauf 24
Breit@@ 24
öffnen, 24
bewerkstell@@ 24
Bescheid 24
schwachen 24
Gravitation 24
Taschen@@ 24
Ü@@ 24
unabhängige 24
tige, 24
Nadel 24
beobachtet, 24
dy 24
Kongress@@ 24
Ab 24
transformi@@ 24
Funk@@ 24
grösser@@ 24
Frequenz 24
üben 24
trägt, 24
Sonder@@ 24
Maßstä@@ 24
Ressourcen, 24
Zufall 24
droh@@ 24
Spieg@@ 24
ständige 24
replizier@@ 24
einzigartige 24
en?“ 24
diese. 24
Berechnung 24
Müh@@ 24
Mex@@ 24
Visualisierung 24
Poster 24
Onk@@ 24
zuru@@ 24
asse, 24
Keiner 24
beut@@ 24
bestimmt, 24
Bewusstsein@@ 24
bildung. 24
60@@ 24
Wasch@@ 24
haar@@ 24
Küst@@ 24
voll. 24
lebte, 24
verlag@@ 24
World@@ 24
einsetzen, 24
dramatisch 24
liest 24
dran. 24
SMS 24
Dom@@ 24
küh@@ 24
scheu@@ 24
wesentlichen 24
dacht 24
Schulter 24
Kreu@@ 24
Schwest@@ 24
schen@@ 24
Ressour@@ 24
stop@@ 24
stig@@ 24
gespann@@ 24
enke 24
Wechsel 24
kern 24
ierte, 24
Füßen 24
wiederholt 24
wunderbares 24
vertrauen 24
wieviele 24
ähnliches 24
jenes 24
Obdach@@ 24
geräte 24
Studenten, 24
Tem@@ 24
Termin@@ 24
zulassen. 24
Wä@@ 24
Arthur 24
Flügel 24
Abent@@ 24
Stimme, 24
schützen, 24
´@@ 24
Umstände 24
komplex 24
Aufgabe, 24
univers@@ 24
Vielfal@@ 24
n?" 24
genomm@@ 24
Milliarden. 24
Lor@@ 24
ergi@@ 24
Roboter. 24
arischen 24
fer. 24
Pack@@ 24
tigt. 24
Beschreibung 24
and? 24
tit@@ 24
arium 24
Lebensmittel 24
Nachfrage 24
Klimawandels 24
icht, 24
Nachri@@ 24
pen 24
mikroskop@@ 24
Sky@@ 24
natürlich. 24
bo 24
wuch@@ 24
melzen 24
Dy@@ 24
bislang 24
Symmetri@@ 24
büh@@ 24
Lincoln 24
Sklaverei 24
Myzel 24
Wolfram 24
Stunt@@ 24
ungskraft 24
Synap@@ 24
2009 24
pigment@@ 24
Einzelne 23
öffnete 23
nigeri@@ 23
Jay 23
LK@@ 23
Entschei@@ 23
Produ@@ 23
Davon 23
Kurs 23
beginnt. 23
Neocort@@ 23
98 23
füllt 23
langsam. 23
Chance, 23
Mais@@ 23
Reih@@ 23
Mikro-@@ 23
anzut@@ 23
ani 23
setzungen 23
opo@@ 23
tätig 23
gegriffen 23
Ang@@ 23
eurem 23
Terrorismus 23
leben? 23
ull 23
tigkeits@@ 23
ökonomische 23
änen 23
probieren. 23
Geschwindigkeit, 23
Sprung 23
Vietnam@@ 23
aß 23
Interessante 23
Alan 23
kennt. 23
Forschung, 23
lage, 23
halb, 23
amerikanischer 23
Zus@@ 23
Juni 23
Lamp@@ 23
piel@@ 23
UV@@ 23
ehemal@@ 23
um-@@ 23
Wahrschein@@ 23
berichten, 23
lit@@ 23
Einblick 23
Artenvielfalt 23
24@@ 23
künstlich 23
Bakterium 23
benötigt. 23
ola 23
schlüssel@@ 23
aufnehmen 23
Auffassung 23
Enzy@@ 23
zustellen. 23
ett. 23
"Ihr 23
lauter 23
Datenbank@@ 23
winzig 23
klick@@ 23
zählt 23
behalten. 23
Mod@@ 23
tert, 23
sionen. 23
95 23
dafür@@ 23
urist@@ 23
holz 23
Erfüll@@ 23
Politik. 23
30@@ 23
Verkehr 23
finanziert 23
barung 23
E-Mail 23
90@@ 23
recherchi@@ 23
flüch@@ 23
Dampf@@ 23
geschwindi@@ 23
bevölker@@ 23
städte 23
ver, 23
ätzen 23
.' 23
stopp@@ 23
durchführen 23
jeg@@ 23
sonst@@ 23
dri@@ 23
Lithi@@ 23
Glühbirne 23
splant@@ 23
Wat@@ 23
Quant@@ 23
can@@ 23
umor@@ 23
ergeb@@ 23
Vorträ@@ 23
gespr@@ 23
samen 23
geführt, 23
dringen 23
schießen 23
bildung, 23
unausweich@@ 23
Schreck@@ 23
durchs 23
glaubten, 23
Science 23
Therapie 23
apie 23
Ausgang@@ 23
ator. 23
Künstler, 23
dir, 23
bemerkte, 23
beginne 23
Fehler@@ 23
vorgestellt 23
toller 23
sorge 23
übt 23
ungsweise 23
Augenblick, 23
igen. 23
Verlangen 23
Fakt 23
Mannes 23
handelt, 23
Schriftsteller 23
mittl@@ 23
fühlt, 23
aufregend. 23
folgendes: 23
Rohr@@ 23
verhinder@@ 23
geeig@@ 23
Hier, 23
wichtiger, 23
ess, 23
verteilt. 23
öt@@ 23
Monterey 23
benötigen, 23
handelt. 23
berichten. 23
Cambridge 23
anter 23
gil@@ 23
versorgen. 23
England, 23
fertigt 23
jenem 23
gewaltigen 23
ergeben 23
Schätzung 23
Nahrungsmittel@@ 23
ließ. 23
Zehn 23
achten, 23
20, 23
schmeck@@ 23
spezifischen 23
wink@@ 23
öser 23
verbreitet. 23
Ziel. 23
Woche. 23
wiegt 23
hat: 23
Jah@@ 23
Diagramm@@ 23
Unternehmen. 23
He@@ 23
ro 23
Schülern 23
eren? 23
Ausgabe 23
irdische 23
kognitive 23
geschah, 23
reduziert 23
frau@@ 23
K 23
jahre 23
ness@@ 23
Dame 23
zuvor. 23
getrieben 23
yn 23
warf 23
produkte 23
Maße 23
genutz@@ 23
amerika 23
Anwendungen 23
E-@@ 23
darf. 23
Cap@@ 23
von@@ 23
fließt 23
spiritu@@ 23
besi@@ 23
Jam@@ 23
Ja 23
Beleucht@@ 23
Teufel 23
zutriff@@ 23
Satur@@ 23
recht, 23
Verbraucher 23
ziel@@ 23
Ram@@ 23
ungsin@@ 23
ake 23
Zuschauer 23
keines 23
enhaus 23
Anfang@@ 23
interessanterweise 23
männer 23
Gär@@ 23
wirtschaftlich 23
esser@@ 23
angenommen 23
unges@@ 23
gelbe 23
ekte 23
Sitz 23
50, 23
stöß@@ 23
Pill@@ 23
Bewei@@ 23
passt, 23
Architektur, 23
Mich 23
ativ. 23
atti@@ 23
darstellen. 23
simp@@ 23
Oft 23
Gegn@@ 23
Häl@@ 23
ministerium 23
uti@@ 23
Absichten 23
"Er 23
beu@@ 23
atur. 23
obb@@ 23
überall, 23
waffen 23
Teen@@ 23
lichen. 23
ppen. 23
tliche 23
Krieg. 23
ration 23
bilität 23
dienst@@ 23
klug 23
ue 23
bö@@ 23
straße 23
radikal 23
existiert, 23
CD@@ 23
Millionen. 23
ht@@ 23
Beschleunig@@ 23
mathematischen 23
ellos 23
verdopp@@ 23
dürf@@ 23
Umgebung. 23
Ap@@ 23
scheint. 23
Bestandteil 23
Hinweis 23
Leidenschaft. 23
verschwunden 23
loc@@ 23
neue, 23
verwund@@ 23
ammen 23
Lab 23
Situation. 23
lichkeit@@ 23
dimensionalen 23
physikal@@ 23
ts, 23
enen, 23
don@@ 23
Verrück@@ 23
Medizin. 23
wünsche 23
gste 23
Das@@ 23
Gast@@ 23
G-@@ 23
Virtu@@ 23
eurer 23
schätzung 23
redet 23
modi@@ 23
erstaunlich. 23
fot@@ 23
impor@@ 23
zum@@ 23
Treibstoff 23
Gewi@@ 23
Stoff 23
kriegen. 23
zog@@ 23
sagte. 23
ktion, 23
Mandel@@ 23
Sekunde. 23
Landschaften 23
formt 23
blicken 23
Anzieh@@ 23
Fußab@@ 23
hen, 23
erkennt, 23
Ballon 23
Epi@@ 23
Diplomat 23
Belohnung 23
Namen. 23
zweifel@@ 23
Barmherzigkeit 23
Fenst@@ 23
aut. 23
täusch@@ 23
Ohr 23
abet@@ 23
48 23
Höhle 23
bor@@ 23
rank@@ 23
Klimawandel. 23
Brad 23
Konsument@@ 23
etter@@ 23
Dick@@ 23
karte 23
umgewandel@@ 23
Est@@ 23
App@@ 23
fördert 23
fünf, 23
½ 23
nehmen? 23
"Ist 23
eigent@@ 23
geheim@@ 23
bzw. 23
Athei@@ 23
Verhalten, 23
pass 23
Techniken 23
aufw@@ 23
angemess@@ 23
reduzieren, 23
ood 23
verließ 23
ektivität 23
fon@@ 23
Faszin@@ 23
forschung 23
organisierten 23
Eth@@ 23
Einricht@@ 23
lle, 23
Everest 23
Zweifel 23
Autorität 23
Osteurop@@ 23
optimi@@ 23
ever 23
Brown 23
Erinnerungen 23
Än@@ 23
elektromagnet@@ 23
Ausschnitt 23
Carol@@ 23
personen 23
da? 23
mm 23
weck@@ 23
Somm@@ 23
liebe, 23
Glaube 23
Grönland 23
cht: 23
Wüst@@ 23
attraktiv@@ 23
Verhalten. 23
Pflanze 23
fische 23
mobili@@ 23
massiv@@ 23
Sedi@@ 23
Fett 23
strahl 23
Spielzeug@@ 23
Fleisch@@ 23
ktiv@@ 23
le, 23
Venezu@@ 23
schwierigen 23
Gipf@@ 23
Großbritanni@@ 23
Brun@@ 23
Fem@@ 23
reich, 23
Statu@@ 23
Gleichungen 23
zieht, 23
Frakt@@ 23
SJ: 23
Aristotel@@ 23
chinesisches 23
Vergangenheit, 23
geschützt 23
Gletscher 23
Karo-@@ 23
Interviewer: 23
Iran@@ 23
Humor 22
Farm 22
geschrieb@@ 22
Energien 22
ünst@@ 22
bezahlt. 22
aly@@ 22
Mai 22
Bedeutung, 22
Zusammenh@@ 22
halten? 22
rän@@ 22
maxim@@ 22
Frühl@@ 22
vermitteln, 22
Spot@@ 22
entwicklung 22
eins. 22
Brand@@ 22
Werkzeug, 22
Erfindungen 22
gene 22
gewünsch@@ 22
asse. 22
Ghana 22
Wurzel@@ 22
gewor@@ 22
verbringen. 22
Geschäftsl@@ 22
durchführen, 22
Landkarte 22
nahme. 22
ungsfähigkeit 22
uli 22
institution@@ 22
entscheidend 22
Informationen. 22
Chanc@@ 22
globaler 22
Mal. 22
Jugend 22
herbei@@ 22
Pläne 22
jähri@@ 22
190@@ 22
oten. 22
Versu@@ 22
Wart@@ 22
Wahn@@ 22
us-@@ 22
genießen 22
Verkehrs@@ 22
heim 22
gründen 22
Meil@@ 22
Rennen 22
Meinung, 22
zeug. 22
investiert 22
200.000 22
emotionalen 22
ock, 22
okay? 22
wettbewer@@ 22
Inti@@ 22
aufbauen, 22
Jem@@ 22
Hoffentlich 22
Gedanken@@ 22
Vertrau@@ 22
diver@@ 22
Pause 22
hunder@@ 22
tausend@@ 22
Liter@@ 22
fanden, 22
Kombin@@ 22
synth@@ 22
biologischer 22
Meth@@ 22
deckt 22
ynth@@ 22
jenigen, 22
Knie 22
ür 22
mail@@ 22
Auftrag 22
Software, 22
Matri@@ 22
streich@@ 22
schalten. 22
Tempo 22
Reihenfolge 22
Wohin 22
jedoch, 22
iPod 22
frei. 22
Manhattan 22
q@@ 22
unser@@ 22
entwar@@ 22
komische 22
Plattform 22
gelangen 22
Näm@@ 22
Horizon@@ 22
ay, 22
Technik. 22
50% 22
städ@@ 22
geholfen 22
ffe 22
Helikop@@ 22
ungsmittel 22
produziert, 22
Strei@@ 22
.” 22
gegeb@@ 22
grad 22
25@@ 22
Wärme 22
sorgen. 22
High-@@ 22
Jane 22
Wäl@@ 22
form. 22
Entw@@ 22
kognitiven 22
dacht@@ 22
Rolle. 22
können: 22
tens, 22
trage 22
Krebs, 22
Amp@@ 22
Berichte 22
Verletzungen 22
TED, 22
bedeckt 22
berühmte 22
Dilem@@ 22
Umstän@@ 22
jetzt? 22
gänzlich 22
pein@@ 22
gucken 22
Hall 22
historischen 22
Ol@@ 22
bezeichnet 22
ppich 22
Standards 22
Minute. 22
visualisier@@ 22
warn@@ 22
gerufen 22
nenn@@ 22
fix@@ 22
Antrieb@@ 22
eb. 22
rut@@ 22
Schmer@@ 22
Bindung 22
Geschlech@@ 22
geschätz@@ 22
Mathematik. 22
behaupte 22
ausgelö@@ 22
Abschnitt 22
echsel@@ 22
uns: 22
ähnlicher 22
Feld@@ 22
Verzerr@@ 22
fossilen 22
kreieren. 22
Nervenz@@ 22
wachsende 22
Sum@@ 22
Etwas, 22
einzelnes 22
nahm, 22
tigem 22
Sechs 22
üblichen 22
gefüllt 22
itäten, 22
loses 22
verhindern. 22
Spaghetti-Sau@@ 22
Haar 22
Sieb@@ 22
ziger 22
Bedürfnis 22
haft, 22
Geschenk 22
verkauften 22
gül@@ 22
findet. 22
ich? 22
erwähnt, 22
ka 22
beängstig@@ 22
erin, 22
stimuli@@ 22
heiß 22
blö@@ 22
imm 22
din@@ 22
Aufzeichnungen 22
interessieren, 22
frau 22
hafter 22
Vortrags 22
steht: 22
auf? 22
struktu@@ 22
anlage 22
wärts. 22
Sat@@ 22
Song 22
Überwach@@ 22
Erzählung 22
Flücht@@ 22
»@@ 22
lü@@ 22
schuldigen 22
rup@@ 22
Reson@@ 22
geschlossen, 22
Tun@@ 22
Sekunden. 22
zugänglich@@ 22
Latein@@ 22
Wie@@ 22
Differ@@ 22
hängen. 22
Comm@@ 22
ack 22
philosoph@@ 22
tive 22
gang. 22
stark, 22
ering 22
göt@@ 22
brand@@ 22
entfernen 22
liefern 22
köpf@@ 22
ke. 22
meter 22
Kühe 22
langweilig 22
ereien 22
Franz@@ 22
Restaurants 22
anisches 22
verbreiten, 22
ear@@ 22
Krankenhaus@@ 22
Farbe, 22
berichten 22
Band@@ 22
krimin@@ 22
ichten 22
Akademi@@ 22
ört@@ 22
Früher 22
angs@@ 22
perfekt. 22
anzusehen, 22
Herangehensweise 22
holte 22
registri@@ 22
Gehirns, 22
fachen 22
altung, 22
Mexik@@ 22
Haup@@ 22
Baseb@@ 22
ver. 22
verschwunden. 22
Jahrhunderts, 22
Wolken 22
Waffe 22
ansonsten 22
wol@@ 22
Richtung, 22
Must@@ 22
vorherrsch@@ 22
stellte, 22
erei, 22
gangs@@ 22
Schwä@@ 22
weswegen 22
fte, 22
marsch@@ 22
Inder 22
UN-@@ 22
ständigen 22
Verteidig@@ 22
Sicherheit, 22
verbun@@ 22
erkannt, 22
anen 22
entdeckte, 22
rüber 22
ziert, 22
Stunden. 22
lernte, 22
etz 22
lernten 22
ismus@@ 22
anfäl@@ 22
itäre 22
schwache 22
leisten, 22
ary 22
Fliegen 22
Lebensqualität 22
ament 22
Communit@@ 22
Kanal 22
bert 22
getau@@ 22
umwandel@@ 22
Flüssig@@ 22
2010 22
Paradig@@ 22
Explo@@ 22
Atome 22
breit 22
ther@@ 22
Dienste 22
erter 22
Auflösung 22
Echtzeit 22
eingebett@@ 22
Meister@@ 22
vili@@ 22
ungs 22
versprech@@ 22
ene, 22
Antibiotika 22
woraus 22
Strategien 22
spielt, 22
absich@@ 22
verwandeln 22
Chil@@ 22
hell@@ 22
anschließend 22
bombe 22
Universums. 22
physikalischen 22
Karik@@ 22
Vulkan@@ 22
Start 22
phi@@ 22
unmittelbar 22
Krankenh@@ 22
üblicherweise 22
Erlaubnis 22
Ästh@@ 22
dumme 22
ena 22
toll@@ 22
position 22
anni@@ 22
L: 22
Magnet@@ 22
ahme 22
verkörper@@ 22
zugrunde 22
nachgedacht 22
ai 22
visu@@ 22
Oel@@ 22
geld 22
Kosten. 22
energie 22
M 22
Winden@@ 22
ergie 22
Anführ@@ 22
nähr@@ 22
besied@@ 22
bewegungen 22
ards 22
startete 22
ausgewähl@@ 22
Klinik 22
Fußball@@ 22
aufzubauen. 22
links, 22
kontrolliert 22
gespeich@@ 22
Schild 22
weitaus 22
gleichen. 22
Migrän@@ 22
Schweine 22
Zelt 22
ernst. 22
zweiter 22
ire 22
stecken. 22
hu@@ 22
barkeit, 22
dete, 22
fasste 22
Schlimm@@ 22
wehr@@ 22
Ebene, 22
Schir@@ 22
Stre@@ 22
ad, 22
äle 22
orn 22
Friedens@@ 22
Europa, 22
BI@@ 22
erwähnen, 22
aktor 22
Vagina-@@ 22
Buddh@@ 22
Praxis 22
außergewöhnlich 22
Lehrerin 22
unterrichtet 22
Gewinner 22
Lach@@ 22
ze. 22
sechs, 22
durchschnittlichen 22
Schwing@@ 22
Ev@@ 22
Wichtigste 22
Israel 22
Fernseher 22
erfahren. 22
ampf 22
Minut@@ 22
großen, 22
Direktor 22
Südafrik@@ 22
Herausforderungen, 22
angesichts 22
Systeme, 22
politischer 22
Argum@@ 22
geringer 22
Mill@@ 22
angenehme 22
dreht, 22
jetz@@ 22
austr@@ 22
äußeren 22
jeder@@ 22
BIP 22
Aufgabe. 22
getöt@@ 22
wu@@ 22
Getreide 22
hl 22
gewachsen 22
systemat@@ 22
Block 22
bedeutete, 22
aufgewach@@ 22
Baby, 22
bedeutungs@@ 22
trägt. 22
Anreize 22
Unterricht 22
riesiger 22
wör@@ 22
Pin@@ 22
verrückten 22
ortex 22
Psychologen 22
ausgewählt 22
Fiktion 22
riecht 22
länge 22
üttel@@ 22
Lee 22
North 22
höchst 22
Jefferson 22
anzen 22
Datenbank 22
Umlauf@@ 22
steri@@ 22
Hemisphäre 22
tox@@ 22
Lärm 22
Zweiten 22
Mechanismus 22
Stach@@ 22
Sonde 22
iss 22
Kamel 22
einfachste 22
ehle 22
n." 22
Krieg, 22
"Weißt 22
P: 22
Lif@@ 22
attent@@ 22
bezahlen. 22
Refl@@ 22
Newton 22
Erdn@@ 22
Shir@@ 22
McC@@ 22
sse 22
Böse 22
nahen 22
AM: 22
Sylvia 22
Tausend 21
Erkennt@@ 21
suchten 21
billige 21
stren@@ 21
Nacht, 21
krise 21
minus 21
ultim@@ 21
vermeiden 21
verschmutzung 21
Smith 21
Dorf, 21
Saf@@ 21
verwandeln, 21
kostengünst@@ 21
endem 21
prob@@ 21
Nicht-Nullsumm@@ 21
Aufklär@@ 21
betreiben 21
sens 21
buch@@ 21
immateri@@ 21
quali@@ 21
minister 21
Infrastruktur, 21
dienst 21
Europä@@ 21
gäbe, 21
rieren 21
Dynami@@ 21
sitze 21
ingenie@@ 21
Zeitspanne 21
bildeten 21
zurückge@@ 21
2020 21
Heim@@ 21
[un@@ 21
jähriges 21
Sputnik 21
kann? 21
weltweit. 21
herzlichen 21
V 21
anfing 21
tendieren 21
weibliche 21
gewis@@ 21
ei, 21
Gen 21
Ingenieuren 21
intensiv@@ 21
faszinierend. 21
Kreativit@@ 21
Canyon 21
gendes 21
Tränen 21
Gordon 21
Expedi@@ 21
baum 21
eti@@ 21
X-@@ 21
asie 21
for 21
künstlichen 21
rahl@@ 21
ad. 21
taus@@ 21
Synth@@ 21
nutzten 21
Methan 21
ersetzen 21
Yor@@ 21
Schlei@@ 21
Hilfe. 21
geschicht@@ 21
starten, 21
letzt@@ 21
hinzufügen. 21
Assist@@ 21
ücke 21
lassen? 21
gesehen? 21
preis@@ 21
stät@@ 21
Vergessen 21
ehren 21
unglaubliches 21
jet@@ 21
berührt. 21
34 21
Gelände 21
behörde 21
sicherzustellen, 21
gründen, 21
abends 21
erschien 21
jedes@@ 21
Mr@@ 21
Dichte 21
Geben 21
Polizi@@ 21
Spaß, 21
Wochen, 21
ebo@@ 21
länger@@ 21
exter@@ 21
Verbrenn@@ 21
lands@@ 21
bank, 21
uh, 21
jedenfalls 21
schir@@ 21
Weibchen 21
Ut@@ 21
1960 21
Gras@@ 21
Nest 21
evol@@ 21
rem 21
Gefühle, 21
verschwinden. 21
Bevölkerung, 21
Flei@@ 21
fröh@@ 21
machen?" 21
enne 21
Belast@@ 21
ließ, 21
de." 21
Gebur@@ 21
enkreb@@ 21
The 21
Stanford 21
gan 21
gehenden 21
kreb@@ 21
dageg@@ 21
ami 21
intelligent 21
Chemi@@ 21
nachgedacht, 21
Anfang, 21
wollen? 21
Sieg@@ 21
starten. 21
ts. 21
Paar@@ 21
zieht. 21
Gesicht, 21
Vorstellungs@@ 21
85 21
figer 21
Dopam@@ 21
geschl@@ 21
empfehl@@ 21
Empfind@@ 21
Magie 21
bestehen, 21
Bow@@ 21
Information, 21
alter. 21
Schlä@@ 21
holt 21
temperatur 21
Pflanzen. 21
10-@@ 21
til@@ 21
Amei@@ 21
Jamie 21
Tendenz 21
Pfl@@ 21
ühl@@ 21
hergestellt. 21
Mäus@@ 21
praktischen 21
erweitern. 21
beziehen 21
Bauch@@ 21
ve, 21
Branche 21
Wag@@ 21
Fehler, 21
Typen, 21
voll, 21
Wirbel@@ 21
Geburts@@ 21
Geburtstag@@ 21
zurückgehen 21
zurückkehren 21
Anten@@ 21
uver@@ 21
erfin@@ 21
ossen. 21
Cas@@ 21
yc@@ 21
6.000 21
spi@@ 21
begra@@ 21
vergewaltigt 21
Mittleren 21
ungewöhnliche 21
bahnbrech@@ 21
Welt? 21
verwen@@ 21
äne 21
kosten. 21
geteil@@ 21
Punkten 21
tlichen 21
seite. 21
zu-@@ 21
Vortrag. 21
Konsum 21
Time 21
Alumini@@ 21
dies. 21
Lim@@ 21
ydr@@ 21
Verteidigungs@@ 21
DV@@ 21
Ecken 21
Südasi@@ 21
beliebigen 21
ramm@@ 21
brillan@@ 21
wächst. 21
urteil@@ 21
kämpfen. 21
tierten 21
hole 21
schrän@@ 21
bezieht 21
Betracht 21
vermute, 21
schrift 21
Firma. 21
erzählte, 21
ganz, 21
lung 21
gegenwärtigen 21
zueinander 21
Hülle 21
Skizz@@ 21
besetz@@ 21
Satelliten 21
dee 21
Papier, 21
Wh@@ 21
a." 21
Arbei@@ 21
Val@@ 21
zahlen. 21
aufen. 21
Strat@@ 21
IM@@ 21
Taten 21
spol@@ 21
Soll 21
Verhalt@@ 21
Histor@@ 21
koordin@@ 21
aufgenommen. 21
Stamm 21
Blas@@ 21
spielten 21
opfer@@ 21
Pazifik 21
förmige 21
pt 21
Stränge 21
überraschende 21
Schizophr@@ 21
Schatt@@ 21
Zentren 21
urban@@ 21
gingen, 21
Toilette 21
Lat@@ 21
Kach@@ 21
typische 21
Orten. 21
legt, 21
Echt@@ 21
gelassen. 21
Google@@ 21
beeinflussen. 21
Entscheidungs@@ 21
40.000 21
Erfin@@ 21
Potenzi@@ 21
verdeut@@ 21
Glied@@ 21
Chips 21
vorherseh@@ 21
gefr@@ 21
kümmern. 21
treten, 21
elektronische 21
echnologie, 21
behaupt@@ 21
Verhält@@ 21
Nebenwirk@@ 21
Stoffwechsel@@ 21
Objekten 21
Zeitpunkt, 21
schritt@@ 21
vorherzus@@ 21
ersten, 21
50-@@ 21
zon@@ 21
verursachen. 21
beantworten 21
herab@@ 21
gefei@@ 21
Lebewesen, 21
gedei@@ 21
Atmosphäre. 21
ask@@ 21
Primat@@ 21
d" 21
anderthalb 21
Alphab@@ 21
Anzeige 21
Thail@@ 21
Wochen. 21
verteilen 21
Jungs, 21
genannten 21
Gravit@@ 21
Blase 21
Kreaturen 21
starb, 21
Geschwindi@@ 21
Objekte, 21
kritischen 21
pfleg@@ 21
nost@@ 21
falten 21
überzeugt 21
Klavier 21
gens. 21
lehnen 21
gehende 21
leer 21
Umw@@ 21
ker. 21
sim@@ 21
oller 21
Julia 21
ce-@@ 21
nat@@ 21
ueber@@ 21
kompliziert. 21
Tinten@@ 21
60.000 21
Stelle, 21
oftmals 21
absorbi@@ 21
Ahnung. 21
gänger@@ 21
bene 21
Bangladesch 21
richtet. 21
rühr@@ 21
testen, 21
ologe, 21
ator, 21
Versuche 21
herausforder@@ 21
Äuß@@ 21
Ehem@@ 21
Rez@@ 21
Meist@@ 21
Det@@ 21
träumen 21
eindeut@@ 21
AT@@ 21
alter, 21
Lewis 21
Karte, 21
lokal 21
offensichtliche 21
anzugehen. 21
änder, 21
Dankeschön. 21
Live-@@ 21
Geschlechts@@ 21
Interviews 21
jüngeren 21
Flaschen 21
wesenheit 21
orientiert 21
dem. 21
Interface 21
OK 21
jed@@ 21
ließen, 21
Methoden, 21
Stol@@ 21
geht@@ 21
kurs 21
testen. 21
Wahlen 21
Ja! 21
entgegen 21
B, 21
qual@@ 21
endlich, 21
dies: 21
Hex@@ 21
mär@@ 21
zunehmen 21
zett@@ 21
bank 21
läd@@ 21
Ozean. 21
erung, 21
Blin@@ 21
Lex@@ 21
ierenden 21
Research 21
Delp@@ 21
Schädel 21
gleichzei@@ 21
notwen@@ 21
loser 21
Später 21
Besuch 21
heben, 21
erzählten 21
Fotograf@@ 21
symbol@@ 21
Pflege 21
Treibhausgase 21
Malari@@ 21
Küche 21
Comedy 21
Mark 21
Mikroskop 21
Flag@@ 21
forscher 21
Quer@@ 21
Mount 21
mi 21
Fünf@@ 21
Erzieh@@ 21
frieden@@ 21
Dumm@@ 21
spieler@@ 21
belohn@@ 21
ele. 21
Experiment, 21
fau@@ 21
klam@@ 21
einges@@ 21
präch@@ 21
wenden, 21
wilde 21
plätze 21
Persönlichkeit 21
Eigenschaften, 21
änger 21
ausgesprochen 21
Freunde. 21
zipi@@ 21
ken@@ 21
lem@@ 21
springen. 21
Haie 21
Gewohn@@ 21
Veränderung, 21
Tank@@ 21
täglich@@ 21
Rund@@ 21
Weltkrieg@@ 21
stre@@ 21
gesünder 21
allmäh@@ 21
Kondome 21
lerin 21
Jonathan 21
pflanzen, 21
tin 21
Namibia 21
Sender 21
Mike 21
Bestechung 21
Metap@@ 21
Mais 21
geh 21
Synästh@@ 21
lehn@@ 21
Chirurgen 21
Geht 21
vermitteln. 21
Strahlung 21
Pik@@ 21
itten. 21
behinder@@ 21
Sowjetunion 21
Antikör@@ 21
SETI 21
Philanthropie 21
Moskitos 21
Probanden 21
Halluzinationen 21
99" 21
"Eine 20
Air 20
fahrt 20
wachte 20
aufgereg@@ 20
Nachrichten@@ 20
liges 20
w. 20
rekor@@ 20
niedrig 20
Umweltschutz@@ 20
fak@@ 20
sichere 20
Produkten 20
Beteilig@@ 20
kampag@@ 20
ktu@@ 20
verdrei@@ 20
MIT, 20
Dorf. 20
versi@@ 20
Biomasse 20
Bin@@ 20
itzt 20
schneller. 20
100-@@ 20
involviert 20
ausgedrück@@ 20
Ärm@@ 20
darf, 20
Annahmen 20
egel@@ 20
Beispiele. 20
benötigt, 20
rasch 20
liefern. 20
verwandelt. 20
Zug@@ 20
Mögliche 20
phab@@ 20
legend@@ 20
schnellsten 20
yp 20
zykl@@ 20
DAR@@ 20
ausreich@@ 20
Entwicklung, 20
50ern 20
voraus, 20
fließen 20
lange. 20
design 20
hingegen 20
geraten 20
Bildhau@@ 20
geform@@ 20
Py@@ 20
Worte, 20
Kram@@ 20
re. 20
bess@@ 20
lösung 20
zig@@ 20
warte 20
Genen 20
Probe 20
Häu@@ 20
Infrar@@ 20
bekannter 20
Meiner 20
Evolution. 20
T-Shir@@ 20
durchgeführt. 20
toler@@ 20
Zusätzlich 20
Weltall 20
Grundlagen 20
Hallo 20
Iron@@ 20
Idi@@ 20
noch? 20
glei@@ 20
geöffn@@ 20
Herbst 20
Klar, 20
p-@@ 20
geschei@@ 20
stig 20
schwarz 20
Kni@@ 20
ziges 20
nur: 20
"In 20
verwendeten 20
Ground 20
problemat@@ 20
Amerikas 20
beenden 20
ultimative 20
wünschte 20
ick, 20
überlegen, 20
trinkt 20
Ewi@@ 20
tradition@@ 20
protest@@ 20
Richtig. 20
existierenden 20
Interessanterweise 20
l. 20
begeistert, 20
öcke 20
liar@@ 20
Liz@@ 20
land, 20
bewunder@@ 20
normaler 20
nein@@ 20
2,5 20
benötigen. 20
U-Bahn 20
drauf@@ 20
Diabet@@ 20
Herzkrank@@ 20
investieren. 20
Französi@@ 20
Tansania 20
liebt 20
Veget@@ 20
Übung 20
Gründen, 20
insel 20
dü@@ 20
liebe. 20
"Na 20
wütend 20
Enkel 20
üre 20
Sorge 20
müsst 20
Gefängnis@@ 20
Dank! 20
Kanada 20
Ausbruch 20
ool 20
Gedächt@@ 20
vermin@@ 20
schuss 20
keln, 20
Skelettmuskeln 20
Wechselwirk@@ 20
schäd@@ 20
Bech@@ 20
man: 20
zeln 20
deines 20
trifft. 20
Dram@@ 20
tun?" 20
dauert, 20
[undeutlich@@ 20
eck. 20
Schreibtisch 20
Mode 20
Teek@@ 20
würdig@@ 20
are. 20
18. 20
Dichter 20
hebt 20
starkes 20
Gedi@@ 20
anzusehen. 20
Niem@@ 20
Agrar@@ 20
Gemeinsam@@ 20
Japan, 20
Langzeit@@ 20
rigkeit 20
tötet 20
Japan@@ 20
ebe 20
Renn@@ 20
weit. 20
tigkeit@@ 20
ager@@ 20
mangel@@ 20
Krist@@ 20
aufmerksam 20
klav@@ 20
evolutionären 20
Struktur. 20
Nanot@@ 20
geformt 20
Kerami@@ 20
Labor. 20
ta@@ 20
Interessantes 20
Gewässer@@ 20
zerstören, 20
ien 20
Dav@@ 20
arbeitete. 20
ze, 20
ends 20
produziert. 20
Dauer 20
firma 20
Mitte. 20
Tages, 20
Tomat@@ 20
Sorte 20
nochmals 20
erkläre 20
streb@@ 20
falsch@@ 20
archi@@ 20
Angeb@@ 20
Gerichts@@ 20
Univer@@ 20
able 20
Tage, 20
Taus@@ 20
alisierte 20
Experte 20
Zeichnung 20
lasen 20
könntest 20
Politik, 20
Skep@@ 20
ders 20
Tar@@ 20
Raumes 20
Kalifornien, 20
Ausrüst@@ 20
gens 20
bekam. 20
Schrei@@ 20
MS: 20
Teilchenphysi@@ 20
gerech@@ 20
klettern 20
jene, 20
Zwischen@@ 20
Kampag@@ 20
leicht. 20
versteckten 20
Handlung 20
integrier@@ 20
anzus@@ 20
Kopi@@ 20
Materialien, 20
Firmen, 20
Agent@@ 20
eingeb@@ 20
kostet, 20
alltäglichen 20
Wieviele 20
ulti@@ 20
43 20
erstreck@@ 20
Nachricht, 20
berfläch@@ 20
Übersetz@@ 20
weis 20
Prototyp@@ 20
Engine@@ 20
Wow. 20
Beobachtung 20
laufe 20
Brot@@ 20
Formel 20
ausgestatt@@ 20
transpar@@ 20
der-@@ 20
änder. 20
zah@@ 20
Gur@@ 20
arre 20
packen 20
berührt, 20
opernik@@ 20
ministeri@@ 20
Koff@@ 20
sucht. 20
öfter 20
überzeugen. 20
reich. 20
geniale 20
gefährlich, 20
Bezahl@@ 20
geschichte. 20
beri@@ 20
Antworten. 20
fiel. 20
Unfälle 20
ablen 20
Sieht 20
km/@@ 20
kriti@@ 20
Analogie 20
Sehn@@ 20
Kilomet@@ 20
ekton@@ 20
grün 20
tro@@ 20
Innere 20
genaue 20
Werten 20
stattfindet. 20
anten. 20
erscheint, 20
-Ver@@ 20
low@@ 20
ina, 20
Staub 20
wunderbar, 20
schätze 20
glaubten 20
U-@@ 20
Anspruch 20
osexu@@ 20
eingesetzt. 20
erinn@@ 20
geschäft 20
wärts@@ 20
rupp@@ 20
Dalai 20
Mön@@ 20
Gedul@@ 20
unde. 20
Integ@@ 20
Filme, 20
sträger 20
Held 20
Zo@@ 20
bildet@@ 20
Proteine 20
landete 20
ausgebildet 20
Joe 20
intelligenter 20
svi@@ 20
Bir@@ 20
etten, 20
angekommen 20
aufhören, 20
vielen, 20
Deut@@ 20
Angestellten 20
strit@@ 20
erneut 20
dauern, 20
Wechsel@@ 20
Rate 20
vertret@@ 20
verklein@@ 20
programm@@ 20
lebten, 20
Eric 20
gesam@@ 20
ziehe 20
Män@@ 20
überzeugen 20
Innovation, 20
gründen. 20
Vergangen@@ 20
Oze@@ 20
issen, 20
Pilze 20
terer 20
Seel@@ 20
farbi@@ 20
regeln 20
Treibhaus@@ 20
Relativit@@ 20
wenigsten 20
Albert 20
pfel 20
ranken 20
Nick 20
astronom@@ 20
leiden. 20
Nik@@ 20
Nar@@ 20
Zur@@ 20
bauer 20
willkür@@ 20
eigentlich, 20
Parall@@ 20
Jack 20
Streit 20
Anstreng@@ 20
geleitet 20
schlossen 20
baut. 20
Apfel 20
ho 20
französische 20
komisch 20
esst 20
ventionen 20
Liter 20
prozent@@ 20
beru@@ 20
sischen 20
proportion@@ 20
Innovation@@ 20
wertvolle 20
nenne, 20
Plätze 20
träch@@ 20
Monat. 20
UN 20
°@@ 20
ender@@ 20
sehen: 20
wahrhaftig 20
arbeiteten, 20
telefon@@ 20
rufen. 20
Gerät. 20
ura 20
Manifest@@ 20
draus@@ 20
Blind@@ 20
N. 20
Lieder 20
Äthiopi@@ 20
Chaos 20
aust 20
og 20
Wortes 20
drin. 20
wissenschaftlicher 20
junges 20
größer. 20
Letzt@@ 20
sichten 20
Amerikanischen 20
skrank@@ 20
ten." 20
Reise, 20
Privileg 20
energie. 20
Vergewal@@ 20
72 20
Staub@@ 20
interagieren, 20
Schreiben 20
” 20
!@@ 20
unterrichten. 20
Kommt 20
Disk@@ 20
betroffen 20
Nicht-Nullsummen-@@ 20
grundsätz@@ 20
muslimischen 20
athie 20
Analy@@ 20
half 20
südlich 20
spirituellen 20
Dänemar@@ 20
Planet, 20
Press@@ 20
Flagge 20
leihen 20
Investoren 20
lernt, 20
sagst 20
Wohl 20
sich? 20
Schenk@@ 20
opt@@ 20
äut@@ 20
ja? 20
ges. 20
ekomm@@ 20
Käl@@ 20
Washington, 20
Bakterien, 20
magischen 20
Hilfsmittel 20
Einrichtungen 20
Dokumentar@@ 20
amerik@@ 20
lern 20
esischen 20
hervor, 20
islam@@ 20
Sün@@ 20
nur? 20
älteste 20
fischen 20
Platten 20
zustand 20
verstor@@ 20
Sierra 20
film@@ 20
gerade@@ 20
papi@@ 20
Nordpol@@ 20
schief@@ 20
geradezu 20
Trocken@@ 20
Distanz 20
Tony 20
scann@@ 20
natürliches 20
Bestandteile 20
glänz@@ 20
Glauben@@ 20
Großar@@ 20
fundament@@ 20
nied@@ 20
Überzeugungen 20
Höhlen 20
Diagnose 20
Lou@@ 20
nette 20
Frü@@ 20
geben? 20
betrü@@ 20
Hät@@ 20
Mittel-@@ 20
Schwerkraft 20
Vulk@@ 20
Int@@ 20
Jill 20
liebte 20
Schall@@ 20
andauern@@ 20
akte 20
überhaup@@ 20
anti-@@ 20
tür@@ 20
ative, 20
Meeresspiegel 20
hi 20
chines@@ 20
eineinhalb 20
ario 20
kter 20
Unterwasser@@ 20
ernähren. 20
ohnen 20
ktiv 20
werk, 20
Algorithmen 20
Nuklear@@ 20
Hüfte 20
Atmosphä@@ 20
beherber@@ 20
Bol@@ 20
Hühnchen 20
rak@@ 20
Kindern. 20
&amp; 20
masse 20
Filmen 20
wegn@@ 20
Bedroh@@ 20
Bombe 20
Palä@@ 20
CA@@ 20
Gebirg@@ 20
Selbstmord@@ 20
offenbar 20
PM: 20
mysteri@@ 20
Richter 20
Erdbeben 20
stit@@ 20
Bioluminesz@@ 20
Hef@@ 20
umar@@ 20
Kind: 20
Neuseel@@ 20
wale 20
frequenz 20
Sahara 20
But@@ 20
fettleibi@@ 20
iPhone 20
O.@@ 20
Astrolabi@@ 20
Transi@@ 20
Maledi@@ 20
ström@@ 19
dürfen. 19
antwortete: 19
verbrauch@@ 19
W. 19
kris@@ 19
neutr@@ 19
Diejenigen 19
CO2-Emissionen 19
bast@@ 19
kurzfrist@@ 19
ement. 19
Remi@@ 19
MI@@ 19
sauber 19
sache 19
stabili@@ 19
alternative 19
mutig@@ 19
heißt. 19
trag, 19
Uni 19
verkaufen, 19
Ash@@ 19
abges@@ 19
stande 19
lichten 19
gelehrt 19
Gewalt, 19
Entwicklungen 19
befassen. 19
'000 19
theit 19
globales 19
riert 19
begeist@@ 19
schrift@@ 19
entstehen, 19
reine 19
List@@ 19
dadurch, 19
nochmal, 19
Geschäft. 19
effizienter 19
raum@@ 19
süchtig 19
zug, 19
"die 19
Irgendwie 19
mität 19
Wettbewerb@@ 19
Job, 19
jeman@@ 19
Anstelle 19
Bud@@ 19
gelassen, 19
herausra@@ 19
sozus@@ 19
weit, 19
nüt@@ 19
aufgest@@ 19
é 19
Kleine 19
Path@@ 19
iere, 19
Genome 19
130 19
oze@@ 19
entdeckten 19
Region. 19
Ultra@@ 19
sons 19
Virus@@ 19
unterscheiden. 19
programme 19
unglaublich, 19
aturen 19
Ethanol 19
komplexer 19
Untersuchungen 19
1999 19
Mac 19
erei@@ 19
Hak@@ 19
meine. 19
Bedien@@ 19
ständen 19
Exempl@@ 19
Klu@@ 19
gerä@@ 19
p. 19
Knö@@ 19
Werkzeug@@ 19
Gegenst@@ 19
langsam, 19
Anleit@@ 19
kehr 19
Pix@@ 19
hörte, 19
antworten 19
Län@@ 19
et." 19
stellungs@@ 19
d: 19
Angesicht 19
Wort. 19
ure@@ 19
Sinnes@@ 19
Freit@@ 19
dringend 19
aßen 19
gig@@ 19
langfristige 19
Gruppe. 19
Nicholas 19
00.000 19
überzeug@@ 19
Grundstück@@ 19
platt@@ 19
gegrün@@ 19
Union 19
effiziente 19
Flugzeug, 19
Kilometern 19
zö@@ 19
Gre@@ 19
Kalifornien. 19
geblieben 19
Einrichtung 19
minü@@ 19
skept@@ 19
dose 19
sauberes 19
tödliche 19
Vogelgrippe 19
Herz-@@ 19
Lebensstil 19
PE@@ 19
undes@@ 19
günstig 19
stammen 19
tiere 19
gebr@@ 19
Säugetiere 19
menschlich 19
studieren. 19
Hungers@@ 19
arm, 19
Asth@@ 19
Enkel@@ 19
verbreiten. 19
Alzheimer 19
nahm. 19
spezif@@ 19
din 19
wunderbar@@ 19
phänomen@@ 19
Lunge 19
zellen, 19
d.@@ 19
kontrollieren, 19
reagieren, 19
Mul@@ 19
geworfen. 19
RSW: 19
reichhal@@ 19
gal, 19
rechtzeitig 19
gelaufen 19
du? 19
höf@@ 19
ppt 19
überschreit@@ 19
fanden. 19
Visu@@ 19
wegzu@@ 19
reiz@@ 19
enzen, 19
ungsfähig@@ 19
weiblichen 19
etabli@@ 19
37 19
40@@ 19
ante, 19
aufgeregt, 19
schneller, 19
Protein 19
betrifft. 19
Ausgangs@@ 19
ämmer@@ 19
äck@@ 19
zerr@@ 19
Universität, 19
urb@@ 19
att. 19
selbst-@@ 19
Dur@@ 19
Organismen, 19
gelangt, 19
Impfstoffe 19
Hut 19
ritu@@ 19
Danny 19
ackt 19
zuletzt 19
umgeb@@ 19
ands 19
Nicht-@@ 19
froh 19
schlage 19
abzul@@ 19
schlag, 19
annehmen 19
solches 19
Monaten, 19
Statt 19
Oder? 19
sichtbaren 19
war's. 19
hand 19
Schrift@@ 19
stur@@ 19
Foto, 19
Hotel@@ 19
lerweile 19
Vorsitz@@ 19
dazwischen 19
arbeite. 19
Ergebnis. 19
hint@@ 19
präzis@@ 19
Kreation@@ 19
use 19
Os 19
Ergebnis, 19
tiven 19
gleicht 19
journ@@ 19
Lehrern 19
tauschen 19
Dist@@ 19
Mauer 19
individuellen 19
Kurse 19
Imperi@@ 19
geomet@@ 19
issen. 19
Zustand, 19
maschinen 19
gliche 19
potenzi@@ 19
wett@@ 19
asche 19
Formen. 19
haft. 19
verblüffende 19
Zugriff 19
gie@@ 19
zusammenhän@@ 19
werk. 19
Brut@@ 19
Ding. 19
Blasen 19
zeigte, 19
rein, 19
konzentrierte 19
schau 19
verdienen, 19
jemandem, 19
Lautsprech@@ 19
unterstützt. 19
-und-@@ 19
Produkt, 19
schwimmen. 19
sah@@ 19
nicht: 19
phil@@ 19
ungefähr@@ 19
gehabt, 19
Konz@@ 19
Kid@@ 19
situ@@ 19
negativen 19
Anw@@ 19
eingehen 19
Kindersitze 19
Heilung 19
begrenzten 19
gezogen, 19
sind@@ 19
anony@@ 19
mmen 19
bewirken. 19
ungen@@ 19
schnellste 19
Aktivi@@ 19
frühe 19
antreiben 19
Erdo@@ 19
berfläche. 19
Atm@@ 19
Hütte 19
Berlin 19
stad@@ 19
auton@@ 19
Konstruktion 19
gezw@@ 19
Geri@@ 19
erfinden, 19
wahrgenommen 19
Weiß 19
St. 19
Schauspieler 19
vor: 19
wendet 19
wir: 19
kriegen, 19
Da@@ 19
"? 19
gkeiten 19
nahm@@ 19
Drittel@@ 19
lag. 19
Mädchen. 19
stoß 19
aj@@ 19
Nobelprei@@ 19
ängen 19
liefen 19
ingegen 19
pflanzen. 19
autist@@ 19
Ebene. 19
urbane 19
ons@@ 19
teilte 19
primitiv@@ 19
Einkaufs@@ 19
Dor@@ 19
biß@@ 19
rufe 19
ausführ@@ 19
überwieg@@ 19
unterhalten 19
niemandem 19
vorhersag@@ 19
Graph@@ 19
fundamentalen 19
Rechenleistung 19
Paradigma 19
dasselbe. 19
Information@@ 19
Pharma@@ 19
Maschinen, 19
ns 19
Verbesserungen 19
Erkenn@@ 19
bot@@ 19
Technologien. 19
Schicksal@@ 19
Therapien 19
Ursachen 19
wechsel 19
entsprechende 19
typisch 19
jünger 19
schwei@@ 19
Prioritäten 19
"Lasst 19
Hausaufgaben 19
sen? 19
Mars. 19
Fle@@ 19
Bonob@@ 19
Klavi@@ 19
Hersteller 19
Displ@@ 19
November 19
stet@@ 19
Handy@@ 19
Größe. 19
om. 19
Celsi@@ 19
Bausteine 19
mos@@ 19
hervor. 19
meint 19
grösste 19
gesün@@ 19
grosser 19
angehen 19
schalten, 19
vorsich@@ 19
Herrn 19
Stück, 19
unterrichten, 19
ina. 19
Lichter 19
Gestalt 19
strom@@ 19
aufgeh@@ 19
beschleun@@ 19
folgendes 19
jedermann 19
definieren. 19
plizier@@ 19
blau, 19
zeichnet, 19
enderweise 19
Span@@ 19
Human@@ 19
heißt: 19
angefangen. 19
185@@ 19
Shanghai 19
gebauten 19
Weit@@ 19
Antrieb 19
herrsch@@ 19
Stahl 19
Minder@@ 19
Ant@@ 19
Notfall@@ 19
Arbeiter@@ 19
Banken 19
Millionen, 19
schwä@@ 19
ätze, 19
fehlt, 19
Fälle, 19
Angelegenheiten 19
bewirken 19
Architektur@@ 19
Handels@@ 19
Daraus 19
Fab@@ 19
riken 19
getrieb@@ 19
tes, 19
Denkens 19
Schöne 19
Energies@@ 19
statt, 19
Haushalts@@ 19
Handy, 19
Donn@@ 19
Lich@@ 19
greifen. 19
Patienten. 19
Nachmittag 19
ima 19
Früherkenn@@ 19
Gummi@@ 19
Produzenten 19
umkehr@@ 19
Regierung. 19
Abenteuer 19
U.@@ 19
imp@@ 19
strä@@ 19
Natürlich, 19
ert@@ 19
Freizeit 19
größtenteils 19
bedroht 19
ution@@ 19
erscheinen, 19
mord@@ 19
Ritu@@ 19
Hauses 19
anpassen 19
Rollen 19
Bildungssystem 19
Kollegen, 19
15. 19
Entweder 19
Schlagan@@ 19
ed-@@ 19
betonen, 19
angeht. 19
schätzen. 19
rieben@@ 19
„Das 19
Entscheidungen, 19
Käs@@ 19
Mart 19
Fit@@ 19
Zeile 19
ausmacht. 19
haber 19
brem@@ 19
Black@@ 19
Noten 19
Schildkrö@@ 19
.... 19
ith@@ 19
Sw@@ 19
kollab@@ 19
wahrhaft 19
Scien@@ 19
prechen 19
Falle 19
serv@@ 19
roskop@@ 19
Löch@@ 19
Ameisen, 19
flut@@ 19
digkeit 19
Steinen 19
inti@@ 19
Verschmutz@@ 19
fess@@ 19
"Ja." 19
altung. 19
Nordpol 19
Eisb@@ 19
Kalorien 19
gefährlich. 19
Antarkt@@ 19
Güter 19
Netze 19
jeden, 19
wählen. 19
Geistes 19
Gegenstände 19
empfinden 19
stattgefunden 19
Vog@@ 19
quer 19
Tromm@@ 19
sitzt, 19
Fortpflanz@@ 19
Anzeichen 19
Satz@@ 19
endgül@@ 19
Nährstoffe 19
Charl@@ 19
maschine. 19
warm 19
ben? 19
neun@@ 19
ordentlich 19
Landes, 19
annähernd 19
regende 19
3D 19
probe 19
gespielt. 19
Katzen 19
Speicher 19
tier 19
schlüsse 19
onen. 19
Fid@@ 19
normales 19
Benz@@ 19
buddh@@ 19
fantastisches 19
Tochter, 19
ehl 19
zücht@@ 19
Großbritannien, 19
Tunnel 19
Spiels 19
Effekte 19
schrecklich. 19
Flasch@@ 19
Angelegen@@ 19
Bat@@ 19
Holoc@@ 19
Beam@@ 19
Repu@@ 19
att, 19
Cur@@ 19
Zahlen, 19
Höhe, 19
Harmonie 19
Halluzin@@ 19
uff@@ 19
woanders 19
30-@@ 19
Beob@@ 19
verbraucht 19
Galaxien, 19
bir@@ 19
Zusammensetz@@ 19
kler 19
Strang 19
liegende 19
osse 19
Pyrami@@ 19
Prak@@ 19
beeindruckende 19
ürze 19
Symph@@ 19
String@@ 19
Higgs-@@ 19
ppen@@ 19
Joshua 19
anpass@@ 19
Meeresboden 19
Malt@@ 19
Nathan 19
Bruchteil 19
dynami@@ 19
Stunts 19
chr@@ 19
Buckel@@ 19
Krokodi@@ 19
Künste 19
Dod@@ 19
identifizieren 19
Teig 19
Meile 19
Hausmeisters 19
Twit@@ 19
β@@ 19
suspendi@@ 19
netten 18
ville 18
gehört? 18
I-@@ 18
pper@@ 18
dent 18
's, 18
tank@@ 18
alen. 18
nachrichten 18
Erderwärmung 18
langfristig 18
möglichst 18
dankbar 18
Hilfe, 18
klicken 18
Emis@@ 18
erziel@@ 18
katastroph@@ 18
politik 18
lionen 18
Flüsse 18
bereiten. 18
Freiwilligen 18
einfallen 18
üge 18
Kass@@ 18
gemach@@ 18
gesundheit@@ 18
Prozesses 18
Eben@@ 18
WI@@ 18
Kör@@ 18
h: 18
Anderson 18
Meinungen 18
demokratischen 18
notwendig, 18
provis@@ 18
angeblich 18
kins 18
Abkommen 18
wächst, 18
Entwür@@ 18
Aufmerksam@@ 18
ement, 18
Nicht, 18
funktionierte. 18
Paris 18
Wü@@ 18
gegründet, 18
geschäf@@ 18
computer 18
Industrie, 18
NAS@@ 18
aut, 18
hie, 18
befassen 18
Ärger 18
Autos. 18
Wahrheit, 18
Zeiten, 18
krank. 18
Reise. 18
Veg@@ 18
forschungen 18
Chris, 18
Dialog@@ 18
branche 18
leeren 18
überwäl@@ 18
Chef@@ 18
S, 18
gefüg@@ 18
enthält. 18
mikro@@ 18
Kari@@ 18
Abstamm@@ 18
erhielten 18
jewei@@ 18
ehemalige 18
Anstrengungen 18
hom@@ 18
splan@@ 18
cker 18
Haust@@ 18
komment@@ 18
Times, 18
Rag@@ 18
iron@@ 18
schreiten 18
Intelligenz. 18
"Ein 18
drahtlose 18
Intuiti@@ 18
Standard 18
os-@@ 18
gerät. 18
Fast@@ 18
Genau. 18
absichtlich 18
elieg@@ 18
Kas@@ 18
Diskussionen 18
entwarfen 18
erfüllt 18
metter@@ 18
erseits, 18
int 18
hilfreich 18
bestell@@ 18
Überleg@@ 18
arbeit, 18
Infrastruktur. 18
wertet 18
öffentlicher 18
gestaltet, 18
stätten 18
1998 18
Ski@@ 18
shi@@ 18
interessan@@ 18
beschäftigte 18
ausmachen. 18
Umgebungen 18
Batterien 18
autos 18
ynami@@ 18
anspruchs@@ 18
stehende 18
Box 18
weitgehend 18
Brilli@@ 18
teri@@ 18
heilen 18
Tumor 18
Eltern. 18
'8@@ 18
ernähren 18
inne 18
fehlende 18
ling, 18
mächtigen 18
intellektuelle 18
löst 18
Konzentration 18
las, 18
Imit@@ 18
traurig@@ 18
verzweifelt 18
Tieren, 18
begleitet 18
Gruppen, 18
beenden. 18
genauen 18
verh@@ 18
Krebs. 18
Tum@@ 18
verlor 18
stehenden 18
Weiß@@ 18
Angiogen@@ 18
spitze 18
entsprech@@ 18
primier@@ 18
verletzt 18
getestet 18
geholt 18
mas 18
September, 18
stammt. 18
W: 18
Sim@@ 18
Jedenfalls, 18
annen 18
posi@@ 18
Sc@@ 18
rollen 18
charakter@@ 18
Nacht. 18
klinische 18
hungrig 18
Verg@@ 18
Talente 18
kern@@ 18
ziert. 18
sein; 18
sind; 18
gesucht 18
sterb@@ 18
alz@@ 18
hang 18
gelingt 18
haupt 18
evolutionäre 18
Knoten 18
ersetzen. 18
Anpass@@ 18
stoßen 18
Ökosysteme 18
Pro-@@ 18
Junk@@ 18
vollständige 18
Mars@@ 18
ellig@@ 18
alisierung, 18
zählen. 18
effekt 18
ecken. 18
Mäuse 18
Freiheit, 18
gesteu@@ 18
verrat@@ 18
gibt's 18
gerne, 18
intellektuellen 18
redete 18
Weiter 18
beliebtesten 18
Supermarkt 18
rangi@@ 18
Großvater 18
vermeiden. 18
schrieb, 18
ier. 18
Umfang 18
zählen, 18
geschickt, 18
ics 18
ehmi@@ 18
behandelt. 18
appe 18
Ring@@ 18
.500 18
heiligen 18
Ke@@ 18
Oka@@ 18
steckt, 18
änger@@ 18
Jones 18
rechnen 18
Tour@@ 18
vist@@ 18
trieben 18
Polar@@ 18
icht 18
effektiver 18
bestän@@ 18
sing@@ 18
einzig 18
halte. 18
verbleiben@@ 18
genutzt. 18
kali@@ 18
Studien@@ 18
ebung 18
geringen 18
Harry 18
bevor@@ 18
Wide 18
Weisen 18
verbindet, 18
werken 18
Cop@@ 18
’@@ 18
Cyber@@ 18
irgendeinen 18
instink@@ 18
hart@@ 18
aufgeb@@ 18
objek@@ 18
bohr@@ 18
schrum@@ 18
gemis@@ 18
Italien 18
deh@@ 18
gewach@@ 18
Phil@@ 18
"G@@ 18
kast@@ 18
Mart@@ 18
vide@@ 18
Inspir@@ 18
tene 18
Intell@@ 18
notwendi@@ 18
pothek@@ 18
Werbes@@ 18
Schmerz@@ 18
Zeitschrift 18
Zeitschriften 18
Kuh 18
aum 18
–, 18
knall@@ 18
Verkauf 18
finanzielle 18
Fangen 18
Pul@@ 18
kannten 18
Endeffekt 18
überrascht, 18
vol@@ 18
hoh@@ 18
angewandt 18
Balken 18
geeignet 18
kau@@ 18
Lange 18
sind." 18
dekor@@ 18
Kopenhagen 18
Prototyp 18
dreidimensionalen 18
still 18
einheit@@ 18
position@@ 18
ol, 18
king 18
ine. 18
de" 18
essel@@ 18
Bilder@@ 18
stab@@ 18
Romanti@@ 18
Schwellen@@ 18
wiederzu@@ 18
Pant@@ 18
band@@ 18
überwinden. 18
Illusion 18
Kalten 18
Kongr@@ 18
Leu@@ 18
schwimmen@@ 18
Leich@@ 18
springt 18
fällt. 18
aussehen? 18
kompet@@ 18
dam 18
itik@@ 18
verschwind@@ 18
Clinton 18
Irgendwann 18
verknü@@ 18
Begrün@@ 18
eilung 18
nervös 18
bereit. 18
graben, 18
ärz@@ 18
geteilt. 18
Höhe. 18
Gy@@ 18
Mitgefühls 18
Geographic 18
omen, 18
Kop@@ 18
ind 18
ehen? 18
kömm@@ 18
Autismus 18
Hypothese 18
genetisch 18
Journalist 18
rechnen, 18
ali 18
mäßigen 18
umpe 18
plikationen 18
die. 18
dakt@@ 18
englische 18
punkt@@ 18
soziales 18
halt. 18
modell, 18
Weltbank 18
niedriger 18
MA 18
hervorzu@@ 18
Performan@@ 18
tiefgreif@@ 18
Vaku@@ 18
Vakuum 18
flach 18
2002 18
Börsen@@ 18
steuern. 18
Olym@@ 18
akust@@ 18
dezentr@@ 18
Produktions@@ 18
fährt, 18
Ebenso 18
Versorg@@ 18
Menge, 18
Optimismus 18
Immunsystem 18
übliche 18
unsterb@@ 18
gelesen, 18
Grundsätz@@ 18
ror 18
zeugen 18
ewig 18
Antarktis 18
Antwor@@ 18
bakteri@@ 18
nomm@@ 18
warum? 18
kosmischen 18
rec@@ 18
verfolgen, 18
boli@@ 18
Synthese 18
Deutschl@@ 18
Intelligenz, 18
Gefahren 18
tigste 18
etter 18
lich." 18
ingt, 18
Schein@@ 18
Zahl. 18
Generation. 18
kehrt 18
Trennung 18
wertvoll 18
Kiste 18
sagen@@ 18
irgendwie, 18
Sterne, 18
unterschiedlicher 18
Materie, 18
Zivilisationen 18
Gesetzen 18
anwenden, 18
auswei@@ 18
tu 18
Texas 18
entheorie 18
Grafik@@ 18
bezeichnet. 18
ikan@@ 18
Letzten 18
Box@@ 18
leere 18
Spar@@ 18
gefolgt 18
effek@@ 18
schweren 18
Front 18
enzu@@ 18
Benzin@@ 18
konfrontiert 18
achtet 18
Bezir@@ 18
60er 18
umsonst 18
demonstriert 18
Südafrika, 18
CN@@ 18
fac@@ 18
Haft@@ 18
Flüchtlingsl@@ 18
fit 18
lebendi@@ 18
erweck@@ 18
con@@ 18
älen 18
Autom@@ 18
Erkenntnis, 18
eisen 18
rechts, 18
angebracht 18
inie 18
stadi@@ 18
hohem 18
visueller 18
SS: 18
versicher@@ 18
gefilm@@ 18
stoppen 18
schlimme 18
Pakistan, 18
Google, 18
schwang@@ 18
awa 18
sahen. 18
Prozentsatz 18
omin@@ 18
obere 18
Stig@@ 18
zit 18
schufen 18
Mission@@ 18
Rom 18
itär@@ 18
Klimawandel, 18
Konflikte 18
zöger@@ 18
beachten 18
Behandlung, 18
typischen 18
niedrigen 18
stellen: 18
Beginn@@ 18
kreativer 18
ers. 18
innen, 18
erstaunliches 18
Eis, 18
Neuigkeiten 18
Wunder, 18
Agnes 18
Du, 18
zoomen 18
veröffentlicht, 18
Themen, 18
Fehler. 18
verwirrt 18
tritt@@ 18
den?" 18
Lebensunterhalt 18
das: 18
weitreich@@ 18
achtung 18
vermittelt 18
ander 18
chirurg@@ 18
gezwungen 18
Spor@@ 18
Einkommen, 18
absol@@ 18
entes 18
sorgt 18
Fakult@@ 18
stands 18
notwendigen 18
anreg@@ 18
LE@@ 18
Felder 18
97 18
jegliche 18
Beck@@ 18
Symbol@@ 18
geschw@@ 18
zo@@ 18
augen@@ 18
Kogn@@ 18
Scott 18
Glücks 18
wirtschaftliches 18
Institutionen, 18
Fischer 18
Experiment. 18
sil@@ 18
heben. 18
Fische, 18
wom@@ 18
Arten@@ 18
Mol@@ 18
Völker@@ 18
Osten, 18
Spreng@@ 18
Erschaffung 18
Gro@@ 18
Schlagzeilen 18
begonnen. 18
Okt@@ 18
"Was@@ 18
i: 18
Sprich@@ 18
Verli@@ 18
ati 18
musi@@ 18
Perf@@ 18
ständig. 18
pol 18
Bauch 18
erledigt 18
überwinden 18
arabischen 18
Einkommens@@ 18
Arten. 18
metaphor@@ 18
herausfand, 18
beeinflussen, 18
ard-@@ 18
Stickstoff@@ 18
Dü@@ 18
Schweizer 18
Klang@@ 18
Hong 18
Durchbruch 18
setze 18
ader 18
Rolle, 18
"I@@ 18
mals, 18
Daniel 18
usel@@ 18
wirkt. 18
SB: 18
ausserhalb 18
Beachten 18
Alltag@@ 18
bahn@@ 18
anda 18
muse@@ 18
American 18
Voraussagen 18
put 18
Markt, 18
seltsam. 18
autom@@ 18
sinkt 18
empfindlich 18
gleit@@ 18
Kandidaten 18
Barack 18
ettr@@ 18
sucht, 18
durchgeführt, 18
unt 18
Flus@@ 18
zutret@@ 18
enschaft 18
Joh@@ 18
Reis 18
Integrit@@ 18
Management 18
Mama, 18
Artef@@ 18
Fischerei@@ 18
00. 18
Delhi 18
Elektronik 18
ers@@ 18
molekular@@ 18
Messungen 18
Papp@@ 18
Seni@@ 18
car@@ 18
kugel 18
Ek@@ 18
gered@@ 18
räte 18
Recher@@ 18
gerade. 18
Jur@@ 18
rekt 18
Objekt, 18
Erkenntnisse 18
trainiert 18
rekt@@ 18
gefalt@@ 18
T: 18
Komprom@@ 18
bereiten 18
geschaff@@ 18
Wesen. 18
Extra-Dimensionen 18
Stellt 18
Bangal@@ 18
Streifen 18
Auth@@ 18
überaus 18
IM: 18
Nollywoo@@ 18
Hefe 18
Cheryl: 18
Libellen 18
demselben 17
Chris. 17
Ausschau 17
präsi@@ 17
 @@ 17
Flugh@@ 17
freuen 17
neh@@ 17
hinzu, 17
Flut 17
Wiederhol@@ 17
ativ, 17
packen. 17
derzeitigen 17
reduzieren. 17
Isol@@ 17
Strom. 17
Wahl, 17
sorgfältig 17
herausfanden, 17
verarbeit@@ 17
Vergleich@@ 17
Allein 17
umgesetzt 17
etti@@ 17
perfekt@@ 17
Situationen, 17
Armuts@@ 17
Produkte, 17
Untersuch@@ 17
Brau@@ 17
okapit@@ 17
zusetzen 17
Notwendigkeit 17
alistischen 17
kümmern, 17
Lock@@ 17
einig 17
Reguli@@ 17
materiellen 17
Zweitens: 17
angewendet 17
Afghanistan, 17
Teils 17
brut@@ 17
ebens@@ 17
Drog@@ 17
unbekannte 17
unternehmen. 17
,5 17
rechter@@ 17
allererst 17
dsel@@ 17
geflogen 17
Renaiss@@ 17
kommerzielle 17
3000 17
ge: 17
konn@@ 17
Spielzeug 17
klus 17
Tick@@ 17
stärksten 17
zeuge, 17
gewinnt 17
60ern 17
Fähigkeiten. 17
Laut 17
Betrag 17
Zehntel 17
derzei@@ 17
wonach 17
Hierarchie 17
dienen 17
Gebrauch@@ 17
Selbst, 17
Spannung 17
Zwischen 17
iertes 17
Wahrheit. 17
Blu@@ 17
eilchen 17
knüpf@@ 17
Künstlern 17
Handgelenk 17
ehrlich, 17
Kram 17
Haut, 17
eingeschlossen 17
Tisch@@ 17
ganzer 17
Pre@@ 17
davor, 17
Kreativität. 17
DNS 17
Altern 17
Opti@@ 17
ausgehend 17
äumen. 17
Temperaturen 17
element@@ 17
Gene, 17
synthetische 17
wahl@@ 17
fügen, 17
größer, 17
Pho@@ 17
Zelle, 17
molekulare 17
fähigkeit 17
schriften 17
Foundation 17
auszul@@ 17
ufen 17
RO@@ 17
Träumen 17
Schö@@ 17
geliefer@@ 17
Software-@@ 17
technischer 17
ase, 17
"War@@ 17
gekauft. 17
drucken 17
folgt. 17
Pilot 17
nebenbei, 17
oft. 17
Uhr, 17
unterstützt, 17
rein. 17
idealen 17
werf@@ 17
Konversation 17
massen 17
Enthusias@@ 17
spek@@ 17
Oktober 17
inten@@ 17
erreg@@ 17
Finanzierung 17
Entwurf@@ 17
reagieren. 17
Tempor@@ 17
geöffnet 17
Grundstück 17
gesteuert 17
ismen 17
Kabel@@ 17
Technik@@ 17
rum. 17
90% 17
Jet@@ 17
brauchte, 17
Post 17
Fahrrad@@ 17
fürcht@@ 17
min 17
nebeneinander 17
cen 17
mod@@ 17
hiervon 17
om-@@ 17
Erkrankungen 17
veröffentlichten 17
bequ@@ 17
gen; 17
gere@@ 17
Häupt@@ 17
Davi@@ 17
studieren, 17
erwachsen@@ 17
Louis 17
fuhr, 17
Trenn@@ 17
töten, 17
beten 17
Einzige, 17
dreck@@ 17
giftigen 17
Gestern 17
oder@@ 17
lage. 17
decken 17
Hun@@ 17
mitnehmen 17
ane, 17
zusehen, 17
Mandela 17
blicken, 17
arische 17
Leidenschaft, 17
Dschung@@ 17
ensystem 17
ktes 17
Sollten 17
resist@@ 17
fragt: 17
stern 17
kasten 17
Linken 17
kauften 17
Santa 17
dest, 17
Verleg@@ 17
beschäftigen. 17
Däch@@ 17
anzieh@@ 17
acht. 17
anden. 17
anzust@@ 17
Clip 17
MR@@ 17
Kok@@ 17
entwickelte, 17
Lust@@ 17
Traditionen 17
Kraft. 17
Mustern 17
Orgasmus 17
steigt, 17
töd@@ 17
illu@@ 17
widmet 17
Nationalpar@@ 17
vorbei, 17
Anpassung 17
re? 17
Vernetz@@ 17
PA 17
Dutz@@ 17
stellen? 17
Puzz@@ 17
arren 17
akteri@@ 17
flügel@@ 17
echnologien 17
Cockt@@ 17
Sollte 17
moderner 17
Fundament@@ 17
Neig@@ 17
vorherigen 17
Planet. 17
tum 17
Haushalt 17
dist@@ 17
starb. 17
Gründen. 17
ots 17
Hit@@ 17
zigern 17
ght 17
süß 17
ergeben. 17
Cola 17
brill@@ 17
Worauf 17
ickl@@ 17
äres 17
Past@@ 17
befriedi@@ 17
Wünsche 17
wü@@ 17
füllen 17
Etik@@ 17
sprachen, 17
zep@@ 17
Kugel@@ 17
Weblog@@ 17
Banj@@ 17
Medien, 17
flach@@ 17
hinzufügen, 17
aufwuch@@ 17
Ehemann 17
wünschte, 17
Emma 17
wich 17
Hallo, 17
Heraus@@ 17
lar@@ 17
Quad@@ 17
Schließ@@ 17
Leser 17
!“ 17
geschah. 17
erwi@@ 17
umin@@ 17
dorthin, 17
begegnen 17
ersch@@ 17
een 17
rechts@@ 17
Flughafen 17
terte 17
streben 17
drängt 17
besitzt, 17
Materiali@@ 17
nimm@@ 17
Pir@@ 17
beschul@@ 17
Open-@@ 17
Wissen. 17
Dog@@ 17
Dein 17
Interfac@@ 17
egn@@ 17
disziplin@@ 17
interessiere 17
A: 17
Neugier 17
Tage. 17
Büro. 17
Mari@@ 17
Gesundheit. 17
frakt@@ 17
tut@@ 17
fühl 17
atmen. 17
gefüll@@ 17
Yeah, 17
Türen 17
Schwed@@ 17
geschnitten 17
atten@@ 17
komme, 17
TV-@@ 17
Botschaft, 17
frisch 17
brot 17
ignorieren 17
Panz@@ 17
veröffentlicht. 17
bekommen? 17
mat 17
thos 17
stadt@@ 17
1990 17
schießen. 17
aufnehmen. 17
verurteilt 17
schlimm 17
samer 17
äusch@@ 17
versus 17
markt, 17
möglichkeit 17
intelligent@@ 17
Beweis@@ 17
usw., 17
abend 17
Zeug@@ 17
asien 17
organisieren 17
Monat@@ 17
Olympischen 17
ermöglicht. 17
widerspieg@@ 17
terung 17
horizont@@ 17
onnen, 17
Transparenz 17
architekton@@ 17
Kraw@@ 17
entschied, 17
bedeuten. 17
den" 17
Leucht@@ 17
mitteln, 17
Kleider@@ 17
ello 17
halbi@@ 17
Kooperation 17
August 17
lungen, 17
dunkel@@ 17
Zweifel@@ 17
"Bitte 17
gebieten 17
Lücke 17
leichte 17
meinte, 17
Jahrhunderte 17
ierte. 17
geschlagen, 17
eranz 17
verboten 17
einstellen 17
allein. 17
wach 17
Gebiet. 17
Tier, 17
Kämpf@@ 17
Klassenzimmer 17
projizi@@ 17
Atheisten 17
kathol@@ 17
vorhanden. 17
DNA, 17
danken 17
Sätze 17
h-@@ 17
vergleichbar 17
Sei 17
Buchstab@@ 17
quäl@@ 17
molekularen 17
angesehen, 17
gelegenen 17
fis@@ 17
edes@@ 17
Terra@@ 17
Vordergrund 17
Straße. 17
Pfad 17
äden 17
n-@@ 17
pumpen 17
bedeuten, 17
Türkei 17
Armut. 17
Kontrover@@ 17
üche 17
hab's 17
freier 17
erneuerbare 17
Massachusett@@ 17
Projekts 17
plizieren 17
Griff 17
versuch@@ 17
ura@@ 17
hunderten 17
sul@@ 17
ison 17
Begrenz@@ 17
Revolution. 17
Nervenzellen 17
Langlebi@@ 17
Schädig@@ 17
Förderung 17
explo@@ 17
Algen 17
wuchsen 17
ähl@@ 17
Hawaii 17
Beine. 17
lat@@ 17
80% 17
Laser 17
widmet@@ 17
rie@@ 17
echt. 17
umkrei@@ 17
nukle@@ 17
herrscht 17
amente, 17
Herausforderung. 17
Einstein, 17
Spl@@ 17
vernachlässig@@ 17
Schaffens@@ 17
liche. 17
dürfen, 17
transportieren 17
Benutzer 17
gross 17
quivalent 17
koloni@@ 17
erfassen 17
Biologie. 17
lohnt 17
ant, 17
Wert. 17
Laser@@ 17
höl@@ 17
arten, 17
Haw@@ 17
gelegt. 17
dunk@@ 17
absoluten 17
bedeutete 17
Würfel 17
schwierigsten 17
bende 17
Maßnahmen 17
„Wie 17
Teile. 17
stelle, 17
Logi@@ 17
schwind@@ 17
zerst@@ 17
Talks 17
meister 17
Glücks@@ 17
ktion. 17
"Ver@@ 17
gingen. 17
motor 17
expor@@ 17
koenn@@ 17
lini@@ 17
Richtlinien 17
7.@@ 17
herausgestellt, 17
gewicht 17
blei@@ 17
Entscheidung@@ 17
Parks 17
zerstören. 17
Zuhaus@@ 17
gh 17
Straßen, 17
geschah@@ 17
radikale 17
verantwortungs@@ 17
Business@@ 17
Kosov@@ 17
benötigte 17
wilden 17
entworfen. 17
Umgeb@@ 17
spunk@@ 17
Nordamerika 17
Arbeitsk@@ 17
Wunsch, 17
Zufäl@@ 17
Schwein 17
schmerzen 17
Behandlung. 17
Diagn@@ 17
Rot 17
studien 17
normal. 17
klassischen 17
erschüt@@ 17
breitung 17
mann, 17
Nenn@@ 17
fesseln@@ 17
Hindernisse 17
Ozean, 17
ede 17
höre, 17
Einwohn@@ 17
hielten, 17
Grundi@@ 17
Moskitonetze 17
ausgeben 17
Universitäts@@ 17
Genie 17
entschloss 17
gesetzte 17
drüben, 17
organisieren, 17
kni@@ 17
Büros 17
Impuls 17
Well@@ 17
verhe@@ 17
verstümm@@ 17
verstand, 17
zoom@@ 17
Neigung 17
erwartet. 17
mochten 17
wahrnehmen 17
Doktor 17
Zahl, 17
Zahlen. 17
Funktionsweise 17
them@@ 17
optimistisch 17
Jä@@ 17
Spiele, 17
wisst, 17
verknüpft 17
wurzel@@ 17
Schü@@ 17
reiben 17
existieren. 17
gehören, 17
führte. 17
Bekann@@ 17
ischste 17
Eracht@@ 17
geistige 17
versteckte 17
Sah@@ 17
Zeitraff@@ 17
Syndr@@ 17
erneu@@ 17
gaben, 17
behauptet, 17
dynamische 17
verfügbar. 17
Droh@@ 17
Geor@@ 17
Golfwagen 17
erkunden 17
bedeutende 17
Fangschreck@@ 17
mithilfe 17
Sekunde, 17
Sto@@ 17
dynamisch 17
krümm@@ 17
x-@@ 17
spitzen 17
optische 17
brun@@ 17
äischen 17
Telefone 17
Belastung 17
Anhän@@ 17
Kra@@ 17
licht, 17
Fotogra@@ 17
jenigen 17
Völkermord 17
lag, 17
Hubschrau@@ 17
feg@@ 17
märkte 17
Russland, 17
Schwanger@@ 17
schott@@ 17
zieren, 17
durfte 17
Nordamerik@@ 17
Fund 17
reserv@@ 17
zulegen. 17
Ski 17
gefror@@ 17
way@@ 17
ord 17
Gewässer 17
Meer. 17
Hindernis 17
arktischen 17
Herangehens@@ 17
i-@@ 17
Kindersterblichkeit 17
Familienplan@@ 17
Bruttoin@@ 17
Werte, 17
Singap@@ 17
Gedichte 17
SIe 17
stheorie 17
ligkeit 17
unsichtbare 17
Regeln. 17
euch. 17
Macht. 17
isst 17
Atlantik 17
allen@@ 17
vul@@ 17
Kleider 17
Musikstück 17
verwor@@ 17
studierte 17
Margaret 17
kli@@ 17
Vom 17
pfei@@ 17
Hause, 17
Töne 17
Sag 17
körperlichen 17
Begeisterung 17
Verbindungen, 17
Angriffe 17
Studie, 17
Show@@ 17
Akkor@@ 17
Ziemlich 17
Erziehung 17
unterrichten 17
gänger 17
sitzt. 17
nas@@ 17
Der@@ 17
ey. 17
Mast@@ 17
motor@@ 17
a", 17
fressen 17
säule 17
Rab@@ 17
opar@@ 17
schlafen. 17
kalten 17
Wand@@ 17
Lok@@ 17
Emily 17
ethnische 17
jung@@ 17
Fic@@ 17
Garten@@ 17
Chirurg 17
Das, 17
besuchen, 17
Sklaver@@ 17
Abh@@ 17
Pestizi@@ 17
Märkten 17
Börse 17
Vater. 17
dauerhaft 17
geschn@@ 17
Netzwerken 17
Bomben 17
gelehr@@ 17
Vic@@ 17
hh@@ 17
raft 17
festzu@@ 17
umpf@@ 17
worin 17
Kennedy 17
Dörfern 17
Söh@@ 17
Batteri@@ 17
onale 17
stoßen, 17
Kondom@@ 17
Cricket@@ 17
Robotern 17
reguli@@ 17
Rituale 17
Glückskek@@ 17
brü@@ 17
kombiniert 17
Kletter@@ 17
zwangsläu@@ 17
quadri@@ 17
Rettungs@@ 17
"Wo 17
ermögli@@ 17
Carnegie 17
Premierminister 17
nuklearen 17
extra 17
Param@@ 17
Mathemat@@ 17
C: 17
schlägen 17
Colli@@ 17
wachst@@ 17
Brille 17
soli@@ 17
Meerjung@@ 17
Adop@@ 17
Friede 17
systematisch 17
PH: 17
harm@@ 17
DG: 17
Zack@@ 17
Diät 17
Av@@ 17
äugige 17
Chop 17
EE@@ 17
Elis@@ 17
Wohnwagen 17
Kh@@ 17
Rauschen 17
Ushahi@@ 17
bra 17
Ganges@@ 17
TS: 17
Milo 17
Force 16
Restauran@@ 16
's. 16
enf@@ 16
auben@@ 16
entw@@ 16
zün@@ 16
passte 16
kün@@ 16
rauszu@@ 16
Smit@@ 16
voranzu@@ 16
ökonom@@ 16
ser, 16
lohn@@ 16
ager, 16
zwölf 16
russischen 16
ave 16
elli@@ 16
Priv@@ 16
ung; 16
ände, 16
BMW 16
wasch@@ 16
0 16
vergleichen. 16
unabhängigen 16
ular 16
wahrer 16
Übrigens 16
schliesslich 16
dür@@ 16
unsichtbar 16
ama 16
Überblick 16
Pon@@ 16
cre@@ 16
singt 16
eser@@ 16
ruin@@ 16
Sty@@ 16
stoß@@ 16
Ech@@ 16
ca 16
dio 16
fronti@@ 16
zusammenarbeiten, 16
nehmer 16
schließe 16
—@@ 16
solle 16
überwinden, 16
rede, 16
geda@@ 16
Produktiv@@ 16
zukunft@@ 16
reichen, 16
ony@@ 16
Watt 16
Fettleibi@@ 16
asiat@@ 16
tiefsten 16
süch@@ 16
t's 16
zog, 16
sam, 16
Fair@@ 16
dieren 16
ess. 16
strom 16
entfer@@ 16
war's 16
ziel 16
spitz@@ 16
wandert 16
treu 16
umr@@ 16
Disney 16
Ell@@ 16
provi@@ 16
äser 16
Bess@@ 16
Abend@@ 16
he. 16
Trend@@ 16
starker 16
va@@ 16
Y 16
wissenschaftlich 16
quet@@ 16
spül@@ 16
inzi@@ 16
sprüh@@ 16
risik@@ 16
ara 16
sein: 16
Rezep@@ 16
unterbrochen 16
rock@@ 16
Kelly 16
breite 16
Evoluti@@ 16
Unterschied@@ 16
Pian@@ 16
van 16
Point 16
sy@@ 16
rauf 16
schloss 16
unge 16
genann@@ 16
Che@@ 16
ore, 16
South 16
öffent@@ 16
starteten 16
ven, 16
spreche. 16
Service 16
Hell@@ 16
zufälligen 16
Farmer 16
zweitens 16
scharfen 16
eBay 16
ness 16
Arme@@ 16
«@@ 16
Gottes@@ 16
stecken, 16
technologie 16
übersetzen 16
ents 16
anst@@ 16
unterricht@@ 16
enzen. 16
inter 16
schwank@@ 16
alls 16
net. 16
wenn, 16
Leonardo 16
aria, 16
Max@@ 16
Sony 16
au. 16
esse. 16
180 16
rick@@ 16
übrigen 16
kaufs@@ 16
oka@@ 16
beschlos@@ 16
ossen, 16
cel@@ 16
örtlichen 16
ähnlich, 16
welch 16
fro@@ 16
Front@@ 16
schneiden. 16
umher 16
sey 16
verhält 16
ßt, 16
yrint@@ 16
organisieren. 16
ymp@@ 16
ya 16
uri@@ 16
parallel 16
übertragen, 16
sho@@ 16
Einst@@ 16
sprich@@ 16
sprung 16
minist@@ 16
uns? 16
enter 16
Vat@@ 16
er" 16
Äl@@ 16
36 16
gestart@@ 16
Francis 16
ana. 16
reisen, 16
untersuch@@ 16
Billion 16
Kiber@@ 16
Mum@@ 16
zukommen 16
paar@@ 16
IR@@ 16
überwach@@ 16
liste 16
sprüch@@ 16
Link 16
verdoppelt 16
technologischen 16
prognosti@@ 16
molek@@ 16
äufe 16
all-@@ 16
Parl@@ 16
warum, 16
Ten@@ 16
derm@@ 16
offensichtlich. 16
vorder@@ 16
nov@@ 16
stoppen. 16
Joseph 16
max@@ 16
universelle 16
ota 16
gä@@ 16
Prior@@ 16
psychologische 16
insi@@ 16
wahrsten 16
ow-@@ 16
wundervoll. 16
Griff@@ 16
m: 16
Wow, 16
zukünf@@ 16
Lego 16
Neg@@ 16
Synchron@@ 16
Tin@@ 16
haupt@@ 16
sport@@ 16
Alt@@ 16
af 16
bron@@ 16
Küh@@ 16
HIV/AIDS 16
Zul@@ 16
Erdb@@ 16
verstop@@ 16
versorgt 16
unterweg@@ 16
zwass@@ 16
Moh@@ 16
Immun@@ 16
ezi@@ 16
Pizz@@ 16
Lond@@ 16
als. 16
wette, 16
Vagin@@ 16
ging@@ 16
packte 16
ve. 16
Köpf@@ 16
Pic@@ 16
Sarah 16
so... 16
Ökologie 16
Reicht@@ 16
Kopf-@@ 16
verurteil@@ 16
Ideal@@ 16
öch@@ 16
vermögen 16
zweitens, 16
verbrauchen 16
els. 16
verfein@@ 16
regionen 16
dsch@@ 16
ünkt@@ 16
Non@@ 16
Dunkel@@ 16
chene 16
Will 16
steiger@@ 16
ächte 16
änderung 16
Hero@@ 16
Augenblick@@ 16
Ärzte, 16
isten, 16
südlichen 16
v. 16
ermöglich@@ 16
siehst 16
Hus@@ 16
verteilung 16
eich 16
ene. 16
sichtbare 16
Weißt 16
reagi@@ 16
/ 16
Experim@@ 16
selbstverständ@@ 16
zau@@ 16
sendet 16
seitige 16
1: 16
ter: 16
lied 16
Evan 16
stattfinden 16
tiefgrün@@ 16
unterricht 16
weißer 16
Mich@@ 16
ain 16
pern 16
Inf@@ 16
anthrop@@ 16
Sus@@ 16
Urban@@ 16
konsu@@ 16
rekonstru@@ 16
Bay 16
Stewart 16
sun@@ 16
greich@@ 16
Zap@@ 16
Obam@@ 16
30, 16
Ur-@@ 16
Auton@@ 16
Mech@@ 16
aver@@ 16
ven. 16
Space 16
ky 16
visuell 16
schüs@@ 16
steckten 16
veröffentlichte 16
Acc@@ 16
zählt. 16
Murray 16
elo@@ 16
kind@@ 16
o." 16
Jas@@ 16
gets 16
Antibiotik@@ 16
untereinander 16
Klimawandel@@ 16
verbunden, 16
gang, 16
Tat@@ 16
Cassini 16
ester@@ 16
behin@@ 16
tot, 16
Carl@@ 16
Tiger 16
Mitgefühl@@ 16
Kol@@ 16
Eames 16
jün@@ 16
Barr@@ 16
Coll@@ 16
stimmi@@ 16
AIMS 16
Brooklyn 16
chil@@ 16
da?" 16
computer@@ 16
üben. 16
Dimit@@ 16
Sook 16
Natasha 16
pfeil@@ 16
Ind@@ 16
Abraham 16
NM: 16
Marshmall@@ 16
Ivan 16
mak@@ 15
student@@ 15
ace 15
rei 15
zel 15
Kuh@@ 15
atte. 15
1945 15
wenn@@ 15
rus@@ 15
Blue 15
eck, 15
erkun@@ 15
cool, 15
weib@@ 15
Pazifi@@ 15
Gene. 15
1995 15
4.000 15
ack, 15
DP: 15
w! 15
gekauf@@ 15
Ax@@ 15
Restaurant@@ 15
aku@@ 15
tick@@ 15
Norman 15
Konvers@@ 15
Square 15
sport 15
Poliz@@ 15
Na@@ 15
Videospi@@ 15
Einzi@@ 15
pren@@ 15
1991 15
Roots 15
Pur@@ 15
Lung@@ 15
differenzi@@ 15
gewiss@@ 15
DE@@ 15
trivi@@ 15
L.A. 15
genü@@ 15
Bern@@ 15
neuron@@ 15
Ted 15
Bed@@ 15
gers 15
Shakespeare 15
Luc@@ 15
Atlanta 15
Herausforder@@ 15
kil@@ 15
olli@@ 15
Star 15
gelegen@@ 15
demo@@ 15
inn 15
-t@@ 15
Blogger 15
by 15
900 15
Q 15
Kandi@@ 15
ino 15
re-@@ 15
audi@@ 15
Top 15
com@@ 15
modern@@ 15
Gil@@ 15
totale 15
Tok@@ 15
unker 15
umindest 15
griff 15
ophi@@ 15
Interessant@@ 15
talent@@ 15
Är@@ 15
allgem@@ 15
d? 15
identi@@ 15
ache, 15
beteili@@ 15
Pentag@@ 15
issi@@ 15
": 15
Ken 15
gespro@@ 15
Buddha 15
sth@@ 15
sied@@ 15
blu@@ 15
26@@ 15
falt@@ 15
enschaf@@ 15
fair 15
2050 15
Hinder@@ 15
diejen@@ 15
presse 15
Bush-@@ 15
mom@@ 15
aturi@@ 15
aube 15
Vereinig@@ 15
vere 15
ever@@ 15
allo. 15
brasili@@ 15
iere. 15
pend@@ 15
Ausr@@ 15
program@@ 15
Arch@@ 15
intr@@ 15
visi@@ 15
rieben 15
perman@@ 15
code 15
ografi@@ 15
seri@@ 15
Wu@@ 15
ogn@@ 15
East 15
enny 15
Vietnam 15
Mississi@@ 15
ähen 15
etro@@ 15
300.000 15
Impul@@ 15
Pist@@ 15
Iran, 15
Serge@@ 15
Ron 15
arl@@ 15
mati@@ 15
Map@@ 15
K. 15
Sem@@ 15
Mountain@@ 15
vergangen@@ 15
V-@@ 15
Susan 15
K-@@ 15
Bitt@@ 15
Sig@@ 15
änz@@ 15
Rachel 15
T. 15
negative 15
Jes@@ 15
Send@@ 15
pos@@ 15
Normal@@ 15
etc@@ 15
oris 15
Blickwink@@ 15
Ny@@ 15
Panbanisha 15
bole 15
itik 15
Indon@@ 15
nord@@ 15
.000. 15
ete: 15
Pran@@ 15
Acumen 15
rey 15
ende. 15
Nobel@@ 15
du. 15
ekt 15
Zeh@@ 15
ambur@@ 15
Cro@@ 15
Maßst@@ 15
Adam@@ 15
person 15
dom 15
pazi@@ 15
Williams 15
Darwin@@ 15
Avel@@ 15
mem@@ 15
M. 15
Schnei@@ 15
zügi@@ 15
Contr@@ 15
co 15
8-@@ 15
bb@@ 15
ossi@@ 15
SET@@ 15
iPh@@ 15
Brig@@ 15
Schlagzei@@ 15
Thula 15
Pink@@ 15
ada, 15
virtu@@ 15
kk@@ 15
gehab@@ 15
genu@@ 15
70@@ 15
Stanfor@@ 15
arit@@ 15
ose. 15
Jill@@ 15
30. 15
&amp;@@ 15
ook 15
ron 15
Luther 15
grov@@ 15
amour@@ 15
ZK: 15
KS: 15
« 15
gavi@@ 15
angiogen@@ 15
was@@ 14
Clint@@ 14
rag 14
ino@@ 14
lei 14
hr 14
Lit@@ 14
Auswirk@@ 14
HIV. 14
enze 14
Wirt@@ 14
industrie. 14
Hop@@ 14
apit@@ 14
d'@@ 14
durchschnitt@@ 14
mobil@@ 14
modelle 14
getest@@ 14
Gle@@ 14
Apollo 14
Henry 14
assen. 14
wow, 14
Las 14
Carl 14
1,3 14
esam@@ 14
ado@@ 14
enze, 14
alte, 14
emente 14
tempor@@ 14
e' 14
1950 14
5% 14
emo@@ 14
Boul@@ 14
Report@@ 14
olly 14
450 14
spor@@ 14
Erkrank@@ 14
iv@@ 14
T-S@@ 14
ändert. 14
ds, 14
cu@@ 14
GPS 14
Resp@@ 14
verzweifel@@ 14
säu@@ 14
vergi@@ 14
vat@@ 14
elimin@@ 14
ämm@@ 14
cer 14
Disne@@ 14
fru@@ 14
Haf@@ 14
Dop@@ 14
artik@@ 14
Versch@@ 14
ext@@ 14
angl@@ 14
oton@@ 14
onik 14
boo@@ 14
off 14
Glu@@ 14
Francisco. 14
Bruce 14
ail 14
hack@@ 14
versit@@ 14
Goul@@ 14
ril@@ 14
e!" 14
wichti@@ 14
Tom@@ 14
Ihr@@ 14
obi@@ 14
Fantast@@ 14
Ral@@ 14
Astr@@ 14
O-@@ 14
.org 14
ellen@@ 14
vergewal@@ 14
Erinn@@ 14
innovative 14
Cont@@ 14
web@@ 14
eist@@ 14
fett@@ 14
DN@@ 14
embr@@ 14
motiv@@ 14
250.000 14
Hock@@ 14
bus 14
Kompl@@ 14
amente. 14
tor 14
ini 14
Gam@@ 14
Lav@@ 14
Sudhir 14
McDonald's 14
nehmer@@ 14
Therapi@@ 14
rott@@ 14
emente, 14
ari 14
1994 14
fut@@ 14
Levi@@ 14
ministr@@ 14
verhin@@ 14
roh@@ 14
46 14
han 14
biot@@ 14
ela 14
keni@@ 14
aby@@ 14
fizieren 14
iPo@@ 14
ex, 14
Ret@@ 14
Revol@@ 14
Katastrop@@ 14
ine@@ 14
Mes@@ 14
einzi@@ 14
egori@@ 14
quisi@@ 14
E. 14
se? 14
Berechn@@ 14
oret@@ 14
feh@@ 14
Cameron 14
ing: 14
rel 14
140 14
dan 14
ppe. 14
schlos@@ 14
chest@@ 14
spektiv@@ 14
ekten 14
Montana 14
Alab@@ 14
TEDGlobal 14
abilit@@ 14
h" 14
ward 14
"Wow, 14
Nike 14
Mobile 14
verläs@@ 14
epi@@ 14
100% 14
It@@ 14
Live 14
Bart@@ 14
ami, 14
signifi@@ 14
Kit@@ 14
Great 14
pe@@ 14
hor@@ 14
ala, 14
nell@@ 14
Project 14
wählt 14
ry 14
NI@@ 14
Shar@@ 14
Program@@ 14
Inner@@ 14
schied 14
energie, 14
ign@@ 14
Oh. 14
omateri@@ 14
bbl@@ 14
fa 14
Tan@@ 14
Könn@@ 14
Ed 14
sam. 14
Hawai@@ 14
vin 14
Ren@@ 14
strum@@ 14
Philadelphi@@ 14
per, 14
esie, 14
ah! 14
15, 14
Master 14
Mob@@ 14
edr@@ 14
Wood@@ 14
ye@@ 14
ams 14
Brid@@ 14
K: 14
P. 14
För@@ 14
manifest@@ 14
Amster@@ 14
Berkeley 14
op 14
interagier@@ 14
diplomat@@ 14
tus 14
Pittsburgh 14
exu@@ 14
Hühn@@ 14
Show. 14
Magazine 14
itte 14
archie 14
Zau@@ 14
ri 14
110 14
Rose 14
Diplom@@ 14
keln 14
Hoff@@ 14
‟ 14
rib@@ 14
Brother@@ 14
Virgin 14
gespiel@@ 14
ong 14
Schwef@@ 14
"Wo@@ 14
Colum@@ 14
Teszler 14
kle@@ 14
Sobule: 14
Teles@@ 14
Christopher 14
TV 14
sugger@@ 14
einstimm@@ 14
eim@@ 14
Nug@@ 14
figur@@ 14
Stev@@ 14
Dan@@ 14
Julian 14
Hai 14
heh, 14
Sergio 14
E8 14
Grace 14
Facebo@@ 14
Beck 14
Galva@@ 14
TD: 14
Connect@@ 14
eme 13
brid@@ 13
ory 13
Janu@@ 13
len@@ 13
ici@@ 13
Demok@@ 13
ror@@ 13
Extra@@ 13
dach@@ 13
Tyrann@@ 13
ystem 13
Spac@@ 13
sexy 13
Moore 13
Venter 13
00, 13
Pog@@ 13
Head@@ 13
alog 13
oft@@ 13
ard. 13
arte 13
CB@@ 13
State 13
Ot@@ 13
partner 13
Zerstör@@ 13
ology 13
ard, 13
Aven@@ 13
AIDS, 13
Leak@@ 13
Beschei@@ 13
lo 13
44 13
hek 13
Hypoth@@ 13
esist@@ 13
Herbie 13
za 13
Richard, 13
Wrigh@@ 13
Simon 13
Fis@@ 13
!", 13
press@@ 13
knü@@ 13
Corn@@ 13
Kay 13
wart, 13
Schalt@@ 13
%, 13
8.@@ 13
Club 13
Herb@@ 13
Ted@@ 13
96 13
Argent@@ 13
nar@@ 13
welch@@ 13
Fro@@ 13
Wit@@ 13
Que@@ 13
Van 13
näh@@ 13
grü@@ 13
2015 13
Web. 13
Linux 13
Serv@@ 13
cr@@ 13
ingu@@ 13
deutlich@@ 13
Seth 13
Direc@@ 13
day 13
dustri@@ 13
Schreibt@@ 13
Chicag@@ 13
interne 13
regionale 13
sik@@ 13
= 13
Tho@@ 13
sequ@@ 13
buchstäb@@ 13
ca@@ 13
unterbro@@ 13
mente 13
Smo@@ 13
Joy@@ 13
zeichnungen 13
wan 13
inien 13
Lama 13
Tibet 13
onnen 13
Ani@@ 13
1/@@ 13
Work@@ 13
vil@@ 13
30% 13
Wis@@ 13
Rio 13
‘ 13
Armstrong 13
‚@@ 13
Wik@@ 13
raff@@ 13
ren. 13
Änder@@ 13
nie, 13
logarit@@ 13
Molek@@ 13
eber@@ 13
Abhängi@@ 13
Negroponte 13
pert 13
abi@@ 13
l'@@ 13
entlichen 13
Diag@@ 13
Alexand@@ 13
ren, 13
ó@@ 13
Lay@@ 13
Hawking 13
ardi@@ 13
Neil 13
ganis@@ 13
isa 13
Dave 13
aer@@ 13
13. 13
prom@@ 13
wasserst@@ 13
Riverside 13
ical 13
Katrina 13
Kosovo 13
künf@@ 13
Dev@@ 13
Prax@@ 13
Exxon 13
0.000 13
ünsch@@ 13
15.000 13
My 13
ome. 13
Ambul@@ 13
okus@@ 13
–@@ 13
Rock 13
Himalay@@ 13
1970 13
Insi@@ 13
Fili@@ 13
ally 13
Digital 13
erlei 13
appy 13
ez 13
Allig@@ 13
Tut@@ 13
?” 13
Royal 13
beträ@@ 13
Warren 13
Net@@ 13
Gan@@ 13
otto 13
brillante 13
quote 13
noti@@ 13
Gli@@ 13
il. 13
U.S.@@ 13
elef@@ 13
Walter 13
Dienstleist@@ 13
Som@@ 13
Ruanda, 13
laub@@ 13
Alber@@ 13
halts@@ 13
gru@@ 13
"Be@@ 13
ahr 13
simul@@ 13
Navi@@ 13
deb@@ 13
Kindersterb@@ 13
riti@@ 13
arab@@ 13
icht@@ 13
ot, 13
Ahn@@ 13
Z 13
Sz@@ 13
3: 13
Bü@@ 13
Flick@@ 13
ID@@ 13
42 13
Anth@@ 13
kut@@ 13
IDEO 13
Intel 13
lam@@ 13
Arkans@@ 13
Urheb@@ 13
Carb@@ 13
Americ@@ 13
masse, 13
rosa 13
stelle. 13
Willi@@ 13
a! 13
ata 13
Ronald 13
Ly@@ 13
"Mam@@ 13
Weib@@ 13
nitten 13
demie 13
Bestech@@ 13
Pier@@ 13
mani@@ 13
7.000 13
son: 13
Gat@@ 13
Image 13
yo@@ 13
Papa 13
atsäch@@ 13
ktis 13
Ok? 13
hai 13
Thin@@ 13
Sweeney: 13
Hemisphä@@ 13
respon@@ 13
ect@@ 13
amide 13
70.000 13
Zone 13
fine 13
Isaac 13
mm, 13
topi@@ 13
Harl@@ 13
Furb@@ 13
blü@@ 13
ver: 13
Aimee 13
Tamiflu 13
agn@@ 13
Langley 13
Pakist@@ 13
Maitre@@ 13
Dubai 13
Nash@@ 12
Tenness@@ 12
Atlanti@@ 12
W 12
bran@@ 12
Potenti@@ 12
Verwend@@ 12
e,@@ 12
ok 12
strategi@@ 12
inf@@ 12
um: 12
tort@@ 12
12. 12
ghan@@ 12
Fähig@@ 12
Dien@@ 12
Shi@@ 12
One 12
renz@@ 12
Automo@@ 12
Chev@@ 12
1996 12
ff, 12
k" 12
Scherz@@ 12
tei@@ 12
intellig@@ 12
pit@@ 12
attra@@ 12
resp@@ 12
demon@@ 12
%@@ 12
Pepsi 12
Good@@ 12
Florida 12
Gand@@ 12
va 12
ada. 12
Boy@@ 12
Alzhei@@ 12
Skelettmus@@ 12
ste@@ 12
Eli@@ 12
test. 12
Servic@@ 12
Bilba@@ 12
Charlie 12
ob, 12
loy@@ 12
ves 12
Ov@@ 12
H. 12
cy@@ 12
mord 12
Immuns@@ 12
II@@ 12
ee, 12
venti@@ 12
DD@@ 12
s! 12
ensatz 12
ogg@@ 12
Gau@@ 12
Societ@@ 12
rug@@ 12
Virginia 12
Galileo 12
Christi@@ 12
darüber@@ 12
Guardi@@ 12
Abu 12
J 12
forn@@ 12
uk@@ 12
anne, 12
eh, 12
Lov@@ 12
lamp@@ 12
ce" 12
strategie 12
eo@@ 12
evit@@ 12
hig@@ 12
ul 12
tra 12
"Hey 12
zone 12
Buff@@ 12
befest@@ 12
"So 12
Hüt@@ 12
Flor@@ 12
Tai@@ 12
Bre@@ 12
Sad@@ 12
Kim 12
asst 12
Marin@@ 12
Übri@@ 12
5.@@ 12
Disco@@ 12
Seattle 12
ling. 12
Alp@@ 12
Alex 12
RNA 12
bai 12
Situ@@ 12
Zel@@ 12
Jimm@@ 12
Wikipedia, 12
erry 12
Red 12
Kooper@@ 12
för@@ 12
SARS 12
49 12
ane. 12
ume 12
Green 12
sell 12
poth@@ 12
o" 12
Notwen@@ 12
Trag@@ 12
Budd@@ 12
Bill@@ 12
Sir@@ 12
Natür@@ 12
Reihen@@ 12
Teilchen@@ 12
van@@ 12
0.@@ 12
gas 12
dra@@ 12
linien 12
Andrew 12
Pennsylvania 12
Stau@@ 12
1,2 12
12.000 12
Shangha@@ 12
Adi@@ 12
revol@@ 12
mie 12
utig 12
David, 12
besti@@ 12
star 12
virale 12
Graham 12
Heut@@ 12
Tsun@@ 12
intellektu@@ 12
Ric@@ 12
uro 12
oto 12
kes 12
enber@@ 12
Geschi@@ 12
wachsene 12
Clar@@ 12
super 12
Fron@@ 12
add@@ 12
Einkomm@@ 12
he, 12
Bollywoo@@ 12
dag@@ 12
Russl@@ 12
Austr@@ 12
frequ@@ 12
sog@@ 12
ci 12
3,5 12
pil@@ 12
Bah@@ 12
foo@@ 12
kop 12
R-@@ 12
buchst@@ 12
Grön@@ 12
Dir@@ 12
Rosling 12
do, 12
ham 12
ton, 12
Stäm@@ 12
ähig@@ 12
tasche 12
Kong 12
² 12
stock 12
gin@@ 12
alist 12
aa@@ 12
aster@@ 12
Nev@@ 12
algorit@@ 12
D.C. 12
elev@@ 12
dor 12
Agr@@ 12
Encel@@ 12
Ok@@ 12
Botsw@@ 12
Äg@@ 12
stag 12
dafrik@@ 12
pakist@@ 12
Manu@@ 12
Höhe@@ 12
Ta@@ 12
Tig@@ 12
relative 12
robot@@ 12
Math@@ 12
Oh@@ 12
rank 12
ensetz@@ 12
dal 12
param@@ 12
ese. 12
Glüh@@ 12
Han@@ 12
Urugu@@ 12
Tesz@@ 12
Ras@@ 12
Pun@@ 12
it. 12
Zentim@@ 12
Mah@@ 12
Hadron 12
LH@@ 12
Dinosau@@ 12
Alaska 12
tal@@ 12
Ple@@ 12
awatt 12
D: 12
BL: 12
ñ@@ 12
refl@@ 12
Kohlendioxi@@ 12
Galois 12
itra 12
Vivi@@ 12
CP: 12
Independent 12
iet@@ 11
'" 11
fossi@@ 11
Finanzi@@ 11
qualität 11
Inde@@ 11
Boein@@ 11
zwöl@@ 11
56 11
orbit@@ 11
Prest@@ 11
BM@@ 11
itu@@ 11
IBM 11
team 11
ument@@ 11
Cany@@ 11
Cat@@ 11
Galapagos 11
zenten 11
radio@@ 11
arma@@ 11
2000. 11
Micros@@ 11
Window@@ 11
forschen 11
Trade 11
Hud@@ 11
erfol@@ 11
York@@ 11
ondere 11
umwelt@@ 11
Verbesser@@ 11
steig@@ 11
25.000 11
2/@@ 11
umpen 11
non@@ 11
Island, 11
bombar@@ 11
vest@@ 11
intuiti@@ 11
y? 11
qui@@ 11
jam@@ 11
Shakespe@@ 11
Mary 11
Gemäl@@ 11
Begeister@@ 11
mentale 11
76 11
alli@@ 11
Schlüs@@ 11
husi@@ 11
Hillis 11
Dawkins 11
terweise 11
Hein@@ 11
Howar@@ 11
Ox@@ 11
125 11
DR@@ 11
plast@@ 11
.or@@ 11
Zeitschri@@ 11
Harri@@ 11
UF@@ 11
Kepl@@ 11
rann@@ 11
Eart@@ 11
Conn@@ 11
Ill@@ 11
AM@@ 11
op. 11
parti@@ 11
summ@@ 11
Ross 11
Lynn 11
eler@@ 11
Os@@ 11
McDonald'@@ 11
Park, 11
300@@ 11
standard 11
Pati@@ 11
ged@@ 11
ea, 11
Transpar@@ 11
ona 11
Bank, 11
Starbuck@@ 11
.000, 11
Sud@@ 11
ish@@ 11
athan 11
ada 11
ian 11
F. 11
Berlin@@ 11
aqu@@ 11
ash 11
Dennett 11
Nav@@ 11
aka@@ 11
Istan@@ 11
ando 11
Wikipedi@@ 11
rout@@ 11
Pazi@@ 11
22. 11
20% 11
tast@@ 11
diag@@ 11
aria. 11
mini@@ 11
rie 11
"Ok, 11
fotogra@@ 11
Skyp@@ 11
Din@@ 11
vog@@ 11
impl@@ 11
verur@@ 11
52 11
hek@@ 11
Rit@@ 11
sky 11
wärmung 11
ulare 11
Roger 11
lineare 11
Yves 11
ita@@ 11
gam@@ 11
Toyota 11
Detro@@ 11
km. 11
Toy@@ 11
Ethan@@ 11
milit@@ 11
dow@@ 11
gesund@@ 11
Emer@@ 11
betei@@ 11
li, 11
Allen 11
Banglades@@ 11
Nive@@ 11
atember@@ 11
Sympt@@ 11
FDA 11
migr@@ 11
Aller@@ 11
elektro@@ 11
150.000 11
aste 11
O. 11
Jerry 11
retro@@ 11
Erlaub@@ 11
Hospit@@ 11
Vik@@ 11
Kaliforni@@ 11
unaus@@ 11
gebau@@ 11
y", 11
ico 11
oy@@ 11
gradu@@ 11
dar 11
73 11
Ann 11
Micha@@ 11
tens: 11
ity 11
Wal-@@ 11
mond 11
Bin 11
Oxford, 11
Squ@@ 11
) 11
83 11
92 11
Aufl@@ 11
Bush. 11
Bott@@ 11
Stan@@ 11
Pac@@ 11
appell@@ 11
ing" 11
ero 11
air@@ 11
gran@@ 11
scherz@@ 11
emis@@ 11
Tansan@@ 11
neb@@ 11
Instituti@@ 11
assung 11
Pink 11
Hekt@@ 11
ita 11
fund@@ 11
O, 11
Sri 11
Weltbevölker@@ 11
rigi@@ 11
test, 11
fat@@ 11
urop@@ 11
graf@@ 11
onder@@ 11
Virgini@@ 11
Dougl@@ 11
uchs@@ 11
ule 11
Bestand@@ 11
Baust@@ 11
38 11
160 11
Super 11
Spo@@ 11
Beschreib@@ 11
Bev@@ 11
otter@@ 11
Natalie 11
agnost@@ 11
eden 11
Bost@@ 11
ovi@@ 11
Full@@ 11
intu@@ 11
Kalori@@ 11
Ep@@ 11
Law@@ 11
moment@@ 11
ektr@@ 11
Geometri@@ 11
Explor@@ 11
more 11
Alex@@ 11
Direkt@@ 11
omos@@ 11
Michig@@ 11
sonni@@ 11
Schä@@ 11
näm@@ 11
präz@@ 11
ruhig@@ 11
Roosev@@ 11
Kik@@ 11
sichtlich 11
Eig@@ 11
BB@@ 11
stern@@ 11
Zimbabw@@ 11
Journal 11
pac@@ 11
Patric@@ 11
Ethi@@ 11
E.@@ 11
Nov@@ 11
fo@@ 11
gramm@@ 11
Metapher@@ 11
traum@@ 11
klear@@ 11
Charli@@ 11
eda 11
Andy 11
elli 11
YouTu@@ 11
E, 11
virus 11
sbur@@ 11
fusi@@ 11
Bhutan 11
andau@@ 11
mec@@ 11
Schwefel@@ 11
quadrat@@ 11
traum 11
ebr@@ 11
Conserv@@ 11
Robic@@ 11
eso@@ 11
Oprah 11
ühm@@ 11
illa 11
Laut@@ 11
Benjam@@ 11
McLu@@ 11
.: 11
spon@@ 11
video 11
orie, 11
ähle 11
Parkinson 11
Barbi@@ 11
efl@@ 11
liberale 11
Was@@ 11
RC@@ 11
"I 11
Nicole: 11
Hunt@@ 11
lou@@ 11
AL@@ 11
Rory 11
alog@@ 11
Dallas 11
Penn@@ 11
Lincol@@ 11
autor@@ 11
sych@@ 11
UCL@@ 11
emo 11
Khmer 11
JP@@ 11
PR: 11
Jab@@ 11
DL: 11
ultraviol@@ 11
And@@ 11
ingsu@@ 11
JC: 11
utu@@ 11
Hul@@ 11
Divi@@ 11
Facebook 11
Benki 11
Schwarzschil@@ 11
Browne 11
utz 10
Amy 10
ava 10
Berkel@@ 10
ia. 10
amt@@ 10
gens, 10
egoist@@ 10
sab@@ 10
AG: 10
Gebr@@ 10
Sputni@@ 10
Bez@@ 10
Dopp@@ 10
manag@@ 10
re." 10
Tay@@ 10
studio 10
equ@@ 10
Eb@@ 10
cus 10
oxi@@ 10
Reagan 10
hop 10
Ord@@ 10
Hawk@@ 10
stec@@ 10
Buil@@ 10
Bedar@@ 10
Rockef@@ 10
Atlant@@ 10
Kamen 10
ue, 10
?' 10
Pep@@ 10
Lebew@@ 10
Nancy 10
ative. 10
lust 10
cin@@ 10
Saul 10
woo@@ 10
burg 10
azz@@ 10
limit@@ 10
Elec@@ 10
India 10
verfol@@ 10
elast@@ 10
fä@@ 10
cast@@ 10
wart 10
angewand@@ 10
Tenden@@ 10
auto 10
com 10
Angeles. 10
100, 10
Sout@@ 10
erie. 10
Maria 10
ee@@ 10
Reli@@ 10
di, 10
3,7 10
Tul@@ 10
Ghrai@@ 10
perim@@ 10
lett@@ 10
Amazon 10
Nap@@ 10
höch@@ 10
abbi@@ 10
beschäf@@ 10
Neugi@@ 10
ante. 10
opol@@ 10
ektu@@ 10
ap 10
Wilson 10
Street@@ 10
rapi@@ 10
Jackson 10
otball@@ 10
evi@@ 10
agon@@ 10
Tenn@@ 10
ora, 10
Guatem@@ 10
Calt@@ 10
mittelt 10
rigor@@ 10
Nairo@@ 10
Gandhi 10
bi 10
‘@@ 10
Sul@@ 10
Mumba@@ 10
ez@@ 10
31 10
Dou@@ 10
400@@ 10
Madag@@ 10
170 10
reste 10
Stun@@ 10
Minnes@@ 10
cor@@ 10
peri@@ 10
U-B@@ 10
ley, 10
get 10
lob@@ 10
AB@@ 10
H, 10
bos@@ 10
ak, 10
ori 10
azz 10
set 10
zona 10
57 10
kw@@ 10
implement@@ 10
City, 10
Chan@@ 10
ppi 10
Mäd@@ 10
umanit@@ 10
oping 10
clin@@ 10
out@@ 10
Batter@@ 10
elem@@ 10
News 10
chirur@@ 10
find@@ 10
esp@@ 10
GPHIN 10
Gapmin@@ 10
186@@ 10
schliess@@ 10
Glenn 10
ce@@ 10
itiv@@ 10
profess@@ 10
Aka@@ 10
Gilli@@ 10
Proj@@ 10
chter, 10
allo 10
Herkun@@ 10
Wi-F@@ 10
ara. 10
regu@@ 10
Bonobo 10
Kanzi 10
omatopo@@ 10
Roy 10
feder@@ 10
feste 10
omp@@ 10
antast@@ 10
wachsen@@ 10
atu@@ 10
kür@@ 10
tende 10
Kro@@ 10
vietnam@@ 10
ia, 10
Okto@@ 10
Sci@@ 10
otte 10
pilo@@ 10
Everest. 10
Novograt@@ 10
Jacqueline 10
Harv@@ 10
Moskitonetz@@ 10
Wall 10
Lank@@ 10
Coun@@ 10
MacCread@@ 10
+ 10
moti@@ 10
TR: 10
a". 10
orie. 10
hirl@@ 10
nd 10
Sun@@ 10
list@@ 10
let@@ 10
ado 10
Glühbir@@ 10
Johnn@@ 10
eflyer's 10
predi@@ 10
ore. 10
"; 10
hot@@ 10
8.000 10
Stal@@ 10
hyth@@ 10
Satell@@ 10
mur@@ 10
ele, 10
Carolyn 10
Parkin@@ 10
ano 10
porte 10
tum@@ 10
depon@@ 10
codi@@ 10
sfor@@ 10
um? 10
Nigeria. 10
Rap@@ 10
anch@@ 10
konfron@@ 10
separate 10
sagt@@ 10
Andre@@ 10
ove 10
Bay@@ 10
frit@@ 10
Buckminster 10
H5N1 10
Meeresspieg@@ 10
pf 10
teles@@ 10
188@@ 10
ki 10
Gell-@@ 10
chiat@@ 10
Temberer@@ 10
egi@@ 10
agu@@ 10
AA@@ 10
vet@@ 10
Kent@@ 10
cop@@ 10
Ess@@ 10
Gary 10
Elean@@ 10
Flüchtling@@ 10
Sam 10
genet@@ 10
diri@@ 10
Pres@@ 10
HIV, 10
amente 10
bai@@ 10
Myhrvol@@ 10
erec@@ 10
Princet@@ 10
randomi@@ 10
Len 10
She@@ 10
abyte 10
Warner 10
Power 10
"Mamma, 10
ga 10
Schwefelwasserst@@ 10
Jac@@ 10
Nix@@ 10
risi@@ 10
div@@ 10
RISD 10
Skycar 10
format@@ 10
cul@@ 10
Georgetow@@ 10
Rockett@@ 10
» 10
Allo@@ 10
ecca 10
R.S.: 10
Barmherzi@@ 10
unit@@ 10
Corexit 10
restau@@ 9
Monterey, 9
fristig 9
Schick@@ 9
gewandel@@ 9
nomin@@ 9
Demokrat@@ 9
Eng@@ 9
äb@@ 9
Universität@@ 9
bili@@ 9
We@@ 9
Bang@@ 9
Michel@@ 9
und-@@ 9
quanti@@ 9
ville, 9
emat@@ 9
que 9
CD 9
Windows 9
Septem@@ 9
Sco@@ 9
500.000 9
95% 9
BO@@ 9
zin 9
Gom@@ 9
Mahatma 9
Verzwei@@ 9
bol@@ 9
bibliot@@ 9
ellei@@ 9
Attra@@ 9
Gehry 9
de?" 9
Cla@@ 9
äfte 9
fter 9
a; 9
Orgas@@ 9
esti@@ 9
anna 9
Effizi@@ 9
Nami@@ 9
I, 9
Stanley 9
Mozart 9
White 9
Gemü@@ 9
Preg@@ 9
Grey 9
Univers@@ 9
78 9
meg@@ 9
ept@@ 9
seu@@ 9
Corpor@@ 9
ens: 9
riel 9
Bono 9
ingst@@ 9
amera 9
ES@@ 9
Cham@@ 9
zugän@@ 9
insk@@ 9
Fri@@ 9
.com. 9
Philosoph@@ 9
Greg 9
Lyn@@ 9
Tokyo 9
stitu@@ 9
Nord 9
jeden@@ 9
Washington. 9
Chicago. 9
ohn 9
400.000 9
Angeles, 9
Francisco, 9
6,@@ 9
uck 9
ell-@@ 9
SysAd@@ 9
oi 9
Valde@@ 9
Pakistan. 9
Village 9
Vill@@ 9
Cric@@ 9
Linus 9
DNA. 9
Lawrence 9
Frankl@@ 9
RN@@ 9
ow, 9
Marshall 9
Nir@@ 9
gri@@ 9
bag@@ 9
ute, 9
Wiki@@ 9
ica, 9
enze. 9
sistor 9
Robot@@ 9
plo@@ 9
Lebenserwart@@ 9
pro-@@ 9
jährig@@ 9
Schli@@ 9
Geographic@@ 9
Auflös@@ 9
"] 9
Übertrag@@ 9
appen@@ 9
ham, 9
kommuni@@ 9
HI@@ 9
Jennifer 9
G, 9
re: 9
rete 9
kodi@@ 9
Stefan 9
Tru@@ 9
ueb@@ 9
pak@@ 9
ic, 9
spanne 9
ub@@ 9
Bronx 9
ole@@ 9
eman 9
elen@@ 9
einand@@ 9
Greenpeace 9
beob@@ 9
pfer 9
Worldchanging@@ 9
4.@@ 9
Ohi@@ 9
Barry 9
Aravin@@ 9
U, 9
edy 9
perio@@ 9
Act 9
getro@@ 9
wahrhaf@@ 9
CO@@ 9
Company, 9
trover@@ 9
iste 9
ausi@@ 9
empi@@ 9
scheinend 9
fond@@ 9
irre@@ 9
sourc@@ 9
low 9
äten 9
Geschichten@@ 9
gion@@ 9
Hyderab@@ 9
go. 9
Eduardo 9
eo 9
Jacqu@@ 9
Econ@@ 9
genom@@ 9
abit@@ 9
Bosni@@ 9
hauptsäch@@ 9
ingl@@ 9
TA@@ 9
qualit@@ 9
Sween@@ 9
dot@@ 9
Had@@ 9
atell@@ 9
Länder@@ 9
denz@@ 9
Deng 9
Domin@@ 9
interesse 9
glori@@ 9
otteri@@ 9
hieu 9
parad@@ 9
Oliver 9
pur@@ 9
J. 9
sm@@ 9
Central 9
ähne 9
X, 9
Bell@@ 9
Carolina 9
Trock@@ 9
Dot@@ 9
.com, 9
Edison 9
anda. 9
Walker 9
up. 9
Goog@@ 9
bril@@ 9
ey: 9
Millenni@@ 9
ence 9
fic 9
Servi@@ 9
alle@@ 9
wai@@ 9
Dieg@@ 9
lieb 9
Lind@@ 9
atrice 9
John, 9
ti 9
Sut@@ 9
rap@@ 9
Speci@@ 9
ote. 9
mage 9
awi@@ 9
Florida, 9
Tes@@ 9
Ernest 9
Laurie 9
Ori@@ 9
Cy@@ 9
Global 9
ätze 9
ba. 9
O'@@ 9
16, 9
"An@@ 9
Unternehm@@ 9
etzt, 9
Gran@@ 9
num@@ 9
ensei@@ 9
matri@@ 9
vey 9
35.000 9
E-Ma@@ 9
Anton@@ 9
Cheet@@ 9
überhau@@ 9
zwanzi@@ 9
Ful@@ 9
Orient@@ 9
elbe 9
eilig@@ 9
Himalaya 9
Encelad@@ 9
pedi@@ 9
Richard. 9
"OK, 9
Libr@@ 9
osh@@ 9
spruch 9
opi@@ 9
T, 9
Mid@@ 9
Da, 9
Nachmitt@@ 9
Mell@@ 9
Live@@ 9
asc@@ 9
Juan 9
ley. 9
Leon@@ 9
gon@@ 9
o! 9
ler: 9
entschied@@ 9
Dipl@@ 9
agog@@ 9
Dankeschön@@ 9
äß 9
Extra-@@ 9
Rönt@@ 9
co, 9
Kaluza 9
auto@@ 9
USDA 9
wbo@@ 9
Meeress@@ 9
Clay 9
moni@@ 9
Cloni@@ 9
Emmanuel 9
Hyun 9
Paci@@ 9
wak@@ 9
Bhut@@ 9
Aug@@ 9
anie 9
"Oka@@ 9
Bast@@ 9
diagn@@ 9
alluzin@@ 9
Mister 9
got@@ 9
Costa 9
TEDME@@ 9
av 9
Just@@ 9
oni 9
Networ@@ 9
martph@@ 9
UG: 9
Airstre@@ 9
NK: 9
Diff@@ 9
ED: 9
lant@@ 9
Lifes@@ 9
Joshu@@ 9
C.A.: 9
Krishn@@ 9
Sang@@ 9
GB: 9
cats 9
Cargill 9
schmer@@ 8
ee. 8
top@@ 8
gase 8
essour@@ 8
col@@ 8
1500 8
Afghanistan. 8
bas@@ 8
bile 8
IBM@@ 8
influenz@@ 8
e] 8
pire 8
IP@@ 8
mut 8
oma 8
3% 8
desig@@ 8
AIDS. 8
McDonal@@ 8
Shoot@@ 8
patri@@ 8
D.@@ 8
arn@@ 8
Gehr@@ 8
lis 8
schm@@ 8
Verzweifl@@ 8
a!" 8
aci@@ 8
Ai@@ 8
edback 8
ego@@ 8
stehung 8
etti 8
gruppi@@ 8
sand@@ 8
online, 8
ood@@ 8
Pas@@ 8
rob@@ 8
Florida. 8
enseit@@ 8
privile@@ 8
rac@@ 8
Ugan@@ 8
Evel@@ 8
Bay, 8
integr@@ 8
rate. 8
GP@@ 8
Dah@@ 8
fem@@ 8
porter@@ 8
vigi@@ 8
ish 8
ulpt@@ 8
erot@@ 8
Bam@@ 8
Kev@@ 8
Diejen@@ 8
chef 8
ramm 8
reben 8
2% 8
Nig@@ 8
cam@@ 8
NO@@ 8
192@@ 8
numer@@ 8
Il@@ 8
Sudan 8
Guer@@ 8
ock. 8
han, 8
mand@@ 8
Alask@@ 8
Klassenzi@@ 8
Cambridge, 8
spir@@ 8
Franc@@ 8
metri@@ 8
Nairobi, 8
Armstr@@ 8
Hill 8
iso@@ 8
Yochai 8
Wikipedia. 8
Foundation, 8
andal@@ 8
2000, 8
ympischen 8
umul@@ 8
Ambi@@ 8
geschlos@@ 8
dkrö@@ 8
MIT. 8
sli@@ 8
vo 8
Dez@@ 8
metall@@ 8
Benn@@ 8
oline 8
Arth@@ 8
sey, 8
Sour@@ 8
Sinclair 8
da: 8
gewisser@@ 8
essere 8
illegale 8
üll 8
Columbia 8
Antri@@ 8
atem@@ 8
real@@ 8
pin@@ 8
km@@ 8
appar@@ 8
oli 8
cas@@ 8
Vogelgri@@ 8
sess@@ 8
yrigh@@ 8
sene 8
Coca-Cola 8
scre@@ 8
ford 8
ry, 8
Clark 8
etab@@ 8
Nicht-Null@@ 8
summen@@ 8
erv@@ 8
HIV/AIDS. 8
to, 8
ile, 8
erfolg@@ 8
anco@@ 8
biom@@ 8
Seatt@@ 8
G. 8
Fond@@ 8
dite 8
alop@@ 8
ha. 8
1.100 8
ope 8
definiti@@ 8
begann@@ 8
mone 8
?". 8
a... 8
Heat@@ 8
Simp@@ 8
anga 8
oh. 8
11, 8
Jeff@@ 8
ia@@ 8
Narr@@ 8
domest@@ 8
Fac@@ 8
Zufrieden@@ 8
ty 8
nur@@ 8
L.@@ 8
o.@@ 8
Get@@ 8
ute. 8
#@@ 8
Compan@@ 8
Sear@@ 8
stabile 8
prov@@ 8
é, 8
Mount@@ 8
begr@@ 8
batter@@ 8
Sac@@ 8
TEDster 8
ect 8
Stone 8
Pittsburgh@@ 8
lück@@ 8
ellow@@ 8
iment@@ 8
Capit@@ 8
Bond 8
äher@@ 8
ängstig@@ 8
Samu@@ 8
j 8
tig? 8
onnen. 8
Steve, 8
enc@@ 8
ir 8
cann@@ 8
andin@@ 8
ji@@ 8
21@@ 8
sv@@ 8
Cape 8
fu 8
Cooper@@ 8
serie 8
ic. 8
Berech@@ 8
Kohlendi@@ 8
Delhi, 8
gefrag@@ 8
eget@@ 8
Febru@@ 8
Reag@@ 8
amput@@ 8
usa 8
Hav@@ 8
amo@@ 8
isse, 8
signi@@ 8
mherzi@@ 8
Cru@@ 8
blog@@ 8
meda@@ 8
eli 8
dap@@ 8
inc@@ 8
Ul@@ 8
I.@@ 8
alie 8
ando@@ 8
P, 8
Set@@ 8
parall@@ 8
pragmat@@ 8
Karen 8
boom@@ 8
MA@@ 8
immen@@ 8
Bulg@@ 8
Flickr 8
Bonn@@ 8
ausch 8
uno 8
FA@@ 8
ooh, 8
orchest@@ 8
L. 8
Lyndon 8
Catherine 8
quantit@@ 8
auspiel@@ 8
G: 8
Gust@@ 8
atar 8
Green@@ 8
TT@@ 8
KIP@@ 8
petei@@ 8
brio 8
Oxford. 8
akul@@ 8
Lewis, 8
Alh@@ 8
Splashy 8
..@@ 8
ct@@ 8
Erder@@ 7
neut@@ 7
ünstig 7
Afghan@@ 7
NASA. 7
Fok@@ 7
inson 7
emi@@ 7
temper@@ 7
fantasi@@ 7
cent@@ 7
Entwur@@ 7
ü 7
Microsoft, 7
wachs@@ 7
male, 7
designer, 7
1% 7
Manhattan, 7
Atlanta, 7
si, 7
file 7
multin@@ 7
labor@@ 7
Prog@@ 7
pieg@@ 7
mes@@ 7
gent@@ 7
Kurzweil 7
tim@@ 7
up, 7
o", 7
Chicago, 7
imi 7
destens 7
12, 7
oto, 7
Vinci@@ 7
Mosk@@ 7
carbon@@ 7
Coca 7
rand@@ 7
SA@@ 7
25% 7
Bos@@ 7
gratis 7
ummi@@ 7
ständ@@ 7
ito 7
ktischen 7
bian@@ 7
]@@ 7
go, 7
ideale 7
porn@@ 7
ato@@ 7
tapp@@ 7
CIA 7
Gebir@@ 7
rip@@ 7
fung@@ 7
otten@@ 7
Times. 7
a?" 7
eloqu@@ 7
Älter@@ 7
tori@@ 7
addi@@ 7
poet@@ 7
ülle 7
manu@@ 7
nieman@@ 7
Andr@@ 7
TE@@ 7
sachen 7
ria 7
ide, 7
gratu@@ 7
oz@@ 7
ID 7
analog@@ 7
Desig@@ 7
ea. 7
rig 7
Prize 7
gesamt 7
mäh@@ 7
Nai@@ 7
membr@@ 7
stem@@ 7
affin@@ 7
anten@@ 7
Valley. 7
TEDster@@ 7
pens@@ 7
ME@@ 7
Durchmess@@ 7
spontan@@ 7
designer. 7
anthr@@ 7
cat@@ 7
cra@@ 7
Ott@@ 7
allo, 7
pessimist@@ 7
Erschaff@@ 7
open 7
oth@@ 7
ga, 7
pir@@ 7
musli@@ 7
verdien@@ 7
DVD 7
high-@@ 7
arri@@ 7
metap@@ 7
pe. 7
ultur 7
ultur@@ 7
nec@@ 7
säch@@ 7
Armut@@ 7
Nigeria, 7
♫@@ 7
spin@@ 7
falt 7
fotografie 7
Geburt@@ 7
Associ@@ 7
Anges@@ 7
nes 7
windi@@ 7
Blair 7
ole, 7
rauch@@ 7
quartier 7
S.@@ 7
ala. 7
ai, 7
apr@@ 7
robo@@ 7
rasch@@ 7
yn, 7
California 7
vater 7
släu@@ 7
sorgfäl@@ 7
189@@ 7
Worl@@ 7
redi@@ 7
leiden@@ 7
redu@@ 7
"... 7
Camer@@ 7
Einstein. 7
pliziert 7
Neum@@ 7
lässig@@ 7
trib@@ 7
pre@@ 7
abili@@ 7
sonsten 7
parl@@ 7
erne 7
2007, 7
acom@@ 7
ursprün@@ 7
mik@@ 7
ela. 7
bere, 7
sia 7
sop@@ 7
Cir@@ 7
fran@@ 7
energet@@ 7
ton. 7
demi@@ 7
Bedi@@ 7
47. 7
erstör@@ 7
se: 7
mail 7
MS 7
air 7
anspr@@ 7
Coca-@@ 7
40, 7
mme 7
SE@@ 7
cal@@ 7
Sant@@ 7
Neumann 7
66@@ 7
Princeton 7
Nichol@@ 7
mart 7
comput@@ 7
ato 7
tend 7
Prem@@ 7
AIM@@ 7
Islam, 7
gust@@ 7
SI@@ 7
Moz@@ 7
tech 7
Marine 7
Zent@@ 7
osau@@ 7
Manhatt@@ 7
Vel@@ 7
Vul@@ 7
Luci@@ 7
paus@@ 7
chip 7
ma: 7
interagi@@ 7
18, 7
konzent@@ 7
idi@@ 7
sili@@ 7
Zig@@ 7
tab@@ 7
Prob@@ 7
rimin@@ 7
dom@@ 7
Him@@ 7
Donnell 7
mort@@ 7
Moskiton@@ 7
iero 7
esz@@ 7
Pos@@ 7
val 7
2020. 7
Moskit@@ 7
fram@@ 7
suff@@ 7
lanti@@ 7
Viv@@ 7
eno 6
vill@@ 6
Risi@@ 6
ani, 6
geschieh@@ 6
terr@@ 6
terror@@ 6
inspi@@ 6
2004, 6
Bril@@ 6
mist@@ 6
II 6
viol@@ 6
plas@@ 6
genit@@ 6
lap@@ 6
Sowjetuni@@ 6
Hori@@ 6
"V@@ 6
Cu@@ 6
Dil@@ 6
iti 6
Toky@@ 6
Lebensst@@ 6
70% 6
pad@@ 6
aliforni@@ 6
6% 6
lev@@ 6
U. 6
che@@ 6
frist@@ 6
4000 6
6000 6
antwor@@ 6
istor@@ 6
leun@@ 6
omo@@ 6
esc@@ 6
dominante 6
Spagh@@ 6
nol@@ 6
ica. 6
rati@@ 6
amo 6
este, 6
stem 6
falls, 6
10% 6
lab@@ 6
ppo@@ 6
Oce@@ 6
ographic 6
Britann@@ 6
rotte 6
Denn@@ 6
Sow@@ 6
Hig@@ 6
mart@@ 6
bia, 6
messe 6
dell@@ 6
miser@@ 6
clu@@ 6
ow. 6
dison 6
bedingt 6
polare 6
Bomba@@ 6
üssig@@ 6
Türk@@ 6
denzi@@ 6
dop@@ 6
40% 6
utionen, 6
boten 6
null@@ 6
ogie 6
Hinsi@@ 6
abol@@ 6
Connectic@@ 6
Rach@@ 6
heorie 6
TA 6
onach 6
Dann@@ 6
ics. 6
tral@@ 6
SL@@ 6
ücksich@@ 6
Katr@@ 6
McDon@@ 6
ota. 6
mobile 6
ba, 6
ania. 6
Cher@@ 6
ela, 6
Bangladesh 6
po 6
otto, 6
eva 6
SAR@@ 6
ami. 6
t'@@ 6
anda@@ 6
Casa 6
berfl@@ 6
Tön@@ 6
senz@@ 6
formal@@ 6
Nich@@ 6
e," 6
summen-@@ 6
plur@@ 6
este. 6
Stru@@ 6
(@@ 6
Doll@@ 6
ota, 6
avit@@ 6
interessante, 6
Billi@@ 6
invasi@@ 6
alia 6
Darfur. 6
Tali@@ 6
ichts 6
Philanthr@@ 6
British 6
Scot@@ 6
züglich 6
Uganda, 6
Suprem@@ 6
Gilber@@ 6
Date 6
erwä@@ 6
ohn, 6
trick@@ 6
instit@@ 6
"Ah, 6
sco@@ 6
dok@@ 6
bac@@ 6
'? 6
Harvard. 6
Princ@@ 6
10,000 6
ansi@@ 6
zi 6
ader@@ 6
Kenya 6
atomi@@ 6
Revoluti@@ 6
OK@@ 6
ped@@ 6
betriff@@ 6
zwang@@ 6
usw@@ 6
cos@@ 6
Rett@@ 6
estra@@ 6
volum@@ 6
roul@@ 6
Kün@@ 6
supp@@ 6
Zusätz@@ 6
erkl@@ 6
ite. 6
C.@@ 6
Philanthropi@@ 6
toria 6
set@@ 6
Harmon@@ 6
don 6
co-@@ 6
bud@@ 6
o?" 6
ival 6
paran@@ 6
ww@@ 6
Optimis@@ 6
sere 6
etto 6
stere@@ 6
Un 6
perf@@ 6
Econom@@ 6
Google. 6
ezu@@ 6
[...]
