di 53691
che 44629
e 33566
la 25893
un 25497
è 24505
il 24229
in 23143
a 23054
per 18779
una 16469
non 15189
E 13306
i 12745
le 12234
si 10723
sono 10490
del 9422
come 8908
con 8716
da 8484
più 7963
questo 7915
della 7440
ci 6640
o 6583
se 5912
ha 5870
nel 5636
al 5502
ma 5347
lo 4971
-- 4886
questa 4660
Ma 4625
molto 4597
gli 4584
dei 4573
mi 4546
cosa 4522
l'@@ 4443
delle 4416
ho 4290
alla 3975
cui 3968
abbiamo 3869
era 3786
essere 3705
Non 3702
"@@ 3599
quando 3515
anche 3487
loro 3449
perché 3424
ad 3400
La 3388
o. 3276
solo 3205
a. 3189
o, 3174
fare 3162
hanno 3155
a, 3153
su 3143
ato 3129
Il 3127
persone 3109
are 3106
quello 2969
così 2894
tutto 2865
tutti 2833
nella 2771
ed 2683
modo 2680
dell'@@ 2664
e, 2616
sia 2509
anni 2502
uno 2488
queste 2462
vi 2462
questi 2453
Questo 2443
♫ 2433
cose 2423
ano 2421
fatto 2413
e. 2384
E' 2358
stato 2263
- 2234
ciò 2189
mio 2163
parte 2158
ogni 2154
due 2119
ne 2095
ai 2089
mondo 2047
ate 2001
mia 1993
ata 1990
prima 1987
c'è 1970
Quindi 1953
dove 1932
dal 1931
può 1919
ri@@ 1901
ati 1893
io 1881
sul 1853
poi 1850
qualcosa 1802
In 1801
in@@ 1788
noi 1731
siamo 1717
sulla 1709
tra 1692
ando 1685
degli 1662
sta 1635
Se 1632
qui 1623
quel 1564
Questa 1552
quella 1539
vedere 1526
davvero 1517
mai 1486
all'@@ 1482
vita 1482
, 1466
dalla 1464
ancora 1442
ti 1435
possiamo 1429
nostro 1428
é 1416
suo 1406
alle 1392
i, 1390
un'@@ 1390
grande 1378
fa 1364
quanto 1359
È 1348
ora 1340
sua 1326
li 1294
Ed 1283
s@@ 1281
sempre 1280
nostra 1277
. 1272
i. 1270
gente 1267
Per 1265
Sono 1240
Ci 1226
tutte 1218
Ho 1217
tempo 1208
avere 1179
I 1177
tre 1166
nei 1159
qualche 1159
Si 1158
tipo 1154
senza 1147
ò 1145
proprio 1141
circa 1132
dopo 1129
dire 1124
voi 1107
quindi 1089
ato. 1088
azione 1088
Abbiamo 1081
di@@ 1079
possono 1076
nelle 1047
altri 1044
stata 1041
Perché 1040
Le 1038
S@@ 1037
po' 1027
volta 1022
altro 1020
punto 1020
: 1007
are. 1000
molti 995
L'@@ 992
? 990
erano 983
Ora, 977
TED 976
me 976
o@@ 976
stesso 967
storia 964
Come 960
ato, 959
nell'@@ 953
Quando 944
nostri 943
altre 933
negli 926
Un 926
meno 923
d'@@ 922
bisogno 921
potete 917
o? 917
ali 914
Così 909
sistema 908
... 890
e' 887
c@@ 885
ar@@ 884
Mi 883
Ecco 879
e? 878
chi 871
voglio 869
Quindi, 867
fuori 865
ero 863
so 862
ale 858
stanno 854
stiamo 852
are, 851
che, 843
A 839
alcuni 836
andare 836
mentre 834
aveva 832
ale. 826
er@@ 825
milioni 823
and 822
lavoro 821
fosse 818
fu 818
sarebbe 816
t@@ 815
quale 814
ica 811
ic@@ 809
Una 806
va 801
anno 799
con@@ 794
visto 786
problema 784
on@@ 784
at@@ 783
penso 778
viene 777
per@@ 775
i@@ 773
creare 769
" 768
sei 765
quelle 761
primo 761
ore 758
or@@ 758
verso 755
fino 754
ale, 749
anni. 745
g@@ 745
d@@ 743
avete 740
mondo. 739
dall'@@ 739
am@@ 736
già 735
bambini 735
molte 731
Talk 728
com@@ 728
ico 728
e: 727
al@@ 724
realtà 724
p@@ 722
specie 720
'@@ 719
e@@ 716
credo 716
Subtitles 713
Transcript: 713
ava 709
a? 707
ino 707
nuovo 706
an@@ 701
forse 701
miei 699
anni, 698
capire 695
qualcuno 689
volte 689
parlare 688
tutta 688
fine 688
detto 685
Lo 685
attraverso 685
potrebbe 684
Ora 680
sarà 676
stessa 673
dobbiamo 672
avuto 670
giorno 670
momento 666
dai 663
av@@ 656
." 653
l@@ 652
ce 646
pensare 645
grandi 644
u@@ 644
stati 642
veramente 639
es@@ 638
lui 636
alcune 635
sto 631
tecnologia 631
o: 630
". 630
ati. 628
ci@@ 628
siano 626
importante 624
certo 623
nostre 620
a@@ 619
r@@ 617
fanno 615
ata. 612
m@@ 610
abbastanza 608
quali 606
im@@ 605
it@@ 604
10 602
amente 601
C@@ 600
posto 600
Io 600
oggi 598
C'è 595
car@@ 595
amento 592
ol@@ 592
ito 585
ici 585
ano. 584
ono 583
arsi 581
via 580
tanto 578
ali. 577
quelli 576
dati 571
ina 570
v@@ 569
Che 569
ano, 569
st@@ 567
endo 566
ali, 564
-@@ 562
grado 561
M@@ 560
maggior 558
allora 558
ica, 556
far 555
problemi 555
ac@@ 555
Voglio 553
azioni 552
D@@ 552
ico. 551
qui, 550
de@@ 550
facendo 550
perchè 550
quattro 549
dalle 549
ati, 548
ica. 547
avevo 545
Nel 544
quasi 544
avano 541
posso 540
sotto 539
forma 539
f@@ 539
dice 537
azione. 537
sull'@@ 536
amo 536
numero 535
ente 533
usare 532
us@@ 531
agli 531
secondo 528
ecco 527
te 526
insieme 526
trovare 525
ico, 524
cre@@ 524
b@@ 523
persona 522
pi@@ 521
a: 521
dire, 521
vostro 520
re@@ 520
one 519
ante 519
E@@ 518
deve 516
y 516
senso 514
piccolo 511
prendere 511
anti 511
T@@ 507
enti 507
dis@@ 503
suoi 501
B@@ 501
sc@@ 497
ap@@ 495
mondo, 495
inter@@ 492
sulle 492
Poi 491
semplicemente 491
ver@@ 489
progetto 489
vol@@ 488
ate. 487
invece 487
ità 486
bi@@ 485
state 485
piuttosto 485
sui 484
questo, 484
gruppo 483
casa 482
co@@ 482
facciamo 481
A@@ 480
ari 480
and@@ 480
ch@@ 479
Era 478
re 478
Gli 478
azione, 477
lungo 476
po@@ 476
gi@@ 474
meglio 474
un@@ 473
questo. 473
de 473
F@@ 473
vi@@ 472
si@@ 471
dollari 471
vostra 471
dato 470
vengono 470
domanda 470
ata, 470
tratta 469
Vi 467
appena 467
dare 467
sa 467
durante 467
esempio 465
to 464
possa 463
cervello 463
ti@@ 461
Beh, 461
! 460
vita. 460
sembra 460
qui. 457
P@@ 457
et@@ 456
cambiare 456
foto 455
lì 454
avevano 452
à 452
ete 452
vedete 451
bene 451
lei 451
sapete, 448
spazio 445
probabilmente 444
allo 444
caso 444
Grazie 443
troppo 443
Quello 443
o." 443
li@@ 443
en@@ 442
do 441
dello 441
quei 441
ent@@ 441
nello 440
ate, 440
siete 440
fa, 440
20 440
atore 439
idee 439
atori 438
mezzo 437
significa 437
città 437
aver 437
R@@ 435
costruire 435
computer 435
N@@ 434
ultimi 432
livello 432
ere 432
vediamo 432
Stati 431
mano 431
L@@ 430
?" 430
ma@@ 429
possibile 429
Questi 428
un'altra 426
Cosa 426
ra@@ 426
esempio, 426
su@@ 424
mar@@ 423
est@@ 423
ag@@ 423
cinque 422
acc@@ 422
successo 421
miliardi 421
completamente 420
contro 420
s 419
ori 419
abbia 416
Grazie. 415
par@@ 415
qualsiasi 414
piccola 412
fin@@ 411
nuova 411
Ha 411
puoi 410
arono 409
chiamato 408
col@@ 408
is@@ 407
em@@ 407
ur@@ 407
Penso 405
cose. 404
ta 403
Qui 402
difficile 399
ir@@ 399
farlo 399
sappiamo 399
nessuno 399
hai 399
chi@@ 398
cal@@ 398
iamo 397
ric@@ 397
poter 397
effetti 395
mettere 395
ore. 395
energia 394
h@@ 394
paio 392
ca 392
niente 392
idea 392
New 391
spesso 391
me, 390
amente, 390
far@@ 389
pens@@ 388
iniziato 386
Siamo 386
os@@ 385
cercando 385
col 384
ricerca 383
op@@ 382
el@@ 382
giro 382
luce 382
oc@@ 381
ve 381
y@@ 378
vero 376
grazie 376
V@@ 375
oltre 375
vorrei 375
messo 374
mente 374
devo 373
zioni 373
diversi 373
att@@ 373
ante. 372
ite 372
si. 372
ore, 372
O@@ 371
ita 370
fer@@ 369
ine 368
co 367
dentro 367
sapere 366
ett@@ 366
Queste 365
tra@@ 365
base 364
I@@ 364
om@@ 364
capacità 364
si, 363
lavorare 363
c'era 362
n@@ 362
Potete 362
tu 362
G@@ 361
nuove 359
almente 359
sp@@ 359
modello 359
quell'@@ 358
porta 357
Di 356
semplice 356
interessante 356
piace 354
[@@ 354
stava 353
adesso 353
mo@@ 353
poco 353
futuro 352
tuo 352
risposta 351
donne 350
arci 350
vista 350
l'idea 349
diventare 348
erà 348
30 347
ad@@ 346
e." 346
100 345
funzion@@ 344
ici, 344
cer@@ 342
50 341
è, 341
libro 341
succede 341
conto 341
no@@ 340
scoperto 340
tempo. 340
seconda 339
creato 339
tempo, 338
diverse 338
ragazzi 338
chiama 338
etta 337
ette 337
cor@@ 336
forza 336
società 336
Ciò 335
as@@ 335
zione 335
; 335
bene. 334
comunità 334
ut@@ 333
man@@ 333
così. 333
sentito 333
", 332
Possiamo 332
avo 331
zione. 331
persone, 331
macchina 330
Bene, 329
emo 329
mostra 329
possibilità 328
detto, 327
ammo 326
da, 326
pensato 325
causa 325
paesi 325
ti, 325
sal@@ 325
armi 325
noi. 324
amo, 324
avrebbe 324
esattamente 324
sue 324
ici. 323
portare 323
nome 323
arlo 323
ario 322
dovuto 322
mon@@ 322
iti 321
migliore 321
sacco 320
z@@ 320
centro 320
ante, 319
o... 319
o". 319
Tutti 319
l’@@ 318
qu@@ 318
e... 318
zione, 317
a." 317
etto 316
“@@ 316
nuovi 315
str@@ 315
cont@@ 315
saranno 315
vita, 315
eva 314
trovato 314
serie 314
H@@ 314
vogliamo 313
storie 313
faccio 313
vuole 313
animali 312
mi@@ 312
guardare 311
processo 311
ti. 310
cibo 310
ant@@ 309
intorno 308
design 308
migliaia 307
etti 307
ec@@ 306
der@@ 306
dovrebbe 305
cambiamento 304
cercare 304
zz@@ 304
giorni 304
tua 304
ando. 304
ini 304
arrivare 303
enza 303
struttura 303
fa. 303
fi@@ 302
ente. 302
int@@ 302
modi 301
ser@@ 301
Da 300
O 300
uomo 299
buona 299
lavor@@ 298
trov@@ 298
potere 298
o-@@ 298
pr@@ 297
persone. 297
natura 297
questione 296
ire 296
enti. 296
cominciato 296
tipi 296
aff@@ 294
là 294
parla 294
port@@ 294
noi, 292
ul@@ 292
preso 292
gran 292
In@@ 292
e" 292
corpo 292
bambino 292
pag@@ 291
posti 291
strada 291
ottenere 290
indi@@ 290
anno. 289
pianeta 289
E, 289
altra 288
ia 288
fare. 288
rete 288
gener@@ 288
no, 288
Con 287
an 287
Credo 286
ot@@ 286
parti 286
luogo 286
medi@@ 285
ani 285
Tutto 285
essi 285
Hanno 285
aria 284
Anche 284
piccoli 284
scuola 284
pass@@ 283
Dobbiamo 283
15 281
gioco 281
sol@@ 281
media 280
anno, 280
scienza 280
dir@@ 280
K@@ 280
portato 279
ora, 279
donna 279
primi 278
ro@@ 278
mie 278
ten@@ 278
ragione 277
gono 277
ment@@ 276
dovremmo 276
mercato 276
guerra 276
metà 275
campo 275
immagini 275
potuto 274
ev@@ 274
trova 274
o" 273
otto 273
da. 273
ris@@ 273
prov@@ 273
potrebbero 272
gra@@ 272
qualunque 272
ab@@ 272
l'ho 271
d 271
diventa 271
avrei 270
t 270
Noi 270
dagli 270
cambi@@ 270
ità. 270
piu' 269
periodo 269
guardate 269
lavoro. 269
rispetto 269
e". 269
sorta 269
ing@@ 268
vostri 268
Così, 268
aiut@@ 267
corso 267
stessi 267
almeno 266
di, 266
quest'@@ 266
disse: 265
for@@ 265
w@@ 265
pubblico 265
sistemi 264
terra 264
amente. 264
Al 263
ter@@ 263
bene, 263
diamo 263
ra 263
Dio 263
me. 262
Ogni 262
video 262
continu@@ 262
Allora 262
musica 262
da@@ 261
sor@@ 261
cu@@ 261
3 261
umani 261
alto 261
ma, 261
sopra 261
chiamata 261
ana 260
quantità 260
buon 260
informazioni 260
bu@@ 259
leg@@ 258
nemmeno 258
acqua 258
vo 258
osa 258
vicino 258
no. 257
co. 257
li. 256
avanti 256
indietro 256
met@@ 256
all@@ 256
vogliono 255
stavo 255
mesi 255
differenza 255
ca@@ 255
prodotto 254
ell@@ 254
ità, 254
oso 253
do. 253
giorno, 253
oni 253
usando 253
potremmo 253
parole 253
occhi 253
5 252
anza 252
funziona 252
cose, 252
alt@@ 252
via. 252
madre 251
ente, 251
enti, 251
studenti 250
k@@ 250
film 250
li, 249
ina, 249
spar@@ 249
parlato 248
paese 248
amo. 248
sviluppo 248
vivere 248
sette 248
esse 248
disse 247
Uno 247
asse 247
tr@@ 247
oggi. 247
parola 247
end@@ 247
loro. 246
te. 246
mo 246
zi@@ 246
programma 246
ando, 246
tutto, 245
inizi@@ 244
scritto 244
vi, 244
particolare 244
2@@ 243
isce 243
passato 243
mal@@ 243
volevo 242
...@@ 242
motivo 241
4 241
erò 241
chiamo 241
pol@@ 241
– 241
teoria 241
chiesto 240
realmente 240
' 239
ari, 239
evano 239
forme 239
pen@@ 239
sola 239
super@@ 239
insegn@@ 239
uomini 238
ari@@ 238
a". 238
not@@ 238
pro@@ 238
y, 238
vanno 237
devono 237
resto 237
usa 237
dov@@ 236
minuti 236
imparare 236
fic@@ 236
on 236
esseri 236
fra 235
ci. 234
poteva 234
cosa. 234
a... 234
arriva 234
cellule 234
compr@@ 233
serve 233
ie 233
de, 233
co, 233
tratt@@ 233
fatta 233
ci, 233
ito. 232
c'erano 232
avevamo 232
ino. 232
dietro 232
au@@ 232
de. 232
propria 232
do, 232
sentire 231
Di@@ 231
effetti, 231
ist@@ 231
ola 231
linea 231
chiam@@ 231
pezzo 231
andato 230
lu@@ 230
h 230
ben 229
parl@@ 229
famiglia 229
J@@ 229
rendere 228
domande 228
crescita 228
così, 228
er 228
più. 227
assolutamente 227
ni@@ 227
oggi, 227
"Non 227
osi 227
sito 227
ov@@ 226
uso 226
soldi 226
tecnologie 226
termini 226
dar@@ 226
pensiamo 226
fossero 225
popolazione 225
40 225
eg@@ 225
spieg@@ 225
vera 225
modo, 225
min@@ 225
rit@@ 224
og@@ 224
anti. 223
ig@@ 223
l'in@@ 223
o! 222
abile 222
ass@@ 222
CA: 222
segu@@ 222
s, 222
"S@@ 222
tanti 222
vi. 222
imparato 222
io, 221
alta 221
nessun 221
2 221
enza. 221
detto: 221
ina. 221
cost@@ 221
se@@ 220
Con@@ 220
governo 220
usato 220
dur@@ 220
enorme 220
du@@ 220
provare 220
situazione 220
Terra 220
3@@ 219
bile 219
uta 219
possano 218
mor@@ 218
ei 218
y. 218
sapete 217
superficie 217
ì 217
all'interno 217
davanti 217
fatto, 216
parlando 216
Dopo 216
Stiamo 216
capit@@ 216
W@@ 216
ali@@ 216
ru@@ 216
j@@ 215
pensate 215
ott@@ 215
esi 215
ven@@ 215
deciso 215
sci@@ 215
l' 214
arriv@@ 214
Sapete, 214
genere 214
immagin@@ 214
sarebbero 214
ati@@ 214
azioni. 214
studio 214
tu@@ 214
faccia 213
ori@@ 213
vit@@ 213
te, 212
migliori 212
immagine 212
esist@@ 212
sent@@ 212
valore 211
olo 211
risultato 211
ori. 211
ra, 211
tante 211
rende 211
Ne 210
pre@@ 210
storia. 210
son@@ 210
padre 210
o?" 209
produrre 209
oper@@ 209
amenti 209
riguardo 209
ann@@ 209
realtà, 209
avrebbero 208
Uniti 208
iscono 208
piccole 208
ri 208
vano 208
visione 208
farlo. 208
ori, 208
centinaia 208
un'idea 208
Forse 208
macchine 208
molto, 208
scoprire 207
ono. 207
stare 207
bar@@ 207
cultura 207
cento 206
arli 206
mare 206
be@@ 206
U@@ 206
sione. 206
permette 206
capito 206
ed@@ 206
Perciò 206
amici 206
chiunque 205
almente, 205
stesse 205
dicono 205
lavoro, 205
cap@@ 205
cos@@ 205
one. 205
voi. 204
ro 204
ben@@ 204
eri 203
present@@ 203
strumenti 203
volta, 203
gli@@ 203
dovete 203
testa 203
liber@@ 203
cas@@ 202
fondo 202
don@@ 202
4@@ 202
giorno. 201
nulla 201
cosa, 201
movimento 201
eranno 200
progetti 200
umano 200
icamente 200
problema. 200
ini@@ 200
Allora, 200
corr@@ 200
iniziare 199
metri 199
devi 199
giusto? 199
aspett@@ 199
este 199
pot@@ 199
Vorrei 198
molta 198
8@@ 198
costruito 198
zioni, 198
ma. 198
one, 198
aspetto 198
oggetti 198
loro, 198
mat@@ 198
6@@ 198
lavorato 197
so@@ 197
go 197
prot@@ 197
fatti 197
sti@@ 196
riguarda 196
person@@ 196
lato 196
dist@@ 196
Lui 196
.@@ 195
a" 195
strumento 195
gruppi 195
prodotti 194
mi, 194
milione 194
ebbe 194
deva 194
ino, 194
cuore 194
venire 193
esperienza 193
relazione 193
osserv@@ 193
dà 193
che. 193
passare 193
pes@@ 193
20@@ 193
voi, 192
tornare 192
ge 192
bile. 192
posizione 192
vede 192
appar@@ 192
magari 192
poi, 192
Ero 192
limit@@ 192
Prima 191
importanti 191
dico 191
simile 191
to@@ 191
materiale 190
qualità 190
pa@@ 190
finanzi@@ 190
ese 190
Dunque, 190
incredibile 190
bile, 190
è: 190
ban@@ 190
abilità 190
pratica 190
Ri@@ 189
facile 189
versione 189
risolvere 189
coll@@ 189
maniera 189
pres@@ 189
sicuro 189
virus 189
passo 189
ari. 189
no 189
lasci@@ 188
guar@@ 188
scar@@ 188
6 188
pu@@ 188
ament@@ 188
dopo, 187
form@@ 187
mis@@ 187
ismo 187
pal@@ 187
eb@@ 187
punti 187
cia 186
oli 186
miglior@@ 186
à. 186
fronte 186
attività 186
azion@@ 186
aiutare 186
Oggi 185
morte 185
prim@@ 185
pò 185
bisogna 185
5@@ 185
neanche 185
petrolio 185
Al@@ 184
viv@@ 184
organizz@@ 184
1@@ 184
sioni 184
solito 184
ast@@ 183
arla 183
aree 183
io. 183
ura 183
so. 183
tutto. 183
concentr@@ 183
chieder@@ 183
chiamiamo 183
mostr@@ 182
ambiente 182
test@@ 182
200 182
viaggio 182
cur@@ 182
lo. 182
e; 182
sole 182
libri 182
azioni, 182
ito, 181
attiv@@ 181
ide@@ 181
ra. 181
fece 180
bella 180
fatto. 180
lavorando 180
conc@@ 180
cura 180
An@@ 180
roba 180
amento. 180
colleg@@ 180
can@@ 180
Alla 180
signific@@ 179
basso 179
ger@@ 179
piano 179
eravamo 179
à, 179
dic@@ 179
esiste 179
oggetto 179
anti@@ 179
St@@ 179
il@@ 178
figli 178
furono 178
diverso 178
entrare 178
emmo 178
terzo 178
Ok, 178
i? 178
eremo 177
arlo. 177
pochi 177
costo 177
atto 177
scala 177
vivono 177
sin@@ 177
so, 177
mer@@ 177
7@@ 177
altro. 177
scrivere 177
affrontare 176
stanza 176
volete 176
potreste 176
esso 176
caso, 176
malattie 176
lan@@ 176
breve 175
persino 175
controllo 175
ca. 175
nessuna 175
bel 175
stavano 175
divent@@ 175
Perchè 175
percento 175
sanno 175
man 174
Chris 174
importante. 174
soluzione 174
prende 174
ess@@ 174
ure 174
incredibilmente 174
essa 174
consu@@ 174
ing 174
aria. 174
dice: 174
globale 173
auto 173
fare, 173
ana, 173
importante, 173
mostrarvi 173
12 173
ete, 173
mo, 173
s. 173
ber@@ 173
le@@ 173
giusto 172
vo@@ 172
deci@@ 172
prefer@@ 172
Adesso 172
ento 172
costru@@ 172
enza, 172
arvi 171
di. 171
Alcuni 171
l'acqua 171
cominciare 171
menti 171
concetto 171
ognuno 171
pianeta. 171
prezzo 171
comportamento 171
dimensioni 171
Gi@@ 171
estremamente 170
No, 170
risorse 170
denaro 170
prossimo 170
amento, 170
venne 170
cav@@ 170
e?" 170
raccont@@ 169
ved@@ 169
ole 169
re, 169
cioè 169
progett@@ 169
cent@@ 169
nuovo, 168
e! 168
realizzare 168
oso. 168
dollari. 168
cin@@ 168
forte 168
ora. 168
post@@ 168
ose 168
regole 168
quindi, 168
prender@@ 168
comune 168
guardando 168
condizioni 168
piedi 168
raggiungere 167
zion@@ 167
zona 167
avamo 167
ovviamente, 167
incontr@@ 167
o; 167
evol@@ 167
mangi@@ 167
scienziati 167
hi@@ 166
uto 166
tri@@ 166
massa 166
etto. 166
pon@@ 166
maggiore 166
dicendo 166
ana. 166
rin@@ 166
anti, 165
ute 165
tutti. 165
giù 165
zioni. 164
25 164
fis@@ 164
arle 164
a?" 164
ici@@ 163
tras@@ 163
né 163
vive 163
crea 163
d. 163
cat@@ 162
comunque 162
ancora, 162
invent@@ 162
disse, 162
avesse 162
iche. 162
dieci 161
crit@@ 161
realizz@@ 161
vostre 161
robot 161
velocità 161
ono, 161
no? 161
prima, 161
interess@@ 161
amico 160
aggi@@ 160
den@@ 160
settimana 160
abile. 160
entro 160
costa 160
visi@@ 160
genitori 160
torn@@ 159
neg@@ 159
immaginare 159
amm@@ 159
val@@ 159
generazione 159
luoghi 159
età 159
reg@@ 159
studi@@ 159
Africa 158
sione, 158
cambiamenti 158
mappa 158
praticamente 158
contr@@ 158
quanti 157
utilizz@@ 157
fil@@ 157
re. 157
dendo 157
fa@@ 157
pl@@ 157
or 157
avremmo 157
oppure 157
York 157
ge@@ 157
erebbe 157
br@@ 157
discorso 156
ello 156
entr@@ 156
produzione 156
bili 156
gran@@ 156
regol@@ 156
Chi 156
prossimi 156
prima. 156
iche, 156
conten@@ 156
ri, 156
do@@ 155
stai 155
7 155
ar 155
Per@@ 155
suono 155
propri 155
linguaggio 155
fate 154
part@@ 154
colp@@ 154
test 154
modelli 154
mani 154
casa. 154
provato 154
subito 154
reale 154
mette 154
edificio 154
fon@@ 154
pan@@ 153
atti@@ 153
ani@@ 153
60 153
senso, 153
schi@@ 153
disc@@ 153
sé 153
mi. 153
pensiero 153
più, 153
soltanto 153
Ch@@ 153
aggio 152
ran@@ 152
gen@@ 152
America 152
bo@@ 152
impar@@ 152
fine, 152
sione 151
gu@@ 151
anzi@@ 151
desider@@ 151
dere 151
evo 151
aria, 151
sì, 151
Mentre 151
gr@@ 150
8 150
d, 150
mille. 150
casi 150
ista 150
chiar@@ 150
sap@@ 149
gest@@ 149
ret@@ 149
nazione 149
danno 149
etto, 149
viol@@ 149
ovviamente 149
spero 149
Qu@@ 149
18 149
esimo 149
Fu 149
sbagli@@ 149
ak@@ 149
uti 149
Com@@ 148
alcun 148
Par@@ 148
momento, 148
Z@@ 148
pensano 148
etti, 148
rappresent@@ 148
tor@@ 148
spor@@ 148
trovano 148
cervello. 148
le. 147
ario, 147
sfida 147
naturale 147
prova 147
u 147
esser@@ 147
fac@@ 147
inn@@ 147
Mar@@ 147
9@@ 146
oso, 146
bas@@ 146
abbiano 146
però 146
futuro. 146
amore 146
letto 146
potevano 146
prossima 146
lunga 146
l'ha 146
male 146
es 146
pensa 145
parte. 145
tenere 145
sac@@ 145
Quella 145
Cina 145
umana 145
legge 145
adatt@@ 145
possibile. 144
pul@@ 144
sviluppare 144
settimane 144
fai 144
vite 144
cima 144
"Beh, 144
osservare 144
scen@@ 144
stra@@ 144
ezza 144
po 144
devano 144
piac@@ 144
beh, 144
mostrato 143
giovani 143
acqu@@ 143
vent@@ 143
esi, 143
conoscenza 143
impegn@@ 143
um@@ 143
cominci@@ 143
inc@@ 143
mento 143
"La 143
Pr@@ 143
uto. 143
cambiato 143
Nessuno 143
Sì, 143
spost@@ 143
tiamo 143
mag@@ 143
sento 143
emer@@ 143
e-@@ 142
Pens@@ 142
scorso 142
rest@@ 142
pubblic@@ 142
salute 142
andando 142
chi. 142
perché, 142
Nella 142
alz@@ 142
Guardate 142
Negli 142
500 142
letteralmente 142
ga 142
sullo 142
cerca 142
tale 142
cio 142
voleva 142
impatto 141
sì 141
usano 141
risol@@ 141
ò. 141
verità 141
vuoi 141
DNA 141
eri@@ 141
ario. 141
città. 141
ve@@ 141
scuole 141
ea 140
Solo 140
mente, 140
andati 140
ragazzo 140
vedrete 140
parte, 140
vari@@ 140
a' 140
esperimento 140
informazione 140
stile 140
risultati 140
singolo 140
sinistra 140
Y@@ 140
materia 140
arne 140
fal@@ 140
] 140
comincia 140
eggi@@ 139
ordin@@ 139
crisi 139
tempi 139
ren@@ 139
diventato 139
politica 139
prom@@ 139
punto, 139
lav@@ 139
mett@@ 139
inten@@ 139
pezzi 139
chi, 139
se, 139
vale 139
ere. 139
materiali 139
♫@@ 139
David 138
semplice. 138
salv@@ 138
ragioni 138
doveva 138
dovrebbero 138
lasciato 138
alità 138
zone 138
usiamo 138
scelta 138
ob@@ 138
ascolt@@ 138
leggere 138
studiare 138
successo. 138
fica 137
bambini. 137
comun@@ 137
termine 137
to. 137
contatto 137
a! 137
approccio 137
rispon@@ 137
Ma, 137
altri. 137
continuare 136
fat@@ 136
vedo 136
fatt@@ 136
dice, 136
endo. 136
vuol 136
messaggio 136
lasciare 136
qualcosa. 136
rà 136
suon@@ 136
stat@@ 136
k 136
ò, 135
Ma@@ 135
piacerebbe 135
,@@ 135
ecc@@ 135
avvicin@@ 135
af@@ 135
vero? 135
parole, 135
particelle 135
bin@@ 135
an, 135
edi@@ 135
felice 135
lì. 135
Li 135
secolo 135
cancro 135
ca, 134
ani, 134
ripet@@ 134
inizia 134
sti 134
credo, 134
import@@ 134
l'anno 134
tem@@ 134
rischio 134
controll@@ 133
essi@@ 133
elle 133
farvi 133
vedere, 133
etti@@ 133
venuto 133
nu@@ 133
l'unico 133
effettivamente 133
tutti, 133
na@@ 133
colore 133
Su@@ 133
sociale 133
acci@@ 133
individu@@ 132
coi 132
Molti 132
prepar@@ 132
storia, 132
cos'è 132
sero 132
uto, 132
disegn@@ 132
fisica 132
voluto 132
sugli 132
potesse 132
cit@@ 132
direzione 132
imp@@ 131
cart@@ 131
bambini, 131
aut@@ 131
ost@@ 131
qualcosa, 131
ai@@ 131
olo. 131
leader 131
ese. 131
pazienti 131
Qualcuno 130
ne@@ 130
i: 130
dono 130
ativi 130
alizz@@ 130
Mo@@ 130
coloro 130
accad@@ 130
aument@@ 130
rem@@ 130
gioc@@ 130
Più 130
vero, 130
sper@@ 130
mostrare 130
tasso 130
mut@@ 130
attorno 130
ero@@ 130
sar@@ 130
salvare 130
ene 130
stelle 130
forze 130
carta 130
dimensione 130
on, 129
comprare 129
Avete 129
ster@@ 129
aer@@ 129
servizio 129
modo. 129
computer. 129
essero 129
bell@@ 129
esempi 129
anim@@ 129
mem@@ 129
sen@@ 129
terza 129
atori, 129
oni@@ 128
soprattutto 128
cercato 128
lavori 128
scal@@ 128
uni@@ 128
ricevuto 128
guardiamo 128
destra 128
mo. 128
Sto 128
pos@@ 128
collabor@@ 128
notte 128
inare 128
scopo 128
raccontare 128
parlerò 127
pieno 127
prime 127
1 127
9 127
casa, 127
incredibile. 127
chie@@ 127
ruolo 127
partire 127
metter@@ 127
città, 127
fr@@ 127
diventano 127
numeri 127
res@@ 127
to, 127
osa. 127
significato 126
accor@@ 126
iti. 126
sicurezza 126
credere 126
vedono 126
cam@@ 126
l'intero 126
scor@@ 126
etti. 126
batteri 126
Dove 126
ere, 126
issimo 126
astr@@ 126
80 126
arti 126
figlio 126
gh@@ 126
TED. 126
spiegare 125
por@@ 125
ite, 125
iti, 125
sa@@ 125
avrà 125
lavorano 125
sapevo 125
er, 125
comprendere 125
Può 125
bili. 125
interessante. 125
San 125
consider@@ 125
opportunità 125
sembrano 125
andate 125
attenzione 125
are? 125
Ecco, 125
nazioni 125
ghiaccio 125
tecnologia, 124
semplici 124
pi 124
fu@@ 124
necessario 124
ane 124
computer, 124
pensando 124
olo, 124
mettiamo 124
Ad 124
cant@@ 124
l'altro 124
scrit@@ 124
farò 124
Vi@@ 124
l'Africa 124
direttamente 123
settore 123
ita. 123
ins@@ 123
lista 123
innov@@ 123
servi@@ 123
Google 123
punt@@ 123
abit@@ 123
troviamo 123
felicità 123
apr@@ 122
TED, 122
isol@@ 122
spavent@@ 122
off@@ 122
oi@@ 122
19@@ 122
soluzioni 122
aziende 122
avi@@ 122
Ris@@ 122
olog@@ 122
mostrerò 122
sem@@ 122
uscire 122
all'inizio 122
reso 122
intero 122
volta. 121
sugger@@ 121
iti@@ 121
11 121
Uniti, 121
probabilità 121
lanci@@ 121
her@@ 121
dere. 121
designer 121
mu@@ 121
Internet 121
ice 121
ri. 121
accesso 121
rivoluzione 121
vers@@ 121
vecchio 121
gas 121
americani 121
altri, 120
sotto@@ 120
alberi 120
fuori. 120
Un@@ 120
altro, 120
tir@@ 120
studi 120
0. 120
cammin@@ 120
ezza, 120
guarda 120
giovane 120
atore. 120
ini. 120
John 119
calcol@@ 119
', 119
x@@ 119
esplor@@ 119
er. 119
o' 119
perso 119
rappresenta 119
rec@@ 119
proprietà 119
t, 119
abili 119
nove 119
uro 119
condividere 119
stesso. 119
Africa, 119
finché 118
contesto 118
esso. 118
dom@@ 118
tecnologia. 118
giocare 118
ros@@ 118
bl@@ 118
radi@@ 118
vari 118
bili, 118
elli 118
legger@@ 118
divi@@ 118
avessi 118
veder@@ 118
uman@@ 117
ritrov@@ 117
trasfer@@ 117
adesso, 117
principale 117
odi@@ 117
l'abbiamo 117
199@@ 117
aci@@ 117
Av@@ 117
personale 117
ner@@ 117
sociali 117
compassione 117
molto. 117
talmente 117
elementi 117
immer@@ 117
nonostante 117
pat@@ 117
fl@@ 117
permesso 116
ella 116
speriment@@ 116
due, 116
spiega 116
men@@ 116
ate@@ 116
attacc@@ 116
hi 116
bra@@ 116
ologia 116
cambia 116
!" 115
mese 115
coinvol@@ 115
Car@@ 115
servono 115
lontano 115
lo, 115
desiderio 115
invest@@ 115
diver@@ 115
umano. 115
malattia 115
momento. 115
piante 115
conserv@@ 115
darvi 115
voce 114
a-@@ 114
tagli@@ 114
aspetti 114
diverso. 114
ativa 114
niente. 114
x 114
iche 114
faceva 114
raccogliere 114
totalmente 114
entrambi 114
lì, 114
simili 114
proprie 114
Lei 114
speci@@ 114
crescere 114
eo 113
naturalmente 113
funzionare 113
'. 113
%. 113
conosc@@ 113
tent@@ 113
ce. 113
genere. 113
vissuto 113
arte 113
ine, 113
umani, 113
presente 113
soci@@ 113
enze 113
art@@ 113
idea. 113
motiv@@ 113
dio 113
realizzato 113
c 113
a; 113
origin@@ 113
tuoi 113
ident@@ 113
telefon@@ 113
insieme. 113
ridurre 113
"M@@ 112
l'hanno 112
atti 112
intendo 112
aiuti 112
Quel 112
son 112
prest@@ 112
Ar@@ 112
ricor@@ 112
Co@@ 112
lin@@ 112
rel@@ 112
ese, 112
Cre@@ 112
conferenza 112
paura 112
loc@@ 112
Dio, 112
l'unica 112
Va 112
effetto 112
otten@@ 112
atori. 112
dor@@ 111
gri@@ 111
aperto 111
noi@@ 111
mol@@ 111
vero. 111
ragion@@ 111
dollari, 111
abile, 111
ativo 111
198@@ 111
"Il 111
fot@@ 111
etica 111
questo? 111
isti 111
pericol@@ 111
fase 111
India 111
integr@@ 111
grande. 111
giochi 111
sion@@ 111
Sh@@ 110
ieri 110
stor@@ 110
l'energia 110
assero 110
pic@@ 110
disper@@ 110
isco 110
ismo, 110
sviluppato 110
fondamentale 110
dirvi 110
lavora 110
ultimo 110
perche' 110
ignor@@ 110
volte, 110
mess@@ 110
poche 110
mit@@ 110
capi@@ 110
compl@@ 110
neur@@ 110
buone 110
Erano 110
atore, 110
matematica 110
valori 110
svilupp@@ 109
rifer@@ 109
an. 109
riusciamo 109
arrivano 109
famiglie 109
rebbe 109
potrei 109
creano 109
sett@@ 109
Africa. 109
riesce 109
strato 109
gente. 108
ce, 108
produce 108
migliorare 108
problemi. 108
miliardo 108
peso 108
bast@@ 108
inf@@ 108
momenti 108
organismi 108
mila 108
l'intera 108
pesci 108
music@@ 108
interesse 108
avremo 108
è. 108
amb@@ 108
naturalmente, 108
davvero. 107
mondiale 107
defin@@ 107
volo 107
acca@@ 107
allora, 107
rapporto 107
metodo 107
diventata 107
sic@@ 107
18@@ 107
Terra. 107
leggi 107
of 107
chiave 106
Re@@ 106
ucci@@ 106
ini, 106
ato? 106
micro@@ 106
compagnia 106
parliamo 106
Molto 106
pressione 106
geni 106
grande, 106
lo@@ 106
Tutte 106
rai 106
cc@@ 106
proc@@ 106
gere 106
esa 106
muov@@ 106
arlo, 106
stia 106
lingua 106
h, 106
Posso 106
rot@@ 106
bello 106
conosci@@ 106
enz@@ 106
pane 106
vento 106
l'altra 105
migli@@ 105
razione 105
India, 105
gir@@ 105
imm@@ 105
300 105
finire 105
nuovo. 105
cosi' 105
veniva 105
notare 105
portano 105
stessi. 105
l'ar@@ 105
poiché 105
sarei 105
fenomeno 105
era, 105
stavamo 105
comunic@@ 105
tramite 105
presenti 105
esi@@ 105
Fin@@ 105
soli 105
enormi 105
Pensate 105
Sembra 105
corpo. 105
ura@@ 105
rilev@@ 105
Ver@@ 104
problema, 104
mettono 104
villaggio 104
trasform@@ 104
diritti 104
chiedere 104
Sta 104
differenti 104
ragazz@@ 104
aereo 104
volare 104
k, 104
quest@@ 104
canzone 104
p 104
oni, 104
el 104
l'es@@ 104
tel@@ 104
riusciti 104
e", 104
zia 104
farlo, 104
viamo 104
controllare 104
fin 104
assicur@@ 104
elettr@@ 104
accade 104
sentir@@ 104
ascoltare 104
scuola. 104
velocemente 103
poll@@ 103
capaci 103
occup@@ 103
costruzione 103
misura 103
dati. 103
Dic@@ 103
atter@@ 103
emozion@@ 103
quant@@ 103
meglio. 103
vis@@ 103
ami 103
codice 103
genet@@ 103
Avevo 103
potevo 103
Immaginate 103
Vedete 103
programmi 103
software 102
mente. 102
caus@@ 102
sistem@@ 102
somma 102
particolarmente 102
capace 102
capo 102
scompar@@ 102
sch@@ 102
tit@@ 102
"N@@ 102
lezione 102
diventando 102
avanz@@ 102
arrivato 102
incontrato 102
ram@@ 102
strada. 102
strade 102
vogli@@ 102
finito 102
qui@@ 102
alcuna 102
fond@@ 102
costi 102
occhio 102
braccio 102
bor@@ 102
edifici 101
Si@@ 101
certi 101
rivol@@ 101
tiv@@ 101
ite. 101
ba@@ 101
pensi 101
gio 101
priv@@ 101
So@@ 101
dire: 101
sensazione 101
conoscere 101
almente. 101
presto 101
quante 101
laboratorio 101
copi@@ 101
t. 101
diceva 101
davvero, 101
umani. 101
umana. 101
chiaro 101
stimol@@ 101
certa 101
En@@ 101
bo 101
globale. 100
Chi@@ 100
are@@ 100
influenza 100
solare 100
emente 100
agi@@ 100
importa 100
servizi 100
esserci 100
cerchiamo 100
applic@@ 100
ciamo 100
o", 100
Dunque 100
rivel@@ 100
ricordo 100
creature 100
cervello, 100
decisioni 100
od@@ 100
terra, 100
paziente 100
istituzioni 100
miglia 99
USA 99
farci 99
fatte 99
accett@@ 99
andosi 99
fonte 99
gente, 99
perdere 99
bal@@ 99
diciamo 99
Comunque, 99
atamente 99
soli@@ 99
prem@@ 99
avessero 99
potenziale 99
conosciamo 99
bil@@ 99
pagina 99
icamente, 99
Pubblico: 99
esempio. 99
rispondere 99
generale 99
pun@@ 99
zza 99
app@@ 99
continua 99
ang@@ 99
seguire 99
det@@ 99
giust@@ 99
recente 99
ragazza 99
gl@@ 99
ich@@ 99
star@@ 99
reale. 99
ita' 98
seguito 98
notizia 98
riman@@ 98
morti 98
riuscire 98
poter@@ 98
--@@ 98
separ@@ 98
et 98
costruir@@ 98
totale 98
L'idea 98
creando 98
Giusto? 98
ff@@ 98
Bene. 98
posto. 98
Uniti. 98
chied@@ 98
giorni. 98
Vediamo 98
mort@@ 98
um 98
govern@@ 98
la. 98
allontan@@ 98
regola 98
prese 97
16 97
livelli 97
evit@@ 97
foresta 97
poveri 97
futuro, 97
mantenere 97
ball@@ 97
itt@@ 97
divertente 97
Molte 97
spos@@ 97
ordine 97
specialmente 97
scoperta 97
insieme, 97
Puoi 97
dita 97
impieg@@ 97
sedi@@ 97
ni. 97
sco@@ 97
stupi@@ 97
Po@@ 97
parlarvi 97
Oh, 97
differenze 97
potente 97
infin@@ 97
atura 97
pri@@ 97
Ti@@ 96
pren@@ 96
Loro 96
aiuto 96
utilizzare 96
ativo. 96
acqua. 96
adesso. 96
rat@@ 96
Vedete, 96
spazio. 96
complet@@ 96
Sappiamo 96
certamente 96
scopr@@ 96
Sp@@ 96
izz@@ 96
linee 96
nat@@ 96
articolo 96
passa 96
ricerche 96
terra. 96
quegli 96
otti@@ 96
L'ho 95
economia 95
Ce 95
faremo 95
esti 95
andiamo 95
Dov@@ 95
denza 95
"A@@ 95
sit@@ 95
fam@@ 95
enn@@ 95
seri@@ 95
atto. 95
evole 95
normale 95
essimo 95
diminu@@ 95
andata 95
percorso 95
grosso 95
via, 95
dec@@ 95
reti 95
sf@@ 95
render@@ 95
confer@@ 95
soldi. 95
racconta 95
insegnato 95
India. 95
relazioni 95
cen@@ 94
Bill 94
Anderson: 94
dell’@@ 94
business 94
auto@@ 94
unico 94
un' 94
secolo. 94
ismo. 94
vin@@ 94
mano. 94
ing, 94
ine. 94
possibili 94
avver@@ 94
Ok. 94
qual 94
circon@@ 94
Europa 94
Sar@@ 94
spazi 94
sa, 94
distanza 94
0, 94
collettiv@@ 94
gio@@ 94
sono, 94
sembrava 94
mille 94
principali 94
azz@@ 94
avviene 94
’@@ 94
lui. 94
esplorare 94
inglese 94
raggiunto 94
solamente 94
pesce 94
volte. 93
svegli@@ 93
ovunque 93
temperatura 93
scegliere 93
aggio. 93
abili. 93
fum@@ 93
pianeta, 93
cro@@ 93
insegnare 93
viviamo 93
nord 93
preoccup@@ 93
For@@ 93
blu 93
be 93
200@@ 93
Paul 93
arrivati 93
vicini 93
misur@@ 93
complic@@ 93
posta 93
avrete 93
anza. 93
negozi@@ 93
motore 93
mostrano 93
sembrare 93
oll@@ 93
felici 93
arsi. 93
nota 93
distribu@@ 93
anda 93
dell' 92
cio' 92
difficile. 92
avanti. 92
popol@@ 92
glob@@ 92
comp@@ 92
opera 92
No. 92
tema 92
arci. 92
maggiori 92
un'immagine 92
grafico 92
parlo 92
Ti 92
pian@@ 92
tizio 92
Or@@ 92
ete. 92
ill@@ 92
Sì. 92
in, 92
letter@@ 92
vel@@ 92
dent@@ 92
anza, 92
ont@@ 92
elev@@ 92
C 92
l'ultima 92
varie 92
soff@@ 92
afric@@ 92
zzare 91
Cor@@ 91
bruci@@ 91
entra 91
mercato, 91
epi@@ 91
senso. 91
inato 91
compito 91
agli@@ 91
rendono 91
estrem@@ 91
energia, 91
document@@ 91
chiamano 91
sh@@ 91
natura. 91
penso, 91
se. 91
semplice, 91
Due 91
messi 91
emozioni 91
pover@@ 91
Quanti 91
"Perché 91
Un'altra 91
testa. 91
chilometri 91
uno, 90
bi 90
400 90
osa, 90
mangiare 90
possi@@ 90
campi 90
governi 90
orn@@ 90
male. 90
batter@@ 90
lor@@ 90
line@@ 90
combin@@ 90
segret@@ 90
dere, 90
produttiv@@ 90
a", 90
stu@@ 90
c'é 90
sag@@ 90
uno. 90
cane 90
architettura 90
dev@@ 90
riescono 90
determin@@ 90
web 90
bri@@ 90
ciascuno 90
Sal@@ 90
prendiamo 90
remo 90
macchina. 90
occhi@@ 90
Invece 90
formiche 90
5, 89
America. 89
verde 89
presentazione 89
manten@@ 89
volont@@ 89
interessante, 89
Bu@@ 89
imento 89
farà 89
muove 89
At@@ 89
sec@@ 89
prendono 89
passione 89
fuori, 89
ciò, 89
membri 89
termin@@ 89
crediamo 89
come, 89
anz@@ 89
comput@@ 89
aliment@@ 89
gi 89
Perciò, 89
pp@@ 89
pagare 89
speranza 89
Perché? 89
area 89
presi 89
te@@ 89
associ@@ 89
idee. 89
insegnante 89
Quanto 89
vor@@ 89
spirito 88
sembr@@ 88
moglie 88
scegli@@ 88
responsabilità 88
ative 88
formazione 88
stran@@ 88
riuscito 88
principio 88
197@@ 88
A, 88
squadra 88
24 88
inser@@ 88
icato 88
decidere 88
ezz@@ 88
enti@@ 88
l'ultimo 88
endo, 88
aiuta 88
Certo, 88
animale 88
Volevo 88
caratteristiche 88
organ@@ 88
nas@@ 88
ritorn@@ 88
illumin@@ 88
insegnanti 88
log@@ 88
TED@@ 88
cresciuto 88
sens@@ 88
"Come 88
esistono 88
bur@@ 87
le, 87
mas@@ 87
campagna 87
Indi@@ 87
oni. 87
arla. 87
Poi, 87
spazi@@ 87
compet@@ 87
"Cosa 87
estin@@ 87
spazio, 87
rapidamente 87
team 87
us 87
riamo 87
analizz@@ 87
albero 87
atori@@ 87
fornire 87
pieg@@ 87
vo. 87
sala 87
fra@@ 87
individui 87
prat@@ 87
% 87
studiato 87
rimane 87
atrice 87
persona. 87
secolo, 87
prove 87
universo 87
Sei 87
data 87
oli@@ 87
etta. 87
diverse. 87
diment@@ 87
Terra, 87
rap@@ 87
segn@@ 87
dettagli@@ 86
mostro 86
CO2 86
commerci@@ 86
bellezza 86
allen@@ 86
ormai 86
creazione 86
obiettivo 86
zero 86
enze, 86
sa. 86
Richard 86
Un'@@ 86
telefono 86
va, 86
succedendo 86
Alcune 86
sente 86
funzione 86
appare 86
metto 86
essere, 86
comprensione 86
Be@@ 86
somm@@ 86
sanit@@ 86
vedete, 86
endono 86
.. 86
persona, 86
fotografia 86
70 86
aggio, 86
guard@@ 86
diritto 86
pall@@ 86
”. 85
nulla. 85
scelte 85
bio@@ 85
evitare 85
contra@@ 85
eventi 85
Ros@@ 85
fortun@@ 85
volevano 85
zi 85
funziona. 85
ep@@ 85
miglior 85
tur@@ 85
ron@@ 85
ufficio 85
Mon@@ 85
biolog@@ 85
viaggi@@ 85
registr@@ 85
ele 85
giorn@@ 85
care 85
m 85
pelle 85
sai, 85
avven@@ 85
certo, 85
minuti, 85
eni@@ 85
medicina 85
comunicazione 85
diversa 85
corpo, 85
ultima 85
favore 85
giusta 85
blog 85
notizie 85
unità 85
orient@@ 85
camm@@ 85
presidente 84
irono 84
stampa 84
atevi 84
presa 84
riun@@ 84
rom@@ 84
ura, 84
anze 84
educ@@ 84
parlare. 84
ancora. 84
14 84
dici 84
z 84
sub@@ 84
giu@@ 84
Pro@@ 84
capir@@ 84
artist@@ 84
arli. 84
C'era 84
matt@@ 84
sed@@ 84
meno. 84
veloce 84
ita, 84
vecchia 84
tue 84
Sarebbe 84
scuola, 84
avi 84
Le@@ 84
quadr@@ 84
dovevo 84
fall@@ 84
Sud 84
buco 84
perc@@ 84
inventato 84
razion@@ 84
conseguenze 84
gratu@@ 84
bambin@@ 84
stri@@ 84
riscaldamento 83
Sapete 83
cos'@@ 83
stamp@@ 83
capitale 83
scambi@@ 83
discussione 83
umano, 83
richiede 83
ni, 83
guadagn@@ 83
ragazze 83
dallo 83
trasport@@ 83
Potrebbe 83
innamor@@ 83
abb@@ 83
," 83
l'inter@@ 83
dit@@ 83
volt@@ 83
c'e' 83
avranno 83
fortuna 83
complessità 83
pubblico. 83
esc@@ 83
facci@@ 83
scel@@ 83
strutture 83
migliore. 83
à@@ 83
manifest@@ 83
es, 83
sì. 83
singola 83
fossi 83
passaggio 83
l'uso 83
ort@@ 83
ier@@ 83
sguardo 83
guerra. 83
san@@ 83
aggiung@@ 82
giorni, 82
Nei 82
entusias@@ 82
lit@@ 82
venga 82
mercato. 82
portata 82
ascol@@ 82
issimo. 82
contiene 82
libertà 82
sai 82
dati, 82
biologia 82
incoraggi@@ 82
strano 82
Pi@@ 82
vivo 82
libro, 82
pas@@ 82
"Oh, 82
pensavo 82
guardar@@ 82
ricord@@ 82
enze. 82
seduti 82
ebbero 82
molecole 82
rag@@ 82
gioco. 82
cultur@@ 82
ba 82
Charles 82
gel@@ 82
dire. 82
rimasto 82
negozio 82
Devo 82
gui@@ 81
successi@@ 81
g 81
icare 81
vendere 81
povertà 81
aspettare 81
gan@@ 81
costitu@@ 81
196@@ 81
succe@@ 81
As@@ 81
male, 81
scena 81
messa 81
c'@@ 81
atto, 81
guidare 81
natura, 81
Mio 81
va. 81
muro 81
studente 81
nuot@@ 81
resist@@ 81
vedere. 81
ire. 81
problem@@ 81
dimostr@@ 81
nucleare 81
immediatamente 80
mento. 80
ani. 80
cl@@ 80
Americ@@ 80
esta 80
id@@ 80
terreno 80
colleghi 80
sostenere 80
à? 80
usate 80
artisti 80
idee, 80
OK, 80
soprav@@ 80
sicuramente 80
meno, 80
ricordare 80
Probabilmente 80
questo: 80
essenzialmente 80
lui, 80
foto, 80
Aveva 80
invit@@ 80
petrolio. 80
cono 80
asi@@ 80
riusci@@ 80
esperienze 80
otter@@ 80
dava 80
Michael 80
strada, 80
probabile 80
bellissima 80
somigli@@ 80
luce. 80
prendete 80
visit@@ 80
ospedale 80
10@@ 80
arsi, 80
interessanti 80
feci 79
prof@@ 79
on. 79
OK. 79
So 79
punto. 79
ey 79
Spero 79
questioni 79
cielo 79
paese, 79
guida 79
paese. 79
eria 79
lasciate 79
piacere 79
successo, 79
dest@@ 79
asc@@ 79
quell@@ 79
ha@@ 79
spedi@@ 79
conver@@ 79
produ@@ 79
ità@@ 79
elabor@@ 79
standard 79
un'esperienza 79
Pa@@ 79
cri@@ 79
esi. 79
chiu@@ 79
vot@@ 79
meraviglioso 79
fogli@@ 79
ficare 79
trovo 79
l 79
polmon@@ 79
dissi: 79
en 79
gn@@ 79
dichiar@@ 79
premio 79
l'immagine 79
quotidi@@ 79
condivi@@ 79
ende 79
James 79
essi. 79
metri. 79
blocc@@ 79
disposizione 79
evento 79
gradi 79
improvvis@@ 78
fare? 78
infatti 78
mercati 78
analisi 78
aggiungere 78
gar@@ 78
prospettiva 78
10.000 78
riuscir@@ 78
pare 78
esso, 78
voglia 78
missione 78
ricev@@ 78
ll@@ 78
questa. 78
esperimenti 78
Ben@@ 78
bian@@ 78
dopo. 78
ia. 78
tanta 78
Vogliamo 78
decisi 78
vere 78
ind@@ 78
rallent@@ 78
principi 78
evi 78
piena 78
ezza. 78
tut@@ 78
proteggere 78
Lasciate 78
dunque 78
ay@@ 78
urban@@ 78
pianeti 78
l'uomo 77
andai 77
informat@@ 77
scelto 77
ossigeno 77
utile 77
Siete 77
mancanza 77
r 77
farsi 77
sogn@@ 77
minuti. 77
innovazione 77
qua 77
ura. 77
interessa 77
confront@@ 77
é, 77
rebbero 77
vag@@ 77
butt@@ 77
semplic@@ 77
90 77
avendo 77
bianco 77
uomo, 77
Stanno 77
carne 77
guardo 77
interessato 77
composto 77
muover@@ 77
ale? 77
profession@@ 77
mai. 77
el, 77
femmin@@ 77
acqua, 77
sosteni@@ 77
modell@@ 77
pe@@ 77
venivano 77
Ric@@ 77
spazz@@ 77
religione 77
classe 77
domanda. 77
personaggio 77
presenta 77
sur@@ 77
nov@@ 77
onde 77
finalmente 77
sapr@@ 76
riconoscere 76
ire, 76
particolare, 76
lizz@@ 76
profondamente 76
internet 76
usi 76
Tra 76
vest@@ 76
"Se 76
ruot@@ 76
assimo 76
sint@@ 76
cibo, 76
forz@@ 76
egli 76
funzioni 76
ampi@@ 76
perciò 76
oli. 76
energet@@ 76
17 76
proposito 76
moder@@ 76
ia, 76
cacci@@ 76
regi@@ 76
neuroni 76
ung@@ 76
parlano 76
assist@@ 76
vedendo 76
disponibili 76
cibo. 76
mattina 76
Infatti, 76
fondament@@ 76
pir@@ 76
"No, 76
inform@@ 76
oceani 76
Gu@@ 75
catena 75
respir@@ 75
altern@@ 75
lent@@ 75
potevamo 75
farne 75
pubblico, 75
organizzazioni 75
misurare 75
cercano 75
trasformare 75
sopravvivere 75
ingegneri 75
Niente 75
Ro@@ 75
organizzazione 75
mand@@ 75
chim@@ 75
rim@@ 75
preg@@ 75
pur@@ 75
azienda 75
conosciuto 75
invi@@ 75
ah@@ 75
correre 75
ranno 75
lingu@@ 75
coltiv@@ 75
affascin@@ 75
uti@@ 75
croll@@ 75
oss@@ 75
assi 75
nato 75
sfide 75
ela 75
batt@@ 75
psic@@ 75
"D@@ 75
ché 75
mamma 75
contenuto 75
connessione 75
cominciano 75
raggi 75
centrale 75
entrambe 75
eso 75
dirò 74
est 74
cort@@ 74
ame 74
trattare 74
agire 74
potrà 74
forn@@ 74
Potreste 74
iniziando 74
sempre. 74
Però 74
alità, 74
ogli 74
spi@@ 74
X 74
sequenza 74
York. 74
atura. 74
vecchi@@ 74
nero 74
pensava 74
magnet@@ 74
dettagli 74
argomento 74
bisogno. 74
chiaramente 74
incontro 74
piedi. 74
mento, 74
eccit@@ 74
sapeva 74
alità. 74
inci@@ 74
tessuto 74
isse 74
era. 74
origine 74
X@@ 74
dimentic@@ 74
idea, 74
sosten@@ 74
piant@@ 74
colori 74
Video: 74
energia. 73
cli@@ 73
rinnov@@ 73
film, 73
potremo 73
Inoltre, 73
debba 73
capis@@ 73
diff@@ 73
ativa. 73
ola. 73
color@@ 73
salt@@ 73
Cos@@ 73
ta. 73
ole, 73
fantastico. 73
sostitu@@ 73
regione 73
vista, 73
Mil@@ 73
progettare 73
zia, 73
pena 73
necessariamente 73
Dan 73
Li@@ 73
install@@ 73
ature 73
Man@@ 73
altr@@ 73
mont@@ 73
identific@@ 73
psicolog@@ 73
Mia 73
Medi@@ 73
Senza 73
affari 73
qualcun 73
National 73
gendo 73
chiede 73
l'evoluzione 73
Cer@@ 73
ota 73
quarto 73
l'India 73
economico 72
globale, 72
convin@@ 72
pubblicità 72
ettiamo 72
ovvero 72
ambient@@ 72
progettato 72
progresso 72
ras@@ 72
costruendo 72
'9@@ 72
trag@@ 72
astron@@ 72
compagnie 72
fondo, 72
dirett@@ 72
lanciato 72
progetto. 72
eci 72
resi 72
avvi@@ 72
digit@@ 72
ola, 72
morale 72
pubblica 72
presenza 72
un'occhiata 72
vado 72
straordinario 72
Dis@@ 72
saremo 72
dici@@ 72
igli@@ 72
mise 72
famoso 72
camminare 72
"Mi 72
uale 72
conclu@@ 72
sorprendente 72
prendendo 72
case 72
"Ma 72
elemento 72
sollev@@ 72
verific@@ 72
curi@@ 72
sud 72
mortalità 72
crimin@@ 72
dando 72
combattere 72
suoni 72
dolore 71
mano, 71
siccome 71
evoli 71
mandare 71
ingegneria 71
ami@@ 71
De@@ 71
inclu@@ 71
questa, 71
condizion@@ 71
corrispon@@ 71
limiti 71
Voi 71
testa, 71
assi@@ 71
cia. 71
influenz@@ 71
definire 71
enzi@@ 71
k. 71
pagine 71
attacco 71
600 71
ei, 71
muovere 71
posto, 71
ech@@ 71
intelligenti 71
oli, 71
dipende 71
nazionale 71
risposte 71
facevano 71
fos@@ 71
fest@@ 71
tendenza 71
atom@@ 71
Col@@ 71
buoni 71
secondi 71
evoluzione 71
digitale 71
cure 71
errore 71
Am@@ 71
atiche 71
pro 71
disponibile 71
issima 71
replic@@ 71
uccelli 71
oto 71
consumo 71
lus@@ 70
emissioni 70
medio 70
circol@@ 70
diversi. 70
fondamentalmente 70
violenza 70
esplo@@ 70
profondità 70
appassion@@ 70
lascia 70
facevo 70
itori 70
divenne 70
disegnare 70
vali@@ 70
credono 70
eder@@ 70
assembl@@ 70
ottenuto 70
cancell@@ 70
notato 70
aper@@ 70
sono. 70
emotiv@@ 70
luogo, 70
dover 70
flusso 70
straordin@@ 70
potessero 70
der 70
pi. 70
tre, 70
piamo 70
suonare 70
all’@@ 70
/@@ 70
mare. 70
funzionano 70
esce 70
cittadini 70
rischi@@ 70
modific@@ 70
interpret@@ 70
gambe 70
gol@@ 70
leggermente 70
destra, 70
conn@@ 70
pari 70
distribuzione 70
prigion@@ 70
spec@@ 69
eno 69
5. 69
producono 69
favor@@ 69
attu@@ 69
nutri@@ 69
api@@ 69
usati 69
parlava 69
sviluppo. 69
università 69
progetto, 69
decine 69
uti. 69
cio. 69
fantastico 69
Ab@@ 69
"Che 69
superiore 69
onda 69
bis@@ 69
facendo. 69
segnali 69
sup@@ 69
riesco 69
dite 69
mos@@ 69
arrivata 69
scienza, 69
:@@ 69
imbarazz@@ 69
programm@@ 69
esegu@@ 69
sb@@ 69
Sol@@ 69
eli@@ 69
sel@@ 69
sinistra, 69
veri 69
"O@@ 69
sentono 69
utt@@ 69
angolo 69
creatività 69
rig@@ 69
cell@@ 69
l'universo 69
aprire 69
film. 69
ingran@@ 69
dito, 69
celebr@@ 68
altrettanto 68
credi@@ 68
carbonio 68
divertente. 68
farla 68
sistema. 68
tram@@ 68
volevamo 68
infatti, 68
stanza, 68
istruzione 68
Secondo 68
domin@@ 68
l'im@@ 68
laure@@ 68
Gran 68
eta 68
diversa. 68
dipen@@ 68
meglio, 68
ile, 68
l'esperienza 68
l'arte 68
del@@ 68
York, 68
osi. 68
speciale 68
grazie. 68
ho@@ 68
erete 68
cosa? 68
Avevamo 68
dissi 68
iv@@ 68
essione 68
cui, 68
vedi 68
unica 68
indietro, 68
mezzo. 68
dica 68
riten@@ 68
inver@@ 68
bit@@ 68
ile. 68
nomi 68
buono 68
passato. 68
Mi@@ 68
varietà 68
George 68
Mor@@ 68
trem@@ 68
interno 68
din@@ 68
centri 68
16@@ 68
decisione 68
vantaggio 68
mettendo 68
contemporan@@ 68
intelligenza 68
considerare 68
guerra, 68
universit@@ 68
motivi 68
reazione 68
ù, 68
rimanere 68
essa. 68
Im@@ 68
DH: 68
economica 67
succeder@@ 67
l'opportunità 67
reddito 67
Robert 67
150 67
rus@@ 67
basta 67
coloni@@ 67
ose. 67
ciclo 67
sia. 67
ea. 67
gia 67
dovreste 67
sesso 67
mot@@ 67
genoma 67
acceler@@ 67
7, 67
uscito 67
etro 67
ea, 67
invece, 67
formare 67
l'aut@@ 67
perfettamente 67
eto 67
parti@@ 67
sebbene 67
realtà. 67
certe 67
sole, 67
due. 67
frase 67
piede 67
Qual 67
piatt@@ 67
sociale. 67
consiste 67
industriale 67
luce, 67
aumentare 67
stretto 67
terribile 67
ens@@ 67
trover@@ 67
pensato, 67
No@@ 67
sogno 67
simul@@ 67
rumore 67
una. 67
oro 67
h. 67
altrimenti 67
stell@@ 67
inizio 67
notte, 66
scherz@@ 66
puo' 66
arriver@@ 66
sia, 66
politici 66
scoper@@ 66
avano. 66
facilmente 66
aver@@ 66
comunità, 66
ossia 66
nor@@ 66
ona 66
scoperte 66
Nazioni 66
dot@@ 66
pil@@ 66
Marte 66
raggio 66
ativi. 66
orbit@@ 66
eni 66
compi@@ 66
corsa 66
macchina, 66
design. 66
13 66
lettere 66
indica 66
andoci 66
ettiv@@ 66
religi@@ 66
Proprio 66
venuti 66
articol@@ 66
tipo, 66
scriv@@ 66
consapevolezza 66
fratt@@ 66
ografia 66
2, 66
scimmie 66
seg@@ 66
essi, 66
incontrare 66
affatto 66
appropri@@ 66
segnale 66
gett@@ 66
nascon@@ 66
Los 66
seduto 66
scu@@ 66
ù 66
profondo 66
sosp@@ 66
bass@@ 66
po'. 66
uta. 66
destra. 66
Q@@ 66
ok@@ 66
Nord 66
attenzione. 66
dinam@@ 66
ste 66
mel@@ 66
d'accordo 66
metafora 66
BF: 66
tavolo 65
cad@@ 65
trovate 65
fretta 65
democrazia 65
logica 65
ottimo 65
permett@@ 65
affront@@ 65
sfera 65
assistenza 65
profonda 65
diventati 65
attr@@ 65
occa@@ 65
use 65
en, 65
eh@@ 65
inoltre 65
risolver@@ 65
ate? 65
Infatti 65
design, 65
rifl@@ 65
ne. 65
basato 65
mesi. 65
casu@@ 65
dol@@ 65
chimica 65
cci@@ 65
State 65
TV 65
issi@@ 65
rifiut@@ 65
effici@@ 65
chiamare 65
sioni, 65
umana, 65
Nat@@ 65
intera 65
concludere 65
emo@@ 65
falli@@ 65
assolut@@ 65
apprezz@@ 65
brev@@ 65
iniziano 65
immaginate 65
Quelli 65
addirittura 65
propriet@@ 65
nar@@ 65
visto. 65
soldati 65
comunque, 65
lezioni 65
permettono 65
normal@@ 65
benessere 65
dimostrare 65
sequ@@ 65
schema 65
isola 65
cel@@ 65
the 65
discipl@@ 65
raggiung@@ 65
!@@ 64
iera 64
andò 64
lettera 64
evate 64
tecnolog@@ 64
Mal@@ 64
Circa 64
peri@@ 64
ferm@@ 64
macchin@@ 64
pien@@ 64
non-@@ 64
alist@@ 64
tecn@@ 64
esclu@@ 64
amenti, 64
consigli@@ 64
Potremmo 64
intelligente 64
comunicare 64
alista 64
importanza 64
auto-@@ 64
tratti 64
signore 64
interessati 64
società, 64
incredibili 64
mesi, 64
colo 64
componenti 64
ricevere 64
17@@ 64
scatola 64
ottiene 64
conf@@ 64
"Sono 64
vist@@ 64
fiume 64
l'altro, 64
animali, 64
metri, 64
3, 64
diversità 64
"T@@ 64
storie. 64
consapevol@@ 64
cerc@@ 64
personale. 64
percentuale 64
sempre, 64
aumento 64
permetter@@ 64
bassa 64
definizione 64
Quali 64
fuori@@ 64
"E' 64
tanto, 64
atura, 64
sostanza 64
prend@@ 64
lag@@ 64
all'anno. 64
Ancora 64
spettro 64
provoc@@ 64
razz@@ 64
Ebbene, 64
disp@@ 64
madri 64
ghiacci@@ 64
api 64
8, 63
fianco 63
?” 63
ativo, 63
mezzi 63
combinazione 63
disponi@@ 63
arci, 63
animali. 63
ava, 63
fonti 63
Dovete 63
n 63
zio 63
mondo@@ 63
Sarà 63
complesso 63
pure 63
000 63
vai 63
figli@@ 63
pe 63
occhi. 63
cellula 63
Du@@ 63
genere, 63
mandato 63
utenti 63
qual@@ 63
tocc@@ 63
guardato 63
osservando 63
es. 63
cosi 63
adulti 63
5% 63
ento, 63
acquist@@ 63
potessimo 63
fut@@ 63
D 63
lic@@ 63
vicin@@ 63
affer@@ 63
Cina, 63
oggi@@ 63
Bi@@ 63
oria 63
%, 63
musica. 63
arg@@ 63
Bo@@ 63
minuto 63
ricorda 63
alismo 63
perfino 63
mezz@@ 63
abitu@@ 63
dunque, 63
atico 63
preserv@@ 63
pazi@@ 63
meg@@ 63
Mc@@ 63
movimenti 63
siti 63
personaggi 63
menti, 62
sul@@ 62
ama 62
prima@@ 62
” 62
è@@ 62
conosce 62
porter@@ 62
osi, 62
portando 62
ambi@@ 62
Bisogna 62
conversazione 62
dibattito 62
prosegu@@ 62
lanciare 62
immedi@@ 62
anal@@ 62
indietro. 62
figli. 62
importanti. 62
immagine. 62
iniziò 62
doppio 62
mai@@ 62
differ@@ 62
0@@ 62
as 62
arrabbi@@ 62
omi 62
basata 62
ull@@ 62
pratica, 62
fas@@ 62
comprato 62
direttore 62
vinto 62
ok? 62
impossibile 62
gestire 62
avessimo 62
focalizz@@ 62
ler 62
possibil@@ 62
Es@@ 62
oma 62
esperti 62
passati 62
arie 62
potenza 62
eco@@ 62
civiltà 62
fisico 62
Paesi 62
aia 62
differenza. 62
mani. 62
giung@@ 62
spin@@ 62
terapia 62
elimin@@ 62
2000 62
allo, 62
ale: 62
stesso, 62
ing. 62
fico 62
istru@@ 62
date 62
Facciamo 62
scientific@@ 62
Oppure 62
plastica 62
giard@@ 62
elettrica 62
gras@@ 62
classi@@ 62
Guar@@ 62
l'economia 62
fattori 62
dura 62
Acc@@ 62
dispositivo 62
africani 62
evole. 62
anni@@ 61
togli@@ 61
ef@@ 61
faranno 61
be. 61
raccontarvi 61
cucin@@ 61
ava. 61
compar@@ 61
allev@@ 61
possibile, 61
maggioranza 61
problemi, 61
tornato 61
addestr@@ 61
donne, 61
conoscono 61
mic@@ 61
meravigli@@ 61
ativi, 61
arti@@ 61
45 61
"B@@ 61
onest@@ 61
inti@@ 61
famiglia, 61
Hai 61
metro 61
filtr@@ 61
fred@@ 61
predi@@ 61
compon@@ 61
1.@@ 61
comuni 61
partit@@ 61
processi 61
supporto 61
esa. 61
atu@@ 61
deb@@ 61
Dal 61
noto 61
improvvisamente 61
struttur@@ 61
quadro 61
andava 61
inv@@ 61
morire 61
pubblicato 61
arr@@ 61
madre, 61
cano 61
sping@@ 61
artista 61
err@@ 61
Devi 61
montagne 61
ispir@@ 61
scienze 61
venti 61
economi@@ 61
fico, 61
famiglia. 61
errori 61
eff@@ 61
isi 61
alizzare 61
forse, 61
conseguenza 61
Stavo 61
traspar@@ 61
amici, 61
fondi 61
usata 61
ello. 61
tener@@ 61
pred@@ 61
process@@ 61
sale 61
politiche 61
foto. 61
presso 61
AB: 61
glamour 61
ogra@@ 60
ok. 60
Si, 60
cr@@ 60
° 60
passi 60
Nell'@@ 60
decisamente 60
cellulare 60
commerciale 60
as, 60
indic@@ 60
Durante 60
aggiun@@ 60
intra@@ 60
Tr@@ 60
vend@@ 60
Cioè, 60
schermo 60
reale, 60
cul@@ 60
girare 60
finale 60
riflett@@ 60
prezzi 60
preoccupar@@ 60
kil@@ 60
permettere 60
prev@@ 60
farmaci 60
caric@@ 60
virtu@@ 60
elettron@@ 60
des@@ 60
deriv@@ 60
elo 60
schemi 60
raccol@@ 60
..." 60
g, 60
montagna 60
voler 60
media, 60
giornata 60
"Ho 60
occhi, 60
vecchi 60
potenti 60
coda 60
morto 60
serv@@ 60
cadere 60
Ve 60
domanda: 60
morte. 60
gre@@ 60
bambino. 60
denti 60
sangue 60
molecola 60
riconosci@@ 60
ecolog@@ 60
contin@@ 60
metafor@@ 60
amoci 60
Cina. 60
società. 60
dif@@ 60
"E@@ 59
Ad@@ 59
contribu@@ 59
riuscite 59
ambiente. 59
scus@@ 59
l'industria 59
diam@@ 59
poste 59
gruppo, 59
copr@@ 59
conta 59
1. 59
verrà 59
cambio 59
metti 59
amore, 59
guer@@ 59
geni@@ 59
brill@@ 59
sera 59
mini@@ 59
35 59
cerco 59
ricordar@@ 59
arla, 59
ricchi 59
considerazione 59
ativa, 59
perdita 59
Afric@@ 59
ole. 59
libr@@ 59
tiene 59
opinione 59
dedic@@ 59
liqui@@ 59
lei. 59
cani 59
donne. 59
massimo 59
eo, 59
un’@@ 59
10, 59
ette. 59
asp@@ 59
fan@@ 59
musica, 59
sedia 59
volto 59
sarete 59
spezz@@ 59
scom@@ 59
sociale, 59
front@@ 59
epoca 59
Perché, 59
larga 59
osp@@ 59
petrolio, 59
ala 59
icol@@ 59
bilità 59
cause 59
adegu@@ 59
galassie 59
Pensiamo 59
intro@@ 59
vir@@ 59
itore 59
usci@@ 58
dover@@ 58
fres@@ 58
accanto 58
scoprir@@ 58
zero. 58
son, 58
temi 58
essenzi@@ 58
drog@@ 58
giusto. 58
fratelli 58
atmosfera 58
orie 58
eo. 58
legg@@ 58
America, 58
soldi, 58
essendo 58
ossi@@ 58
omi@@ 58
chiamate 58
dott@@ 58
ador@@ 58
sioni. 58
generale, 58
C. 58
davano 58
bisogni 58
cittad@@ 58
abbiate 58
evamo 58
dire@@ 58
prover@@ 58
Tu 58
manipol@@ 58
ancor 58
saper@@ 58
avanti, 58
domanda, 58
po', 58
arle. 58
us. 58
straordinaria 58
posi@@ 58
ro. 58
sfrutt@@ 58
sostanze 58
ultime 58
trattava 58
Pres@@ 58
pi, 58
alimentare 58
oh, 58
Insomma, 58
scatt@@ 58
ace 58
C'erano 58
ord@@ 58
arm@@ 58
ei@@ 58
passato, 58
comunità. 58
Ci@@ 58
dimostra 58
esercito 58
schem@@ 58
clin@@ 58
anten@@ 58
luna 58
cioè, 58
carriera 58
figli, 58
crede 58
palco 57
risparmi@@ 57
siate 57
estate 57
carbone 57
ator@@ 57
Tro@@ 57
cia, 57
portati 57
facil@@ 57
rete, 57
salute, 57
Possono 57
economia. 57
dollaro 57
L'altra 57
tecnica 57
manu@@ 57
terror@@ 57
impegno 57
1000 57
dinamica 57
abbandon@@ 57
et. 57
3. 57
settimana, 57
cominciò 57
intenzione 57
immo 57
ragazzi, 57
invecchi@@ 57
aggi 57
am 57
partecip@@ 57
vista. 57
normalmente 57
un'azienda 57
ologi@@ 57
ritmo 57
piani 57
numer@@ 57
l'uno 57
vecchie 57
industri@@ 57
vite. 57
tardi 57
scendere 57
concent@@ 57
spiegazione 57
tanto. 57
entrano 57
Ovviamente, 57
voluti 57
soddis@@ 57
Dio. 57
esercit@@ 57
edit@@ 57
fuoco 57
ok, 57
magni@@ 57
us, 57
acque 57
forma@@ 57
ug@@ 57
sistema, 57
ee 57
felicità. 57
100@@ 57
piacciono 57
intervento 57
tort@@ 57
fotografie 57
occi@@ 57
difficili 57
ette, 57
strategia 57
ezione. 57
va@@ 57
dall'altra 57
A. 57
confronto 57
lat@@ 57
sostiene 57
coltivare 57
fratello 57
network 57
connett@@ 57
museo 57
compassion@@ 57
impression@@ 56
lament@@ 56
polit@@ 56
stiano 56
legn@@ 56
pronti 56
necessità 56
Quale 56
risp@@ 56
opportunità. 56
Thomas 56
statist@@ 56
internazion@@ 56
industria 56
spaziale 56
raggiun@@ 56
tendono 56
titolo 56
zo 56
stessi, 56
diciamo, 56
Bl@@ 56
buon@@ 56
rappresentano 56
fantast@@ 56
S. 56
lei, 56
amo? 56
Qualche 56
solo. 56
tecnologi@@ 56
filmato 56
distruzione 56
4, 56
infine 56
tracci@@ 56
50, 56
ringrazi@@ 56
continente 56
km 56
architett@@ 56
possiate 56
fermare 56
spr@@ 56
cervelli 56
pac@@ 56
fenomen@@ 56
ose, 56
domande. 56
vasi 56
clienti 56
atur@@ 56
usi@@ 56
l'effetto 56
w 56
non@@ 56
succede. 56
sezione 56
flu@@ 56
Lu@@ 56
bellissi@@ 56
oceano 56
fici 56
dia 56
risult@@ 56
sentivo 56
bambino, 56
uta, 56
pronto 56
preci@@ 56
diversi, 56
abitanti 56
Pot@@ 56
equ@@ 56
educazione 56
portò 56
tal@@ 56
difficoltà 56
svol@@ 56
esperto 56
tro@@ 56
chil@@ 56
pace 56
descrivere 56
All'@@ 56
rete. 56
noti@@ 56
autorità 56
psicologia 56
creatura 56
med@@ 56
veicolo 55
all' 55
's 55
ex 55
partner 55
restare 55
eli 55
però, 55
situazioni 55
generare 55
nient@@ 55
eccetera. 55
porre 55
194@@ 55
necess@@ 55
umi@@ 55
mondiale. 55
paes@@ 55
guid@@ 55
corrente 55
sicuri 55
cres@@ 55
spen@@ 55
convincere 55
ritir@@ 55
scol@@ 55
mus@@ 55
masch@@ 55
blu, 55
disegno 55
spendere 55
piedi, 55
"L'@@ 55
barriere 55
fiducia 55
raccogli@@ 55
4. 55
proi@@ 55
ù. 55
Steve 55
cattiva 55
condizione 55
etter@@ 55
dovevamo 55
Ot@@ 55
dovevano 55
allo. 55
inst@@ 55
Ven@@ 55
mostrar@@ 55
ragione. 55
manc@@ 55
pad@@ 55
abil@@ 55
?". 55
medicin@@ 55
tentativo 55
probabil@@ 55
ement@@ 55
Port@@ 55
opere 55
evi@@ 55
tutt@@ 55
grandi@@ 55
dovrei 55
illu@@ 55
ologi 55
visti 55
emente, 55
lung@@ 55
amici. 55
Guard@@ 55
alto. 55
colpo 55
memoria 55
pericolo 55
propor@@ 55
99@@ 55
finisce 55
prevedi@@ 55
top@@ 55
minacci@@ 55
carico 55
pell@@ 55
fermar@@ 55
dito 55
cinese 55
Cominci@@ 55
emisfero 55
RB: 55
iniziai 54
collega 54
consumatori 54
liar@@ 54
cass@@ 54
cot@@ 54
let@@ 54
legno 54
ei. 54
ieri, 54
sapevamo 54
rov@@ 54
proposito, 54
budget 54
americano 54
Be', 54
ester@@ 54
tab@@ 54
Pass@@ 54
silenzi@@ 54
dissi, 54
las@@ 54
dicono, 54
cellul@@ 54
rei@@ 54
conosco 54
imento. 54
tant@@ 54
sv@@ 54
sità. 54
fran@@ 54
fir@@ 54
tenuto 54
l'aspetto 54
meccan@@ 54
consegu@@ 54
ped@@ 54
sorri@@ 54
edi 54
etta, 54
Rac@@ 54
locale 54
specializz@@ 54
continuo 54
l'architettura 54
e-- 54
ede 54
occident@@ 54
raccolto 54
durata 54
caff@@ 54
felic@@ 54
Leg@@ 54
nozione 54
vuot@@ 54
cerchio 54
fine. 54
iero 54
un'area 54
spiritu@@ 54
superficie. 54
naturale. 54
sost@@ 54
die 54
nascita 54
morte, 54
anta 54
parco 54
l'informazione 54
C, 54
settimana. 54
alto, 54
civil@@ 54
posizion@@ 54
Mol@@ 54
tratto 54
Polo 54
KB: 54
salire 53
illustr@@ 53
Dav@@ 53
quanta 53
responsabile 53
scienziato 53
rac@@ 53
ero. 53
lungo. 53
venuta 53
portatile 53
farli 53
ingegner@@ 53
volontà 53
giudi@@ 53
NASA 53
dicevano 53
superare 53
Quest'@@ 53
sfi@@ 53
fecero 53
verità, 53
secondo, 53
fede 53
consegn@@ 53
dissero 53
rosso 53
hi, 53
sopr@@ 53
web, 53
Ovviamente 53
Pal@@ 53
uov@@ 53
nuov@@ 53
Trov@@ 53
qua. 53
Sap@@ 53
partecipare 53
ettare 53
muoversi 53
dità 53
comport@@ 53
utilizzato 53
dr@@ 53
sostanzialmente 53
cambiando 53
dieta 53
franc@@ 53
uti, 53
comportamenti 53
bac@@ 53
domest@@ 53
ovunque. 53
tossic@@ 53
mani, 53
bambina 53
riuscivo 53
azione? 53
giusta. 53
offre 53
andrà 53
asci@@ 53
parole. 53
nucle@@ 53
testo 53
sessu@@ 53
c’è 53
Hu@@ 53
popolazione. 53
accadendo 53
forma. 53
torniamo 53
giappon@@ 53
guardano 53
giornale 53
anto 53
ute. 53
corsi 53
grossa 53
elli. 53
carica 53
lam@@ 53
ologia, 53
basso. 53
neri 53
l'altro. 53
relativamente 53
uguale 53
adott@@ 53
ricercatori 53
ovvi@@ 53
multi@@ 53
l'un 53
frequ@@ 53
trasformazione 53
nem@@ 53
conoscer@@ 53
largo 53
ek@@ 53
Se@@ 53
periodo, 53
assegn@@ 53
romant@@ 53
ogi@@ 53
stella 53
idro@@ 53
attrezz@@ 53
pec@@ 53
là. 53
ocean@@ 53
dinosau@@ 53
compassione, 53
efficace 52
Eravamo 52
aggiorn@@ 52
clima 52
amano 52
rizz@@ 52
esatt@@ 52
l'impatto 52
benefici 52
Internet. 52
osservato 52
spo@@ 52
grandi, 52
radio 52
facend@@ 52
ricordate 52
auto, 52
cominciai 52
comincer@@ 52
All@@ 52
scon@@ 52
sentite 52
arrivo 52
genza 52
mucchio 52
pensieri 52
pret@@ 52
Magari 52
l'aria 52
lumin@@ 52
precis@@ 52
vert@@ 52
valut@@ 52
B 52
rist@@ 52
Uomo: 52
quartiere 52
iva 52
ezioni 52
percep@@ 52
sinistra. 52
Potrei 52
supp@@ 52
calore 52
lotta 52
l'inizio 52
peggio 52
crescono 52
scienza. 52
libro. 52
incro@@ 52
D, 52
inizi 52
interag@@ 52
affi@@ 52
caso. 52
andar@@ 52
L’@@ 52
breve, 52
dell'Africa 52
farma@@ 52
Internet, 52
danza 52
trattamento 52
razione. 52
naturale, 52
coper@@ 52
eliminare 52
?@@ 52
autent@@ 52
ento. 52
blog@@ 52
armi. 52
Sa@@ 52
ve, 52
situ@@ 52
ve. 52
strana 52
arie. 52
assomiglia 52
cresc@@ 52
equilibrio 52
orta 52
fretta. 52
bellissimo 52
coordin@@ 52
consideriamo 52
dente 52
chia 52
descri@@ 52
risposto 52
50% 52
potenzi@@ 52
gall@@ 52
salute. 52
giocatori 52
antenati 52
piú 52
comportament@@ 52
stori@@ 51
elettricità 51
fattore 51
climat@@ 51
zer@@ 51
profit@@ 51
Divent@@ 51
coer@@ 51
imprenditori 51
democrat@@ 51
glio 51
me@@ 51
urb@@ 51
comune. 51
impresa 51
una, 51
zio. 51
raddoppi@@ 51
ard 51
attuale 51
inquin@@ 51
ik@@ 51
spinge 51
figura 51
marketing 51
mezza 51
dendo, 51
invisi@@ 51
specie. 51
osso 51
sta@@ 51
capisco 51
itudine 51
sufficiente 51
accordo 51
suffici@@ 51
copia 51
darò 51
2. 51
World 51
tranne 51
Tor@@ 51
New@@ 51
devast@@ 51
battut@@ 51
Dovremmo 51
cattiv@@ 51
asse, 51
icamente. 51
5.000 51
formato 51
cron@@ 51
carbur@@ 51
ripar@@ 51
là, 51
imit@@ 51
ospit@@ 51
stessa. 51
Cambi@@ 51
vono 51
compren@@ 51
Inter@@ 51
rico 51
formano 51
celeb@@ 51
scont@@ 51
confini 51
vino 51
dita. 51
forti 51
lett@@ 51
go@@ 51
viver@@ 51
accumul@@ 51
temp@@ 51
Cam@@ 51
War@@ 51
sopravvivenza 51
provando 51
siamo. 51
pel@@ 51
past@@ 51
oscur@@ 51
zziamo 51
felice. 51
Bar@@ 51
percezione 51
Londra 51
gent@@ 51
immagine, 51
conflitto 51
immagini. 51
fotograf@@ 51
alter@@ 51
assieme 51
195@@ 51
atomi 51
meccanismo 51
rett@@ 51
evoluti@@ 51
bilità. 51
vulner@@ 51
omia 51
Einstein 51
"P@@ 51
chiese 51
ponte 51
locali 51
soffer@@ 51
suona 51
brac@@ 51
video, 51
To@@ 51
palla 51
obblig@@ 51
Sem@@ 51
simmetria 51
E’ 50
abili, 50
progettazione 50
arl@@ 50
sfruttare 50
aggi. 50
speso 50
passano 50
piccolo, 50
discutere 50
denaro. 50
diri@@ 50
rapi@@ 50
l'obiettivo 50
stim@@ 50
ili 50
atamente, 50
accaduto 50
miliar@@ 50
distin@@ 50
attimo 50
1,@@ 50
torna 50
qualcuno, 50
rò 50
parlar@@ 50
Mad@@ 50
potessi 50
Wi@@ 50
tirare 50
piattaforma 50
dopo@@ 50
offrire 50
string@@ 50
rispett@@ 50
vederlo 50
paesi. 50
ognuna 50
polizia 50
ferma 50
P 50
ambienti 50
ow@@ 50
peggi@@ 50
foreste 50
diverso, 50
accoppi@@ 50
ricch@@ 50
pietra 50
notte. 50
Can@@ 50
porto 50
Marte. 50
isci 50
eva. 50
dar 50
"C@@ 50
menzion@@ 50
miamo 50
fiche 50
contenuti 50
figlia 50
capelli 50
prossi@@ 50
Oggi, 50
padre, 50
potresti 50
conti 50
insol@@ 50
online 50
formi@@ 50
d'acqua 50
capite 50
flui@@ 50
osservate 50
vo, 50
consumat@@ 50
riguar@@ 50
ricco 50
mori@@ 50
identità 50
aus@@ 50
uomo. 50
luci 50
ative. 50
infine, 50
un'enorme 50
dubbio 50
eroi 50
Grande 50
cola 50
tecniche 50
frequenza 50
impedi@@ 50
fila 50
soc@@ 50
foc@@ 50
sociali, 50
rei 50
sconosci@@ 50
aiutato 50
"Bene, 50
ai, 49
Pensavo 49
mostri 49
progetti@@ 49
consul@@ 49
nazione, 49
veget@@ 49
mani@@ 49
vac@@ 49
Ber@@ 49
auto. 49
erei 49
dann@@ 49
collaborazione 49
prendersi 49
duro 49
Prendiamo 49
aerei 49
n'è 49
100.000 49
bello. 49
pianific@@ 49
Significa 49
mappe 49
fasi 49
accur@@ 49
potranno 49
fur@@ 49
Far@@ 49
diffonder@@ 49
Bra@@ 49
ricostru@@ 49
dio, 49
dentro. 49
sostenibile 49
polizi@@ 49
anche, 49
ricon@@ 49
americ@@ 49
dip@@ 49
tengono 49
spesso, 49
danneggi@@ 49
avo, 49
moll@@ 49
attiva 49
ricerca, 49
perché. 49
cellulari 49
"E 49
recent@@ 49
assur@@ 49
simile. 49
bev@@ 49
sicuro. 49
video. 49
antrop@@ 49
fiss@@ 49
cerebr@@ 49
gioia 49
ogen@@ 49
Occident@@ 49
anzi 49
bro@@ 49
enorme. 49
trucco 49
cinqu@@ 49
ure, 49
latt@@ 49
arrivò 49
scrisse 49
Fino 49
corteccia 49
giustizia 49
picchi@@ 49
libero 49
saremmo 49
DNA. 49
itamente 49
fico. 49
esa, 49
successiva 49
distrug@@ 49
influ@@ 49
az@@ 49
aggi, 49
cresciuta 49
ON@@ 49
europ@@ 49
corpi 49
misura@@ 49
esalt@@ 49
altre. 49
tonnellate 49
Allo 49
motori 49
chiedo 49
mapp@@ 49
icità 49
scav@@ 49
galleggi@@ 49
.♫ 49
uscita 48
"Sì, 48
forni@@ 48
fed@@ 48
mondiale, 48
sviluppo, 48
scelta. 48
produr@@ 48
estrarre 48
olio 48
velocemente. 48
pre-@@ 48
perfetto 48
facciano 48
pone 48
creativ@@ 48
beni 48
espl@@ 48
magli@@ 48
o] 48
ries@@ 48
caccia 48
occupa 48
giocatt@@ 48
"Io 48
forte. 48
avreste 48
zia. 48
sott@@ 48
rappresentazione 48
iniziamo 48
success@@ 48
"Questo 48
entemente 48
deriva 48
com'è 48
ando? 48
chiamava 48
bott@@ 48
collass@@ 48
rispost@@ 48
piaceva 48
orologio 48
cominciando 48
i... 48
Tom 48
offri@@ 48
dedicato 48
controver@@ 48
colpisce 48
dell'acqua 48
HIV 48
alti 48
meravigliosa 48
vidi 48
curva 48
affascinante 48
be, 48
suolo 48
bom@@ 48
ane, 48
compassione. 48
pur 48
fondamentali 48
zzi, 48
tardi, 48
creiamo 48
imparando 48
evoluzion@@ 48
orizz@@ 48
gion@@ 48
into 48
formica 48
eti 48
perf@@ 48
Fac@@ 48
sicura 48
lentamente 48
respi@@ 48
occasione 48
oo@@ 48
media. 48
Cap@@ 48
investire 48
sentiamo 48
autor@@ 48
Tuttavia, 48
viso 48
"I 48
Parliamo 48
materi@@ 48
grandi. 48
auton@@ 48
specific@@ 48
coli 48
trib@@ 48
Darwin 48
fo@@ 48
ond@@ 48
nata 48
Su 48
povertà, 48
rivoluzion@@ 48
uom@@ 48
previsioni 48
inizio. 48
galassia 48
quar@@ 48
secondo. 48
borsa 48
ena 48
centr@@ 48
Golfo 48
.] 48
visita 48
climatico 48
pet@@ 48
poch@@ 48
origami 48
est, 48
SW: 48
onore 47
os 47
prendo 47
important@@ 47
la, 47
acquisi@@ 47
ene. 47
bravi 47
nell@@ 47
continuato 47
renderlo 47
imprendit@@ 47
brut@@ 47
parti. 47
nazion@@ 47
ersi 47
decoll@@ 47
orbita 47
aspetta 47
i?" 47
ck@@ 47
1, 47
succedere 47
angel@@ 47
originale 47
citazione 47
ck 47
trasc@@ 47
sedere 47
sincer@@ 47
nulla, 47
evo, 47
l'amore 47
mare, 47
lungh@@ 47
war@@ 47
chiudere 47
mezzo, 47
cra@@ 47
finest@@ 47
"? 47
andare. 47
ader@@ 47
esperienza. 47
flessi@@ 47
cert@@ 47
coinci@@ 47
spontan@@ 47
mato 47
attraversare 47
capiamo 47
avano, 47
lott@@ 47
salut@@ 47
Prov@@ 47
umane 47
Au@@ 47
Big 47
fui 47
tornando 47
individuare 47
ficazione 47
un'intera 47
Naturalmente 47
format@@ 47
seguendo 47
spirit@@ 47
9. 47
Regno 47
l'ap@@ 47
dottori 47
conos@@ 47
zzo 47
paragon@@ 47
Donna: 47
Medio 47
condann@@ 47
connessioni 47
indirizz@@ 47
scolast@@ 47
dettaglio 47
discut@@ 47
diffusione 47
50@@ 47
ità? 47
teorie 47
aiutano 47
ossa 47
vedremo 47
tradizione 47
Prendete 47
Tur@@ 47
dimostrazione 47
zampe 47
sanitario 47
interazione 47
abbi@@ 47
angol@@ 47
L'altro 47
cardiac@@ 47
aw@@ 47
eccell@@ 47
favore, 47
sanità 47
Ec@@ 47
camera 47
Andiamo 47
sole. 47
pesca 47
agricoltura 47
esse, 46
nell’@@ 46
sbagliato. 46
migliore, 46
calcolo 46
visto, 46
chius@@ 46
cucina 46
bili@@ 46
sforzo 46
ucc@@ 46
considerato 46
California 46
uscir@@ 46
simo 46
matemat@@ 46
vivere. 46
sofistic@@ 46
selezione 46
successe 46
deser@@ 46
Gr@@ 46
ricer@@ 46
giusti@@ 46
El@@ 46
belle 46
riferimento 46
red@@ 46
lavoriamo 46
"F@@ 46
quattro, 46
gros@@ 46
uomini, 46
ella, 46
temper@@ 46
completo 46
bagn@@ 46
amo@@ 46
fidu@@ 46
scoppi@@ 46
organismo 46
palazzo 46
campioni 46
eu@@ 46
Times 46
email 46
piccolo. 46
tende 46
ard@@ 46
limite 46
Altri 46
giro. 46
capita 46
agio 46
alc@@ 46
muri 46
dell'in@@ 46
bre@@ 46
tetto 46
osamente 46
lato, 46
vedi@@ 46
isca 46
specifico 46
prendi 46
T 46
nave 46
spostare 46
trasformato 46
pronta 46
estern@@ 46
messe 46
iper@@ 46
tuttavia 46
epidemia 46
discorsi 46
fili 46
ena. 46
guardi 46
madre. 46
dovremo 46
alcun@@ 46
piccol@@ 46
a-- 46
o-- 46
ene, 46
personale, 46
Str@@ 46
L'abbiamo 46
foll@@ 46
stess@@ 46
peggiore 46
esperienza, 46
candi@@ 46
finito. 46
strati 46
Qualcosa 46
proviamo 46
gioco, 46
studiando 46
Pri@@ 46
Deve 46
chio, 46
politica, 46
cio@@ 46
scri@@ 46
fantastica 46
rivista 46
elef@@ 46
bottiglia 46
prezi@@ 46
conquist@@ 46
Des@@ 46
oria. 46
vite, 46
consist@@ 46
paesaggio 46
passiamo 46
distrut@@ 46
Guerra 46
ay 46
ampio 46
scattata 46
utile. 46
posizioni 46
terra@@ 46
Ru@@ 46
bloc@@ 46
capisce 46
robot@@ 46
atric@@ 46
facendo, 46
v 46
movimento. 46
specie, 46
erà. 46
racconto 46
é@@ 46
O, 46
Eppure, 46
mill@@ 45
basso, 45
ton@@ 45
investimenti 45
periodo. 45
cresce 45
processo, 45
passando 45
HIV. 45
strategie 45
civile 45
disastr@@ 45
compiti 45
speriamo 45
crescendo 45
succederà 45
chiav@@ 45
Bur@@ 45
attac@@ 45
progressi 45
Marte, 45
viaggiare 45
divert@@ 45
vennero 45
potrete 45
mostra@@ 45
estet@@ 45
muovono 45
siamo, 45
quello. 45
vicino, 45
tim@@ 45
x, 45
veni@@ 45
chiuso 45
dett@@ 45
5000 45
freddo 45
stima 45
recentemente 45
vetro 45
idrogeno 45
fe@@ 45
olare 45
D. 45
vender@@ 45
utilizzando 45
attra@@ 45
fru@@ 45
amica 45
20, 45
ciare 45
esse. 45
facciamo, 45
coinvolti 45
27 45
dimostrato 45
età, 45
de? 45
inevit@@ 45
saggezza 45
diffondere 45
individuo 45
età. 45
alli 45
scorsa 45
atizz@@ 45
Viene 45
onia 45
confronti 45
suici@@ 45
student@@ 45
fol@@ 45
ispi@@ 45
arb@@ 45
atomi@@ 45
dell'energia 45
evole, 45
Howard 45
gamma 45
bocca 45
lancio 45
qui? 45
frequent@@ 45
Ne@@ 45
coraggi@@ 45
istitu@@ 45
insegnamento 45
vada 45
appren@@ 45
g. 45
denaro, 45
sing@@ 45
genti 45
in. 45
Steven 45
guerre 45
ragazzino 45
vamente 45
plac@@ 45
dottore 45
assic@@ 45
medici 45
condotto 45
base. 45
tura, 45
omet@@ 45
segreto 45
proiett@@ 45
fica. 45
superi@@ 45
rice 45
doman@@ 45
bat@@ 45
esplosione 45
radic@@ 45
fusione 45
battaglia 45
viventi 45
congel@@ 45
fossi@@ 45
aperta 45
boll@@ 45
sorprend@@ 45
battuto 45
S: 45
donna, 45
videogiochi 45
vento, 45
oceano, 45
Second 45
como@@ 44
mm@@ 44
sta, 44
gno 44
conness@@ 44
modi@@ 44
consiglio 44
potere. 44
perfett@@ 44
fanno. 44
resta 44
serviva 44
'altro 44
impres@@ 44
tradizionale 44
aci 44
f 44
cooper@@ 44
speranza. 44
arre 44
benefic@@ 44
prec@@ 44
ise 44
arrivi 44
8. 44
averlo 44
organizzare 44
capac@@ 44
OK? 44
principalmente 44
condi@@ 44
erebbero 44
nome. 44
appart@@ 44
punta 44
profon@@ 44
co-@@ 44
diede 44
essere. 44
approc@@ 44
l'ambiente 44
dipend@@ 44
basi 44
ingegneri@@ 44
naturali 44
indag@@ 44
continuamente 44
sogni 44
voci 44
ete? 44
finestra 44
fren@@ 44
facile. 44
radici 44
portate 44
scriver@@ 44
pensate, 44
pagato 44
Cent@@ 44
disegni 44
riflettere 44
gara 44
forma, 44
sicur@@ 44
integ@@ 44
dizion@@ 44
tumore 44
6, 44
9, 44
culture 44
cucci@@ 44
habitat 44
moderna 44
tà, 44
fame 44
nut@@ 44
Paese 44
Ov@@ 44
nonna 44
articoli 44
muscolo 44
muscol@@ 44
intens@@ 44
partendo 44
quindi@@ 44
genera 44
uffici@@ 44
barca 44
ista, 44
regioni 44
giun@@ 44
evoluti 44
comune, 44
sotti@@ 44
bran@@ 44
o!" 44
ispirato 44
L 44
ottimist@@ 44
fotogra@@ 44
entrato 44
restitu@@ 44
regal@@ 44
automat@@ 44
irà 44
Costru@@ 44
escono 44
moda 44
paga 44
ologo 44
accadem@@ 44
membro 44
gioi@@ 44
i." 44
esterno 44
corso. 44
decor@@ 44
tipico 44
catt@@ 44
l'un@@ 44
migr@@ 44
tes@@ 44
pensavano 44
20% 44
britann@@ 44
tempor@@ 44
organi 44
scientifico 44
simbol@@ 44
issime 44
bomba 44
gradu@@ 44
corrisponde 44
signor 44
quadrato 44
fondo. 44
cattur@@ 44
destin@@ 44
imprese 44
reali 44
E: 44
signor@@ 43
"L@@ 43
diventerà 43
dete 43
calcolare 43
razione, 43
agric@@ 43
attent@@ 43
800 43
tura. 43
evano. 43
ezione 43
un'organizzazione 43
pensare, 43
re? 43
embre 43
tav@@ 43
capire, 43
senti@@ 43
generazioni 43
responsabili 43
cir@@ 43
dirig@@ 43
banca 43
os, 43
superficie, 43
maest@@ 43
ta, 43
uccidere 43
ro, 43
difficile, 43
cuore, 43
chiedendo 43
oceano. 43
ograf@@ 43
l'oceano 43
sintetizz@@ 43
semplicità 43
arli, 43
veloce. 43
messaggi 43
colpa 43
aggiunto 43
trasforma 43
mod@@ 43
peggior@@ 43
eleg@@ 43
Avevano 43
Gra@@ 43
aiuto. 43
fossimo 43
l'edificio 43
dano 43
AIDS, 43
cardi@@ 43
malaria 43
l'an@@ 43
otta 43
utilizzo 43
deserto 43
Isra@@ 43
così@@ 43
nonn@@ 43
imper@@ 43
assumer@@ 43
farmi 43
cancro. 43
interessi 43
maggi@@ 43
resti 43
Vol@@ 43
altra. 43
lei@@ 43
demogra@@ 43
andolo 43
completa 43
misteri@@ 43
grossi 43
estra@@ 43
l'una 43
veicoli 43
assunto 43
lob@@ 43
ciascuna 43
gro@@ 43
bir@@ 43
dimension@@ 43
cerchi 43
Inizi@@ 43
otte 43
dubbi@@ 43
attualmente 43
equazione 43
capr@@ 43
direzione. 43
anc@@ 43
ò@@ 43
ì. 43
anima 43
basa 43
pensare. 43
perfetto. 43
poco. 43
polvere 43
genitori, 43
atte 43
.” 43
medico 43
Pen@@ 43
250 43
milit@@ 43
Washington 43
politico 43
mettete 43
banda 43
riduzione 43
argomento. 43
sabbia 43
oceani. 43
Gran@@ 43
scientifica 43
corpor@@ 43
informazioni. 43
element@@ 43
catori 43
atten@@ 43
razioni 43
progres@@ 43
raffred@@ 43
analizzare 43
Kar@@ 43
l'am@@ 43
scattato 43
mescol@@ 43
animazione 43
7. 43
Twitter 43
bisog@@ 42
fantas@@ 42
abbass@@ 42
Gen@@ 42
USA. 42
evidente 42
Us@@ 42
sist@@ 42
poterlo 42
cic@@ 42
riscal@@ 42
kl@@ 42
economia, 42
l'ora 42
mondi 42
civi@@ 42
più@@ 42
sov@@ 42
fondato 42
stazione 42
compagni@@ 42
volere 42
aggressi@@ 42
dentro, 42
qua, 42
esprimere 42
descrive 42
denza. 42
ragazzi. 42
successivo 42
antici@@ 42
ovvio 42
tran@@ 42
Unione 42
metabol@@ 42
clic@@ 42
presi@@ 42
dimensioni. 42
Fi@@ 42
voc@@ 42
comprender@@ 42
architetto 42
vittime 42
approfon@@ 42
quarti@@ 42
sog@@ 42
culturale 42
cancro, 42
alberi, 42
differente 42
egn@@ 42
trovi 42
dem@@ 42
32 42
Cerc@@ 42
istruzione. 42
essa, 42
polline 42
mad@@ 42
vaccino 42
colt@@ 42
Mont@@ 42
ati? 42
meraviglioso. 42
vincere 42
cresci@@ 42
planet@@ 42
pend@@ 42
Peter 42
caduta 42
mondo? 42
class@@ 42
Mer@@ 42
web. 42
forte, 42
ha, 42
mettersi 42
convincer@@ 42
perdono 42
rib@@ 42
ghiaccio. 42
remmo 42
accompagn@@ 42
fotografo 42
quest'anno 42
ni 42
indoss@@ 42
scritta 42
giamo 42
nan@@ 42
informazione, 42
diagnost@@ 42
acust@@ 42
otteniamo 42
respiro 42
ton 42
recente, 42
tà 42
oro. 42
affida@@ 42
fabbrica 42
obiettivi 42
stabil@@ 42
«@@ 42
curare 42
21 42
Europa. 42
coscienza 42
sé, 42
selezion@@ 42
interessanti. 42
gi, 42
prosper@@ 42
perde 42
entrata 42
Ragazz@@ 42
esplorazione 42
Obama 42
scarpe 41
demmo 41
ey@@ 41
vic@@ 41
Tre 41
record 41
tass@@ 41
architetti 41
Larry 41
lich@@ 41
MIT 41
piatto 41
pron@@ 41
mese. 41
contadini 41
metterlo 41
enta 41
ampli@@ 41
lontani 41
attenzione, 41
commercio 41
stan@@ 41
investimento 41
proposta 41
dicendo: 41
he@@ 41
giov@@ 41
ation 41
propri@@ 41
design@@ 41
pensier@@ 41
legame 41
circost@@ 41
la@@ 41
mese, 41
allora. 41
stadio 41
abbiamo, 41
raccolta 41
set 41
costruisce 41
solare. 41
asi 41
complessa 41
rischi 41
trascorso 41
infil@@ 41
pavi@@ 41
na 41
convinto 41
muoiono 41
diverti@@ 41
applicare 41
ah, 41
nom@@ 41
Fa 41
vide@@ 41
specchio 41
uni 41
quad@@ 41
parli 41
ai. 41
andomi 41
ingegn@@ 41
risposta. 41
cono. 41
pazz@@ 41
avo. 41
oriamo 41
are: 41
Pol@@ 41
denza, 41
pasto 41
picco 41
drit@@ 41
crist@@ 41
settimane, 41
tar@@ 41
davver@@ 41
cast@@ 41
fig@@ 41
plic@@ 41
quello, 41
richiesta 41
interventi 41
famosa 41
vast@@ 41
fun@@ 41
veramente, 41
giusto, 41
raccontato 41
questi@@ 41
costantemente 41
barriera 41
metterci 41
blocco 41
settimane. 41
ane. 41
colloc@@ 41
ragione, 41
direi 41
innovazioni 41
vertic@@ 41
parag@@ 41
mai, 41
statistiche 41
aspi@@ 41
applicazione 41
atta 41
fre@@ 41
spett@@ 41
internazionale 41
isce. 41
neve 41
l'alt@@ 41
occidentale 41
fron@@ 41
cio, 41
cuore. 41
film@@ 41
l'al@@ 41
dell'essere 41
governo, 41
trarre 41
discus@@ 41
ulare 41
istruzione, 41
carta. 41
cambiamento. 41
Ac@@ 41
l'or@@ 41
gam@@ 41
lascer@@ 41
utto 41
traff@@ 41
riserve 41
atorio 41
successo? 41
uova 41
Life 41
acido 41
squal@@ 41
citta' 41
angoli 41
sottomar@@ 41
JH: 41
coralli 41
et, 40
”@@ 40
ch 40
ipotesi 40
duc@@ 40
C'é 40
performance 40
riguardo. 40
popolo 40
politica. 40
Jo@@ 40
elett@@ 40
zucch@@ 40
opportun@@ 40
ricca 40
vacc@@ 40
prevenire 40
sé. 40
comprom@@ 40
smettere 40
ispirazione 40
esprim@@ 40
vengano 40
conoscete 40
porterà 40
parlare, 40
facciamo. 40
dimen@@ 40
preoccu@@ 40
misero 40
estremità 40
massa. 40
arrivate 40
credeva 40
calda 40
geni. 40
base, 40
milion@@ 40
agenti 40
felici. 40
giornalista 40
tiva 40
troppo, 40
i". 40
Mu@@ 40
tipo. 40
eco 40
ricostruire 40
cosci@@ 40
vitti@@ 40
Semplicemente 40
"Chi 40
credo. 40
potente. 40
gom@@ 40
coinvolto 40
omb@@ 40
contrario 40
sarò 40
golf 40
felice, 40
atelo 40
pomp@@ 40
regno 40
amor@@ 40
accettare 40
but@@ 40
superiori 40
patri@@ 40
siva 40
differenzi@@ 40
uccider@@ 40
fec@@ 40
coinvolgere 40
ulti@@ 40
storie, 40
toller@@ 40
Nelle 40
estr@@ 40
televisione 40
Quasi 40
produttori 40
curio@@ 40
magi@@ 40
emi 40
Guardiamo 40
alizzazione 40
lunghe 40
degra@@ 40
metodi 40
Francisco 40
ello, 40
afferr@@ 40
Osserv@@ 40
sbagliato 40
l'importanza 40
economisti 40
matematica, 40
compra 40
scorso, 40
chè 40
telescopio 40
stra 40
amico, 40
edu@@ 40
professore 40
rein@@ 40
asta 40
ener@@ 40
ex@@ 40
interamente 40
abbastanza. 40
aste 40
Torn@@ 40
ragazzini 40
televisi@@ 40
apparire 40
salvato 40
"Ci 40
combatt@@ 40
verranno 40
satell@@ 40
lunghezza 40
I. 40
attore 40
esterno. 40
difesa 40
protezione 40
bisogno, 40
giro, 40
elli, 40
canali 40
risal@@ 40
eca 40
piet@@ 40
protegger@@ 40
ur 40
secon@@ 40
aio 40
iniziarono 40
ota. 40
qualcos@@ 40
clinica 40
parteci@@ 40
dispositivi 40
elettro@@ 40
mes@@ 40
tele@@ 40
provenienti 40
cattivo 40
ritornare 40
partita 40
simbolo 40
caffè 40
mangiano 40
cambiano 40
— 40
uccello 40
mito 40
bottigli@@ 40
caldo 40
aeroplan@@ 39
ristorante 39
dicev@@ 39
sorpres@@ 39
dav@@ 39
USA, 39
diceva: 39
immagini, 39
itto. 39
rott@@ 39
L' 39
eci@@ 39
pubblicit@@ 39
d' 39
ricchezza 39
nazione. 39
processo. 39
promuovere 39
portarlo 39
divis@@ 39
tuttavia, 39
fornisce 39
dirit@@ 39
implicazioni 39
perder@@ 39
insegna 39
infra@@ 39
mobili 39
riguardano 39
strade, 39
Poiché 39
soggetto 39
traffico 39
nati 39
vide 39
rono 39
bordo 39
serio 39
contare 39
Pic@@ 39
canale 39
evoluzione. 39
sintet@@ 39
organis@@ 39
lunghi 39
testimoni@@ 39
automaticamente 39
a'. 39
Esiste 39
iranno 39
99 39
Microsoft 39
minuto. 39
darsi 39
Mac@@ 39
folla 39
Nessuna 39
succedendo. 39
disegnato 39
espressione 39
volume 39
intitolato 39
Naturalmente, 39
amministrazione 39
eppure 39
Dipartimento 39
incredibile, 39
obi@@ 39
tranquill@@ 39
richi@@ 39
pianificazione 39
ali? 39
esp@@ 39
diretta 39
controllo. 39
Asia 39
ume 39
ivano 39
ey, 39
dicono: 39
mir@@ 39
à: 39
are." 39
iniamo 39
farle 39
differente. 39
ista. 39
anti-@@ 39
sim@@ 39
anze. 39
ii 39
prevedere 39
sorpresa 39
denz@@ 39
capi 39
dipendenza 39
vu@@ 39
meccanismi 39
spinta 39
Unite 39
arab@@ 39
aumenta 39
idi@@ 39
ide. 39
fisica, 39
magia 39
sapevano 39
Cos'è 39
el. 39
funghi 39
pitt@@ 39
super 39
"Oh 39
così? 39
R 39
gust@@ 39
Martin 39
inqu@@ 39
menti. 39
eccezion@@ 39
sei, 39
Inghilterra 39
Pu@@ 39
Har@@ 39
bra 39
spettacol@@ 39
20.000 39
… 39
ampia 39
autore 39
inate 39
dend@@ 39
interattiv@@ 39
molec@@ 39
pa 39
vendit@@ 39
tragedia 39
realist@@ 39
ingann@@ 39
scaten@@ 39
pie 39
certamente, 39
avvent@@ 39
interagire 39
sl@@ 39
stanza. 39
casi, 39
sie 39
segnal@@ 39
teor@@ 39
Mondiale 39
istico 39
è? 39
vorrebbe 39
cifre 39
tali 39
ico? 39
rivela 39
tutt'@@ 39
Ju@@ 39
segue 39
tas@@ 39
cominciamo 39
gravità 39
atica 39
sofferenza 39
dat@@ 39
trice 39
brano 39
colonia 39
attravers@@ 39
indipend@@ 39
concorr@@ 39
centesimi 39
povertà. 39
credet@@ 39
pieni 39
campo. 39
ti? 39
ato: 39
vaiolo 39
toc@@ 39
felicità, 39
poesia 39
medicine 39
filosof@@ 39
arrampic@@ 39
LG: 39
vera, 38
vill@@ 38
foglio 38
diavolo 38
informazione. 38
contributo 38
lont@@ 38
migliori. 38
lascio 38
Cal@@ 38
emis@@ 38
ick@@ 38
ducendo 38
devamo 38
operazione 38
AIDS 38
emente. 38
modalità 38
isti. 38
darci 38
defini@@ 38
lun@@ 38
qualcos'altro. 38
50. 38
svel@@ 38
l'America 38
ers 38
ciò. 38
y: 38
verità. 38
ril@@ 38
infanti@@ 38
Go@@ 38
rato 38
sequenzi@@ 38
virus. 38
Cosi' 38
00, 38
minimo 38
all'improvviso 38
poli@@ 38
bi. 38
rava 38
inserire 38
intelligente. 38
era: 38
canz@@ 38
esam@@ 38
Washington, 38
impossibile. 38
gruppo. 38
andavano 38
vorremmo 38
amenti. 38
fonda@@ 38
trovai 38
larg@@ 38
aiutarci 38
serio. 38
densità 38
antica 38
Gre@@ 38
succederebbe 38
massa, 38
esto 38
telecamera 38
telefoni 38
andas@@ 38
l'influenza 38
insomma, 38
Tanz@@ 38
imparano 38
sottile 38
altru@@ 38
umor@@ 38
fiori 38
Ognuno 38
all'età 38
ostac@@ 38
ascoltato 38
status 38
tal 38
notevole 38
isti, 38
esistenza 38
simmet@@ 38
alzare 38
chiesto: 38
danni 38
unqu@@ 38
solare, 38
rocci@@ 38
tempo@@ 38
brillante 38
fung@@ 38
mart@@ 38
vincer@@ 38
concentrazione 38
ash@@ 38
semi 38
Itali@@ 38
th@@ 38
uccis@@ 38
marito 38
colpito 38
ghi@@ 38
roba. 38
oscura 38
l'au@@ 38
potere, 38
pensato: 38
Ori@@ 38
misi 38
buchi 38
membr@@ 38
tol@@ 38
ridicol@@ 38
ove 38
grafica 38
Art@@ 38
latte 38
igi@@ 38
decise 38
profonde 38
accedere 38
incidenti 38
terri@@ 38
inferiore 38
utili 38
competizione 38
vendo 38
illusione 38
simmetri@@ 38
manca 38
ucciso 38
sentirsi 38
mist@@ 38
26 38
un'ottima 38
legato 38
ogn@@ 38
Fu@@ 38
Wikipedia 38
funzionare. 38
legati 38
stagione 38
ì@@ 38
allung@@ 38
viet@@ 38
l'attenzione 38
l'età 38
15@@ 38
pront@@ 38
zero, 38
umanit@@ 38
univer@@ 38
fumetti 38
universo, 38
sola. 38
liev@@ 38
copertina 38
tivo 38
attacchi 38
implic@@ 38
citt@@ 38
chirurg@@ 38
cultura, 38
apparten@@ 38
blu@@ 38
fratell@@ 38
chio. 38
Islam 38
piramide 38
divers@@ 38
l'oggetto 38
Livello 38
Gore 37
giù, 37
segno 37
camion 37
presentare 37
da? 37
infinite. 37
fabbr@@ 37
anno? 37
zucchero 37
cchi@@ 37
Arri@@ 37
all'anno 37
Af@@ 37
siv@@ 37
occu@@ 37
ego@@ 37
espan@@ 37
cavallo 37
Europ@@ 37
Americani 37
atti, 37
miliardi. 37
assenza 37
ote 37
tempi. 37
nessuno. 37
biglietto 37
recuper@@ 37
so? 37
iamo. 37
d'arte 37
ano: 37
irrazion@@ 37
ridu@@ 37
dico, 37
qualc@@ 37
niente, 37
S, 37
diverse, 37
region@@ 37
aia, 37
schiacci@@ 37
ander@@ 37
sforzi 37
apre 37
piccoli. 37
depres@@ 37
contrario, 37
visitare 37
JA: 37
Sco@@ 37
effettiv@@ 37
intr@@ 37
soprattutto, 37
funzionato 37
proteg@@ 37
Nessun 37
dell'E@@ 37
venisse 37
uff@@ 37
creati 37
itto, 37
trasportare 37
util@@ 37
perifer@@ 37
d'accordo. 37
rima@@ 37
2,@@ 37
assorb@@ 37
evidenzi@@ 37
epidemi@@ 37
AIDS. 37
l'attività 37
dramm@@ 37
vicina 37
Giappone 37
sensi@@ 37
mammiferi 37
infanzia 37
elle, 37
ugu@@ 37
rifiuti 37
ambiente, 37
lasciamo 37
enne 37
nascit@@ 37
Lavor@@ 37
l'abilità 37
All'inizio 37
suggerisce 37
batterio 37
is, 37
piov@@ 37
andavo 37
andi@@ 37
120 37
biblioteca 37
isce, 37
amo: 37
andovi 37
poss@@ 37
caratteristica 37
”, 37
Ten@@ 37
press@@ 37
ica: 37
edificio, 37
laggiù 37
circuito 37
l'acqua, 37
ande 37
eroe 37
$ 37
precipit@@ 37
comportamento. 37
compor@@ 37
plast@@ 37
nucleare. 37
p. 37
concret@@ 37
fica, 37
crudel@@ 37
ecosistema 37
arriviamo 37
Iraq 37
apprendimento 37
piano, 37
divin@@ 37
umin@@ 37
natur@@ 37
am, 37
L'anno 37
Numero 37
potevi 37
situazione. 37
ì, 37
oro, 37
informazioni, 37
conclusione 37
letteratura 37
ottengono 37
yn@@ 37
normali 37
prototi@@ 37
eter@@ 37
orecchi@@ 37
interfaccia 37
adi@@ 37
Mis@@ 37
sogg@@ 37
p, 37
sopra. 37
Beh@@ 37
scenario 37
cinesi 37
19 37
l'E@@ 37
descrit@@ 37
Vu@@ 37
nascosto 37
Tal@@ 37
grande@@ 37
dall'inizio 37
farmaco 37
of@@ 37
convers@@ 37
stabilire 37
lavorare. 37
saputo 37
certo. 37
Tit@@ 37
nucleari 37
une 37
teoria, 37
imbrogli@@ 37
balene 37
over@@ 37
gon@@ 37
coni@@ 37
americana 37
meridi@@ 37
incu@@ 37
75 37
opp@@ 37
allarg@@ 37
Presidente 37
Oh 37
etern@@ 37
ach@@ 37
gentil@@ 37
stagion@@ 37
spettacolo 37
foie 37
porta, 36
chiedono 36
occupar@@ 36
ridur@@ 36
2.@@ 36
stru@@ 36
l'acqua. 36
raccoglie 36
egno 36
dargli 36
introdurre 36
tagliare 36
grano 36
economici 36
immo@@ 36
ricerca. 36
stato, 36
Bret@@ 36
fab@@ 36
sicurezza, 36
Devono 36
iniziale 36
piccoli, 36
centinaio 36
amore. 36
som@@ 36
posti, 36
agit@@ 36
risoluzione 36
rimasta 36
biodiversità 36
dell'evoluzione 36
DNA, 36
economico. 36
minim@@ 36
paesi, 36
minaccia 36
Sent@@ 36
lasciatemi 36
scher@@ 36
sovra@@ 36
ezion@@ 36
rompere 36
cab@@ 36
ritorno 36
amer@@ 36
osservazione 36
is. 36
preced@@ 36
temporan@@ 36
colli@@ 36
dotta 36
possibilità. 36
abbrac@@ 36
eri, 36
fo 36
risolto 36
grandezza 36
eamente 36
tipic@@ 36
ricre@@ 36
affinché 36
ammal@@ 36
conveni@@ 36
forest@@ 36
Banca 36
animale. 36
scimpanzé 36
biologi 36
bos@@ 36
distruggere 36
preciso 36
libera 36
zi, 36
alizzato 36
cade 36
brava 36
parlav@@ 36
stand@@ 36
oria, 36
eseguire 36
visivo 36
assumere 36
oia 36
saltare 36
neutr@@ 36
cioccol@@ 36
antico 36
edono 36
interfer@@ 36
consci@@ 36
porti 36
alte 36
Br@@ 36
ficato 36
gioca 36
fili@@ 36
ogli@@ 36
scopre 36
he 36
descritto 36
agn@@ 36
inventare 36
link@@ 36
add@@ 36
formul@@ 36
go. 36
po, 36
essione, 36
inglese. 36
gira 36
candel@@ 36
ah 36
lingue 36
Università 36
Cin@@ 36
emergere 36
ancor@@ 36
son. 36
n, 36
versi 36
ruota 36
mattino 36
gigantes@@ 36
cima. 36
bravo 36
angolo. 36
mo? 36
effettu@@ 36
normale. 36
debole 36
Cop@@ 36
aggreg@@ 36
diretto 36
vento. 36
carta, 36
Stu@@ 36
razza 36
strateg@@ 36
resto. 36
Nazionale 36
am. 36
Bud@@ 36
zo@@ 36
ness@@ 36
chip 36
innovazione. 36
villaggi 36
attesa 36
arch@@ 36
Ray 36
vamo 36
stupefac@@ 36
cervell@@ 36
funzionamento 36
plas@@ 36
alien@@ 36
testim@@ 36
pezzi. 36
ricicl@@ 36
coprire 36
viss@@ 36
armon@@ 36
vincit@@ 36
retro 36
un'ora 36
etr@@ 36
esport@@ 36
americani. 36
gal@@ 36
salto 36
perman@@ 36
credete 36
identificare 36
age 36
sensori 36
orchest@@ 36
eta, 36
espressioni 36
Bibbia 36
previ@@ 36
belli 36
selvat@@ 36
nido 36
centim@@ 36
bizzar@@ 36
ule 36
corre 36
Universo. 36
proviene 36
trasforma@@ 36
pinguini 36
siero@@ 36
benz@@ 36
acquistare 35
sforz@@ 35
pensai 35
nigeri@@ 35
sk@@ 35
fossili 35
term@@ 35
che@@ 35
mest@@ 35
vera. 35
un'opportunità 35
lungo, 35
poveri. 35
stato. 35
apertura 35
impianti 35
irsi 35
anze, 35
l'op@@ 35
itali@@ 35
zio, 35
posti. 35
leggen@@ 35
Ricord@@ 35
elo. 35
morti. 35
precedenti 35
dollari@@ 35
cela 35
filosofia 35
arte, 35
modi. 35
moltiplic@@ 35
reste 35
Reg@@ 35
l'avete 35
riguard@@ 35
raggi@@ 35
dell'oceano 35
ezze 35
verde. 35
note 35
correl@@ 35
rad@@ 35
sopravviv@@ 35
cena 35
700 35
S 35
comprensi@@ 35
orizzont@@ 35
regole, 35
ice. 35
tratten@@ 35
com'@@ 35
confron@@ 35
un'idea. 35
relazion@@ 35
Tra@@ 35
accadde 35
"È 35
costruita 35
'è 35
prestito 35
valutare 35
sin 35
architetton@@ 35
traspor@@ 35
Inoltre 35
ereb@@ 35
parcheggi@@ 35
AR@@ 35
fatti, 35
00 35
scett@@ 35
bere 35
temporale 35
uzione 35
scimmia 35
pap@@ 35
farebbe 35
solo, 35
popolazioni 35
adoro 35
ne, 35
É 35
tuta 35
acca 35
Frank 35
man, 35
u, 35
acciaio 35
giudizio 35
agna 35
centro, 35
letto, 35
essione. 35
matrimonio 35
pare, 35
bilità, 35
anni? 35
domande, 35
struttura. 35
biologi@@ 35
scontr@@ 35
esim@@ 35
rendiamo 35
esserne 35
venduto 35
continuiamo 35
Immag@@ 35
esten@@ 35
occhiali 35
"Per 35
$@@ 35
sfer@@ 35
argomenti 35
avvoc@@ 35
n. 35
sciogli@@ 35
popolare 35
intellettu@@ 35
bizz@@ 35
itu@@ 35
vivendo 35
insist@@ 35
probabilmente, 35
"W@@ 35
pirami@@ 35
Diciamo 35
sino 35
malattia. 35
osserviamo 35
guardi@@ 35
stica 35
tradizion@@ 35
ick 35
are" 35
um, 35
attori 35
quarta 35
nazionale. 35
interi@@ 35
montagn@@ 35
Don@@ 35
eci. 35
á 35
hotel 35
abbond@@ 35
Harvard 35
matematici 35
simulazione 35
necessaria 35
svilup@@ 35
positivo 35
Fanno 35
pelle. 35
oniamo 35
ecc. 35
pericoloso 35
fisici 35
tipo@@ 35
paziente. 35
sociali. 35
scende 35
suono. 35
piano. 35
contraddi@@ 35
dall'altro 35
disastro 35
entusiast@@ 35
marchio 35
Europa, 35
riserv@@ 35
povera 35
eccetto 35
sop@@ 35
locale, 35
vestiti 35
cartello 35
egu@@ 35
riconos@@ 35
danz@@ 35
rendendo 35
file 35
barb@@ 35
"The 35
PIL 35
incentivi 35
alle@@ 35
cino 35
gratis 35
vitale 35
vinc@@ 35
Quante 35
serra 35
merit@@ 35
nuotare 35
compreso 35
favore. 35
carte 35
giù. 35
Fer@@ 35
antichi 35
WK: 35
testare 35
bab@@ 35
arrest@@ 34
Casa 34
naio 34
durre 34
imenti 34
ter 34
cerebrale 34
creder@@ 34
posizione. 34
necessarie 34
Parl@@ 34
concetti 34
ariamente 34
esempi. 34
zzi. 34
infrastrutture 34
esercizio 34
mul@@ 34
appoggi@@ 34
Ho@@ 34
ust@@ 34
inaspett@@ 34
anch'@@ 34
navig@@ 34
posizione, 34
dovunque 34
ghi 34
l'essere 34
bigli@@ 34
sviluppando 34
inizio, 34
arte. 34
significato. 34
vivere, 34
funziona, 34
condivis@@ 34
immagino 34
presentato 34
aspettando 34
zza, 34
migliori, 34
ottimi@@ 34
intorno, 34
essenziale 34
00. 34
tardi. 34
ossigeno. 34
tire 34
etan@@ 34
peggiori 34
all 34
morto. 34
Appl@@ 34
d'oro 34
scat@@ 34
tess@@ 34
spingere 34
Sul 34
organizzato 34
inoltre, 34
approv@@ 34
sostanzi@@ 34
Questo, 34
pessi@@ 34
piazz@@ 34
parol@@ 34
miglioramento 34
raff@@ 34
efficiente 34
territorio 34
eti@@ 34
emo. 34
@TED 34
ade 34
é. 34
scapp@@ 34
sconvol@@ 34
contest@@ 34
trist@@ 34
chimici 34
fa? 34
avviato 34
s" 34
giardino 34
metallo 34
Institute 34
staminali 34
schelet@@ 34
percent@@ 34
Fran@@ 34
buff@@ 34
cose? 34
os. 34
edificio. 34
signora 34
chiamò 34
Cos'@@ 34
"Sì@@ 34
l'area 34
grazi@@ 34
fasti@@ 34
nuova. 34
Mat@@ 34
e...@@ 34
Cinque 34
vern@@ 34
Brian 34
glia 34
ge. 34
equi@@ 34
Quelle 34
10% 34
importante? 34
esper@@ 34
ddi@@ 34
ra? 34
considero 34
L'ultima 34
sorella 34
partic@@ 34
interrog@@ 34
pochino 34
autori 34
gi. 34
artifici@@ 34
sil@@ 34
anima@@ 34
dio. 34
guadagnare 34
finita 34
rapida 34
N 34
trovarsi 34
colori. 34
tradizionali 34
chiesi 34
ena, 34
riesci 34
Pur@@ 34
colore, 34
hiamo 34
descriver@@ 34
Ah@@ 34
iscono. 34
trascor@@ 34
quin@@ 34
superato 34
ou@@ 34
Isl@@ 34
confine 34
en. 34
mentale 34
musul@@ 34
matematico 34
seriamente 34
trovavo 34
Hill@@ 34
tedes@@ 34
livell@@ 34
Wal@@ 34
Ben 34
cogniti@@ 34
forme. 34
abituati 34
create 34
riserva 34
creata 34
spinto 34
pecc@@ 34
dendo. 34
meccanica 34
]. 34
scienziati, 34
diagnosi 34
princip@@ 34
ative, 34
rilass@@ 34
augur@@ 34
intu@@ 34
agricol@@ 34
ale" 34
cresciuti 34
Ed@@ 34
imbarc@@ 34
queste, 34
risultato, 34
tot@@ 34
pratic@@ 34
annunci@@ 34
herò 34
corruzione 34
fort@@ 34
dolor@@ 34
raccon@@ 34
riconosce 34
all'idea 34
visibile 34
istituzione 34
cher@@ 34
cariche 34
chit@@ 34
soggetti 34
lacri@@ 34
sperimentare 34
social 34
battito 34
pingu@@ 34
libell@@ 34
Nigeria, 33
positivo. 33
soli. 33
differenza, 33
Do@@ 33
sis@@ 33
respons@@ 33
Sost@@ 33
Ha@@ 33
questa: 33
Gh@@ 33
laboratori 33
campi@@ 33
econom@@ 33
dove, 33
provano 33
moto 33
concor@@ 33
gestione 33
immaginazione 33
ministro 33
cento. 33
qual'è 33
zione? 33
decennio 33
coraggio 33
l'aiuto 33
'6@@ 33
vant@@ 33
troverete 33
derà 33
andarono 33
festa 33
dicendo, 33
andammo 33
rend@@ 33
imo 33
dell'anno 33
caratter@@ 33
scoprendo 33
satellite 33
gene 33
eccitante 33
catturare 33
Fatemi 33
ue 33
issimi 33
diventate 33
schermo. 33
privilegio 33
wi@@ 33
continuano 33
m, 33
Grazie, 33
Okay, 33
Certo 33
nerv@@ 33
embre. 33
folle 33
soddisfare 33
impiegato 33
z, 33
Kevin 33
14@@ 33
neces@@ 33
sito. 33
strad@@ 33
delic@@ 33
collegare 33
tecnologie, 33
merc@@ 33
biciclett@@ 33
ferro@@ 33
atteggiamento 33
California. 33
rigi@@ 33
"non 33
passeggi@@ 33
mezz'@@ 33
tassi 33
'8@@ 33
dell'uomo 33
ciascun 33
simili, 33
all'altro. 33
nasce 33
studenti, 33
ania, 33
pist@@ 33
cere 33
giovani. 33
origini 33
laboratorio. 33
Ky@@ 33
architettura. 33
aro 33
simili. 33
tron@@ 33
diventi 33
den 33
cosi@@ 33
affam@@ 33
particolare. 33
nascere 33
sentimenti 33
periodi 33
prog@@ 33
carburante 33
balena 33
complesso, 33
tentato 33
sonda 33
fanno, 33
,000 33
intern@@ 33
collezion@@ 33
nell'universo 33
ang 33
possibilità, 33
ain@@ 33
riusciva 33
internet. 33
into. 33
Capit@@ 33
visiva 33
rapporti 33
fatti. 33
oi 33
intelligenti. 33
anelli 33
risulta 33
nascost@@ 33
scienti@@ 33
incis@@ 33
dell'universo 33
auti@@ 33
massic@@ 33
tradu@@ 33
illeg@@ 33
venite 33
contribuire 33
Franc@@ 33
risorse. 33
gio, 33
Museo 33
istica 33
foste 33
moltissimi 33
Persone 33
disco 33
dinamiche 33
capo@@ 33
diventò 33
distingu@@ 33
Spesso 33
cint@@ 33
seguir@@ 33
beneficio 33
emerge 33
vo: 33
trau@@ 33
luci@@ 33
frammenti 33
ute, 33
nuvol@@ 33
chiamati 33
"R@@ 33
rappresentare 33
Ger@@ 33
atti. 33
geogra@@ 33
povero 33
dottor@@ 33
padre. 33
fisico. 33
Crediamo 33
obbi@@ 33
voto 33
zzato 33
alline@@ 33
nell' 33
pura 33
riconoscimento 33
esperi@@ 33
econ@@ 33
risale 33
ricevono 33
interrutt@@ 33
serp@@ 33
chio 33
Adesso, 33
nic@@ 33
proteine 33
superfici 33
risparmiare 33
calcoli 33
assai 33
l'innovazione 33
religione, 33
difen@@ 33
vasta 33
affari. 33
tubo 33
ide, 33
diffusa 33
chiesto, 33
puntini 33
preparato 33
baller@@ 33
morale. 33
personalità 33
indov@@ 33
oci@@ 33
nocci@@ 33
orologi@@ 33
fronti@@ 33
entità 33
fertilizz@@ 33
palco. 33
girato 33
uri@@ 33
giornali 33
propag@@ 33
algorit@@ 33
velo 33
geometria 33
molte. 33
Long 33
glamour. 33
fattoria 32
economica, 32
Atlant@@ 32
pubbl@@ 32
ica? 32
ocrat@@ 32
mentalità 32
secondi. 32
combustibile 32
felici, 32
alberi. 32
elle. 32
straordinarie 32
Intendo 32
solu@@ 32
alisti 32
ipot@@ 32
preoccupa 32
Viviamo 32
consigli 32
21@@ 32
scrivendo 32
dig@@ 32
he, 32
enda 32
23 32
uomini. 32
cielo. 32
resistenza 32
rapidamente. 32
zi. 32
izione 32
intelligente, 32
do? 32
piante, 32
man. 32
cicli 32
ricerc@@ 32
voli 32
darà 32
ria 32
sapete. 32
issero 32
cliente 32
entrate 32
orecchie 32
finora 32
insetti 32
milli@@ 32
gono. 32
parassi@@ 32
guidato 32
sè 32
morire. 32
religioni 32
ta@@ 32
spunt@@ 32
software, 32
Semplic@@ 32
uscit@@ 32
faccio. 32
mondi@@ 32
gio. 32
Cu@@ 32
fantastico, 32
distinguere 32
motivazione 32
l'11 32
sorprendente. 32
put@@ 32
lasci 32
ambito 32
impianto 32
mia. 32
Dir@@ 32
otti 32
teatro 32
ew@@ 32
ature. 32
Fortun@@ 32
figlio, 32
vergogn@@ 32
armi, 32
università. 32
vivevano 32
profess@@ 32
leggendo 32
muscoli 32
investig@@ 32
sangue, 32
scienzi@@ 32
": 32
dita, 32
intenzion@@ 32
canzoni 32
aller@@ 32
esia, 32
dopam@@ 32
i; 32
io: 32
13@@ 32
economico, 32
gover@@ 32
maschi 32
spir@@ 32
apor@@ 32
piante. 32
bi, 32
rigener@@ 32
slide 32
tura 32
sità, 32
evident@@ 32
reinvent@@ 32
ell 32
ciò? 32
riuscita 32
senti 32
gram@@ 32
archi@@ 32
dipinto 32
amolo 32
tapp@@ 32
irrig@@ 32
issimo, 32
strapp@@ 32
arle, 32
tonnell@@ 32
conoscenza, 32
toccare 32
atro@@ 32
ley 32
Camm@@ 32
Mart@@ 32
definito 32
Google, 32
collegati 32
gang 32
"la 32
dissero: 32
irrit@@ 32
ezione, 32
risultato. 32
cruci@@ 32
posit@@ 32
interno. 32
ecco, 32
ghiaccio, 32
ero, 32
introdotto 32
abbat@@ 32
ba, 32
Th@@ 32
lati 32
confin@@ 32
sene 32
utto, 32
universale 32
Londra, 32
schizo@@ 32
cella 32
inglese, 32
solari 32
90% 32
rivolu@@ 32
bandi@@ 32
adolesc@@ 32
umane. 32
eol@@ 32
rimangono 32
costante 32
servire 32
Ah, 32
crat@@ 32
nucleare, 32
poster 32
minus@@ 32
mappa. 32
nastro 32
osped@@ 32
ula 32
familiare 32
impon@@ 32
pronte 32
stro 32
Corea 32
inferi@@ 32
moti@@ 32
Ara@@ 32
izzazione 32
splendi@@ 32
Natura 32
percento. 32
Vedo 32
arie, 32
occidentale. 32
Giov@@ 32
impulso 32
stelle, 32
veri@@ 32
Cominciamo 32
movi@@ 32
Hollywood 32
Boston 32
determina 32
viaggio, 32
Te@@ 32
Hans 32
dir 32
Rec@@ 32
matematica. 32
radicalmente 32
core@@ 32
morale, 32
Cristi@@ 32
tutela 32
poveri, 32
boc@@ 32
Sudafric@@ 32
ombra 32
2007, 32
scambio 32
l'umanità 32
sigar@@ 32
"Le 32
Lasciatemi 32
suppor@@ 32
vola 32
impara 32
rossi 32
aerop@@ 32
nottur@@ 32
coltivatori 32
traccia 32
cricket 32
adottare 31
ringraziare 31
Mett@@ 31
Bian@@ 31
poco, 31
camer@@ 31
recipro@@ 31
importanti, 31
trasporto 31
immagazzin@@ 31
spiegato 31
ricever@@ 31
etich@@ 31
condivide 31
volontari 31
Vengono 31
abi@@ 31
accessibile 31
triste 31
ame, 31
prodotti. 31
ripensare 31
oltre. 31
legate 31
John@@ 31
condivider@@ 31
eredità 31
gano 31
bombar@@ 31
segreti 31
raccolti 31
interno, 31
dario 31
dell@@ 31
sviluppa 31
pubblici 31
b 31
gin@@ 31
Bang@@ 31
emozioni, 31
etro, 31
espres@@ 31
scultura 31
squad@@ 31
bagno 31
risultati. 31
ridotto 31
Invece, 31
campione 31
differenti. 31
rica 31
nell'ultimo 31
vai@@ 31
ricom@@ 31
societ@@ 31
strano, 31
campo, 31
strumenti, 31
elen@@ 31
ricominci@@ 31
depr@@ 31
cogli@@ 31
Ecco@@ 31
Sett@@ 31
Jim 31
gend@@ 31
conferenze 31
troppe 31
possiede 31
univers@@ 31
ato... 31
fatto? 31
3,@@ 31
und 31
ettore 31
altezza 31
appunt@@ 31
business. 31
Sci@@ 31
verb@@ 31
alle, 31
altrov@@ 31
accadere 31
abbiamo. 31
Eppure 31
toss@@ 31
tempi, 31
genetica 31
rici 31
fisi@@ 31
dono. 31
ami. 31
intuitiv@@ 31
Davvero 31
Ol@@ 31
intervist@@ 31
Continu@@ 31
seduta 31
audi@@ 31
zione: 31
depressione 31
riprodu@@ 31
12@@ 31
Giappone, 31
alismo. 31
fantasi@@ 31
maschi@@ 31
chies@@ 31
gravit@@ 31
eva, 31
carbon@@ 31
Silicon 31
roccia 31
all'Università 31
merito 31
inclin@@ 31
comporta 31
usarlo 31
puls@@ 31
Nuova 31
decenni 31
Pl@@ 31
zie 31
sud@@ 31
cominciarono 31
nell'industria 31
"Lo 31
California, 31
basta. 31
arrivando 31
online, 31
scris@@ 31
lar@@ 31
Sher@@ 31
He@@ 31
faccia. 31
iss@@ 31
sappia 31
zzi@@ 31
scuol@@ 31
musicale 31
singole 31
materiali, 31
nostr@@ 31
giornalist@@ 31
tre. 31
Web 31
recit@@ 31
Quest@@ 31
trasmettere 31
tentare 31
trent@@ 31
Faccio 31
robu@@ 31
schif@@ 31
Ki@@ 31
attraver@@ 31
entemente, 31
Juli@@ 31
Iraq. 31
farlo? 31
corrett@@ 31
complicato 31
all'altro 31
laboratorio, 31
marg@@ 31
uffici 31
iamo, 31
procur@@ 31
intrappol@@ 31
Arriv@@ 31
sicuro, 31
internet, 31
giovane, 31
giocatore 31
intrecci@@ 31
Pensat@@ 31
ong@@ 31
rone 31
detto. 31
Met@@ 31
frut@@ 31
iscono, 31
odiern@@ 31
Homo 31
doppia 31
emat@@ 31
"Ok, 31
mil@@ 31
valore. 31
collater@@ 31
affron@@ 31
vorrà 31
topo 31
incenti@@ 31
The 31
orit@@ 31
estinzione 31
erb@@ 31
ogia 31
stelle. 31
gig@@ 31
tridimensionale 31
familiar@@ 31
vulcan@@ 31
infermiere 31
contengono 31
un'unica 31
do: 31
.... 31
offerta 31
erci 31
povere 31
cita 31
ami, 31
rifu@@ 31
dormi@@ 31
chirurgo 31
facevamo 31
infer@@ 31
montare 31
invitato 31
bici 31
orchestra 31
presente, 31
anziani 31
cinque, 31
anali@@ 31
positiv@@ 31
talk 31
denzi@@ 31
veloce, 31
Nonostante 31
registra@@ 31
sonno 31
avvicina 31
Adoro 31
SI@@ 31
riceve 31
besti@@ 31
bim@@ 31
isole 31
deleg@@ 31
fluttu@@ 31
Jill 31
hi. 31
osfer@@ 31
paci@@ 31
montagna. 31
schiavitù 31
ibri@@ 30
conferenza, 30
ma... 30
ore@@ 30
corre@@ 30
amministr@@ 30
causato 30
locale. 30
bag@@ 30
bru@@ 30
continente. 30
moltissimo 30
das@@ 30
economie 30
peggior 30
bilmente 30
propon@@ 30
Germania 30
necessari 30
globalizzazione 30
infrastruttura 30
seguito, 30
terrorismo 30
abilità. 30
Bush 30
Rit@@ 30
nera 30
inventore 30
militari 30
strano. 30
Rock@@ 30
controllo, 30
prodotto. 30
market@@ 30
considerano 30
bellezza, 30
evoli. 30
contatt@@ 30
ult@@ 30
pensavamo 30
lavorava 30
ufficio, 30
Chris, 30
tazz@@ 30
dialogo 30
straordinario. 30
po. 30
dirci 30
Rag@@ 30
dirmi 30
edizione 30
portiamo 30
sito, 30
ardo 30
reper@@ 30
oma. 30
Eb@@ 30
cruciale 30
altri@@ 30
chimico 30
a', 30
edì 30
ascoltando 30
porta. 30
io@@ 30
software. 30
ù@@ 30
finir@@ 30
penn@@ 30
Sulla 30
onn@@ 30
piang@@ 30
US@@ 30
tira 30
Rick 30
resa 30
program@@ 30
risonanza 30
prescindere 30
ritengo 30
definitiv@@ 30
collegato 30
sostenibile. 30
65 30
collegamento 30
oggetti. 30
avere, 30
pau@@ 30
genitori. 30
ay, 30
pannelli 30
cinese, 30
glielo 30
generazione, 30
paiono 30
sfam@@ 30
Pas@@ 30
L'unica 30
oto, 30
lontano, 30
sviluppar@@ 30
ey. 30
neurosci@@ 30
risposta, 30
tos@@ 30
aggiust@@ 30
riguardo, 30
neppure 30
controlla 30
riuscit@@ 30
fortuna, 30
orgogli@@ 30
Gol@@ 30
her 30
bam@@ 30
arti. 30
trend 30
invenzione 30
post-@@ 30
invecchiamento 30
amare 30
lasciano 30
crescente 30
lenti 30
har@@ 30
tere 30
bia 30
vaccini 30
produttività 30
fondamentale. 30
coste 30
operazioni 30
Stephen 30
corn@@ 30
parent@@ 30
muoi@@ 30
atrici 30
traiett@@ 30
cosm@@ 30
piacci@@ 30
ideale 30
senz@@ 30
unci@@ 30
illusioni 30
raggiunge 30
e', 30
soldato 30
dato. 30
autorizz@@ 30
Nello 30
El 30
immaginare, 30
attribu@@ 30
invito 30
oh@@ 30
finale. 30
immens@@ 30
cente, 30
Mos@@ 30
distr@@ 30
ologia. 30
brevemente 30
bianchi 30
seggiol@@ 30
Com'è 30
impedire 30
dimostra@@ 30
malgrado 30
Infine, 30
andoli 30
piccola, 30
legata 30
cielo, 30
fortemente 30
ricav@@ 30
giovani, 30
out@@ 30
componente 30
at 30
canto 30
dedicar@@ 30
vicino. 30
preparazione 30
ern@@ 30
sola, 30
spalle 30
Is@@ 30
milioni. 30
vuoto 30
bancar@@ 30
enni 30
sensori@@ 30
fatti@@ 30
caratterist@@ 30
ammas@@ 30
ara 30
migra@@ 30
fiamm@@ 30
diapositiv@@ 30
intorno. 30
Seconda 30
porte 30
osfera 30
infermi@@ 30
meravigliosa. 30
Tre@@ 30
sotto. 30
vediamo, 30
rese 30
trasmissione 30
speciale. 30
giunto 30
chio@@ 30
dell'economia 30
profu@@ 30
succede? 30
paesaggi 30
ela. 30
paziente, 30
batteria 30
onale 30
contagi@@ 30
solit@@ 30
mischi@@ 30
roves@@ 30
particolari 30
vedeva 30
Tim@@ 30
Ricordo 30
bianca 30
spettr@@ 30
videogio@@ 30
cultura. 30
vivi@@ 30
arci@@ 30
is 30
sfondo 30
esperimento. 30
o♫ 30
B, 30
rocce 30
riscald@@ 30
dinosauri 30
Universo 30
sità 30
pattern 30
grasso 30
declino 30
selv@@ 30
calam@@ 30
ort 30
simmetrie 30
bron@@ 30
era' 29
parecchio 29
mostrando 29
automobi@@ 29
Immagin@@ 29
gimento 29
sara' 29
reb@@ 29
eda 29
sera, 29
combusti@@ 29
morti, 29
ign@@ 29
ricordato 29
tornati 29
generato 29
Eccol@@ 29
contad@@ 29
soglia 29
debbano 29
nè 29
Primo, 29
ali: 29
pochissimi 29
Secondo, 29
Oxford 29
eredit@@ 29
rimasti 29
], 29
cellulare. 29
massima 29
Rus@@ 29
dozzine 29
analog@@ 29
van@@ 29
infett@@ 29
assomigli@@ 29
giudic@@ 29
sotto, 29
definisce 29
biologia. 29
de: 29
facili 29
sich@@ 29
ammettere 29
facce 29
all'inizio, 29
aperto, 29
Pun@@ 29
fargli 29
altamente 29
ock 29
sensi 29
land@@ 29
subito. 29
è... 29
chiesa 29
tutti@@ 29
renda 29
incoraggiare 29
detta 29
particol@@ 29
amiamo 29
costoso 29
facesse 29
And@@ 29
ogram@@ 29
lampad@@ 29
petroli@@ 29
uss@@ 29
dimostrano 29
paura, 29
Conos@@ 29
go, 29
ieri. 29
itto 29
hei@@ 29
cercavo 29
feg@@ 29
osse@@ 29
eccessi@@ 29
elim@@ 29
ando@@ 29
connesso 29
si? 29
parlando. 29
Her@@ 29
presentano 29
perdi@@ 29
loro: 29
pranz@@ 29
rum@@ 29
settembre 29
visualizz@@ 29
palco, 29
ciel@@ 29
termine. 29
familiare. 29
averne 29
un'altra. 29
UN@@ 29
immaginare. 29
tavola 29
materiali. 29
biologia, 29
ficata 29
Eccone 29
CO@@ 29
ata? 29
neb@@ 29
verdi 29
centro. 29
Esistono 29
Consider@@ 29
ore? 29
cambiamento, 29
libertà. 29
umanità 29
ossession@@ 29
ape 29
perfetta 29
abilità, 29
cioé 29
fatta. 29
ago 29
quando, 29
avrò 29
piacere, 29
frasi 29
prodotta 29
ater@@ 29
Satur@@ 29
zamp@@ 29
Ter@@ 29
puli@@ 29
ragazzo, 29
lontano. 29
potr@@ 29
connettere 29
diffuso 29
and, 29
ter, 29
ripresa 29
'anni 29
riso 29
uli 29
Lavoro 29
Incredi@@ 29
successivi 29
perd@@ 29
così: 29
proprio. 29
trattato 29
avevi 29
conven@@ 29
3.@@ 29
svolgere 29
lig@@ 29
mission@@ 29
superfic@@ 29
dimensioni, 29
arti, 29
obietti@@ 29
regole. 29
stanze 29
sera. 29
americano, 29
itare 29
persone? 29
secoli 29
33 29
digitale. 29
c’@@ 29
Sir 29
braio 29
tenda 29
ton, 29
auto-organizz@@ 29
riflette 29
unit@@ 29
predire 29
endi@@ 29
30, 29
cina 29
dri@@ 29
radicale 29
riduce 29
lass@@ 29
fuoco. 29
condiviso 29
ecchi@@ 29
telefono. 29
produttore 29
legge. 29
diviso 29
iera. 29
azionale 29
si: 29
sappiamo. 29
nell'universo. 29
buio 29
include 29
lente 29
torno 29
finire, 29
pensiate 29
peso. 29
sostenibilità 29
ambientali 29
un'economia 29
nell'Africa 29
gonfi@@ 29
terrem@@ 29
enza? 29
art 29
corti@@ 29
secondi, 29
fermato 29
get@@ 29
show 29
sede 29
rilevare 29
registrazione 29
terrific@@ 29
priorità 29
unt@@ 29
div@@ 29
dipendenti 29
Mas@@ 29
ce@@ 29
visualizzazione 29
incen@@ 29
onor@@ 29
lassù 29
interazioni 29
numeri. 29
verificare 29
naso 29
Benjamin 29
monitor@@ 29
goccia 29
direzioni 29
sinistr@@ 29
crimine 29
30% 29
ui 29
vestito 29
camminando 29
battere 29
cavi 29
line 29
registrato 29
ratti 29
movimento, 29
trasferire 29
Lif@@ 29
dizionario 29
tolto 29
fantasma 29
cereali 29
radiazione 29
indiani 29
 @@ 28
Poco 28
grat@@ 28
0,@@ 28
brutta 28
crescer@@ 28
spese 28
fich@@ 28
Dem@@ 28
americano. 28
h: 28
ingegnere 28
ogg@@ 28
studenti. 28
risorsa 28
dibatt@@ 28
capitalismo 28
internazionali 28
corruzione, 28
linguaggio, 28
racconterò 28
he. 28
critica 28
funzionato. 28
fav@@ 28
Dev@@ 28
rossa 28
militare 28
Dato 28
dozzina 28
andav@@ 28
Bob 28
moderno 28
are... 28
spesa 28
caro 28
tentando 28
provate 28
stacc@@ 28
decisero 28
vas@@ 28
pranzo 28
spedizione 28
geni, 28
chiest@@ 28
Sen@@ 28
oti@@ 28
ossigeno, 28
complessi 28
ritar@@ 28
divertente, 28
piacevole 28
m. 28
ativ@@ 28
aggiungiamo 28
giorno@@ 28
passo, 28
abbracci@@ 28
i" 28
T. 28
Ex@@ 28
quota 28
etro. 28
catalog@@ 28
scad@@ 28
dimenticato 28
mattina, 28
straordinariamente 28
costruite 28
shi@@ 28
guidar@@ 28
risorse, 28
confu@@ 28
producendo 28
accendere 28
25@@ 28
obes@@ 28
l'aumento 28
contamin@@ 28
siede 28
diversa, 28
erba 28
adatto 28
strum@@ 28
Stato 28
ele, 28
Rob@@ 28
sangue. 28
campan@@ 28
cammino 28
trovò 28
Mondo 28
battuta 28
denti, 28
molecol@@ 28
My@@ 28
amp@@ 28
conv@@ 28
certezza 28
contrario. 28
ulla 28
molti, 28
avviso, 28
portarono 28
bicchi@@ 28
clip 28
Whit@@ 28
chimiche 28
ero' 28
assu@@ 28
ale@@ 28
togliere 28
Darw@@ 28
telefono, 28
unque. 28
matrimon@@ 28
40% 28
riprodur@@ 28
che... 28
ent 28
mo: 28
l'altra. 28
ferti@@ 28
significhi 28
umanità, 28
diagramma 28
procedura 28
parzi@@ 28
ppi@@ 28
fess@@ 28
emi, 28
up 28
Vai 28
zu@@ 28
atem@@ 28
l'esempio 28
sali@@ 28
Essere 28
South 28
oh 28
cambierà 28
formaggi@@ 28
antenn@@ 28
soffri@@ 28
Giu@@ 28
educazione, 28
Insegn@@ 28
coster@@ 28
estremo 28
renderla 28
adatta 28
Super@@ 28
Ai 28
yl@@ 28
anteri@@ 28
bolle 28
completamente. 28
muc@@ 28
dollar@@ 28
scoprì 28
doc@@ 28
stas@@ 28
ota, 28
aziend@@ 28
quattro. 28
zona. 28
pendi@@ 28
omici@@ 28
americani, 28
bon@@ 28
minima 28
ragionamento 28
ginocchi@@ 28
rebber@@ 28
rimar@@ 28
cartell@@ 28
rendo 28
polver@@ 28
piccole, 28
soluzione. 28
confl@@ 28
comand@@ 28
l'av@@ 28
tangi@@ 28
dam@@ 28
a!" 28
q@@ 28
sicurezza. 28
speranza, 28
pompi@@ 28
risposto: 28
tribù 28
3000 28
Nobel 28
Sch@@ 28
qualific@@ 28
feb@@ 28
ottenete 28
boom 28
sot@@ 28
zzi 28
tipica 28
mangiare. 28
attraversa 28
Dor@@ 28
arità 28
bene? 28
dev'essere 28
incontrano 28
gamba 28
istante 28
autorit@@ 28
trasformer@@ 28
minore 28
Quattro 28
circa, 28
virtuale 28
Ir@@ 28
orri@@ 28
cellule, 28
ì? 28
sivo 28
ee, 28
epoca, 28
Nigeria 28
iniziativa 28
it, 28
orizzon@@ 28
fe 28
Einstein, 28
fisica. 28
empati@@ 28
rallentare 28
difficol@@ 28
sopravvivere. 28
impor@@ 28
umi 28
Hong 28
Nov@@ 28
ke 28
Iran 28
disposizione. 28
sesto 28
opi@@ 28
1.000 28
vibra@@ 28
argli 28
rà. 28
l'Africa. 28
intratten@@ 28
rimos@@ 28
Etiopi@@ 28
manuale 28
sorg@@ 28
allont@@ 28
azienda, 28
teat@@ 28
intervi@@ 28
Taleb@@ 28
uscite 28
pensione 28
titoli 28
bei 28
pros@@ 28
direi@@ 28
Eg@@ 28
classica 28
americana. 28
manti@@ 28
e♫ 28
adul@@ 28
genoci@@ 28
inizialmente 28
bandiera 28
bar 28
bo, 28
zanzar@@ 28
bello, 28
orientale 28
debol@@ 28
pratica. 28
riconoscer@@ 28
paradigma 28
elettromagnet@@ 28
vul@@ 28
dispiace 28
intitola 28
incar@@ 28
oggetto, 28
resto, 28
settori 28
laser 28
lontana 28
chiediamo 28
interagiscono 28
tang@@ 28
provi@@ 28
sinistro 28
PC@@ 28
piastr@@ 28
retr@@ 27
discorso, 27
nervoso 27
famiglie, 27
ecologia 27
parlarne 27
queste. 27
facilmente. 27
efficaci 27
puzz@@ 27
ino@@ 27
pesante 27
carbonio. 27
numero, 27
persu@@ 27
fumo 27
gravi 27
albero, 27
villaggio, 27
uso. 27
gil@@ 27
cred@@ 27
usavano 27
dimento. 27
favol@@ 27
rare 27
denze 27
famiglie. 27
Altre 27
bb@@ 27
sempli@@ 27
paura. 27
equivalente 27
ispirare 27
30.000 27
ek 27
6. 27
Apple 27
inven@@ 27
endoci 27
sapev@@ 27
passione, 27
parad@@ 27
sapete? 27
D'@@ 27
aco 27
indipendente 27
ppi 27
passate 27
moglie, 27
naturali. 27
50.000 27
29 27
artificiale 27
cromos@@ 27
ossido 27
modificare 27
gia' 27
seder@@ 27
database 27
occ@@ 27
or, 27
Media 27
ager 27
volesse 27
contatti 27
sbagliata 27
edere 27
riuni@@ 27
augu@@ 27
fondazione 27
est. 27
struttura, 27
Wil@@ 27
nuovamente 27
isl@@ 27
elettrica. 27
Dr. 27
passata 27
pluvi@@ 27
affrontato 27
Speci@@ 27
28 27
università, 27
ggi@@ 27
Dom@@ 27
precedente 27
bol@@ 27
memoria, 27
sentii 27
tum@@ 27
regolare 27
stam@@ 27
esperiment@@ 27
sessione 27
ow 27
za 27
camp@@ 27
tutto@@ 27
hot@@ 27
spesso. 27
Tutta 27
esamin@@ 27
ole@@ 27
risponde 27
dieci@@ 27
positive 27
eccitante. 27
velo@@ 27
dappertutto. 27
Terra@@ 27
genio 27
algoritmi 27
introdu@@ 27
pazienti. 27
stupen@@ 27
approssi@@ 27
parall@@ 27
ologica 27
piaciuto 27
dell'umanità 27
"In 27
azione: 27
sbagliata. 27
cch@@ 27
milioni, 27
55 27
contento 27
influenzare 27
Sk@@ 27
fenomeni 27
.com 27
fondata 27
brutto 27
liberi 27
utente 27
vorrebbero 27
aperto. 27
oncin@@ 27
apparentemente 27
applicazioni 27
corso, 27
panorama 27
biscot@@ 27
alleg@@ 27
osser@@ 27
Progetto 27
ider@@ 27
estratto 27
osci@@ 27
produt@@ 27
causare 27
ricorr@@ 27
modello. 27
frig@@ 27
Latt@@ 27
adult@@ 27
William 27
han 27
prigione 27
l'equivalente 27
amici@@ 27
orribile 27
bord@@ 27
complessi@@ 27
feder@@ 27
00@@ 27
iner@@ 27
pelle, 27
prototipo 27
dietro. 27
attimo. 27
singoli 27
tracce 27
piccole. 27
cercherò 27
catastro@@ 27
Man 27
lancia 27
uccide 27
atamente. 27
MI@@ 27
dire? 27
garant@@ 27
compres@@ 27
enc@@ 27
pubblica. 27
calcio 27
foglie 27
omi. 27
G 27
sindrome 27
gambe. 27
rub@@ 27
professionisti 27
piaci@@ 27
vorranno 27
circuiti 27
elettroni 27
TA@@ 27
atlet@@ 27
venire. 27
sappiamo, 27
fragi@@ 27
terapie 27
pro-@@ 27
cellule. 27
descrizione 27
cognitiv@@ 27
esemplari 27
terre 27
lis@@ 27
viaggio. 27
causa. 27
dito. 27
L'ultimo 27
"Ah, 27
metta 27
convinzione 27
dunque. 27
nazioni. 27
caratterizz@@ 27
pianeti, 27
Sole 27
anidride 27
gusto 27
variazioni 27
erai 27
Jack 27
lontan@@ 27
affermare 27
vantaggi 27
ala, 27
adesi@@ 27
Ari@@ 27
recuperare 27
conflitti 27
progetti. 27
ospedali 27
sub-sahari@@ 27
ambul@@ 27
al. 27
anda@@ 27
desideri 27
Sc@@ 27
distanza. 27
l'O@@ 27
imento, 27
buono. 27
zionale 27
intui@@ 27
climatico. 27
onale, 27
andola 27
confon@@ 27
testa-croce-@@ 27
eserci@@ 27
arri@@ 27
agente 27
fatica 27
curv@@ 27
invisibile 27
potenzialmente 27
Nord. 27
condividono 27
osità 27
uccise 27
frattempo, 27
primo, 27
avermi 27
raramente 27
reazioni 27
opini@@ 27
accadrà 27
ediamo 27
Generale 27
medit@@ 27
carattere 27
soffi@@ 27
pianta 27
parola, 27
frammento 27
tunnel 27
Mam@@ 27
Me@@ 27
robot, 27
sinap@@ 27
pt@@ 27
filamenti 27
'' 27
tribu' 27
ristor@@ 26
coppia 26
!". 26
scritt@@ 26
guada@@ 26
Val@@ 26
personali 26
salta 26
Parlando 26
sciocc@@ 26
semplici, 26
cann@@ 26
masse 26
prodotto, 26
costruzioni 26
efficac@@ 26
democrazia. 26
scioc@@ 26
contesto. 26
Cl@@ 26
10. 26
itti@@ 26
incluso 26
fisico, 26
Volete 26
rifi@@ 26
chiedete 26
agna, 26
ugualmente 26
Comunque 26
Notate 26
pilota 26
rapidamente, 26
biglietti 26
cercate 26
cambiato. 26
super-@@ 26
malattia, 26
tipo: 26
accettato 26
Funziona 26
tru@@ 26
interessanti, 26
On@@ 26
trovi@@ 26
Cio@@ 26
Oceano 26
enorm@@ 26
hard@@ 26
area. 26
blocchi 26
composti 26
realta' 26
OK 26
faccia, 26
l'impressione 26
originale. 26
mouse 26
ora? 26
Ag@@ 26
niamo 26
PC 26
implica 26
je@@ 26
costano 26
cavo 26
scrive 26
well 26
iment@@ 26
Tu@@ 26
KA: 26
paralizz@@ 26
esima 26
generale. 26
genz@@ 26
Visto 26
nome, 26
gradi. 26
mmo 26
su. 26
350 26
Consiglio 26
eccezione 26
viveva 26
d'acqua. 26
autobus 26
volete. 26
etri 26
l'A@@ 26
endosi 26
T, 26
teri@@ 26
conci@@ 26
n'@@ 26
scientifico. 26
brillan@@ 26
ature, 26
uccelli, 26
risponder@@ 26
treno 26
libri. 26
arrivai 26
promuov@@ 26
insiem@@ 26
lasciando 26
insegu@@ 26
crescere. 26
as. 26
W: 26
hal@@ 26
Sapevo 26
tecnici 26
ra: 26
farti 26
"Quando 26
evoluzione, 26
assume 26
entrando 26
tradizioni 26
TV, 26
"il 26
connessi 26
miner@@ 26
dono, 26
Impar@@ 26
codi@@ 26
sostituire 26
fri@@ 26
sopport@@ 26
guari@@ 26
Chil@@ 26
basate 26
cogliere 26
posse@@ 26
grezz@@ 26
Inghilterra, 26
tecnologie. 26
complesse 26
sopra, 26
fabbric@@ 26
risor@@ 26
8% 26
simile, 26
"Voglio 26
uma 26
mangia 26
X, 26
transizione 26
d'arte. 26
succede, 26
apri@@ 26
dovresti 26
Ancora, 26
poich@@ 26
allucinazioni 26
omia, 26
pis@@ 26
Yo@@ 26
ovunque, 26
insegnanti, 26
Lat@@ 26
conoscenza. 26
regalo 26
22 26
dovrà 26
eria. 26
gesto 26
dog@@ 26
spazzatura 26
apparecchi@@ 26
eri. 26
elast@@ 26
scavare 26
care. 26
tivi 26
scaff@@ 26
Hy@@ 26
Pari@@ 26
atici 26
alb@@ 26
Lam@@ 26
proven@@ 26
giocano 26
studio, 26
rischio. 26
complicata 26
centrale. 26
notate 26
pill@@ 26
pero 26
Keith 26
costruiamo 26
pollo 26
Brasile 26
gru@@ 26
Amo 26
pace. 26
azionale. 26
insi@@ 26
protest@@ 26
Vor@@ 26
pianet@@ 26
ol 26
pomerig@@ 26
conoscenze 26
insegnano 26
dominio 26
situazione, 26
birra 26
moltissime 26
rep@@ 26
efficienti 26
C'e' 26
ze 26
viaggi 26
significativo 26
Via 26
eta. 26
definir@@ 26
sprec@@ 26
affermazione 26
l'approccio 26
trattenere 26
svolta 26
catastrof@@ 26
sequenze 26
velocemente, 26
trop@@ 26
Philip 26
mata 26
tocca 26
palu@@ 26
Ascolt@@ 26
aned@@ 26
dico: 26
unir@@ 26
resi@@ 26
questi. 26
universo. 26
ragioni. 26
l'esistenza 26
qualcos'altro 26
gatto 26
tè 26
pensarci 26
vicine 26
preven@@ 26
Arthur 26
Svizz@@ 26
capiscono 26
vivi 26
obesità 26
banche 26
sembravano 26
Lasci@@ 26
tre@@ 26
terreno. 26
Primo 26
inserito 26
l'elettricità 26
cran@@ 26
altro? 26
indossare 26
diplomat@@ 26
ler, 26
vaccin@@ 26
procedi@@ 26
terribili 26
ereste 26
avate 26
dell'umanità. 26
cono, 26
mappa, 26
Nord, 26
comportano 26
esempio: 26
sapendo 26
scale 26
fidanz@@ 26
lavoravo 26
forza. 26
dovrete 26
Provate 26
trans@@ 26
vendi@@ 26
Bibbi@@ 26
ema 26
oco 26
studia 26
voi? 26
pesc@@ 26
iere, 26
Perch@@ 26
passegger@@ 26
zanzariere 26
migliaio 26
obiettivo. 26
Las@@ 26
Egli 26
corvi 26
sos@@ 26
romanzo 26
obby 26
vibr@@ 26
Voleva 26
l'istruzione 26
diventeranno 26
Mola 26
finiscono 26
particella 26
colonie 26
regina 26
proprietario 26
notizi@@ 26
pioggia 26
equilibri@@ 26
documenti 26
ristoranti 26
micelio 26
rover 26
Ford 25
successa 25
annunciato 25
pagano 25
tive 25
efficienza 25
annu@@ 25
remi@@ 25
attivi. 25
raccom@@ 25
simi@@ 25
ita@@ 25
alquanto 25
suolo. 25
chilometri. 25
benzina 25
lavoravano 25
parli@@ 25
lioni 25
scala. 25
campagne 25
framment@@ 25
appassionato 25
parametri 25
violenza, 25
use, 25
aveste 25
esiste. 25
alternativa 25
Guardate, 25
l'Europa 25
ebbi 25
Vo@@ 25
finchè 25
morir@@ 25
l'atmosfera 25
alber@@ 25
Fr@@ 25
abbastanza, 25
Jeff 25
dendo@@ 25
'60 25
ehi, 25
provengono 25
considerate 25
ascens@@ 25
l'auto 25
artisti, 25
creativi 25
ument@@ 25
Ni@@ 25
figure 25
ettero 25
altra, 25
pausa 25
graff@@ 25
Men@@ 25
campion@@ 25
temperature 25
blu. 25
prelev@@ 25
genit@@ 25
critico 25
L'unico 25
sintesi 25
attivo 25
Ph@@ 25
ezioni. 25
artificiale. 25
vie 25
test, 25
preoccupazione 25
email@@ 25
iron@@ 25
complessità, 25
"Abbiamo 25
princi@@ 25
"St@@ 25
chiacchier@@ 25
uscendo 25
Gar@@ 25
Por@@ 25
pronunci@@ 25
parleremo 25
operai 25
grave 25
tu, 25
ettivo 25
vo? 25
riti@@ 25
ar, 25
conversazioni 25
mur@@ 25
Dean 25
metropolit@@ 25
dovesse 25
oggetti, 25
elo, 25
portarvi 25
meravigliose 25
veloc@@ 25
endete 25
ri-@@ 25
elettricità. 25
Johnson 25
mio, 25
affid@@ 25
diab@@ 25
bassi 25
terzi 25
nascono 25
ie, 25
maschio 25
etemi 25
infanzi@@ 25
estingu@@ 25
l'Africa, 25
nipoti 25
minuscol@@ 25
fondare 25
attivi 25
racconti 25
dov'è 25
stoma@@ 25
premi@@ 25
fantastiche 25
su, 25
ovvia 25
sanguigni 25
sbagliato, 25
star 25
Ap@@ 25
spagn@@ 25
Ser@@ 25
spiaggia 25
viste 25
oci 25
scrittore 25
ottimi 25
1% 25
sivi 25
soffrono 25
incontri 25
protein@@ 25
variazione 25
aiuto, 25
ferro 25
incorpor@@ 25
incremento 25
voce. 25
incredibili. 25
ativamente 25
indicano 25
accelerare 25
libertà, 25
piano@@ 25
cinem@@ 25
'70, 25
2% 25
prezz@@ 25
gruppi. 25
astronom@@ 25
mio. 25
Disse 25
chirurgia 25
dicevo 25
bimbo 25
ospedale. 25
archivio 25
odore 25
ghe 25
volete, 25
compati@@ 25
distanze 25
esplic@@ 25
Pau@@ 25
2005, 25
compagni 25
incidente 25
anzi, 25
mazz@@ 25
albero. 25
l'educazione 25
adulti. 25
equazioni 25
creative 25
navigare 25
"Hey, 25
Uno, 25
righ@@ 25
otto, 25
Leonardo 25
istin@@ 25
precedente, 25
agna. 25
prova. 25
getti 25
Sve@@ 25
diamo. 25
attirare 25
Coper@@ 25
Fre@@ 25
sondag@@ 25
zona, 25
brutt@@ 25
scono 25
Valley 25
aglio 25
intelligenti, 25
incident@@ 25
anon@@ 25
caver@@ 25
fascia 25
ingere 25
inistr@@ 25
fatemi 25
eccetera, 25
vasto 25
toccato 25
penetr@@ 25
biologico 25
Angeles 25
parab@@ 25
EC@@ 25
moderna. 25
ambigu@@ 25
bilanci@@ 25
farcel@@ 25
gab@@ 25
Jon@@ 25
spostarsi 25
farete 25
distanza, 25
Torniamo 25
evolmente 25
distribuire 25
troppo. 25
religio@@ 25
gono, 25
filmat@@ 25
previsto 25
leggere. 25
dotto 25
clu@@ 25
un'altro 25
sindaco 25
giuste 25
cinema 25
partito 25
richiesto 25
Dovrebbe 25
IM@@ 25
minuto, 25
azi@@ 25
biologica 25
famosi 25
Potr@@ 25
Bretagna 25
ologico 25
Supp@@ 25
cene 25
lasciar 25
Antarti@@ 25
aspetto. 25
galassia, 25
galassie, 25
carbonica 25
nell'atmosfera 25
ettamente 25
saggio 25
altre, 25
Diamo 25
programmazione 25
eccezionale 25
Cia@@ 25
corda 25
flus@@ 25
scinti@@ 25
presente. 25
preval@@ 25
protoc@@ 25
autonom@@ 25
acquisto 25
colpire 25
strade. 25
negozi 25
smesso 25
eso. 25
influenza. 25
brillanti 25
comunit@@ 25
costruire. 25
» 25
velocità. 25
donna. 25
ritratto 25
cente. 25
sintomi 25
sposta 25
er: 25
segni 25
pandemi@@ 25
barzell@@ 25
omin@@ 25
contribuito 25
carest@@ 25
copyrigh@@ 25
gia, 25
Chiar@@ 25
Scus@@ 25
Cas@@ 25
statistica 25
dan@@ 25
aiutando 25
equipaggi@@ 25
esistenti 25
vivo. 25
bottiglie 25
mutil@@ 25
preparare 25
unire 25
tec@@ 25
parlato, 25
taglia 25
terà 25
conosciamo. 25
ele. 25
aggiunta 25
dub@@ 25
mamm@@ 25
talento 25
senzat@@ 25
pressione, 25
giapponese 25
foresta. 25
pie@@ 25
perché? 25
gambe, 25
comunicazioni 25
vicini, 25
microscopio 25
Bambin@@ 25
cibi 25
ato." 25
isolato 25
Paci@@ 25
gamb@@ 25
fischi@@ 25
calorie 25
dia. 25
Africani 25
infantile 25
eng@@ 25
Lor@@ 25
cub@@ 25
circostanze 25
interni 25
plan@@ 25
elettronica 25
ante@@ 25
rati 25
sobbor@@ 25
fotografica 25
corall@@ 25
forme, 25
it 25
dell'India 25
mistero 25
giocato 25
s'@@ 25
utili@@ 25
vorresti 25
zampa 25
allucin@@ 25
pesce. 25
Gene 25
corallo 25
canop@@ 25
intangi@@ 25
ita', 24
etevi 24
macchine. 24
ma? 24
raccontando 24
ando: 24
Jay 24
"Un 24
sto@@ 24
condurre 24
Fate 24
materiale, 24
rimpiazz@@ 24
pubb@@ 24
modern@@ 24
carbonio, 24
nutrire 24
fuoco, 24
competere 24
tirato 24
cercavano 24
scorso. 24
micro-@@ 24
considerando 24
AS@@ 24
difficil@@ 24
consenso 24
consente 24
Dec@@ 24
tà. 24
attraversato 24
legale 24
tessi@@ 24
imenti, 24
l'accesso 24
visione, 24
spaziali 24
omo@@ 24
modul@@ 24
Alan 24
ee. 24
piani. 24
impost@@ 24
Mus@@ 24
sari 24
megli@@ 24
chiami@@ 24
maggiore. 24
V 24
discorso. 24
automo@@ 24
Moore 24
macchine, 24
Vuoi 24
lasciati 24
affascinante. 24
metterla 24
delu@@ 24
piene 24
"Sap@@ 24
creatività. 24
Craig 24
Vent@@ 24
vivent@@ 24
genetico 24
comunicazione. 24
um. 24
centrali 24
itato 24
radio@@ 24
onni@@ 24
ada@@ 24
olli@@ 24
Norve@@ 24
scientifici 24
Mac 24
pubblicare 24
get 24
all'epoca 24
equival@@ 24
cima, 24
documento 24
link 24
entrati 24
scelta, 24
fallito 24
cellulare, 24
visione. 24
realizzazione 24
Zer@@ 24
cambiare. 24
luogo. 24
DR: 24
recente. 24
se... 24
gersi 24
Si. 24
Tim 24
stupefacente 24
alment@@ 24
Richard, 24
umil@@ 24
West 24
immensa 24
Vietnam@@ 24
omeno 24
Ste@@ 24
entri 24
marciapi@@ 24
conosceva 24
decision@@ 24
batterie 24
invol@@ 24
africani, 24
elettor@@ 24
2000, 24
determinare 24
numeri, 24
strumenti. 24
dell'Africa, 24
cooperazione 24
mentale. 24
unici 24
portava 24
are". 24
etico 24
interessata 24
midollo 24
ure. 24
dus@@ 24
ines@@ 24
guardavo 24
veramente. 24
Andr@@ 24
rico, 24
esprime 24
terapi@@ 24
anch'io 24
zza. 24
reci@@ 24
nero, 24
fama 24
splendido 24
ufficiale 24
rovin@@ 24
cendo 24
ance 24
dicevano: 24
cerebrali 24
scrittori 24
oti 24
rico@@ 24
fel@@ 24
coppie 24
stretta 24
ph@@ 24
sott'acqua. 24
un'idea, 24
avvenendo 24
carrier@@ 24
distor@@ 24
Ge@@ 24
aumentano 24
lava 24
dissol@@ 24
buona. 24
Tuttavia 24
vivente 24
sottolineare 24
Sempre 24
diversità. 24
tip@@ 24
monitorare 24
agh@@ 24
torment@@ 24
benché 24
preferito 24
ato" 24
ano? 24
sli@@ 24
tracciare 24
ome 24
mari@@ 24
Qui, 24
bot@@ 24
tour 24
inglesi 24
esec@@ 24
Eart@@ 24
portarli 24
libri, 24
leadership 24
imparare. 24
rosso. 24
ottenendo 24
gia. 24
progetti, 24
sivamente 24
combatter@@ 24
naturalmente. 24
alza 24
scansione 24
dovessi 24
scul@@ 24
muro. 24
Passiamo 24
moderni 24
scheletro 24
ripreso 24
fallimento 24
totale. 24
pubblicità. 24
esau@@ 24
economiche 24
strategi@@ 24
trage@@ 24
mam@@ 24
breve. 24
chiedi@@ 24
tesi 24
interviste 24
25% 24
bolla 24
sta. 24
straordinaria. 24
sorpresa, 24
aspettano 24
ringrazio 24
insignific@@ 24
lesi@@ 24
cito 24
eggio 24
scopo. 24
Lì 24
Lau@@ 24
primiti@@ 24
intensità 24
tradizionale. 24
agenzia 24
tornai 24
Colom@@ 24
preghi@@ 24
contemporaneamente 24
portarci 24
spendono 24
cane, 24
differenti, 24
religion@@ 24
wor@@ 24
mostri@@ 24
Afghanistan 24
trovava 24
vita? 24
sentiva 24
esaminare 24
x. 24
controlli 24
destr@@ 24
lampadina 24
finito, 24
usciti 24
imprenditore 24
controllato 24
fiche. 24
intrins@@ 24
Rob 24
malaria, 24
turb@@ 24
battagli@@ 24
ottimis@@ 24
passione. 24
noi? 24
fondatore 24
alieni 24
essioni 24
pianeti. 24
interna 24
conto. 24
tavolo. 24
Alessand@@ 24
apprezzare 24
eamente. 24
ect@@ 24
list@@ 24
sapere. 24
letteralmente, 24
conduce 24
esauri@@ 24
scaric@@ 24
balen@@ 24
direbbe 24
credito 24
minor@@ 24
identi 24
riprist@@ 24
vincente 24
al, 24
impegnati 24
riemp@@ 24
impiegati 24
scuole. 24
emicran@@ 24
destro 24
maiale 24
ima 24
Giorno 24
esia. 24
proveni@@ 24
verg@@ 24
Ra@@ 24
"a 24
malaria. 24
oland@@ 24
re: 24
forniscono 24
decis@@ 24
"U@@ 24
deposit@@ 24
assassin@@ 24
ritu@@ 24
esia 24
andremo 24
possibile? 24
aggra@@ 24
ulta 24
questione. 24
umanità. 24
elezioni 24
esager@@ 24
moral@@ 24
significato, 24
ricorder@@ 24
Sur@@ 24
concludere, 24
Narratore: 24
investitori 24
l'animale 24
delfin@@ 24
corrido@@ 24
vermi 24
virus, 24
squi@@ 24
scoperto, 24
scorrere 24
agu@@ 24
elicottero 24
raggiungono 24
ingredienti 24
ubri@@ 24
avventura 24
orso 24
chiaramente, 24
giallo 24
richiam@@ 24
Ant@@ 24
Vedi@@ 24
urare 24
mia, 24
rivelato 24
custode 24
positiva 24
morto, 24
sostegno 24
memi 24
questi, 24
l'interesse 24
into, 24
orie. 24
tuff@@ 24
figlia, 24
canc@@ 24
piantare 24
pacchetto 24
issi 24
colonna 24
relativ@@ 24
dose 24
ale". 24
dun@@ 24
Sel@@ 24
CA@@ 24
telecamere 24
manov@@ 24
valle 24
vivo, 24
Lincoln 24
Aristot@@ 24
&amp;@@ 24
stunt 24
Lag@@ 23
orno 23
cami@@ 23
correnti 23
precisione 23
sus@@ 23
issima. 23
azien@@ 23
collasso 23
mante 23
infezioni 23
tubi 23
ambientale 23
suc@@ 23
fian@@ 23
MIT, 23
ettere 23
emo, 23
sti, 23
Qual'è 23
opinioni 23
contesto, 23
all'infin@@ 23
strutture, 23
fondamentalmente, 23
anci@@ 23
rifletter@@ 23
funzionano. 23
strutture. 23
terrorizz@@ 23
industrie 23
adere 23
centesi@@ 23
Dipende 23
locali. 23
opar@@ 23
finanziato 23
recenti 23
sperare 23
preoccupato 23
nell'arco 23
commerciali 23
divertir@@ 23
3.000 23
rimase 23
72 23
panor@@ 23
vuole. 23
arono, 23
previsione 23
pietre 23
commerciale, 23
comm@@ 23
riusciremo 23
celle 23
cambiata 23
Conosc@@ 23
Volevamo 23
roba, 23
diseg@@ 23
pensai, 23
quanti@@ 23
arvi, 23
lettura 23
all'incirca 23
bocc@@ 23
energetica 23
caldo, 23
cosid@@ 23
24@@ 23
intellettuale 23
espandere 23
cromosoma 23
farmaceut@@ 23
ordini 23
Bro@@ 23
iste 23
troppa 23
signori, 23
ascoltare. 23
steri@@ 23
sfida. 23
ar. 23
valore, 23
Okay. 23
cosicché 23
Liber@@ 23
lista. 23
turist@@ 23
consapevole 23
termine, 23
Americano 23
tornata 23
Stra@@ 23
iera, 23
incredibil@@ 23
Dovevamo 23
esig@@ 23
esemplare 23
fisicamente 23
edifici, 23
cavalli 23
sufficientemente 23
attaccare 23
adesso? 23
ard, 23
rappresentato 23
preoccupati 23
vision@@ 23
frecci@@ 23
ongo 23
Asi@@ 23
alimentare. 23
all'altra 23
raffredd@@ 23
globalizz@@ 23
volti 23
Mondiale, 23
ppo 23
tagliato 23
riportare 23
complesso. 23
speranze 23
ologiche 23
arrivarono 23
medicina. 23
aspetter@@ 23
prevenzione 23
eggi 23
organo 23
riusc@@ 23
nero. 23
asi. 23
domand@@ 23
pericoloso. 23
estran@@ 23
erlo 23
catene 23
ure@@ 23
piace. 23
all. 23
erò. 23
interagi@@ 23
esibi@@ 23
bocca. 23
Inghilterra. 23
strettamente 23
ney 23
piace, 23
cammina 23
essu@@ 23
sessuale 23
evoluto 23
ingresso 23
raccoglit@@ 23
muovendo 23
comprende 23
ricetta 23
rumor@@ 23
alzato 23
biologo 23
Usiamo 23
sotter@@ 23
nell'acqua 23
interessant@@ 23
vediamo. 23
diversità, 23
Re 23
ologie 23
quest'idea 23
vende 23
mamma, 23
dolc@@ 23
parlando, 23
salsa 23
prodotti, 23
uscì 23
Dalla 23
gerarchia 23
Fondament@@ 23
Qual@@ 23
BC 23
dolce 23
separati 23
appen@@ 23
online. 23
ritro@@ 23
nipo@@ 23
ante: 23
inquiet@@ 23
bet@@ 23
classico 23
errori. 23
certi@@ 23
crescita. 23
chiederci 23
benissimo 23
teoria. 23
succed@@ 23
catore 23
margini 23
bellissime 23
potente, 23
telecamer@@ 23
Uganda 23
violent@@ 23
vig@@ 23
mun@@ 23
University 23
alta, 23
condivisione 23
finta 23
tira@@ 23
curiosità 23
aspetto, 23
ufficio. 23
Storia 23
batti@@ 23
Nuov@@ 23
cambiare, 23
essenza 23
giornata. 23
sedie 23
significava 23
francese 23
sno@@ 23
preoccupano 23
Costa 23
nuova, 23
pubblicità, 23
tion 23
enorme, 23
fantastica. 23
protagon@@ 23
traduzione 23
carcer@@ 23
sostanza, 23
vantaggi@@ 23
conseguenza, 23
disturbo 23
rompic@@ 23
urazione 23
May@@ 23
finale, 23
sistemi, 23
raggrupp@@ 23
Olimpi@@ 23
vieni 23
largh@@ 23
applica 23
convinzioni 23
generazione. 23
andranno 23
ingu@@ 23
arvi. 23
divisione 23
mossa 23
collegamenti 23
Date 23
iscano 23
gratis. 23
vicenda 23
Bor@@ 23
animale, 23
Universit@@ 23
pose 23
ragazza, 23
prossimo. 23
ovest 23
Kenya 23
Kenya, 23
sile 23
pagina. 23
pericolo. 23
l'ambiente, 23
televi@@ 23
attraversando 23
dilemma 23
fug@@ 23
'? 23
silenzio 23
categ@@ 23
l'aspettativa 23
raffin@@ 23
tartaru@@ 23
prezzo. 23
Rim@@ 23
applau@@ 23
Eccolo 23
farl@@ 23
Ciasc@@ 23
graf@@ 23
lap@@ 23
costr@@ 23
Avere 23
culturali 23
intell@@ 23
sfum@@ 23
composizione 23
magico 23
rebbe, 23
profondo, 23
nai 23
rotta 23
Me 23
dimento 23
gratt@@ 23
annun@@ 23
lato. 23
innovazione, 23
pubbliche 23
livello. 23
profitt@@ 23
proporre 23
carboidr@@ 23
Sfortunatamente, 23
tasse 23
semin@@ 23
nazionale, 23
nord. 23
pensare: 23
aspettiamo 23
Banglades@@ 23
greg@@ 23
positivi. 23
cardia@@ 23
elettrico 23
simulare 23
Legge 23
ie. 23
estate. 23
ruotare 23
dall'essere 23
ricompensa 23
Londra. 23
diapositiva 23
nascosta 23
estate, 23
venni 23
l'HIV 23
st, 23
politici, 23
Cro@@ 23
anda, 23
--- 23
tac@@ 23
sensibile 23
tast@@ 23
t: 23
Aspett@@ 23
indipen@@ 23
ridi@@ 23
moralità 23
etn@@ 23
razzi@@ 23
ragazza. 23
conosciuta 23
linea. 23
linguaggio. 23
influenzato 23
suono, 23
ricordi 23
Insi@@ 23
schiena 23
spall@@ 23
Farò 23
Pakistan 23
riti 23
diarre@@ 23
Natale 23
morire, 23
furg@@ 23
der, 23
Signore 23
sensazioni 23
freddo, 23
Australia 23
livello, 23
Speriamo 23
valori, 23
cone 23
morali 23
less@@ 23
posta. 23
ado 23
él@@ 23
osserva 23
teremo 23
networ@@ 23
l'interno 23
sott'@@ 23
istituto 23
robot. 23
pesce, 23
fuggi@@ 23
geo@@ 23
piegare 23
fantasci@@ 23
ack@@ 23
orecchio 23
assor@@ 23
diametro 23
orientale. 23
manutenzione 23
svizz@@ 23
pakist@@ 23
estesia 23
CE@@ 23
cità 23
schiavit@@ 23
freddo. 23
evoc@@ 23
Saturno 23
azzur@@ 23
paracad@@ 23
YouTube 23
acul@@ 23
l'inglese 23
profum@@ 23
squali 23
ms 23
squalo 23
Intervistatore: 23
''@@ 23
TEDx@@ 23
dall' 22
successivo, 22
Clinton 22
pulire 22
4,@@ 22
cambi 22
metti@@ 22
norme 22
zie. 22
0 22
facciate 22
investito 22
Riuscite 22
Vedrete 22
scart@@ 22
radice 22
care, 22
sce 22
sfortunatamente 22
chiara 22
soluzioni. 22
affari, 22
discussione. 22
storico 22
possibili. 22
2001, 22
occupano 22
ostacoli 22
interesse. 22
Comin@@ 22
190@@ 22
Russia 22
Luna 22
crescita, 22
troveremo 22
"Ehi, 22
giochi. 22
ispirati 22
interv@@ 22
all'esterno 22
qualcuno. 22
'altro. 22
Grand 22
"Questa 22
Otti@@ 22
capo, 22
Ur@@ 22
conto, 22
moglie. 22
frustra@@ 22
darmi 22
mammifer@@ 22
aia. 22
Gordon 22
Pacifico 22
.000 22
operativo 22
ein@@ 22
proposto 22
squ@@ 22
vaso 22
club 22
dialog@@ 22
l'intelligenza 22
barra 22
scrivo 22
digitale, 22
filo 22
ricordate, 22
luog@@ 22
Persino 22
umento 22
obre 22
dell'I@@ 22
nit@@ 22
dedi@@ 22
lievo 22
Sai, 22
concezione 22
richie@@ 22
quotidiano 22
dotti 22
tenendo 22
real@@ 22
interr@@ 22
positivo, 22
concorso 22
istantan@@ 22
accenn@@ 22
mondiali 22
pensiero. 22
poteste 22
motore. 22
permetterci 22
qualcosa? 22
c'è. 22
tren@@ 22
elettricità, 22
efficace. 22
70% 22
diabete 22
Del 22
L'acqua 22
spl@@ 22
scimpanz@@ 22
sedersi 22
novità 22
gesti 22
domani 22
custo@@ 22
malattie, 22
piccola. 22
campagn@@ 22
insegnanti. 22
Canada 22
nonna, 22
rispos@@ 22
tumori 22
alcol@@ 22
evidenza 22
rar@@ 22
arrivavano 22
questo?" 22
ottieni 22
nec@@ 22
sangu@@ 22
mascher@@ 22
tessuti 22
comment@@ 22
business, 22
coinvolte 22
interpretare 22
uso, 22
gravità. 22
incontrai 22
assum@@ 22
sfug@@ 22
tei@@ 22
tappet@@ 22
tradi@@ 22
Sha@@ 22
specifica 22
ba. 22
sessuale. 22
dolore. 22
sesso. 22
e”. 22
Siccome 22
stando 22
gem@@ 22
ricambi@@ 22
Gl@@ 22
lago 22
informa@@ 22
a...@@ 22
schiavi@@ 22
st 22
eo@@ 22
l'efficienza 22
risparmio 22
ritorna 22
colore. 22
increment@@ 22
..@@ 22
braccia 22
canto, 22
appl@@ 22
stati, 22
ventil@@ 22
terò 22
pensò 22
'80, 22
ghi. 22
dità, 22
dividere 22
este? 22
baratt@@ 22
elem@@ 22
fern@@ 22
strane 22
panino 22
cattive 22
pezzo. 22
intellig@@ 22
vign@@ 22
tendiamo 22
enor@@ 22
molt@@ 22
riprese 22
morendo 22
open 22
aglia 22
L. 22
poeta 22
caram@@ 22
Wide 22
aprir@@ 22
ot 22
fotografia. 22
sviluppata 22
oggetto. 22
all'interno. 22
parete 22
web@@ 22
week@@ 22
cambia. 22
solito, 22
NO@@ 22
Anzi, 22
crimini 22
ro-@@ 22
costi. 22
avvenuto 22
Chicago 22
neon@@ 22
economica. 22
aperta, 22
complicato. 22
consult@@ 22
attività. 22
quadrati 22
educazione. 22
Berlin@@ 22
dell'O@@ 22
nuvola 22
fotografia, 22
vogliamo. 22
schifo. 22
ministr@@ 22
bombe 22
già. 22
navi 22
rapido 22
davo 22
scimmi@@ 22
petrolifer@@ 22
Pacifico. 22
moment@@ 22
sport 22
orig@@ 22
entrò 22
legami 22
derò 22
acco@@ 22
calc@@ 22
mais 22
verde, 22
pompa 22
case. 22
ó 22
Pet@@ 22
Wikipedia, 22
ingl@@ 22
comunicano 22
sapere, 22
antemente 22
diceva, 22
riempi@@ 22
curve 22
grafici 22
programma. 22
materie 22
alzate 22
longev@@ 22
implement@@ 22
poet@@ 22
Hawai@@ 22
schermo, 22
cosiddetta 22
’è 22
pare. 22
intere 22
determinato 22
reag@@ 22
bus@@ 22
ambientalist@@ 22
indipendenti 22
frazione 22
asteroi@@ 22
ezi@@ 22
Power@@ 22
attaccato 22
adesivo 22
pavimento 22
appunto 22
fortunati 22
goder@@ 22
sbalordi@@ 22
venendo 22
galatt@@ 22
medica 22
aquil@@ 22
cilindr@@ 22
soll@@ 22
finirà 22
episodio 22
meto@@ 22
intitol@@ 22
mela 22
atl@@ 22
Chiunque 22
contratto 22
rischio, 22
assorbi@@ 22
classe, 22
finanziare 22
drast@@ 22
atmosfer@@ 22
positivi 22
provi 22
pandemia 22
avviare 22
infezione 22
Prog@@ 22
restano 22
desiderio. 22
for 22
oscill@@ 22
cominci 22
pedi@@ 22
Vale 22
maiali 22
mal 22
comando 22
l'invenzione 22
contenere 22
Francisco, 22
vicini. 22
cec@@ 22
eccolo 22
orfan@@ 22
l'AIDS 22
dignità 22
Paese. 22
collegata 22
disgust@@ 22
Oltre 22
pubblica, 22
entrambi. 22
intero. 22
ingredi@@ 22
digitali 22
timi@@ 22
arma 22
Sua 22
rosso, 22
rifugi@@ 22
operare 22
fabet@@ 22
papà 22
Sin@@ 22
atrice. 22
tap@@ 22
stress 22
Sfortunatamente 22
quest'uomo 22
comunque. 22
LE@@ 22
fiumi 22
ack 22
nord, 22
vene 22
Pren@@ 22
mangiamo 22
imenti. 22
ment 22
alimentazione 22
accessibili 22
rafforz@@ 22
meda@@ 22
frustr@@ 22
reali. 22
quale, 22
Dopo@@ 22
Adam 22
2.000 22
veter@@ 22
volando 22
ribell@@ 22
Dovevo 22
Mandel@@ 22
torre 22
Ruanda 22
Russia, 22
100% 22
paradiso 22
Ministro 22
luna. 22
orto. 22
no-@@ 22
se: 22
stessa, 22
ger 22
quantistica 22
azoto 22
arlo? 22
canti 22
maled@@ 22
lac@@ 22
definizione, 22
parcheggio 22
ler@@ 22
omos@@ 22
oltre@@ 22
hh@@ 22
scogli@@ 22
sfortunatamente, 22
cervelli. 22
Google. 22
colonne 22
Giust@@ 22
costituisce 22
accessi@@ 22
co: 22
matern@@ 22
destino 22
riforma 22
Earth 22
Os@@ 22
solf@@ 22
193@@ 22
affronta 22
Jonathan 22
narr@@ 22
empatia 22
bibliotec@@ 22
imprenditori@@ 22
filantropia 22
ki@@ 22
programma, 22
tizz@@ 22
itudin@@ 22
zol@@ 22
biolumin@@ 22
Brow@@ 22
resili@@ 22
sorprendenti 22
SJ: 22
Regola 22
Colli@@ 22
formula 22
Fal@@ 22
delfini 22
oche 22
anticor@@ 22
Sylvia 22
Iran@@ 22
cerim@@ 21
’ 21
aereo, 21
staff 21
abitudine 21
presentazione, 21
nuove. 21
spiaggia. 21
logo 21
prevede 21
attuale. 21
combustibili 21
reddi@@ 21
personalmente 21
quest' 21
Ai@@ 21
etichett@@ 21
pollice 21
respirare 21
ci? 21
stabilizz@@ 21
dipl@@ 21
lia 21
pulita 21
compiere 21
Wright 21
viviamo. 21
guadagni 21
Afghanistan, 21
lavorando. 21
ostacolo 21
Ash@@ 21
sottop@@ 21
chiaro, 21
argomento, 21
accordi 21
paradig@@ 21
viaggiato 21
Praticamente 21
aiuti@@ 21
creativa 21
costruiti 21
perio@@ 21
competi@@ 21
volare. 21
ow, 21
veloci 21
Giappon@@ 21
considerati 21
un'opera 21
soli, 21
scopo, 21
arrivare. 21
sculture 21
iere. 21
gill@@ 21
eccoci 21
o," 21
Certamente 21
dipin@@ 21
Germania, 21
quantist@@ 21
designer, 21
Princi@@ 21
patogen@@ 21
terrestre. 21
semplici. 21
contri@@ 21
piu@@ 21
inclusi 21
famigli@@ 21
condividiamo 21
esaminato 21
l'immaginazione 21
dipartimento 21
asi, 21
politici. 21
ricevo 21
sufficienza 21
lettori 21
rabbia 21
unirsi 21
Conosco 21
wer@@ 21
dell'arte 21
scelte, 21
autun@@ 21
estino 21
intelligenza. 21
Giappone. 21
scorr@@ 21
Gat@@ 21
Scri@@ 21
freg@@ 21
Wo@@ 21
permettendo 21
riem@@ 21
l'attuale 21
urbano 21
incomprensi@@ 21
riunioni 21
dell'intera 21
Christ@@ 21
stup@@ 21
mail 21
abbandonare 21
nav@@ 21
concepire 21
olit@@ 21
costruiscono 21
meraviglia 21
velocità, 21
un'im@@ 21
camminare, 21
orr@@ 21
egli@@ 21
M 21
liberare 21
afferma 21
dovessero 21
ricavare 21
profilo 21
scimpanzé, 21
affetto 21
ame. 21
armonia 21
culturale. 21
domani. 21
decidono 21
co? 21
terzo, 21
Nelson 21
ada. 21
professori 21
tumor@@ 21
´@@ 21
prolifer@@ 21
angiogen@@ 21
chiede: 21
icona 21
permettersi 21
attorn@@ 21
l'hai 21
ens 21
pit@@ 21
clienti. 21
lasciò 21
idr@@ 21
Direi 21
caot@@ 21
abl@@ 21
Asp@@ 21
massim@@ 21
specifiche 21
concentra 21
damente 21
fretta, 21
matrimoni 21
casuale 21
Y 21
Jan@@ 21
apprendere 21
AT@@ 21
faccen@@ 21
Aggi@@ 21
Aff@@ 21
Dovrei 21
Danny 21
costituito 21
epoca. 21
opposto 21
rinunci@@ 21
suggerire 21
gradevol@@ 21
mangiato 21
etichetta 21
sm@@ 21
blog, 21
nonno 21
genetica. 21
obiettivo, 21
danza. 21
pesa 21
anch@@ 21
orie, 21
2005 21
aul@@ 21
sponsorizz@@ 21
creazion@@ 21
udi@@ 21
ito? 21
Nor@@ 21
musicista 21
avere. 21
King 21
mattino, 21
copiare 21
Messico, 21
eggiare 21
vede. 21
vendita 21
magazz@@ 21
ant 21
Organ@@ 21
superfici@@ 21
Inizier@@ 21
em 21
pion@@ 21
perfezion@@ 21
capire. 21
prototipi 21
denti. 21
versioni 21
bre 21
vedete. 21
prob@@ 21
fici@@ 21
studio. 21
scattare 21
gesti@@ 21
chiunque, 21
com'era 21
cerchi@@ 21
mucc@@ 21
amico. 21
volumi 21
buono, 21
progettando 21
miglia, 21
moda. 21
passò 21
angolo, 21
esterno, 21
ingr@@ 21
isolati 21
guadagnano 21
disser@@ 21
é: 21
qualcos'@@ 21
comi 21
dietro, 21
re." 21
posi 21
dirlo 21
realizza 21
l'assenza 21
principale. 21
guidata 21
nuvole 21
creazione, 21
utile, 21
Brasile. 21
anzitutto 21
ritr@@ 21
colori, 21
concentrarsi 21
ditt@@ 21
vorreste 21
sommergi@@ 21
fang@@ 21
'90 21
vengo 21
promett@@ 21
network. 21
odia 21
hl@@ 21
sala. 21
cosa: 21
finestre 21
computer@@ 21
ding@@ 21
ling 21
H 21
usa. 21
convinti 21
bisogn@@ 21
esi: 21
stamatt@@ 21
baraccopoli 21
servit@@ 21
indietro@@ 21
spalle. 21
spina 21
Inglese 21
democra@@ 21
sentirete 21
spedire 21
radio, 21
dop@@ 21
transistor 21
molecolari 21
Qualsiasi 21
40@@ 21
20. 21
aspettativa 21
Parlerò 21
negativo 21
pe, 21
semplicemente, 21
sviluppate 21
facciamo? 21
antibiotici 21
dedicare 21
quinto 21
proporzione 21
prior@@ 21
immort@@ 21
Fantast@@ 21
lentamente, 21
aspettative 21
batteri. 21
bia. 21
deserto. 21
andole 21
arono. 21
fiore 21
sopravvissuti 21
subit@@ 21
ch, 21
gigante 21
liquido 21
micros@@ 21
padron@@ 21
metall@@ 21
capitolo 21
Basta 21
impazz@@ 21
afor@@ 21
principi@@ 21
premi 21
Nick 21
familiare, 21
equivale 21
diminuzione 21
perce@@ 21
sogni. 21
principale, 21
Newton 21
cubo 21
industriali 21
percepire 21
gravità, 21
Kl@@ 21
condu@@ 21
saltato 21
fotografato 21
fegato 21
agiscono 21
ultra@@ 21
occupa@@ 21
PE@@ 21
composta 21
competenze 21
Entrambi 21
governo. 21
interpretazione 21
definiti@@ 21
dall'alto 21
tsun@@ 21
evo. 21
ONG 21
emergenz@@ 21
nutrizione 21
dirà 21
crisi. 21
prenda 21
coscienza, 21
eccesso 21
muoversi. 21
occhio, 21
correg@@ 21
ambizi@@ 21
medico, 21
cm 21
om, 21
amo... 21
adattare 21
rinunciare 21
appello 21
age, 21
sorvegli@@ 21
scesi 21
scan@@ 21
Pat@@ 21
produtt@@ 21
L'Africa 21
vetr@@ 21
costretti 21
ad, 21
scomo@@ 21
Brad 21
rispose 21
seguente 21
sessuali 21
stupr@@ 21
impazzi@@ 21
Est@@ 21
inseg@@ 21
curioso 21
laurea 21
splendida 21
misteri 21
grosse 21
inno@@ 21
Ok? 21
tecnologico 21
Rom@@ 21
afferma@@ 21
contrast@@ 21
assun@@ 21
egliar@@ 21
quot@@ 21
intervista 21
wo@@ 21
l'ag@@ 21
Danimar@@ 21
figlio. 21
Sole. 21
otto. 21
ail@@ 21
evoli, 21
profit 21
occorre 21
metterli 21
cie@@ 21
utensili 21
africani. 21
emettono 21
preferiti 21
a♫ 21
sconcert@@ 21
cercava 21
sensibili 21
nell'area 21
doti 21
incin@@ 21
Chiesa 21
Babbo 21
creatore 21
Sierra 21
avor@@ 21
Mark 21
Bell@@ 21
inu@@ 21
glori@@ 21
hr@@ 21
Disse: 21
lassù. 21
rimbalz@@ 21
farai 21
rosa 21
dormire 21
deli@@ 21
realt@@ 21
psicologi 21
Brown 21
delizi@@ 21
oscura. 21
artigi@@ 21
Wol@@ 21
Fl@@ 21
fant@@ 21
diamo, 21
fantastic@@ 21
presentazione. 21
ecchio 21
kg 21
cantare 21
priva 21
ricoper@@ 21
Ram@@ 21
po? 21
Iraq, 21
responsabil@@ 21
tetton@@ 21
input 21
consapevoli 21
oceani, 21
climatici. 21
rabbin@@ 21
ker 21
emette 21
terribile. 21
Sub@@ 21
struttu@@ 21
dicend@@ 21
DE@@ 21
"Sei 21
sentimento 21
giocattoli 21
maggior@@ 21
plastica, 21
sabbia. 21
Ku@@ 21
dotte 21
dolore, 21
pieghe 21
and. 21
Perf@@ 21
uri. 21
autom@@ 21
voluzione 21
sign@@ 21
recin@@ 21
caos 21
escenza 21
dersi 21
mele 21
anom@@ 21
Natasha 21
truff@@ 21
Grace 21
Bè, 21
apicol@@ 21
Wolfram 21
clima, 20
nostra, 20
nol@@ 20
atterr@@ 20
Letter@@ 20
ger, 20
patat@@ 20
lunga, 20
conchigli@@ 20
proiezione 20
permetterà 20
clima. 20
Part@@ 20
parlato. 20
cinemat@@ 20
ro' 20
CO2, 20
inquinamento 20
., 20
brevi 20
itive 20
Smith 20
fuo@@ 20
domestici 20
lavorando, 20
meraviglie 20
scenari 20
tag@@ 20
erl@@ 20
colpiti 20
primere 20
sono? 20
all'altro, 20
liamo 20
debito 20
dottorato 20
convenzion@@ 20
Og@@ 20
fortunato 20
rur@@ 20
entusiasmo 20
compil@@ 20
aggeg@@ 20
muore 20
DAR@@ 20
auti 20
secc@@ 20
attimo, 20
capacità. 20
razzo 20
privato 20
200.000 20
automobili 20
eso@@ 20
analogia 20
ossi 20
femminile 20
itiv@@ 20
pioggi@@ 20
decidemmo 20
punti. 20
oline 20
vocabol@@ 20
"OK, 20
pagina, 20
Bas@@ 20
Dissi 20
centin@@ 20
finanziamento 20
130 20
miglia. 20
Pan@@ 20
raccolgono 20
infrar@@ 20
aggiunge 20
omi, 20
romper@@ 20
sorgente 20
osint@@ 20
trovavano 20
indirizzo 20
support@@ 20
divertenti 20
testi 20
poteri 20
Parte 20
speg@@ 20
semplicità. 20
Haw@@ 20
dice. 20
indicare 20
w! 20
stra, 20
tutte, 20
Ground 20
archit@@ 20
Tri@@ 20
lì@@ 20
offrendo 20
Kal@@ 20
TV. 20
sbar@@ 20
sottos@@ 20
parti, 20
gettare 20
esistenza. 20
installazione 20
opera. 20
Prot@@ 20
richiedono 20
tecnologica 20
disposto 20
ambientale, 20
nessuno, 20
rante 20
are?" 20
d'affari 20
mene 20
crediate 20
cellulari. 20
tax@@ 20
60.000 20
l'Asia 20
foresta, 20
Ingl@@ 20
ania 20
ossi, 20
registrare 20
ricercatore 20
prendeva 20
miti 20
oggi? 20
parlavo 20
all'anno, 20
trascin@@ 20
energie 20
finì 20
morì 20
Ja@@ 20
riparare 20
sappi@@ 20
viaggia 20
circolo 20
inevitabilmente 20
rico. 20
batte 20
coperto 20
vi: 20
toria 20
Santa 20
simil@@ 20
avresti 20
Andai 20
all'in@@ 20
crei 20
d'acqua, 20
tendenze 20
Shakespeare 20
Cominciai 20
divennero 20
giusta, 20
immaginazione, 20
sbarazz@@ 20
edendo 20
divor@@ 20
associata 20
onia, 20
illustra 20
ciò@@ 20
"I@@ 20
minerali 20
punti, 20
silic@@ 20
fibre 20
"Sai, 20
da: 20
spegnere 20
separazione 20
facile, 20
B: 20
...e 20
secondar@@ 20
oratori 20
Unito 20
vap@@ 20
osso, 20
esistere 20
obbli@@ 20
definita 20
Howar@@ 20
tornò 20
caffé 20
Quindi@@ 20
penna 20
pref@@ 20
inclus@@ 20
cogn@@ 20
leggere, 20
circolare 20
arma@@ 20
corri@@ 20
tentativi 20
scatole 20
chiameremo 20
riuscì 20
nascosti 20
veste 20
enica 20
privilegi@@ 20
Corte 20
videocamera 20
sentito, 20
forza, 20
libero, 20
personalizz@@ 20
aperti 20
conoscete, 20
cug@@ 20
filoso@@ 20
mandano 20
serve. 20
Wow. 20
compagna 20
fibra 20
caffetter@@ 20
icoli 20
Dif@@ 20
"H@@ 20
ballo 20
ap 20
bensì 20
invenzioni 20
locali, 20
risposte. 20
economista 20
produc@@ 20
peggio. 20
scala, 20
pazienti, 20
generalmente 20
efficacia 20
creativo 20
modello, 20
visitato 20
dipingere 20
Britann@@ 20
volum@@ 20
Inn@@ 20
trascur@@ 20
Fil@@ 20
spettac@@ 20
fici. 20
proporzion@@ 20
Dovreste 20
francamente, 20
Sicure@@ 20
Francia 20
ation@@ 20
cattivi 20
precedenti. 20
G, 20
Dico 20
tantissimi 20
Dalai 20
Pakistan, 20
insul@@ 20
sho@@ 20
cop@@ 20
Mau@@ 20
umili@@ 20
scienziati. 20
or. 20
autist@@ 20
í 20
rocc@@ 20
Ehi, 20
venduti 20
auda@@ 20
Appena 20
rapida. 20
s: 20
30. 20
sceso 20
Ricer@@ 20
Svilu@@ 20
dell'intero 20
iniziata 20
mantenendo 20
iPod 20
ipo@@ 20
intelligenza, 20
Entro 20
ale." 20
presto. 20
velo, 20
perdendo 20
completa. 20
collezione 20
Geographic@@ 20
replicare 20
tropic@@ 20
asteroide 20
Groenlan@@ 20
ful@@ 20
piacere. 20
ender@@ 20
Sudafrica 20
morbi@@ 20
cosmol@@ 20
Attraverso 20
XX@@ 20
attrazione 20
misurato 20
pressioni 20
ridott@@ 20
Albert 20
improvviso 20
extra@@ 20
Apr@@ 20
seguono 20
enti: 20
bracci@@ 20
Congresso 20
ettive 20
facoltà 20
spostiamo 20
sensibilità 20
pezzo, 20
ollo 20
programmare 20
3D 20
arbit@@ 20
Julia 20
Cose 20
consumatore 20
y" 20
contempl@@ 20
ver 20
Je@@ 20
hanno. 20
consol@@ 20
arica 20
impi@@ 20
schi 20
ate: 20
cominciata 20
sperimentazione 20
cliniche 20
quest'anno, 20
ania. 20
un'occhi@@ 20
oce 20
seguire. 20
partecipanti 20
Decisi 20
miniere 20
resp@@ 20
rurale 20
bacch@@ 20
ha. 20
ricompens@@ 20
fatta, 20
terrore 20
sospetto 20
Eti@@ 20
infinite 20
creò 20
l'epidemia 20
giunti 20
giornata, 20
nuo@@ 20
morta 20
vagina 20
sentita 20
separare 20
Messico. 20
pressione. 20
perchè, 20
profond@@ 20
visu@@ 20
mogli@@ 20
A-@@ 20
polare 20
malattie. 20
individui. 20
formal@@ 20
discor@@ 20
unisce 20
organizzata 20
zie, 20
Gesù 20
comportamento, 20
e] 20
pane. 20
Rap@@ 20
Gener@@ 20
anello 20
d'accordo? 20
City 20
velo. 20
un'incredibile 20
Bel@@ 20
governi, 20
esposizione 20
ga. 20
affil@@ 20
dicendo. 20
l'altra, 20
basci@@ 20
au 20
espander@@ 20
affascinato 20
incant@@ 20
sei@@ 20
scientifiche 20
trasformata 20
air@@ 20
Del@@ 20
torta 20
compleanno 20
paradis@@ 20
sussur@@ 20
ky 20
Monte 20
mac@@ 20
popolazione, 20
progredire 20
millenni@@ 20
tratti@@ 20
agnost@@ 20
Sì 20
arrampicarsi 20
cambiamo 20
vigi@@ 20
capitato 20
troppi 20
stimare 20
scorre 20
neut@@ 20
neuroni. 20
Lee 20
meraviglios@@ 20
Iniziamo 20
acchi@@ 20
agricoltori 20
Wal-@@ 20
germi 20
Ev@@ 20
so." 20
url@@ 20
ung 20
teniamo 20
prevalenza 20
la' 20
semi, 20
indiano 20
l'oceano. 20
merci 20
recupero 20
pila 20
impossibile, 20
microscopi@@ 20
suolo, 20
strat@@ 20
rispondono 20
deposi@@ 20
gemelli 20
iPh@@ 20
onizz@@ 20
Improvvis@@ 20
leadershi@@ 20
Mag@@ 20
Venezu@@ 20
Vic@@ 20
eop@@ 20
cucina. 20
Mike 20
scrimin@@ 20
incendi@@ 20
manciata 20
scambi 20
prestare 20
dy@@ 20
ood 20
M: 20
ettivi 20
Res@@ 20
Atlantico 20
professionale 20
provoca 20
Bat@@ 20
convul@@ 20
marine 20
fungo 20
tornano 20
basil@@ 20
l'altezza 20
l'I@@ 20
ka@@ 20
McC@@ 20
fast 20
abiti 20
Malt@@ 20
bambine 20
stato? 20
ghiacciaio 20
Maldi@@ 20
Sandel: 20
Chris. 19
perché@@ 19
ermi 19
40, 19
cappello 19
ricevetti 19
costo, 19
cattura 19
ra' 19
misure 19
spettacolo, 19
cambiamenti. 19
settiman@@ 19
politicamente 19
partecipazione 19
Smit@@ 19
ori? 19
Haiti 19
onda@@ 19
triplic@@ 19
notevole. 19
low 19
chie 19
carbone. 19
commento 19
ecco@@ 19
avanguardia 19
capite, 19
ricostruzione 19
Altri@@ 19
secol@@ 19
Terz@@ 19
rivedere 19
f, 19
distrutt@@ 19
atemi 19
piloti 19
concep@@ 19
One 19
fit@@ 19
creduto 19
aerea 19
ammir@@ 19
funzione. 19
Phili@@ 19
ppe 19
viso, 19
bud@@ 19
tenuti 19
squadra. 19
facendo? 19
null@@ 19
modelli, 19
gere, 19
mappare 19
microbi 19
Sor@@ 19
abbondanza 19
profondità, 19
nell'angolo 19
olleg@@ 19
proveniente 19
maggiormente 19
atmosfera, 19
riduc@@ 19
etici 19
scopi 19
mattina. 19
oniche 19
piom@@ 19
giornalisti 19
allarme 19
vederlo. 19
tecnico 19
clas@@ 19
funzionalità 19
verticale 19
bottone 19
ordine, 19
compare 19
Andate 19
tranquil@@ 19
Zero 19
estende 19
Cit@@ 19
dirlo, 19
laggiù. 19
offerto 19
unico. 19
piatta@@ 19
architetto, 19
terminare 19
sottoline@@ 19
automobilist@@ 19
vapore 19
tengo 19
sembrato 19
immobili@@ 19
sale, 19
gentile 19
amministratori 19
ada 19
centimetri 19
bli@@ 19
ultim@@ 19
cro 19
abitudini 19
HIV, 19
Davi@@ 19
soddisfazione 19
baci@@ 19
riconoscono 19
carne, 19
deva. 19
terreno, 19
accada 19
aumentando 19
sdrai@@ 19
compagno 19
biologico. 19
Alzhei@@ 19
mer. 19
nacque 19
ungher@@ 19
Australi@@ 19
w, 19
Stanford 19
chem@@ 19
l'angiogen@@ 19
continuamente. 19
mer, 19
icon@@ 19
G: 19
insic@@ 19
Ini@@ 19
lasciai 19
o:@@ 19
ridere. 19
D'accor@@ 19
sperando 19
connesse 19
po’ 19
speciale, 19
interessano 19
ultur@@ 19
erie 19
Ted 19
reput@@ 19
vadano 19
eguagli@@ 19
37 19
Mai 19
diffon@@ 19
RI@@ 19
Amazz@@ 19
Parla 19
studente, 19
libro@@ 19
barca. 19
immunit@@ 19
tantissime 19
Succede 19
Barb@@ 19
Op@@ 19
chiude 19
accres@@ 19
eremmo 19
risali@@ 19
spostamento 19
dall'interno 19
averla 19
tutte. 19
espand@@ 19
dign@@ 19
errore. 19
renderli 19
Chicago, 19
pezzett@@ 19
rispose: 19
Tut@@ 19
giall@@ 19
blogger 19
lab@@ 19
esti@@ 19
memor@@ 19
gravi@@ 19
l'avrebbe 19
100, 19
dovuta 19
miracol@@ 19
miracolo 19
oscu@@ 19
somiglia 19
Immagino 19
simpat@@ 19
canzone, 19
Guardi@@ 19
ES@@ 19
dall’@@ 19
Uganda, 19
disturb@@ 19
a] 19
innalz@@ 19
l'apprendimento 19
open-@@ 19
crei@@ 19
barrier@@ 19
Ill@@ 19
00.000 19
medie 19
ett 19
Map@@ 19
bastone 19
capii 19
bizzarro 19
gas. 19
assoluto 19
virtualmente 19
vuoto. 19
fate. 19
evano, 19
Air@@ 19
illuminazione 19
pranzo. 19
Oxford, 19
scult@@ 19
ignorare 19
vendite 19
disco@@ 19
Vado 19
giornali, 19
mucche 19
DVD 19
capito. 19
Vogliono 19
ear@@ 19
TE@@ 19
Ultimo 19
conferenza. 19
retta 19
Associ@@ 19
direbbero 19
vendendo 19
ato". 19
benefici@@ 19
parallelo 19
invec@@ 19
seggiolini 19
adozione 19
dov'@@ 19
cose: 19
confrontare 19
labir@@ 19
territ@@ 19
creativo. 19
ip@@ 19
riflesso 19
Angeles, 19
Messico 19
baseb@@ 19
sud, 19
missione, 19
significare 19
use. 19
bianco. 19
esisteva 19
spingono 19
Manhattan 19
Minist@@ 19
tuto 19
nemico 19
ONU 19
potenti, 19
scaricare 19
arizz@@ 19
proposito. 19
molteplici 19
agenzi@@ 19
totale, 19
preferi@@ 19
prigione. 19
36 19
simboli 19
bia, 19
pallone 19
classe. 19
scoprii 19
kin@@ 19
X. 19
ridere 19
dell'industria 19
biotecnologi@@ 19
prostat@@ 19
norm@@ 19
ultan@@ 19
cuscin@@ 19
frit@@ 19
atta, 19
palazzi 19
monsone 19
spiag@@ 19
lad@@ 19
occuparsi 19
cittadino 19
diversi@@ 19
religiose 19
oll 19
coscienza. 19
economici, 19
energetico 19
esponenzi@@ 19
avanzata 19
Funzion@@ 19
Sag@@ 19
'50 19
predis@@ 19
velocita' 19
completare 19
effettuare 19
comprendiamo 19
Street 19
industriale, 19
andrò 19
sana 19
deca@@ 19
fuga 19
terete 19
istit@@ 19
ser 19
alare 19
meteor@@ 19
pipistr@@ 19
dia, 19
grem@@ 19
molecolare 19
Lab 19
malapena 19
nazioni, 19
telescopi@@ 19
Riten@@ 19
galassie. 19
artificiale, 19
Joe 19
Succ@@ 19
agricoltura. 19
dottore, 19
sab@@ 19
cuori 19
trasformano 19
fornito 19
ramific@@ 19
strumento. 19
muro, 19
Miliar@@ 19
supermassic@@ 19
matem@@ 19
chino 19
opzione 19
differente, 19
Sic@@ 19
ità" 19
inchio@@ 19
falso 19
artistico 19
ity 19
fumetto 19
costring@@ 19
185@@ 19
f. 19
later@@ 19
verrebbe 19
Lan@@ 19
veicol@@ 19
Prize 19
abbandonato 19
continuava 19
ricche 19
percorsi 19
costi@@ 19
chiaro. 19
commerciale. 19
governance 19
Fo@@ 19
Comm@@ 19
alo 19
calen@@ 19
o.@@ 19
costante. 19
avan@@ 19
efficiente. 19
ondata 19
sala, 19
immagini@@ 19
stimolare 19
Premio 19
impiant@@ 19
spegn@@ 19
causata 19
SS: 19
les@@ 19
notizia. 19
userò 19
anat@@ 19
lo? 19
volo. 19
sanitaria 19
riuscissimo 19
presto, 19
Sistema 19
ulteriori 19
africano 19
spacc@@ 19
ascolto 19
esserlo. 19
l'odore 19
attin@@ 19
climatici 19
Terzo 19
saltano 19
alizziamo 19
speciali 19
dominante 19
luna, 19
campi. 19
sei. 19
scoraggi@@ 19
sedute 19
ella. 19
ideato 19
Da@@ 19
sensore 19
laptop 19
ade@@ 19
rotazione 19
nazionali 19
abilmente, 19
issione 19
l'interazione 19
"... 19
sette, 19
qualità, 19
ria, 19
multic@@ 19
chirur@@ 19
P. 19
vendono 19
avervi 19
prenderci 19
useremo 19
fichiamo 19
dell'India, 19
marcia 19
letto. 19
Black@@ 19
cali@@ 19
coda. 19
w. 19
risvegli@@ 19
dura. 19
o,@@ 19
accadendo. 19
Asia. 19
presentarvi 19
impressionante. 19
Prendi 19
riprendere 19
sabbia, 19
serio, 19
Cli@@ 19
Scott 19
frequenze 19
un'altra, 19
sig@@ 19
l'80% 19
climatico, 19
genocidio 19
Essi 19
ragazze, 19
icia 19
a.@@ 19
quadrat@@ 19
vedevo 19
Tony 19
ma: 19
indu@@ 19
popoli 19
sant@@ 19
entusi@@ 19
emozione 19
riconosc@@ 19
umane, 19
cambiate 19
Proviamo 19
Lou@@ 19
scopriamo 19
penet@@ 19
ice, 19
cata 19
e," 19
utilizza 19
palle 19
familiari 19
così... 19
documentario 19
Carolina 19
riempire 19
impariamo 19
rivest@@ 19
'The 19
arric@@ 19
c'entra 19
anneg@@ 19
Universo, 19
religiosa 19
talvolta 19
Stava 19
contrad@@ 19
antiche 19
comportamentale 19
accade. 19
accident@@ 19
andamento 19
tridimensionale. 19
sovran@@ 19
missione. 19
Buddha 19
uzione. 19
compli@@ 19
osi@@ 19
alternative 19
cominciate 19
stringhe 19
pomeriggio 19
orribile. 19
leader@@ 19
elettric@@ 19
narrativa 19
bibliot@@ 19
Bal@@ 19
responsabilità. 19
conoscevo 19
Murray 19
esista 19
oz@@ 19
antibiot@@ 19
sacch@@ 19
erizz@@ 19
Mit@@ 19
specifico. 19
scuole, 19
antic@@ 19
mast@@ 19
microfon@@ 19
Dy@@ 19
geometri@@ 19
asse. 19
diplo@@ 19
repar@@ 19
Centro 19
cru@@ 19
scene 19
giocol@@ 19
Perfetto. 19
palloncin@@ 19
l'Universo 19
vino, 19
Zel@@ 19
scolastico 19
Joshua 19
solfid@@ 19
protesi 19
oie 19
SETI 19
coralline 19
roulotte 19
siringa 19
antiangiogen@@ 19
Air 18
davamo 18
este, 18
prospettiva. 18
citato 18
o” 18
catalizz@@ 18
andi 18
deforest@@ 18
Pace 18
villaggio. 18
oio 18
puro 18
pann@@ 18
cemento 18
impedisce 18
orio 18
presup@@ 18
chiamo, 18
corruzione. 18
tenete 18
Stai 18
egi@@ 18
volano 18
Sputnik 18
atterrare 18
futuro? 18
annuncio 18
cos'è? 18
inventò 18
divertimento 18
corde 18
No 18
idrogeno, 18
significa, 18
espansione 18
bellezza. 18
new@@ 18
Star@@ 18
relazioni. 18
Elizabet@@ 18
creatività, 18
Disse, 18
up@@ 18
conclusione, 18
genom@@ 18
Fondazione 18
ingoi@@ 18
iz@@ 18
continuando 18
osservazioni 18
oma, 18
T-@@ 18
paia 18
atezza 18
decenni@@ 18
costrut@@ 18
trapiant@@ 18
dell'acqua, 18
endolo 18
multi-@@ 18
Buon@@ 18
ascoltate 18
gad@@ 18
appariva 18
indipendentemente 18
distrugger@@ 18
funzioni. 18
u. 18
dispiace, 18
Gates 18
ess 18
M. 18
Fis@@ 18
lettore 18
Cont@@ 18
Kur@@ 18
anziché 18
radun@@ 18
Em@@ 18
scontato 18
di... 18
chilom@@ 18
giorni@@ 18
Ott@@ 18
lì? 18
Archit@@ 18
integrazione 18
edific@@ 18
Stavano 18
costrutt@@ 18
consent@@ 18
realizzata 18
rapida, 18
conti@@ 18
porsi 18
enormi. 18
Hum@@ 18
vogliamo, 18
generazioni, 18
ach, 18
adulto 18
andare, 18
watt 18
tendo 18
trasformando 18
costosi 18
tita 18
categori@@ 18
meravigliosi 18
portat@@ 18
"Siamo 18
lingue. 18
satellit@@ 18
attrezzatura 18
difficili. 18
cacciatori 18
circondati 18
ricordano 18
uno? 18
parlate 18
imbar@@ 18
ur, 18
medico. 18
attor@@ 18
Iniziai 18
l'origine 18
distante 18
ricerche, 18
odio 18
finire. 18
sero, 18
"Hai 18
salutare 18
lega 18
costruzione. 18
moda, 18
Sia 18
bai@@ 18
Mr. 18
riprodurre 18
visualizzare 18
org@@ 18
Bern@@ 18
Prefer@@ 18
coca@@ 18
grati@@ 18
coppi@@ 18
80% 18
uguali 18
sesso, 18
stabile 18
preoccupata 18
bus 18
dedicata 18
accumulo 18
alli@@ 18
30@@ 18
appreso 18
istica. 18
Valley. 18
venute 18
spru@@ 18
anna 18
giocando 18
rav@@ 18
oto. 18
Monterey 18
motivo, 18
alghe 18
setti@@ 18
diagram@@ 18
proib@@ 18
trucchi 18
estendere 18
Van 18
copie 18
opera, 18
relazione. 18
content@@ 18
Preg@@ 18
pomodor@@ 18
preferiscono 18
centrale, 18
focus 18
unico, 18
bagli@@ 18
ica" 18
) 18
XI@@ 18
itudine. 18
The@@ 18
spun@@ 18
triste, 18
diranno 18
brutte 18
spiegazioni 18
espresso 18
navic@@ 18
area, 18
un'in@@ 18
.500 18
Ba@@ 18
vederla 18
Cerchiamo 18
dell'universo. 18
incontra@@ 18
fotografiche 18
rifugiati 18
antemente. 18
yn 18
Signor 18
source 18
educativo 18
sour@@ 18
finiti 18
dicevo, 18
specifico, 18
pagine. 18
posito 18
gigantesco 18
Nicholas 18
enti? 18
fantastici 18
15. 18
indovin@@ 18
op. 18
geomet@@ 18
leggi@@ 18
grandioso. 18
orto, 18
frutt@@ 18
ventunesimo 18
Natur@@ 18
Qualunque 18
li? 18
un'onda 18
dappertutto 18
banchi@@ 18
seme 18
meraviglioso, 18
gur@@ 18
sbagliate 18
produzione, 18
valga 18
forno 18
guidando 18
Ness@@ 18
gerà 18
dendosi 18
degna 18
facciam@@ 18
Contr@@ 18
vederne 18
abili@@ 18
discussioni 18
sequest@@ 18
dotati 18
incontamin@@ 18
da' 18
cura. 18
commettere 18
compiuto 18
sort@@ 18
incidente. 18
prescri@@ 18
sincronizz@@ 18
fissare 18
Jer@@ 18
Tanto 18
territori@@ 18
concettu@@ 18
Capo 18
procedere 18
XX 18
Cost@@ 18
obsol@@ 18
Dur@@ 18
Sebbene 18
st. 18
teatro, 18
D'altro 18
visiva. 18
ess, 18
nemici 18
gete 18
amato 18
Intern@@ 18
bes@@ 18
fiume. 18
riempir@@ 18
empi@@ 18
allu@@ 18
5.@@ 18
tempio 18
odor@@ 18
aj@@ 18
filmati 18
sepol@@ 18
all, 18
rigor@@ 18
ripieg@@ 18
cominciammo 18
corretto 18
genitore 18
abusi@@ 18
poggi@@ 18
avamo, 18
contrasto 18
succedono 18
enciclopedia 18
stampa. 18
susc@@ 18
politiche, 18
contributi 18
voti 18
ebre@@ 18
credi 18
poterla 18
centralizz@@ 18
esponenziale. 18
spess@@ 18
agricoltura, 18
transistor@@ 18
rimpicciol@@ 18
globali 18
prezzo, 18
depressione, 18
un'era 18
biot@@ 18
robo@@ 18
': 18
Alzate 18
civilizz@@ 18
preferir@@ 18
mantiene 18
sareste 18
rà, 18
fermo 18
raccontano 18
Australia, 18
atmosfera. 18
anche. 18
semi. 18
Park 18
fen@@ 18
marini 18
bo. 18
ponte, 18
Vanno 18
pezzi, 18
abbassare 18
pubblici@@ 18
display 18
connettersi 18
Facci@@ 18
paracadute 18
centig@@ 18
interi 18
porzione 18
uniti 18
fichi 18
numerosi 18
offrono 18
all'improvvis@@ 18
continuerà 18
armente 18
individuo, 18
spiac@@ 18
arrot@@ 18
chiedersi 18
sentirci 18
iniziate 18
trovato. 18
inist@@ 18
ò: 18
pezz@@ 18
materia, 18
precisamente 18
categoria 18
smett@@ 18
carichi 18
scrivania 18
ard. 18
Lego 18
fisiche 18
ografi@@ 18
uns@@ 18
cartelli 18
aziende, 18
sussi@@ 18
Tes@@ 18
intendiamo 18
rispar@@ 18
gratis, 18
tassa 18
ulteriore 18
Bron@@ 18
solito. 18
elettriche 18
l'inquin@@ 18
Matt@@ 18
gh 18
dispiace. 18
fraint@@ 18
nutrit@@ 18
tsunami 18
CN@@ 18
Perche' 18
l'argomento 18
riciclaggio 18
nucleari. 18
vederli 18
scarpe. 18
ricic@@ 18
stabili@@ 18
pin@@ 18
ardi@@ 18
guai. 18
radio. 18
cuor@@ 18
impul@@ 18
magnetico 18
terribilmente 18
taglio 18
spon@@ 18
aumentato 18
rinf@@ 18
trilioni 18
solitamente 18
Alexander 18
superiore. 18
spic@@ 18
opia 18
uguagli@@ 18
impegnarsi 18
este. 18
Coca 18
ospedale, 18
terz@@ 18
diano 18
discret@@ 18
sanitari 18
2008, 18
certezza. 18
contano 18
lev@@ 18
sbir@@ 18
giochi, 18
vagin@@ 18
americane 18
aspettavo 18
galleria 18
von 18
pensato. 18
Ved@@ 18
impiega 18
innoc@@ 18
impacch@@ 18
meritano 18
benessere. 18
Mur@@ 18
Oppure, 18
lavorare, 18
esplora 18
Dol@@ 18
L'India 18
disponibilità 18
generano 18
3% 18
manag@@ 18
copertura 18
decenni, 18
esplorato 18
accorger@@ 18
sogget@@ 18
avvic@@ 18
Ricordate 18
font@@ 18
l'occhio 18
guardate, 18
spalla 18
regione, 18
virale 18
progre@@ 18
2007 18
fi 18
risultati, 18
Natale, 18
Natale. 18
bre, 18
richiamo 18
bre. 18
orsi 18
striscia 18
cresta 18
und@@ 18
nutrono 18
studiamo 18
veniamo 18
sperimentato 18
decisioni. 18
sagge@@ 18
direzione, 18
futuri 18
confini, 18
intuizione 18
guardare. 18
provo 18
braccio, 18
Bush, 18
pensando, 18
cabl@@ 18
chirurghi 18
talenti 18
sottomarino 18
semi-@@ 18
vivente. 18
tradizionali. 18
cosiddetti 18
profondità. 18
soprann@@ 18
orgoglioso 18
biamo 18
Daniel 18
voce, 18
riproducono 18
SB: 18
entro@@ 18
attrib@@ 18
femmina 18
sviluppano 18
eig@@ 18
Nigeria. 18
Congr@@ 18
ak 18
NASA, 18
entri@@ 18
copic@@ 18
Science 18
ricres@@ 18
politico. 18
Et@@ 18
Obam@@ 18
galassia. 18
disturbi 18
Den@@ 18
Avrei 18
sacrific@@ 18
trasformazione. 18
Metà 18
pestici@@ 18
immaginazione. 18
pent@@ 18
psichiat@@ 18
l'analisi 18
scimmie, 18
Oriente 18
Uomo 18
-T@@ 18
Delhi 18
Arriva 18
Titano 18
rivelare 18
dell'ultimo 18
ventesimo 18
pesci, 18
trapp@@ 18
Sam@@ 18
sfruttamento 18
Teszler 18
Dan@@ 18
vetro. 18
musicale. 18
elementari 18
Bambino: 18
oscopi@@ 18
regista 18
Sputni@@ 18
musicisti 18
liberali 18
romanz@@ 18
Luther 18
Hyun 18
conservazione 18
virtuali 18
stunt@@ 18
coccodril@@ 18
invisibile. 18
alimenti 18
Aim@@ 18
Evan 18
pigmentazione 18
cimat@@ 18
Alpha 18
I-@@ 17
trovammo 17
demm@@ 17
aeroporto 17
ico: 17
diapositive 17
uscirà 17
limitare 17
sarai 17
esame 17
repubblic@@ 17
potenzialità 17
pressa 17
Però, 17
stituto 17
anne 17
riso. 17
resistenti 17
carbone, 17
raro 17
reddito. 17
giustizia, 17
settembre, 17
finanziario 17
mancano 17
istituzion@@ 17
assoluta 17
dò 17
bicicletta 17
inviare 17
sradic@@ 17
plus 17
nord@@ 17
economicamente 17
privato, 17
presupposto 17
amin@@ 17
pastic@@ 17
istruzioni 17
ed, 17
droghe 17
age. 17
2003 17
attività, 17
decennio, 17
tecni@@ 17
facemmo 17
un'industria 17
2020. 17
riviste 17
automobile 17
rabbia, 17
neve. 17
imitare 17
Las 17
Veg@@ 17
fantastica, 17
Dottor 17
designer. 17
mentali 17
dai, 17
furi@@ 17
biomassa 17
calde 17
sorpreso 17
torio 17
chiss@@ 17
ring@@ 17
bicchiere 17
impressionante 17
magn@@ 17
capo. 17
memori@@ 17
San@@ 17
pazzo 17
Times, 17
atta. 17
ironia 17
immenso 17
omaggi@@ 17
inea 17
uro, 17
parola. 17
qui?" 17
utamente 17
l'azienda 17
basati 17
schermi 17
teen@@ 17
garage 17
trasmett@@ 17
Certo. 17
Usa 17
Settembre, 17
riferisce 17
wa@@ 17
allevi@@ 17
canti@@ 17
casin@@ 17
sivo. 17
modo@@ 17
bisognava 17
costo. 17
etti: 17
riunione 17
impalcatura 17
Norman 17
bell'@@ 17
Kam@@ 17
dens@@ 17
industria, 17
ft@@ 17
affoll@@ 17
mult@@ 17
"è 17
guarda, 17
pezzetto 17
'anni, 17
Stir@@ 17
&amp; 17
riche. 17
450 17
potabile 17
preoccupazioni 17
Dott. 17
mangiare, 17
vivano 17
immagazz@@ 17
civiltà. 17
SI 17
cog@@ 17
intellettuali 17
osc@@ 17
Louis 17
studiano 17
lingua, 17
circonda 17
diffondono 17
ti: 17
metterò 17
orribili 17
fior@@ 17
priamo 17
insor@@ 17
pesanti 17
cancer@@ 17
progressione 17
sanguig@@ 17
nutrienti 17
partenza 17
continuo. 17
doppi@@ 17
Hei@@ 17
allora? 17
confi@@ 17
responsabilità, 17
acco 17
Kr@@ 17
Art 17
mostrò 17
inta. 17
appartiene 17
fium@@ 17
sconfig@@ 17
Wrigh@@ 17
tral@@ 17
Brasile, 17
meet@@ 17
guardò 17
poesie 17
raggiungendo 17
concentrare 17
insomma 17
85 17
estensione 17
nell'evoluzione 17
Dissi: 17
compagn@@ 17
avamo. 17
apert@@ 17
marina 17
ra... 17
elaborazione 17
nodo 17
nanotecnologi@@ 17
dall'acqua 17
polim@@ 17
molte, 17
idrogeno. 17
cellula, 17
retro@@ 17
cock@@ 17
pendio 17
Oli@@ 17
viventi. 17
cifra 17
complessità. 17
armat@@ 17
ripeto, 17
morta. 17
cata. 17
istiche 17
fuor@@ 17
ritard@@ 17
continui 17
ità: 17
ofis@@ 17
dolce. 17
perfetta, 17
perfetto, 17
ati." 17
emerg@@ 17
assol@@ 17
venti, 17
ro? 17
marron@@ 17
bianco, 17
Col 17
costa, 17
perfetta. 17
cca 17
'é 17
un'ultima 17
stupida 17
separato 17
personali. 17
normale, 17
sano 17
Sno@@ 17
connessioni. 17
Maria 17
paran@@ 17
puntare 17
Kan@@ 17
governat@@ 17
inclinazione 17
udito 17
positiva, 17
Almeno 17
endomi 17
telefonata 17
cari 17
videoc@@ 17
distribuito 17
15, 17
combinare 17
qualità. 17
ster 17
sci 17
al-@@ 17
cyber@@ 17
preghier@@ 17
cavern@@ 17
codific@@ 17
dutt@@ 17
A: 17
Città 17
piangere. 17
sfr@@ 17
ditta 17
pannello 17
avvol@@ 17
mobili. 17
edifici. 17
teschio 17
lampada 17
esempi, 17
Sau@@ 17
diate 17
sfor@@ 17
abol@@ 17
aio. 17
Pad@@ 17
Viv@@ 17
rendete 17
fortuna. 17
Ciao, 17
Serve 17
erà, 17
"in 17
dischi 17
spiegarvi 17
carriera, 17
d-@@ 17
asiat@@ 17
popolare. 17
pericolo, 17
organizzazione, 17
assomigliano 17
assomigliare 17
ovvio, 17
tizio, 17
assas@@ 17
guadagnato 17
Esatt@@ 17
svant@@ 17
ono: 17
legge, 17
inaccett@@ 17
stime 17
Gover@@ 17
cos'altro 17
pillola 17
affrontando 17
connettiv@@ 17
ans 17
Son@@ 17
ossa, 17
giustizia. 17
dovevi 17
l'angolo 17
crav@@ 17
reggi@@ 17
stesse. 17
fotografi@@ 17
Spi@@ 17
dilett@@ 17
parecchie 17
problema: 17
cartone 17
40.000 17
b. 17
MI, 17
sili 17
ppa 17
poi. 17
sostener@@ 17
catti@@ 17
esplodere 17
ge, 17
à." 17
filosofi@@ 17
faccio, 17
lavoratori 17
Afghanistan. 17
aio, 17
dy 17
industrializz@@ 17
Francis 17
ivo 17
notizie, 17
disposti 17
berg 17
impossibil@@ 17
avvocati 17
esposto 17
vicinato 17
stessero 17
pantal@@ 17
Turchi@@ 17
dorsale 17
contro@@ 17
estremi 17
intervenire 17
re" 17
infran@@ 17
neo-@@ 17
desse 17
OL@@ 17
trovata 17
attuale, 17
sorprendentemente 17
completato 17
esponenziale 17
impic@@ 17
reali, 17
d'accordo, 17
argoment@@ 17
prossime 17
sistemare 17
profondi 17
algh@@ 17
inverno 17
"Qual 17
stampa, 17
affidabile 17
signore, 17
Thail@@ 17
terrest@@ 17
espon@@ 17
spettacolare 17
ferro, 17
set@@ 17
ingenu@@ 17
American 17
caricare 17
Bir@@ 17
metropolitana 17
Bibliot@@ 17
positive. 17
mone 17
limitato 17
chimi@@ 17
guarder@@ 17
degn@@ 17
cura, 17
ordine. 17
pest@@ 17
scam@@ 17
dell'universo, 17
glaci@@ 17
sembri 17
ock@@ 17
3D, 17
applicato 17
futur@@ 17
Dave 17
aero@@ 17
Transi@@ 17
anticipo 17
tecnologici 17
incentiv@@ 17
propulsione 17
oltre, 17
volante 17
addosso 17
brasili@@ 17
dispar@@ 17
urbana 17
West@@ 17
cicl@@ 17
colog@@ 17
nell'atmosfera. 17
fabbriche 17
guai 17
considerata 17
2006, 17
raccogl@@ 17
Bil@@ 17
case, 17
fotografi 17
Lo@@ 17
dormit@@ 17
fotografare 17
risucchi@@ 17
visi 17
un'attività 17
abbattere 17
laggi@@ 17
pazzes@@ 17
luoghi. 17
palp@@ 17
crescere, 17
agliar@@ 17
nostra. 17
tono 17
constat@@ 17
salita 17
ogramma 17
diag@@ 17
conclusioni 17
cato 17
casse 17
alog@@ 17
a.. 17
MS 17
tribun@@ 17
giovane. 17
individuazione 17
febbre 17
awa 17
mondo: 17
stabilità 17
fame, 17
avvelen@@ 17
sostenuto 17
uccell@@ 17
aiutarmi 17
num@@ 17
mostrato, 17
spendiamo 17
prospettiva, 17
iniziare, 17
garantire 17
mercati. 17
aziende. 17
immaginiamo 17
ges@@ 17
indossando 17
Studi@@ 17
sofferto 17
7.000 17
arrivava 17
Stavamo 17
armi@@ 17
aiutati 17
hanno, 17
quattr@@ 17
uttosto, 17
"A 17
lavori. 17
invitati 17
testate 17
ber 17
usa, 17
ecamente 17
bellissimo. 17
positive, 17
tivo. 17
semplice: 17
pastor@@ 17
te." 17
mi: 17
accogli@@ 17
reddito, 17
attraversano 17
marchi 17
Red@@ 17
2008 17
Ul@@ 17
girano 17
iscri@@ 17
ritmi 17
biologico, 17
dirige 17
inserir@@ 17
posteriore 17
calcolato 17
gamber@@ 17
picchi 17
neuroscienzi@@ 17
inda@@ 17
eme 17
canta 17
d'aria 17
O. 17
formiche, 17
batteri, 17
giganti 17
prigionieri 17
distrutto 17
cens@@ 17
Cambogi@@ 17
riabilit@@ 17
minac@@ 17
valutazione 17
parassiti 17
mettermi 17
risposi@@ 17
retti@@ 17
ripres@@ 17
"Mamma, 17
stec@@ 17
post-bell@@ 17
Canada, 17
Feb@@ 17
polo 17
"Gli 17
"Guarda, 17
potenziale. 17
Dice 17
ato@@ 17
sved@@ 17
onale. 17
colto 17
L'obiettivo 17
attentamente 17
Sant@@ 17
immunitario 17
ansi@@ 17
nomin@@ 17
"Wow, 17
Lewis 17
inspi@@ 17
puntu@@ 17
stag@@ 17
intuiti@@ 17
occidentale, 17
dovere 17
intenzioni 17
Francia, 17
quette 17
alimentato 17
l'agricoltura 17
adi 17
dell'Universo 17
magnifico 17
musulmani 17
Lar@@ 17
Groenlandia 17
win@@ 17
Ind@@ 17
li' 17
altrove 17
anniversario 17
aranci@@ 17
fondale 17
leader. 17
fai, 17
conservare 17
grigli@@ 17
Svezia 17
sfortun@@ 17
Encelad@@ 17
delfino 17
ach 17
cadono 17
arancione 17
gere. 17
spettacolo. 17
perdiamo 17
giovan@@ 17
master 17
"Wo@@ 17
riso, 17
libere 17
tori 17
ografia. 17
giudizi 17
Cur@@ 17
modellare 17
soluzione, 17
Soci@@ 17
on: 17
Kennedy 17
chiederò 17
sud. 17
osh@@ 17
uli@@ 17
pratico 17
controllano 17
noterete 17
cifre, 17
davanti, 17
Gioc@@ 17
slog@@ 17
tradut@@ 17
Dun@@ 17
Mach@@ 17
Carnegie 17
Riguar@@ 17
bole 17
sier@@ 17
pesci. 17
catturato 17
atteggi@@ 17
chiesti 17
Nathan 17
Bonn@@ 17
statunitensi 17
Kathryn: 17
dini 17
omini@@ 17
configurazione 17
IM: 17
Nollywoo@@ 17
gras 17
alve@@ 17
chop 17
NM: 17
iPhone 17
Ushahi@@ 17
rompicapi 17
Ivan 17
siringhe 17
Golf@@ 17
Bangal@@ 17
TS: 17
Eff@@ 16
pensi@@ 16
oppon@@ 16
ocort@@ 16
scendono 16
gegn@@ 16
riportato 16
;@@ 16
utili. 16
stavol@@ 16
zucchero, 16
rici, 16
1500 16
oder@@ 16
talia 16
relativa 16
progresso. 16
mobil@@ 16
igi 16
uccidendo 16
sovrap@@ 16
ama, 16
realizzate 16
mania 16
sensu@@ 16
prodot@@ 16
toccar@@ 16
Moore, 16
un'auto 16
riproduzione 16
rubato 16
ers, 16
UV@@ 16
parecchi@@ 16
tavolo, 16
azzi, 16
Carl 16
bare 16
vostr@@ 16
usi. 16
virali 16
piccolissima 16
realizzando 16
spera, 16
telef@@ 16
vuoi. 16
periment@@ 16
datab@@ 16
pio 16
til@@ 16
2000. 16
passo. 16
mate 16
raggiunger@@ 16
stampare 16
monit@@ 16
sensi. 16
Center 16
petto 16
z. 16
95 16
iPo@@ 16
B. 16
à... 16
venerd@@ 16
irle 16
ocra@@ 16
privati 16
e!" 16
venissero 16
Gall@@ 16
opport@@ 16
vi? 16
spostano 16
renderle 16
tecnicamente 16
quartieri 16
adess@@ 16
perlo@@ 16
parlerà 16
CD@@ 16
Pep@@ 16
portatili 16
erog@@ 16
scre@@ 16
ripulire 16
prenderò 16
portarla 16
pace, 16
trascorrere 16
copert@@ 16
trovando 16
sanguigno 16
reclut@@ 16
pericoloso, 16
fiam@@ 16
rilevante. 16
Disney 16
tetti 16
se? 16
sezioni 16
Angeles. 16
ves@@ 16
performan@@ 16
sta' 16
sbal@@ 16
ripos@@ 16
e- 16
occupazione 16
orgasmo 16
bio 16
raggono 16
ner 16
ga, 16
quotidiana 16
profondo. 16
I, 16
gger@@ 16
sfogli@@ 16
Pap@@ 16
ua 16
singol@@ 16
Yor@@ 16
ciasc@@ 16
itz@@ 16
superiore, 16
Coll@@ 16
trovato, 16
ecchi 16
rendersi 16
7% 16
sfidare 16
isse, 16
punteggio 16
scandal@@ 16
Web@@ 16
by 16
Emma 16
Ko@@ 16
telescopi 16
Ker@@ 16
ottima 16
Ke@@ 16
Sing@@ 16
ppell@@ 16
effica@@ 16
Tex@@ 16
ulteri@@ 16
primordi@@ 16
succeda 16
organico 16
tavol@@ 16
scorciat@@ 16
omila 16
sostengono 16
CD 16
180 16
perdon@@ 16
televisivo 16
teranno 16
ossessionato 16
scrivania. 16
crem@@ 16
riassumere 16
semplific@@ 16
zzo, 16
profondit@@ 16
etro@@ 16
temo 16
Dai 16
principio, 16
rivestimento 16
ya 16
arco 16
alit@@ 16
terrestri 16
energi@@ 16
solleva 16
tradizionale, 16
192@@ 16
volevi 16
trof@@ 16
Fur@@ 16
Pentag@@ 16
successi 16
preparati 16
Kim 16
Sud@@ 16
reagi@@ 16
Ulti@@ 16
Ken 16
sam@@ 16
serata 16
enhagen 16
Labor@@ 16
stre@@ 16
pensai: 16
RN@@ 16
segmento 16
Kiber@@ 16
Mumba@@ 16
rurali 16
statistiche. 16
2004, 16
uriamo 16
occupo 16
es: 16
riesca 16
wireless 16
tridimension@@ 16
Eric 16
sistematicamente 16
o'. 16
ce? 16
sabb@@ 16
comple@@ 16
ono? 16
sottovalut@@ 16
devi@@ 16
prendano 16
bero 16
vice@@ 16
partecipato 16
ati: 16
partner@@ 16
inger@@ 16
stupido 16
rappresentata 16
terrestre 16
prospettive 16
uri, 16
uzioni 16
peggio, 16
emp@@ 16
trattati 16
Kenya. 16
ovvio. 16
omo 16
violino 16
tastiera 16
suonato 16
ritiene 16
Valley, 16
stati. 16
river@@ 16
Yves 16
penso. 16
Cameron 16
quadri 16
soffitto 16
conflit@@ 16
rimaste 16
terreni 16
tori, 16
opzioni. 16
valeva 16
soffre 16
prol@@ 16
richieste 16
stimoli 16
Glob@@ 16
emi@@ 16
chilomet@@ 16
»@@ 16
sfondo. 16
rilevante 16
infar@@ 16
ricol@@ 16
scoperto. 16
ME@@ 16
significa? 16
precedenza 16
demie 16
uniche 16
rock@@ 16
portafogli@@ 16
mier@@ 16
svuot@@ 16
48 16
Ambi@@ 16
entrambi@@ 16
sogni, 16
noma@@ 16
47 16
atri@@ 16
an: 16
asso@@ 16
ah. 16
quest'altra 16
sovrapp@@ 16
salve@@ 16
we@@ 16
povera, 16
SE@@ 16
Ges@@ 16
orgoglio 16
Person@@ 16
identi@@ 16
connetter@@ 16
2008. 16
ottica 16
SET@@ 16
preferite 16
tive, 16
K 16
Panbanisha 16
param@@ 16
sappiate 16
conqu@@ 16
vertebr@@ 16
Comand@@ 16
Rw@@ 16
religione. 16
anda. 16
Everest. 16
successiva, 16
puntino 16
scivol@@ 16
orientale, 16
pittura 16
pagati 16
ricorderanno 16
vicenda. 16
ence 16
Adam@@ 16
vamente, 16
statua 16
Hawaii 16
.' 16
tambur@@ 16
nev@@ 16
Kell@@ 16
College 16
cris@@ 16
eis@@ 16
ostil@@ 16
rispettare 16
cherò 16
Diam@@ 16
suonano 16
scritto, 16
gramm@@ 16
siamo? 16
predatore 16
pinn@@ 16
sottost@@ 16
App@@ 16
Fili@@ 16
reattori 16
by@@ 16
passiv@@ 16
Kin@@ 16
appo@@ 16
Zimbabw@@ 16
Serv@@ 16
televisione. 16
Jas@@ 16
tu. 16
sfida, 16
Space 16
parecchi 16
sincron@@ 16
accen@@ 16
ran 16
ocul@@ 16
provincia 16
at. 16
trapianto 16
peli 16
sav@@ 16
lla 16
virtù 16
D: 16
sceneggi@@ 16
ossi. 16
2009, 16
ques@@ 16
Hadron 16
vegetari@@ 16
rugo@@ 16
svolge 16
ham@@ 16
Cheryl: 16
zanzare 16
trivell@@ 16
Ye@@ 16
Facebo@@ 16
R.S.: 16
remi 16
pper@@ 15
ine@@ 15
ribu@@ 15
amminist@@ 15
hab@@ 15
Ghana 15
teg@@ 15
fragile 15
immen@@ 15
ere? 15
kins 15
istan, 15
rich@@ 15
abband@@ 15
esperim@@ 15
rug@@ 15
2004 15
4% 15
BM@@ 15
Henry 15
espi@@ 15
Galapag@@ 15
logi@@ 15
resistente 15
quass@@ 15
DP: 15
inge 15
pia 15
eller 15
eit@@ 15
er-@@ 15
amiche 15
Cert@@ 15
nis@@ 15
Jane 15
fere 15
mp@@ 15
orang@@ 15
multin@@ 15
150.000 15
unque 15
Boy@@ 15
University, 15
TEDster@@ 15
Richard. 15
Disne@@ 15
Frank@@ 15
sinda@@ 15
Lei@@ 15
en: 15
ner, 15
mister@@ 15
Bow@@ 15
ware 15
uber@@ 15
Namibia 15
ail 15
Jamie 15
II@@ 15
Harvard, 15
soddisf@@ 15
universal@@ 15
60@@ 15
Pe@@ 15
spende 15
ger. 15
ad. 15
Societ@@ 15
Virgini@@ 15
asch@@ 15
ee@@ 15
Wat@@ 15
ook 15
Florida. 15
Ran@@ 15
Jones 15
our@@ 15
Abu 15
b, 15
ich 15
Negroponte 15
Ball@@ 15
NASA. 15
2001 15
Sony 15
Int@@ 15
ell'@@ 15
spot 15
il, 15
Entr@@ 15
volle 15
Chicago. 15
obb@@ 15
"Tu 15
stig@@ 15
Francisco. 15
Oce@@ 15
cheggi@@ 15
Fred@@ 15
private 15
pai@@ 15
illegale 15
dut@@ 15
adol@@ 15
inva@@ 15
Exxon 15
re... 15
1960, 15
umul@@ 15
Mut@@ 15
ki 15
Wikipedia. 15
Red 15
IR@@ 15
interesse, 15
edo 15
C: 15
portati@@ 15
embre, 15
bene@@ 15
Les@@ 15
onto 15
arit@@ 15
Sir@@ 15
Anderson 15
dispiac@@ 15
rasse 15
ID@@ 15
Kong 15
0.000 15
dow@@ 15
General 15
SL@@ 15
Bronx 15
ver, 15
Mississi@@ 15
Kosov@@ 15
U, 15
Bangladesh 15
15.000 15
dentr@@ 15
apo@@ 15
tus 15
300@@ 15
Alle 15
prod@@ 15
Ron 15
Hollywoo@@ 15
Nu@@ 15
anzit@@ 15
margin@@ 15
cau@@ 15
Susan 15
pus 15
-D@@ 15
Rift 15
Mister 15
mobile 15
Atten@@ 15
Rachel 15
e,@@ 15
usc@@ 15
denar@@ 15
gione 15
Orient@@ 15
ific@@ 15
illa 15
G. 15
97 15
Nik@@ 15
Bonobo 15
Normal@@ 15
ff 15
ist 15
plica 15
Tar@@ 15
vil@@ 15
Walter 15
Pop@@ 15
Alber@@ 15
Moz@@ 15
2006 15
tante. 15
hat@@ 15
vulg@@ 15
Carol@@ 15
Ren@@ 15
un, 15
ditorium 15
Nev@@ 15
ton. 15
son: 15
80@@ 15
posteri@@ 15
42 15
Avel@@ 15
Foundation 15
porn@@ 15
re-@@ 15
hu@@ 15
scanner 15
icolo 15
put 15
prei@@ 15
CO2. 15
e?@@ 15
Pittsburgh@@ 15
Barack 15
tribu@@ 15
Thula 15
uttosto 15
Great 15
ht 15
Termin@@ 15
Himalay@@ 15
Up@@ 15
km. 15
Sahara 15
ergi@@ 15
tom@@ 15
increm@@ 15
bic@@ 15
bit 15
EE@@ 15
prostitu@@ 15
ammi@@ 15
Colleg@@ 15
Teles@@ 15
Mathemat@@ 15
Cosi@@ 15
bull@@ 15
Dimit@@ 15
Mul@@ 15
quantit@@ 15
glamour@@ 15
ZK: 15
KS: 15
Khmer 15
2009 15
Twitter. 15
Pran@@ 15
shmall@@ 15
Beck 15
Monterey, 14
Kh@@ 14
tech 14
ick, 14
ani: 14
terr@@ 14
za@@ 14
Rut@@ 14
Bast@@ 14
ave 14
Off@@ 14
Blu@@ 14
pire 14
Joseph 14
inzi@@ 14
1,3 14
ococ@@ 14
Pon@@ 14
petr@@ 14
Er@@ 14
sottom@@ 14
sottol@@ 14
Essen@@ 14
kins, 14
Jobs 14
recor@@ 14
dap@@ 14
esser 14
gior@@ 14
Street, 14
elicotter@@ 14
43 14
ue, 14
versi@@ 14
ling@@ 14
best@@ 14
38 14
25.000 14
Brilli@@ 14
McDonald'@@ 14
uh, 14
Studio 14
infl@@ 14
44 14
grav@@ 14
stamin@@ 14
dilem@@ 14
Yo 14
Charlie 14
rob@@ 14
rific@@ 14
Nort@@ 14
Simon 14
chen@@ 14
.com, 14
e'. 14
ink@@ 14
eck@@ 14
spu@@ 14
Bruce 14
Kelly 14
primitiv@@ 14
genealog@@ 14
stere@@ 14
Goul@@ 14
prodott@@ 14
transi@@ 14
got@@ 14
spe@@ 14
Verg@@ 14
Ral@@ 14
ju@@ 14
Ogn@@ 14
6.000 14
Kon@@ 14
4.@@ 14
Conn@@ 14
Cambridge 14
AM@@ 14
Foundation, 14
Harry 14
ess. 14
Time 14
Toky@@ 14
I.@@ 14
mine 14
gang, 14
liche 14
lion@@ 14
dra@@ 14
Angel@@ 14
"J@@ 14
Argent@@ 14
dapper@@ 14
Oper@@ 14
Hig@@ 14
hin@@ 14
sive 14
46 14
tener 14
Seatt@@ 14
Alask@@ 14
Alex 14
Fe@@ 14
lino 14
perch@@ 14
ado@@ 14
Wall 14
extra 14
epo@@ 14
pli@@ 14
Laptop 14
ab, 14
mach@@ 14
Mars 14
att. 14
asso 14
ep 14
E-@@ 14
scopri@@ 14
isa 14
"V@@ 14
azz 14
guardia 14
ssi@@ 14
75% 14
Dar@@ 14
Nord@@ 14
Shangha@@ 14
300.000 14
usti@@ 14
ever@@ 14
Han@@ 14
back@@ 14
World@@ 14
teste 14
Gold@@ 14
Agnes 14
ch. 14
Lav@@ 14
Rosling 14
ete: 14
profil@@ 14
cif@@ 14
progr@@ 14
ragazzi@@ 14
detti 14
mira@@ 14
scann@@ 14
ricul@@ 14
dag@@ 14
nie 14
Sw@@ 14
schi. 14
Consi@@ 14
hat 14
E.@@ 14
O: 14
Indon@@ 14
Ruanda, 14
.000. 14
Oh@@ 14
Appar@@ 14
aust@@ 14
fotografie, 14
Singap@@ 14
tin@@ 14
Gilber@@ 14
2: 14
ambur@@ 14
ste. 14
?' 14
Margaret 14
160 14
dam 14
distri@@ 14
sabbi@@ 14
ebra@@ 14
Instit@@ 14
ab 14
26@@ 14
attere 14
K. 14
Hall 14
biom@@ 14
Ali@@ 14
Stanford. 14
Amster@@ 14
vet@@ 14
Sac@@ 14
ump@@ 14
kt@@ 14
serviamo 14
ase 14
Ok@@ 14
revol@@ 14
Jefferson 14
Joh@@ 14
ope 14
Mich@@ 14
Pier@@ 14
ank@@ 14
Moder@@ 14
Delhi, 14
Ty@@ 14
Cassini 14
Gal@@ 14
Virgin 14
Min@@ 14
Carl@@ 14
neurale 14
vett@@ 14
ooh, 14
Orchest@@ 14
ND@@ 14
Brooklyn 14
tute 14
EG 14
Sook 14
á@@ 14
heh, 14
PH: 14
egger@@ 14
RO@@ 14
YouTube. 14
Hi@@ 14
Benki 14
Brig@@ 14
Milo 14
preoccupa@@ 13
r, 13
Spieg@@ 13
Haiti, 13
Ander@@ 13
Lock@@ 13
Seri@@ 13
12. 13
innovative 13
diffici@@ 13
sopravviss@@ 13
Vietnam 13
"Vi@@ 13
Pre@@ 13
Canyon 13
Cat@@ 13
Venter 13
II 13
Galapagos 13
de" 13
'" 13
hop 13
Wor@@ 13
p-@@ 13
up, 13
ext@@ 13
sand@@ 13
er? 13
CB@@ 13
York@@ 13
at, 13
BO@@ 13
Atlanta, 13
Bost@@ 13
olly 13
Tom@@ 13
uh@@ 13
uch@@ 13
Roots 13
Island, 13
Bilba@@ 13
Lev@@ 13
Hel@@ 13
ner. 13
0-@@ 13
sess@@ 13
coc@@ 13
oton@@ 13
Dat@@ 13
inne 13
Kay 13
trin@@ 13
Star 13
ley. 13
Jack@@ 13
Super 13
post 13
ettu@@ 13
.or@@ 13
per, 13
extr@@ 13
Spr@@ 13
een 13
erne 13
ed. 13
Mast@@ 13
s? 13
U 13
wirel@@ 13
Lov@@ 13
crescit@@ 13
Jam@@ 13
tig@@ 13
prostit@@ 13
Gil@@ 13
Sil@@ 13
flor@@ 13
int 13
SA@@ 13
Washington. 13
sembra@@ 13
Wilson 13
deste 13
sofist@@ 13
test. 13
effic@@ 13
iere 13
ezzo 13
Z 13
Levi@@ 13
Sad@@ 13
cce 13
Pakistan. 13
0% 13
ow. 13
acqui@@ 13
sub-@@ 13
bul@@ 13
Armstrong 13
Sul@@ 13
autob@@ 13
plank@@ 13
Times. 13
archia 13
"Be@@ 13
eloqu@@ 13
abilmente 13
logarit@@ 13
C'@@ 13
ela, 13
genu@@ 13
User@@ 13
ing: 13
omat@@ 13
2002 13
Rot@@ 13
vegli@@ 13
agne 13
sexy 13
Altr@@ 13
56 13
mom@@ 13
sky 13
Lin@@ 13
Hom@@ 13
Neil 13
lineare 13
Rand@@ 13
Shanghai 13
Columbia 13
Kosovo 13
Alab@@ 13
4.000 13
ce" 13
Andrew 13
East 13
98 13
ward 13
Pennsylv@@ 13
ation. 13
incredi@@ 13
Iran, 13
Graham 13
offen@@ 13
E. 13
*@@ 13
Prest@@ 13
ez 13
h? 13
Royal 13
Scho@@ 13
Sarah 13
ational 13
l. 13
sogli@@ 13
win 13
"G@@ 13
Lung@@ 13
Spen@@ 13
vuo@@ 13
Ny@@ 13
arn@@ 13
capp@@ 13
lamp@@ 13
Tech@@ 13
balz@@ 13
end 13
invasi@@ 13
ciata 13
truppe 13
140 13
paus@@ 13
2006. 13
risu@@ 13
Oh. 13
British 13
Acumen 13
rey 13
Ricor@@ 13
bere, 13
?", 13
bert 13
Dott@@ 13
h! 13
Galileo 13
vort@@ 13
urg@@ 13
Herbie 13
Pian@@ 13
om. 13
Tol@@ 13
ry 13
oce@@ 13
Arkans@@ 13
man: 13
Berkel@@ 13
prece@@ 13
Bol@@ 13
nostal@@ 13
Kik@@ 13
Willi@@ 13
voll@@ 13
filantro@@ 13
Cant@@ 13
altrett@@ 13
fem@@ 13
argom@@ 13
coin@@ 13
83 13
astro 13
aren@@ 13
Pin@@ 13
Mik@@ 13
edr@@ 13
stop@@ 13
PM: 13
Wood@@ 13
Cola 13
Everest 13
ler. 13
Conserv@@ 13
Shir@@ 13
Ries@@ 13
Barr@@ 13
Christopher 13
MA@@ 13
tun@@ 13
cle@@ 13
GPS 13
Zo@@ 13
Benjam@@ 13
Sergio 13
Furb@@ 13
surf@@ 13
Tamiflu@@ 13
Twit@@ 13
Maitre@@ 13
Galva@@ 13
TD: 13
ville, 12
°@@ 12
Amy 12
demo@@ 12
eredi@@ 12
,5 12
lampa@@ 12
schel@@ 12
W. 12
Dissi@@ 12
pessimist@@ 12
ts 12
bla 12
ell. 12
4000 12
47. 12
Micros@@ 12
truc@@ 12
elegante 12
softwar@@ 12
d: 12
wer 12
problemat@@ 12
perim@@ 12
David, 12
contrib@@ 12
34 12
Giuli@@ 12
proced@@ 12
Trade 12
70, 12
Kamen 12
Seg@@ 12
Manhattan, 12
beh@@ 12
8.@@ 12
Sig@@ 12
Saf@@ 12
ds 12
Good@@ 12
Shoot@@ 12
Mandela 12
Dre@@ 12
Alzheimer 12
FG: 12
ogh@@ 12
Rest@@ 12
r. 12
offer@@ 12
te? 12
ation, 12
Microsoft, 12
amat@@ 12
6% 12
ara. 12
U. 12
ala. 12
ecnologi@@ 12
Enrico 12
Hit@@ 12
DD@@ 12
ker, 12
White 12
Pepsi 12
imi 12
west@@ 12
demon@@ 12
900 12
Mid@@ 12
uk@@ 12
geb@@ 12
Linux 12
500.000 12
Ross 12
DN@@ 12
erot@@ 12
Eames 12
C.@@ 12
gang. 12
McDonald's 12
0.@@ 12
nett@@ 12
Nas@@ 12
da." 12
malatti@@ 12
Feder@@ 12
adulti@@ 12
ettuale 12
enh@@ 12
liche. 12
Agen@@ 12
cy@@ 12
Rin@@ 12
ospettiv@@ 12
6,@@ 12
pistol@@ 12
ary 12
Lama 12
nis 12
Cambridge, 12
ling, 12
Jerry 12
Rio 12
bel@@ 12
cosic@@ 12
11, 12
1/@@ 12
eut@@ 12
alia 12
sion 12
soprat@@ 12
St. 12
affin@@ 12
ab. 12
Skyp@@ 12
Sum@@ 12
Aqu@@ 12
de." 12
ham, 12
Jennifer 12
Luci@@ 12
Wow, 12
impl@@ 12
cere@@ 12
rout@@ 12
Fel@@ 12
moni@@ 12
TA 12
Aut@@ 12
ics. 12
2,5 12
57 12
venzione 12
enny 12
minist@@ 12
Katr@@ 12
Montana 12
HIV/AIDS. 12
fro@@ 12
zin@@ 12
.000, 12
BB@@ 12
sex@@ 12
op 12
uch 12
dien@@ 12
rip@@ 12
Clar@@ 12
73 12
Sper@@ 12
roul@@ 12
alop@@ 12
Bollywoo@@ 12
Geor@@ 12
austr@@ 12
Bank 12
episo@@ 12
Som@@ 12
1994, 12
Gro@@ 12
ag 12
dest 12
PI@@ 12
l, 12
fet@@ 12
.00@@ 12
abyte 12
R-@@ 12
und, 12
Secon@@ 12
ausi@@ 12
Intellig@@ 12
psi@@ 12
otteri@@ 12
ur. 12
irre@@ 12
vin 12
yn, 12
ichi 12
1: 12
orniamo 12
Hon@@ 12
Darwin@@ 12
Natalie 12
ah! 12
Hir@@ 12
Stewart 12
baracco@@ 12
tonn@@ 12
eur@@ 12
esempl@@ 12
lea@@ 12
Mondi@@ 12
NI@@ 12
Emily 12
Botsw@@ 12
Deb@@ 12
TEDGlobal 12
rier@@ 12
+@@ 12
William@@ 12
Ronald 12
Pink@@ 12
Robo@@ 12
Charli@@ 12
ake 12
venti@@ 12
.org 12
"Si@@ 12
P, 12
fusi@@ 12
amput@@ 12
ok 12
gas@@ 12
Cinqu@@ 12
Urugu@@ 12
ovi 12
Tesz@@ 12
ER@@ 12
Bru@@ 12
Sobule: 12
Sweeney: 12
emisfer@@ 12
foo@@ 12
AIM@@ 12
AIMS 12
ometri@@ 12
Parti@@ 12
velen@@ 12
Okay? 12
Isaac 12
firma 12
Bhut@@ 12
zer 12
Harl@@ 12
Ple@@ 12
Colum@@ 12
Abraham 12
E8 12
umar@@ 12
Aimee 12
elio 12
statuniten@@ 12
y! 12
Nami@@ 12
Splashy 12
Vivi@@ 12
CP: 12
Independent 12
Gor@@ 11
Nigeri@@ 11
sere 11
nanot@@ 11
ko@@ 11
etc. 11
garanti@@ 11
AG: 11
PA 11
Shi@@ 11
2020 11
Cri@@ 11
Chev@@ 11
Cany@@ 11
ultraviol@@ 11
hir@@ 11
1999 11
Pog@@ 11
edback 11
miser@@ 11
Buil@@ 11
so... 11
lie@@ 11
Hud@@ 11
impalc@@ 11
Ide@@ 11
positi@@ 11
way 11
Square 11
95% 11
ache, 11
high-@@ 11
Quant@@ 11
ache 11
Gand@@ 11
woo@@ 11
Cra@@ 11
marci@@ 11
Not@@ 11
Sim@@ 11
team. 11
minut@@ 11
ival 11
Mary 11
enf@@ 11
separate 11
erte 11
10,000 11
up. 11
125 11
Einstein. 11
din 11
mer 11
ic. 11
ph 11
Kepl@@ 11
mit 11
Kat@@ 11
Mel@@ 11
ingst@@ 11
Que@@ 11
Libr@@ 11
dine 11
Fri@@ 11
Ascol@@ 11
Vinci@@ 11
copio 11
Lynn 11
Seth 11
Post@@ 11
oy@@ 11
y", 11
insom@@ 11
ell, 11
que 11
3,5 11
sey, 11
Suprem@@ 11
Starbuck@@ 11
Tai@@ 11
wan 11
acch@@ 11
Marin@@ 11
ppo@@ 11
Lad@@ 11
ling. 11
Calt@@ 11
Bomba@@ 11
Mark@@ 11
Jimm@@ 11
erry 11
under@@ 11
ht@@ 11
Intel 11
Sequ@@ 11
2010 11
sima 11
mili@@ 11
topi@@ 11
signi@@ 11
Zi@@ 11
MIT. 11
cine 11
Maggi@@ 11
Connectic@@ 11
Prob@@ 11
Toyota 11
Point 11
250.000 11
rotte 11
MA 11
Fra@@ 11
12.000 11
Worl@@ 11
FDA 11
Moh@@ 11
DV@@ 11
Bush. 11
ally 11
poli 11
etc@@ 11
brio 11
ain 11
ke, 11
Internet@@ 11
Win@@ 11
esempi@@ 11
archivi@@ 11
Ann 11
Micha@@ 11
Fort@@ 11
Uni@@ 11
Wi-F@@ 11
mazione 11
Net@@ 11
sorge 11
oris 11
uten@@ 11
Aust@@ 11
goc@@ 11
6000 11
Darfur. 11
Vit@@ 11
usal@@ 11
eser@@ 11
passion@@ 11
oh. 11
Blair 11
70@@ 11
TR: 11
ham 11
Harvard. 11
Oliver 11
fisch@@ 11
kar@@ 11
Charl@@ 11
Williams 11
art, 11
Web. 11
Compan@@ 11
Kit@@ 11
Full@@ 11
Q 11
so: 11
val 11
Sens@@ 11
uck@@ 11
Econom@@ 11
Char@@ 11
ein, 11
emett@@ 11
awi@@ 11
Business 11
pe. 11
Michig@@ 11
proli@@ 11
stris@@ 11
Clint@@ 11
acom@@ 11
ografie 11
iet@@ 11
Invest@@ 11
sey 11
ect 11
fera 11
Patric@@ 11
sili@@ 11
depon@@ 11
car 11
Bisogn@@ 11
School 11
ession@@ 11
Allen 11
ong 11
tz@@ 11
110 11
ront@@ 11
16, 11
Hav@@ 11
de?" 11
Sah@@ 11
addi@@ 11
Cru@@ 11
rius@@ 11
Higg@@ 11
unt 11
intensiv@@ 11
y? 11
immag@@ 11
YouTu@@ 11
Wh@@ 11
Stev@@ 11
70.000 11
RC@@ 11
Julian 11
1.100 11
Robot@@ 11
Nell@@ 11
Cloni@@ 11
Nicole: 11
Donn@@ 11
Cir@@ 11
Rory 11
matri@@ 11
HA@@ 11
nos@@ 11
UCL@@ 11
TT@@ 11
ville 11
stern@@ 11
nete 11
PR: 11
av 11
DL: 11
Lay@@ 11
Just@@ 11
Math@@ 11
JC: 11
trick@@ 11
siring@@ 11
Joshu@@ 11
Alh@@ 11
itra 11
ule. 11
Nash@@ 10
Produ@@ 10
agon@@ 10
provvis@@ 10
Hop@@ 10
Boein@@ 10
2-@@ 10
feste 10
Spac@@ 10
1,5 10
BMW 10
IBM@@ 10
Tay@@ 10
avol@@ 10
pig@@ 10
Dawkins 10
fram@@ 10
Stat@@ 10
ack, 10
Ax@@ 10
Kenn@@ 10
erz@@ 10
antan@@ 10
Aven@@ 10
att, 10
low@@ 10
1960 10
ottigli@@ 10
"Guar@@ 10
Mahatma 10
Nancy 10
urist@@ 10
Cla@@ 10
'essere 10
orgas@@ 10
abor@@ 10
Luc@@ 10
12, 10
Kurzweil 10
spezi@@ 10
Camp@@ 10
gruppi@@ 10
chef 10
DR@@ 10
ble 10
bbi@@ 10
96 10
demi@@ 10
Corpor@@ 10
UF@@ 10
Amaz@@ 10
ter. 10
arram@@ 10
Bono 10
ens, 10
exi@@ 10
unto 10
ID 10
i-@@ 10
umini@@ 10
der. 10
hom@@ 10
day 10
e's 10
mail@@ 10
Quar@@ 10
Ig@@ 10
Tokyo 10
Virginia 10
geniale 10
gang@@ 10
400@@ 10
ulg@@ 10
Tho@@ 10
Manhatt@@ 10
land. 10
Sav@@ 10
Pant@@ 10
Sudan 10
risi@@ 10
mart 10
CIA 10
Tibet 10
ats@@ 10
Disco@@ 10
Dennett 10
Guatem@@ 10
Linus 10
Cambrid@@ 10
Lawrence 10
Nairo@@ 10
Nairobi, 10
Allor@@ 10
Keni@@ 10
bar, 10
ka 10
F 10
18, 10
gers 10
Squ@@ 10
Dou@@ 10
geri@@ 10
Iraq@@ 10
bril@@ 10
Emer@@ 10
Camb@@ 10
5-@@ 10
ativit@@ 10
Benn@@ 10
Gli@@ 10
wel@@ 10
Vel@@ 10
52 10
ley, 10
TEDster 10
ze@@ 10
Hawking 10
Texas 10
Roger 10
d" 10
Stre@@ 10
Detro@@ 10
it. 10
s-@@ 10
Motor@@ 10
dies@@ 10
sum@@ 10
HIV/AIDS 10
han, 10
10-@@ 10
Nike 10
AB@@ 10
Serge@@ 10
SAR@@ 10
N. 10
It@@ 10
186@@ 10
zanz@@ 10
Nob@@ 10
oth@@ 10
des 10
Open 10
creativit@@ 10
mati@@ 10
fiel@@ 10
ry, 10
Clark 10
molti@@ 10
Islam, 10
IDE@@ 10
plur@@ 10
ings 10
her, 10
rison@@ 10
ash 10
gie 10
Gan@@ 10
Tel@@ 10
Ugan@@ 10
ement 10
Kanzi 10
Roy 10
Basi@@ 10
Research 10
Scien@@ 10
piedi@@ 10
Bosni@@ 10
comin@@ 10
Beck@@ 10
vietnam@@ 10
Magazin@@ 10
h" 10
orni@@ 10
stir@@ 10
anga 10
Novograt@@ 10
Tab@@ 10
Nig@@ 10
Warren 10
Design 10
rab@@ 10
agog@@ 10
vell@@ 10
verr@@ 10
Hal@@ 10
ric 10
J. 10
videogi@@ 10
Central 10
vicen@@ 10
8.000 10
3: 10
189@@ 10
Univer@@ 10
ord 10
Global 10
ker@@ 10
mpi@@ 10
abbast@@ 10
Stal@@ 10
Bulg@@ 10
Pra@@ 10
Brid@@ 10
Ful@@ 10
Marine 10
omp@@ 10
ais@@ 10
Parkin@@ 10
Hospit@@ 10
libri@@ 10
'000 10
Roosev@@ 10
ison 10
Bond 10
rezz@@ 10
Journal 10
orto 10
utu@@ 10
spiaggi@@ 10
Amer@@ 10
sini 10
Steve, 10
Andre@@ 10
Lyndon 10
Cape 10
Andy 10
Gell-@@ 10
freu@@ 10
Der@@ 10
Bhutan 10
Juan 10
Mill@@ 10
tett@@ 10
Neumann 10
cifr@@ 10
Princeton 10
opo@@ 10
van 10
Robic@@ 10
Gary 10
ball 10
ece 10
Elean@@ 10
ditori@@ 10
lle 10
Sam 10
Karen 10
k" 10
Johnn@@ 10
s". 10
Barbi@@ 10
sanguign@@ 10
LH@@ 10
ogie 10
s." 10
gs 10
Diff@@ 10
gigan@@ 10
fist@@ 10
mm 10
Clay 10
Coca-Cola 10
wak@@ 10
atore: 10
Din@@ 10
Sho@@ 10
+ 10
islam@@ 10
ja 10
Lincol@@ 10
Kap@@ 10
ct@@ 10
Jab@@ 10
Georgetow@@ 10
Donnell 10
KIP@@ 10
turbin@@ 10
ingsu@@ 10
Galois 10
ricket. 10
olabi@@ 10
monson@@ 10
Browne 10
Force 9
famili@@ 9
riser@@ 9
Washing@@ 9
tion@@ 9
&@@ 9
stabi@@ 9
Bez@@ 9
Apollo 9
Michel@@ 9
plat@@ 9
Catherine 9
egoist@@ 9
Individu@@ 9
compag@@ 9
11. 9
Photos@@ 9
off 9
Windows 9
oft. 9
ory 9
impressione 9
Kev@@ 9
icio 9
Dil@@ 9
y-@@ 9
moderne 9
Gom@@ 9
Cooper@@ 9
ettr@@ 9
Gehry 9
Saul 9
Rich@@ 9
Rockef@@ 9
Attra@@ 9
genti@@ 9
ves 9
Elec@@ 9
traum@@ 9
circu@@ 9
terren@@ 9
last@@ 9
alcuno 9
cult@@ 9
ickl@@ 9
Tem@@ 9
Grey 9
Che@@ 9
News 9
Tenness@@ 9
Mari@@ 9
Spe@@ 9
3,7 9
Gab@@ 9
Evel@@ 9
Bay, 9
J 9
Cham@@ 9
Fron@@ 9
Greg 9
ish 9
eine. 9
atte. 9
ps 9
spre@@ 9
Hill 9
Company, 9
Sudhir 9
Street@@ 9
AA@@ 9
succ@@ 9
aggr@@ 9
dispi@@ 9
Sti@@ 9
tene 9
occol@@ 9
ock. 9
ub@@ 9
Ghrai@@ 9
Ban@@ 9
SysAd@@ 9
equip@@ 9
Valde@@ 9
ax@@ 9
Bin 9
Village 9
Cric@@ 9
Corn@@ 9
Frankl@@ 9
ust 9
Marshall 9
Nir@@ 9
Gandhi 9
Istan@@ 9
keni@@ 9
ez@@ 9
Yochai 9
FA@@ 9
F. 9
31 9
49 9
neuron@@ 9
commer@@ 9
dell 9
Madag@@ 9
]@@ 9
Minnes@@ 9
para@@ 9
Bill@@ 9
Astron@@ 9
simp@@ 9
L: 9
ght 9
Cel@@ 9
ein 9
Sinclair 9
Bre@@ 9
icl@@ 9
Museum 9
Tru@@ 9
lou@@ 9
Dra@@ 9
d.@@ 9
urbane 9
Riverside 9
Island 9
hem@@ 9
com 9
eman 9
Wis@@ 9
quartier 9
fabb@@ 9
Adi@@ 9
My 9
nor 9
hy@@ 9
Aravin@@ 9
Pubbl@@ 9
John, 9
Gapmin@@ 9
Bon@@ 9
188@@ 9
Lewis, 9
ater 9
ator 9
vad@@ 9
ford 9
tori@@ 9
ciol@@ 9
Ess@@ 9
end, 9
andin@@ 9
anco@@ 9
ic, 9
Bonob@@ 9
omatopo@@ 9
Eduardo 9
Jacqu@@ 9
rup@@ 9
Bah@@ 9
Sween@@ 9
fic 9
Leh@@ 9
Heat@@ 9
amere 9
Simp@@ 9
K-@@ 9
Deng 9
ia@@ 9
dafric@@ 9
78 9
/ 9
Dim@@ 9
bbl@@ 9
Dougl@@ 9
Mak@@ 9
ker. 9
North 9
Jeffer@@ 9
Philadelphi@@ 9
Dr@@ 9
rate. 9
Edison 9
over 9
Sear@@ 9
"K@@ 9
eflyer's 9
pacch@@ 9
ett, 9
Hus@@ 9
men 9
3-@@ 9
Bay 9
wai@@ 9
90@@ 9
aliforni@@ 9
Dieg@@ 9
Lind@@ 9
Fried@@ 9
carb@@ 9
Sut@@ 9
eil@@ 9
Virtu@@ 9
lassi@@ 9
Stone 9
Carolyn 9
more 9
orb@@ 9
Laurie 9
Mob@@ 9
ald 9
Servi@@ 9
ellow@@ 9
Eu@@ 9
sse 9
Stand@@ 9
Professor 9
Samu@@ 9
S-@@ 9
Oxford. 9
utto@@ 9
Florida, 9
in: 9
phi@@ 9
Anton@@ 9
nam 9
Explor@@ 9
ever 9
cortec@@ 9
liberale 9
Temberer@@ 9
omateri@@ 9
Chr@@ 9
sicurezz@@ 9
ovi@@ 9
Rose 9
sob@@ 9
Hein@@ 9
Oprah 9
Mell@@ 9
unser@@ 9
faci@@ 9
McLu@@ 9
Tig@@ 9
eber@@ 9
Shar@@ 9
Telefon@@ 9
Bess@@ 9
Blue 9
Direc@@ 9
Kaluza 9
patter@@ 9
Smo@@ 9
Domin@@ 9
Brun@@ 9
Coc@@ 9
USDA 9
wbo@@ 9
boom@@ 9
Myhrvol@@ 9
diav@@ 9
Flickr 9
alt 9
Oka@@ 9
í@@ 9
Dick@@ 9
Parkinson 9
Len 9
du 9
anie 9
She@@ 9
Innov@@ 9
Extrem@@ 9
Hai@@ 9
Eli@@ 9
Reagan 9
ecca 9
opt@@ 9
Jac@@ 9
statunit@@ 9
Chef@@ 9
Gust@@ 9
atar 9
Mah@@ 9
RIS@@ 9
martph@@ 9
UG: 9
NK: 9
Allo@@ 9
Hul@@ 9
ED: 9
Lifes@@ 9
Sang@@ 9
Prak@@ 9
Cargill 9
stra. 8
Carb@@ 8
presse 8
We@@ 8
Bran@@ 8
Spa@@ 8
Bett@@ 8
Il@@ 8
Genom@@ 8
idrogen@@ 8
"An@@ 8
onna 8
intelligent@@ 8
Nichol@@ 8
é? 8
distru@@ 8
ebo@@ 8
trapi@@ 8
otti. 8
Florida 8
tes 8
schwitz@@ 8
facol@@ 8
Proj@@ 8
pulsione 8
H. 8
76 8
eine, 8
kel@@ 8
Hillis 8
cha@@ 8
Mozart 8
%@@ 8
Sout@@ 8
docum@@ 8
seu@@ 8
Quad@@ 8
Christi@@ 8
Sat@@ 8
an? 8
les 8
organi@@ 8
figur@@ 8
Tun@@ 8
insk@@ 8
GP@@ 8
Non@@ 8
.com. 8
net@@ 8
pende 8
quali@@ 8
land 8
ul 8
ramma 8
Buff@@ 8
(@@ 8
ut. 8
king 8
opedi@@ 8
Jackson 8
azzi@@ 8
uck 8
Guer@@ 8
Ador@@ 8
-S@@ 8
ert 8
connession@@ 8
W 8
sinist@@ 8
Himalaya 8
periamo 8
Geographic 8
RNA 8
O'@@ 8
edes@@ 8
Inten@@ 8
ver. 8
ismi 8
18. 8
Massachusett@@ 8
HIV@@ 8
long@@ 8
olla 8
Google@@ 8
Green 8
aby@@ 8
redi@@ 8
proposit@@ 8
Budd@@ 8
ts@@ 8
Deut@@ 8
galassi@@ 8
Stefan 8
ste, 8
yr@@ 8
IBM 8
Hun@@ 8
ical 8
dan 8
Katrina 8
Tot@@ 8
Worldchanging@@ 8
Ohi@@ 8
Barry 8
GPHIN 8
Networ@@ 8
Bh@@ 8
SMS 8
Gel@@ 8
pragmat@@ 8
rut@@ 8
Glenn 8
ator. 8
V-@@ 8
inson 8
Shakespe@@ 8
Gilli@@ 8
ol, 8
Ham@@ 8
avigli@@ 8
AL@@ 8
wis@@ 8
rall@@ 8
erg@@ 8
Hyderab@@ 8
ut, 8
92 8
"] 8
Kab@@ 8
400.000 8
seggi@@ 8
de-@@ 8
Jacqueline 8
Sri 8
oping 8
versit@@ 8
hieu 8
ty 8
Sun@@ 8
1991 8
Fall@@ 8
toll@@ 8
Window@@ 8
Hin@@ 8
Hawk@@ 8
omm@@ 8
h-@@ 8
Mount@@ 8
Wu@@ 8
IDEO 8
ey: 8
K: 8
Millenni@@ 8
Tran@@ 8
Top@@ 8
"; 8
Law@@ 8
Regi@@ 8
Power 8
Ernest 8
Matri@@ 8
s", 8
ung, 8
quadri@@ 8
strut@@ 8
rangi@@ 8
Energi@@ 8
Schi@@ 8
ol. 8
rati@@ 8
Ang@@ 8
Camer@@ 8
j 8
Mama, 8
Darfur@@ 8
dich@@ 8
1950 8
35.000 8
Cheet@@ 8
ww@@ 8
Max@@ 8
Brother@@ 8
ock, 8
Bri@@ 8
Hard@@ 8
rik 8
erec@@ 8
Da, 8
Mann 8
D.@@ 8
Wa@@ 8
simb@@ 8
Tul@@ 8
ering 8
England 8
Pho@@ 8
Kent@@ 8
deter@@ 8
erie. 8
bedi@@ 8
Stanley 8
sis 8
eBay 8
config@@ 8
Act 8
Nar@@ 8
na: 8
restau@@ 8
Brookl@@ 8
Ach@@ 8
sbur@@ 8
habit@@ 8
Interess@@ 8
okay, 8
Will@@ 8
Cha@@ 8
Emmanuel 8
sten 8
Alaska 8
Dallas 8
Walker 8
Warner 8
hirl@@ 8
Vik@@ 8
ange@@ 8
Emil@@ 8
BI@@ 8
Dod@@ 8
templ@@ 8
JP@@ 8
ossigen@@ 8
Green@@ 8
sincr@@ 8
RISD 8
Skycar 8
TEDME@@ 8
#@@ 8
Rockett@@ 8
petei@@ 8
Langl@@ 8
Airstre@@ 8
Hunt@@ 8
Greenpeace 8
ler: 8
C.A.: 8
Klei@@ 8
Krishn@@ 8
GB: 8
Langley 8
cats 8
Corexit 8
Diplomat 8
rus 7
rie@@ 7
carboni@@ 7
8-@@ 7
Pac@@ 7
Arm@@ 7
pilo@@ 7
Von 7
wow, 7
verl@@ 7
X-@@ 7
cus 7
opol@@ 7
way@@ 7
Reag@@ 7
Eisen@@ 7
liste 7
abilit@@ 7
Job@@ 7
Pix@@ 7
amera 7
Mem@@ 7
City, 7
Union 7
prospettiv@@ 7
Boul@@ 7
bicicl@@ 7
sie, 7
-t@@ 7
McDonal@@ 7
Spar@@ 7
sinn@@ 7
Monter@@ 7
cer 7
Wur@@ 7
mifer@@ 7
Gehr@@ 7
corru@@ 7
t? 7
burg 7
mitt@@ 7
Ira@@ 7
fossil@@ 7
pant@@ 7
Daw@@ 7
hack@@ 7
Mosk@@ 7
itz 7
ics 7
wich 7
ing" 7
riel 7
Wit@@ 7
ness 7
ons 7
Nap@@ 7
fli@@ 7
Uom@@ 7
Lyn@@ 7
Ka@@ 7
ef 7
ote. 7
Vill@@ 7
Bank, 7
brand@@ 7
Poll@@ 7
Gri@@ 7
Divi@@ 7
Dist@@ 7
rimin@@ 7
ian 7
min 7
antast@@ 7
Nav@@ 7
ology 7
eventu@@ 7
Armstr@@ 7
50-@@ 7
andal@@ 7
qualit@@ 7
enciclopedi@@ 7
2/@@ 7
SARS 7
22. 7
Stein@@ 7
ge: 7
pert 7
Log@@ 7
170 7
svilu@@ 7
ó@@ 7
Griff@@ 7
ak, 7
Toy@@ 7
km/@@ 7
negative 7
chest@@ 7
verdi@@ 7
sw@@ 7
campag@@ 7
diffond@@ 7
Bab@@ 7
H5N@@ 7
gei@@ 7
recl@@ 7
sourc@@ 7
Out@@ 7
den, 7
zoom@@ 7
16. 7
om 7
Brit@@ 7
privile@@ 7
ren, 7
rappor@@ 7
quote 7
1998 7
Brasili@@ 7
antro@@ 7
ein. 7
roll@@ 7
ze. 7
my@@ 7
pazzi@@ 7
Barri@@ 7
sen 7
itte 7
Jeff@@ 7
Lank@@ 7
ase, 7
MacCread@@ 7
ren. 7
sempr@@ 7
sch, 7
Play@@ 7
Musi@@ 7
paradi@@ 7
km@@ 7
Mart 7
sod@@ 7
TV@@ 7
Dop@@ 7
distur@@ 7
apit@@ 7
aa@@ 7
Past@@ 7
Princ@@ 7
hall 7
Hotel 7
Goog@@ 7
bar. 7
eth@@ 7
Scherz@@ 7
Mum@@ 7
Berkeley 7
ada, 7
D.C. 7
Sy@@ 7
ozi@@ 7
quisi@@ 7
Pittsburgh 7
randomi@@ 7
H, 7
7.@@ 7
Harri@@ 7
Temp@@ 7
Eam@@ 7
Sky@@ 7
wal@@ 7
kw@@ 7
Infra@@ 7
Ancor@@ 7
sport@@ 7
Coun@@ 7
ordi@@ 7
Student@@ 7
S.@@ 7
vey 7
ens. 7
Bay@@ 7
Hoff@@ 7
Pink 7
Amazon 7
Vis@@ 7
Buckminster 7
H5N1 7
geli@@ 7
Coca-@@ 7
idride 7
Bot@@ 7
.B. 7
Sand@@ 7
ostante 7
All 7
ull 7
ers@@ 7
66@@ 7
cem@@ 7
ophi@@ 7
Bart@@ 7
cher 7
@@@ 7
Show. 7
ff, 7
Jur@@ 7
stem@@ 7
ji@@ 7
L.A. 7
former@@ 7
Ever@@ 7
Massachus@@ 7
Hey, 7
pre 7
Mig@@ 7
Park@@ 7
Nix@@ 7
osau@@ 7
ath@@ 7
Princet@@ 7
Integ@@ 7
hn@@ 7
rupp@@ 7
mei@@ 7
awatt 7
koll@@ 7
Digit@@ 7
edy 7
Program@@ 7
ft 7
CI@@ 7
ns 7
ron 7
angi@@ 7
gan 7
Kir@@ 7
cocco@@ 7
enber@@ 7
train@@ 7
BL: 7
Open@@ 7
Mobile 7
Gru@@ 7
Schwarzschil@@ 7
99" 7
gavi@@ 7
Flu@@ 7
ign 7
hail@@ 7
's, 6
arre@@ 6
liche, 6
stoff@@ 6
hil@@ 6
Rigu@@ 6
Spor@@ 6
sen, 6
ant, 6
Leak@@ 6
loy@@ 6
Park, 6
"Okay, 6
Ern@@ 6
Defin@@ 6
Num@@ 6
Stan@@ 6
Roll@@ 6
ypt@@ 6
Na@@ 6
WI@@ 6
ster. 6
ster, 6
cib@@ 6
riche 6
erv@@ 6
Hock@@ 6
eg 6
Yorker 6
aku@@ 6
interne 6
Sudhi@@ 6
=@@ 6
agen, 6
Freu@@ 6
Agr@@ 6
has@@ 6
versar@@ 6
Kath@@ 6
Techn@@ 6
otball@@ 6
dison 6
rabbi@@ 6
bano 6
ai: 6
es" 6
desto 6
ologie. 6
mache 6
elt 6
Ovvi@@ 6
etz@@ 6
Ani@@ 6
Kni@@ 6
enzu@@ 6
meister 6
inner@@ 6
Mess@@ 6
omen@@ 6
ropolit@@ 6
ins 6
Cher@@ 6
agen. 6
Meg@@ 6
Fisch@@ 6
ent, 6
respon@@ 6
in-@@ 6
GPHI@@ 6
tion. 6
ih@@ 6
1970 6
!", 6
drome 6
Well@@ 6
AID@@ 6
appell@@ 6
R.@@ 6
mond 6
Occi@@ 6
ood@@ 6
avia 6
nott@@ 6
bau@@ 6
Hol@@ 6
dirittura 6
rate 6
1,2 6
Ring@@ 6
Scot@@ 6
Joy@@ 6
ange 6
gigant@@ 6
indi, 6
aster@@ 6
svi@@ 6
1994 6
eh, 6
enni@@ 6
sottov@@ 6
Vort@@ 6
relative 6
17. 6
ader 6
on-@@ 6
Denn@@ 6
OK@@ 6
rice@@ 6
Proz@@ 6
ye@@ 6
rel 6
Bis@@ 6
hey, 6
Pos@@ 6
Standard 6
Ep@@ 6
interes@@ 6
crom@@ 6
Gig@@ 6
doll@@ 6
onder@@ 6
Auton@@ 6
Magazine 6
Alex@@ 6
Rock 6
Univers@@ 6
ish@@ 6
abel 6
nis, 6
Nad@@ 6
avit@@ 6
wa 6
mat 6
20-@@ 6
propr@@ 6
Bus@@ 6
Gau@@ 6
Manu@@ 6
Stell@@ 6
Mama 6
Spl@@ 6
frat@@ 6
ppor@@ 6
vention 6
ern 6
Anth@@ 6
21. 6
Ama@@ 6
Tan@@ 6
oph@@ 6
elo@@ 6
samer 6
dor 6
2050 6
ant. 6
Spo@@ 6
da?" 6
fid@@ 6
Rau@@ 6
Ret@@ 6
tasche 6
labor@@ 6
Ek@@ 6
lau@@ 6
Parler@@ 6
Hex@@ 6
nam@@ 6
Somm@@ 6
Mom@@ 6
leu@@ 6
Tempo 6
Buch@@ 6
lle, 6
Milli@@ 6
ken. 6
ken 6
strutt@@ 6
NAS@@ 6
busin@@ 6
Auto@@ 6
ut 6
Cy@@ 6
Vag@@ 6
Arth@@ 6
Resear@@ 6
Ly@@ 6
andl@@ 6
problem 6
-P@@ 6
Ell@@ 6
Industri@@ 6
gets 6
dom 6
Ei@@ 6
Orig@@ 6
anne, 6
ppure, 6
registri@@ 6
Mech@@ 6
Wild@@ 6
simu@@ 6
nervo@@ 6
NG@@ 6
brot 6
wei@@ 6
lis 6
Wink@@ 6
grov@@ 6
Fahr@@ 6
Gut@@ 6
D-@@ 6
sau@@ 6
wid@@ 6
Eth@@ 6
rami@@ 6
sten@@ 6
Popul@@ 6
unge 6
´ 6
P: 6
palazz@@ 6
atz 6
AM: 6
te: 6
als 6
los 6
zel@@ 6
Bag@@ 6
Ta@@ 6
Interfac@@ 6
Mission 6
Bott@@ 6
Wei@@ 6
masse, 6
Facebook 6
dit 6
Set@@ 6
Pazi@@ 6
em, 6
Him@@ 6
Dubai 6
onie 5
kon@@ 5
1996 5
rad 5
Poli@@ 5
Gest@@ 5
molteplic@@ 5
Tok@@ 5
el-@@ 5
att 5
massiv@@ 5
esie, 5
pigment@@ 5
able 5
Sta@@ 5
Galil@@ 5
Bei@@ 5
ral 5
industrie. 5
Hot@@ 5
ass 5
forman@@ 5
eder 5
stock 5
malap@@ 5
U.S. 5
unter@@ 5
Fir@@ 5
Muse@@ 5
dicon@@ 5
System 5
sek@@ 5
ang, 5
gine@@ 5
ager, 5
metri@@ 5
Hil@@ 5
ket@@ 5
falt@@ 5
Wik@@ 5
dee 5
alte, 5
centesim@@ 5
comples@@ 5
ze, 5
manuten@@ 5
ets 5
t-@@ 5
steroi@@ 5
mann@@ 5
mann 5
feld 5
ontan@@ 5
vec@@ 5
ast 5
ging 5
McDon@@ 5
Sinc@@ 5
Meet@@ 5
ken@@ 5
sosti@@ 5
ox@@ 5
promu@@ 5
abet@@ 5
ber, 5
Rah@@ 5
Live 5
anf@@ 5
Linu@@ 5
donn@@ 5
Allig@@ 5
use@@ 5
fort 5
zit@@ 5
Test@@ 5
Project 5
"So 5
lant@@ 5
s! 5
Um@@ 5
Materi@@ 5
iso@@ 5
Alz@@ 5
1990 5
ement. 5
Sist@@ 5
aticamente 5
Seattle 5
lieg@@ 5
Kor@@ 5
eil. 5
HI@@ 5
Nacht@@ 5
1995 5
Partner@@ 5
ob, 5
egal, 5
"Hey 5
Ton@@ 5
fort, 5
Fab@@ 5
stein 5
Sieg@@ 5
Pennsylvania 5
Mot@@ 5
lin 5
Californi@@ 5
ke. 5
zon@@ 5
Nam@@ 5
Jah@@ 5
Jill@@ 5
Jos@@ 5
Master 5
riere 5
Fro@@ 5
ys 5
ohn, 5
virt@@ 5
sahari@@ 5
Information 5
sel 5
Fas@@ 5
ste@@ 5
Bio@@ 5
land, 5
zy@@ 5
ades@@ 5
Tradi@@ 5
bank@@ 5
Ob@@ 5
alle. 5
Mahl@@ 5
ratto 5
Esi@@ 5
Eis@@ 5
vog@@ 5
don 5
Digital 5
Vide@@ 5
Buck@@ 5
un. 5
rann@@ 5
Vir@@ 5
Heli@@ 5
Encel@@ 5
Sex 5
Pist@@ 5
rik@@ 5
Sus@@ 5
hin 5
Schul@@ 5
diffu@@ 5
ffe 5
berer@@ 5
ach. 5
Synth@@ 5
scher 5
wich@@ 5
Leon@@ 5
Fern@@ 5
Brem@@ 5
Profess@@ 5
unk@@ 5
band 5
Gramm@@ 5
els 5
ig. 5
Fut@@ 5
fornis@@ 5
efer@@ 5
Thin@@ 5
ther@@ 5
Assist@@ 5
Illu@@ 5
Frequ@@ 5
au, 5
elli@@ 5
Tod 5
Radio 5
Rel@@ 5
Navi@@ 5
Prof@@ 5
High 5
cilin@@ 5
icil@@ 5
Nug@@ 5
fer 5
olle 5
ex, 5
die, 5
13. 5
Chin@@ 5
Flick@@ 5
Psych@@ 5
Maledi@@ 5
ambi 5
Evol@@ 5
grupp@@ 5
Imm@@ 5
gende 5
Sek@@ 5
Lab@@ 5
mm, 5
brid@@ 5
Mex@@ 5
System@@ 5
tier@@ 5
Pingu@@ 5
Py@@ 5
Hyper@@ 5
Dam@@ 5
frag@@ 5
Ras@@ 5
Repu@@ 5
Hem@@ 5
beg@@ 5
au. 5
O-@@ 5
Path@@ 5
…@@ 5
Roman 5
Sergi@@ 5
Lib@@ 5
sonni@@ 5
mete@@ 5
ver: 5
ehr@@ 5
Mount 5
esch@@ 5
Tamiflu 5
ber. 5
Tour 5
Edu@@ 5
Wag@@ 5
rau@@ 5
Tami@@ 5
icken 5
Boot@@ 5
Ted@@ 5
Nan@@ 5
ray 5
1-@@ 5
ezu@@ 5
mark@@ 5
gar 5
Hell@@ 5
Stanfor@@ 5
n: 5
Theater 5
blem@@ 5
app 5
Ut@@ 5
ahn@@ 5
rak@@ 5
Depres@@ 5
DA 5
Interface 5
Zone 5
La@@ 5
Reb@@ 5
Riversi@@ 5
Send@@ 5
macch@@ 5
Kol@@ 5
llen 5
fair 5
  4
G-@@ 4
net. 4
U.S.@@ 4
Kuh@@ 4
innes@@ 4
wag@@ 4
iclett@@ 4
Magn@@ 4
assem@@ 4
Meth@@ 4
primi@@ 4
IP@@ 4
30-@@ 4
Era@@ 4
intorn@@ 4
sche. 4
top 4
Vogli@@ 4
Syl@@ 4
hig@@ 4
sprech@@ 4
MR@@ 4
den. 4
Differ@@ 4
spav@@ 4
ept@@ 4
aden@@ 4
Sign@@ 4
Rig@@ 4
Jenni@@ 4
tiere 4
Dig@@ 4
Lim@@ 4
enk@@ 4
Report@@ 4
Test 4
Olym@@ 4
g-@@ 4
‘@@ 4
ang. 4
aqu@@ 4
aka@@ 4
Keny@@ 4
Gam@@ 4
Lang@@ 4
du, 4
Bush-@@ 4
Wikipedi@@ 4
sie. 4
icotter@@ 4
hor@@ 4
lem@@ 4
Alcun@@ 4
Einst@@ 4
Bau@@ 4
enst@@ 4
Pil@@ 4
ot, 4
incir@@ 4
Vari@@ 4
ann, 4
Head@@ 4
Mic@@ 4
US 4
energie. 4
Prem@@ 4
Worldchang@@ 4
Shang@@ 4
ja. 4
Step@@ 4
esem@@ 4
plo@@ 4
orn 4
* 4
itt 4
Mars@@ 4
Agn@@ 4
laboratori@@ 4
Strat@@ 4
Fest@@ 4
ask@@ 4
nis. 4
nie, 4
d'accor@@ 4
the@@ 4
inter 4
Sex@@ 4
ollywoo@@ 4
Finanzi@@ 4
ku@@ 4
Will 4
Billi@@ 4
unque, 4
lean@@ 4
Kun@@ 4
Farmer 4
Kenia 4
midoll@@ 4
Fot@@ 4
Rein@@ 4
hol@@ 4
Signi@@ 4
Sach@@ 4
sottoval@@ 4
ung. 4
gel 4
aturi@@ 4
Sonn@@ 4
Hur@@ 4
ac 4
Papa 4
nost@@ 4
sell 4
kut@@ 4
Kunst@@ 4
muse@@ 4
Jag@@ 4
Brand@@ 4
oret@@ 4
Schnei@@ 4
HIV/@@ 4
ams 4
einer 4
osto, 4
Klein@@ 4
event@@ 4
fett@@ 4
Fol@@ 4
fe. 4
ghan@@ 4
ondon@@ 4
sik@@ 4
Kas@@ 4
britanni@@ 4
undi@@ 4
Reich@@ 4
wen@@ 4
Chicag@@ 4
Bank@@ 4
Austr@@ 4
Fond@@ 4
CL@@ 4
Club 4
Ther@@ 4
Rand 4
ebr@@ 4
k-@@ 4
Ehr@@ 4
Tat@@ 4
asie 4
verd@@ 4
Tax@@ 4
Chan@@ 4
osse 4
1945 4
ú@@ 4
Yeah, 4
il. 4
start@@ 4
Econ@@ 4
Mang@@ 4
U.@@ 4
kos@@ 4
Bam@@ 4
oren 4
Work@@ 4
Rab@@ 4
"Ver@@ 4
Pack@@ 4
Francis@@ 4
Laden 4
ride 4
tartar@@ 4
devol@@ 4
kler 4
schen 4
Josep@@ 4
Opr@@ 4
J: 4
end. 4
Gene, 4
Ment@@ 4
plan 4
Symph@@ 4
atmos@@ 4
Simul@@ 4
en-@@ 4
Atlanta 4
String@@ 4
elt. 4
2015 4
-L@@ 4
ution@@ 4
Tyrann@@ 4
Chip 4
Inti@@ 4
Geck@@ 4
zig 4
em. 4
Insom@@ 4
angl@@ 4
Bev@@ 4
Auto 4
ú 4
adel@@ 4
Nicol@@ 4
zent@@ 4
ologie, 4
cool@@ 4
gene@@ 4
andert@@ 4
Rover 4
Fun@@ 4
yo@@ 4
Imperi@@ 4
appy 4
But@@ 4
Autor@@ 4
Bos@@ 4
Celsi@@ 4
Nag@@ 4
Kind@@ 4
Design@@ 4
Lex@@ 4
men, 4
Oran@@ 4
Tric@@ 4
ks 4
Glas@@ 4
unker 4
rö@@ 4
char@@ 4
rieb@@ 4
pass 4
len@@ 4
ppe. 4
kes 4
lich 4
Servic@@ 4
Alexand@@ 4
vat@@ 4
"Mam@@ 4
China 4
Sich@@ 4
global 4
Mann@@ 4
ular@@ 4
ir 4
London 4
ñ@@ 4
ss@@ 4
ing-@@ 4
Theat@@ 4
essità 4
Eig@@ 4
Mes@@ 4
Talks 4
des: 4
Cart@@ 4
Miss@@ 4
Seni@@ 4
alie 4
O.@@ 4
Mass@@ 4
ister 4
zen 4
bai 4
ramm@@ 4
Lewis@@ 4
Ambul@@ 4
zum@@ 4
dies 4
Image 4
wort@@ 4
Pik@@ 4
eb. 4
.: 4
dest, 4
Problem@@ 4
zabet@@ 4
Pion@@ 4
Anti@@ 4
Tiger 4
Corex@@ 4
Comedy 4
wo 3
Leb@@ 3
Tenn@@ 3
Veget@@ 3
hart 3
Brau@@ 3
femmini@@ 3
Typ@@ 3
Pilot 3
Gem@@ 3
Statu@@ 3
High@@ 3
Kos@@ 3
mec@@ 3
Bit@@ 3
sy@@ 3
ony@@ 3
Technologi@@ 3
orz@@ 3
Arch@@ 3
mache, 3
's. 3
Ox@@ 3
Anti-@@ 3
.com@@ 3
yc@@ 3
You@@ 3
ob 3
Phil@@ 3
Roh@@ 3
Japan 3
consi@@ 3
ot. 3
ynth@@ 3
los@@ 3
Bom@@ 3
Gy@@ 3
Dani@@ 3
Clu@@ 3
ich, 3
Neu@@ 3
-B@@ 3
obiettiv@@ 3
suff@@ 3
Inghil@@ 3
ciclopedi@@ 3
cus@@ 3
Fotografie 3
Negro@@ 3
egal. 3
was@@ 3
19. 3
rence 3
strom 3
Design. 3
asha 3
Virgin@@ 3
Flus@@ 3
sch 3
Zu@@ 3
rie 3
ige 3
aren 3
ent. 3
izi@@ 3
Neuro@@ 3
demia 3
Det@@ 3
Kno@@ 3
Band 3
ost 3
Elis@@ 3
Baby 3
spendi@@ 3
boli@@ 3
tot 3
Vagin@@ 3
anniversar@@ 3
Genome 3
ende, 3
lass 3
zig@@ 3
ed-@@ 3
eler@@ 3
avia, 3
ement, 3
Panbanis@@ 3
mache. 3
dem, 3
Manag@@ 3
Dici@@ 3
Foto 3
ven 3
F: 3
stur@@ 3
Had@@ 3
Kra@@ 3
eline 3
iger 3
= 3
gel, 3
Designer 3
Idi@@ 3
ebe 3
Dann@@ 3
Miner@@ 3
Dog@@ 3
Sob@@ 3
fris@@ 3
tau@@ 3
²@@ 3
Brut@@ 3
Mei@@ 3
Motor 3
Get@@ 3
Hor@@ 3
er's 3
Tsun@@ 3
Rei@@ 3
t" 3
Comput@@ 3
Rach@@ 3
ade, 3
Blogger 3
en? 3
wald 3
Hand@@ 3
pomer@@ 3
Neur@@ 3
du. 3
Potenzi@@ 3
Exx@@ 3
energie, 3
rank@@ 3
Dollar 3
ambe 3
sah@@ 3
sons 3
ende. 3
oss 3
cipl@@ 3
Nai@@ 3
en" 3
Fit@@ 3
Haus@@ 3
eck, 3
wu@@ 3
Anim@@ 3
ands 3
ç@@ 3
dete, 3
staf@@ 3
ith@@ 3
frattemp@@ 3
heim 3
war 3
eter 3
Alt@@ 3
ds, 3
Germani@@ 3
Ken@@ 3
die. 3
dus 3
Element@@ 3
August 3
` 3
v. 3
Berg@@ 3
utz@@ 3
hel@@ 3
Iron@@ 3
enn 3
position 3
als. 3
ser, 3
misch@@ 3
echnologi@@ 3
Ak@@ 3
Atom@@ 3
Sedi@@ 3
Henr@@ 3
Mountain@@ 3
stagi@@ 3
es." 3
ett. 3
ges 3
ums@@ 3
er" 3
kra@@ 3
Vagina 3
embr@@ 3
Perio@@ 3
partimento 3
Show 3
elles 3
Missi@@ 3
im 3
copi 3
T: 3
-U@@ 3
Mani@@ 3
eur 3
Pitt@@ 3
eil 3
og 3
Vul@@ 3
tion, 3
wir@@ 3
oft@@ 3
wit@@ 3
Service 3
der? 3
Finger@@ 3
ann 3
Protot@@ 3
ern, 3
impan@@ 3
gut@@ 3
trivi@@ 3
Transpar@@ 3
ome. 3
sdra@@ 3
Aus@@ 3
Schacht@@ 3
modelle 3
Neum@@ 3
ppen@@ 3
Err@@ 3
ander 3
schw@@ 3
Emmanu@@ 3
Gene. 3
stand 3
Fant@@ 3
Flor@@ 3
Ron@@ 3
tanz@@ 3
È@@ 3
beri@@ 3
ographic@@ 3
und. 3
Quattr@@ 3
Gle@@ 3
Dal@@ 3
provinci@@ 3
sistono 3
anders 3
Tutt@@ 3
Radi@@ 3
acht@@ 3
heit, 3
Soll@@ 3
Amazon@@ 3
wart, 3
her. 3
wur@@ 3
ringra@@ 3
eb 3
Grupp@@ 3
Teen@@ 3
ft, 3
Zeit@@ 3
Sym@@ 3
isch@@ 3
herine 3
appe 3
tor 3
Kro@@ 3
acht 3
Chem@@ 3
Flei@@ 3
etw@@ 3
atz@@ 3
ungst@@ 3
regionale 3
Plan@@ 3
ce-@@ 3
ppure 3
displ@@ 3
Zei@@ 3
Flas@@ 3
Afghanist@@ 3
oller 3
Got@@ 3
Atlanti@@ 3
thi@@ 3
chiacchi@@ 3
Fid@@ 3
Schwar@@ 3
Stick@@ 3
reu@@ 3
itt, 3
mage 3
ysi@@ 3
plu@@ 3
Link@@ 3
Histor@@ 3
Dah@@ 3
Minut@@ 3
Geg@@ 3
ensch@@ 3
efl@@ 3
ahn 3
rat 3
tag 3
code 3
phil@@ 3
Kraft 3
Glu@@ 3
epire 3
Lit@@ 3
et." 3
Zit@@ 3
programmi@@ 3
Innovation 3
"-@@ 3
Zap@@ 3
England, 3
dies. 3
ernst@@ 3
tart@@ 3
Adr@@ 3
Stef@@ 3
artik@@ 3
stit@@ 3
kun@@ 3
rapid@@ 3
drin@@ 3
war. 3
ecceter@@ 3
Gang@@ 3
Kart@@ 3
Dall@@ 3
ywoo@@ 3
Planet@@ 3
stet@@ 3
ahr@@ 3
ales 3
Pul@@ 3
asche 3
Fund@@ 3
strom@@ 3
ier 3
Zucker@@ 3
neu@@ 3
Diplom@@ 3
hl 3
Tau@@ 2
½ 2
¼ 2
uner@@ 2
Null@@ 2
brin@@ 2
Rat@@ 2
tern@@ 2
combu@@ 2
von@@ 2
ig, 2
zen@@ 2
Plast@@ 2
wink@@ 2
Roy@@ 2
Trot@@ 2
Skep@@ 2
gens 2
Million 2
nisse 2
Moral@@ 2
alles, 2
sech@@ 2
flut@@ 2
d? 2
mak@@ 2
Atm@@ 2
reli@@ 2
Richter 2
nett 2
Franci@@ 2
War 2
ges, 2
€ 2
band@@ 2
ind 2
wirt@@ 2
Multi@@ 2
Mini@@ 2
Freit@@ 2
usel@@ 2
egal 2
Neb@@ 2
dar. 2
Start 2
End@@ 2
Babb@@ 2
sen. 2
Zul@@ 2
Greenpe@@ 2
hen. 2
zah@@ 2
hen, 2
Volk@@ 2
das 2
Idee 2
zeit@@ 2
ondazione 2
en". 2
rige 2
enge 2
aus 2
leb@@ 2
urch 2
overe 2
all-@@ 2
fenom@@ 2
“ 2
Lond@@ 2
amen 2
Herz@@ 2
redu@@ 2
Trans@@ 2
Trupp@@ 2
Inst@@ 2
vier 2
rise 2
dem 2
will 2
gion 2
Statist@@ 2
sam. 2
Groen@@ 2
ots 2
Best@@ 2
Real@@ 2
leist@@ 2
Sobul@@ 2
Magi@@ 2
egel 2
Gap@@ 2
Ober@@ 2
Ord@@ 2
ig 2
Post 2
sein 2
)@@ 2
Redwoo@@ 2
Tier@@ 2
zier@@ 2
signifi@@ 2
Buddh@@ 2
Top 2
folg@@ 2
iss 2
els. 2
ebbene 2
elson 2
Apart@@ 2
Vist@@ 2
Extra@@ 2
Afrik@@ 2
onlin@@ 2
Onlin@@ 2
lang 2
Span@@ 2
tick@@ 2
park 2
ener 2
prendit@@ 2
Heil@@ 2
Soldat@@ 2
kk@@ 2
en", 2
cool. 2
Gur@@ 2
proj@@ 2
û 2
minster 2
Kram@@ 2
gens, 2
des. 2
af 2
Virg@@ 2
Mann. 2
Sty@@ 2
Fav@@ 2
ois 2
Margar@@ 2
Live@@ 2
Keit@@ 2
Sog@@ 2
yrigh@@ 2
Million@@ 2
Biolumin@@ 2
Klu@@ 2
Spiel@@ 2
leit@@ 2
ester 2
Vat@@ 2
Journ@@ 2
n." 2
sein, 2
Schw@@ 2
Stap@@ 2
Sour@@ 2
Lern@@ 2
Bus 2
portaf@@ 2
isten, 2
Lek@@ 2
t; 2
kn@@ 2
Posi@@ 2
pt 2
mich@@ 2
Sport@@ 2
eil, 2
Sl@@ 2
bende 2
eh 2
-F@@ 2
prescin@@ 2
ade. 2
hek 2
molte@@ 2
Land@@ 2
back 2
intrapp@@ 2
rant@@ 2
aster 2
hili@@ 2
syn@@ 2
ers. 2
stitu@@ 2
Kalu@@ 2
Nation@@ 2
Show@@ 2
Hat 2
hiel@@ 2
ummi@@ 2
Box 2
racco@@ 2
Gravit@@ 2
scimp@@ 2
stadi@@ 2
Bitt@@ 2
Gras@@ 2
Saturn 2
Initi@@ 2
Wes@@ 2
ging. 2
instit@@ 2
mir 2
cool, 2
ill 2
Logo 2
daf@@ 2
Licht@@ 2
max@@ 2
Kathr@@ 2
ktu@@ 2
gib@@ 2
anthrop@@ 2
Krist@@ 2
U-B@@ 2
sied@@ 2
Motiv@@ 2
live 2
madr@@ 2
okay. 2
Penn@@ 2
Autom@@ 2
hyth@@ 2
Arg@@ 2
tritt@@ 2
Hier@@ 2
mus 2
ehr 2
cht@@ 2
H: 2
Film 2
intre@@ 2
stel 2
ters 2
ung: 2
Chri@@ 2
Innovation@@ 2
Baby, 2
ist, 2
plor@@ 2
incirca 2
Feld@@ 2
mobili@@ 2
Wein@@ 2
Hub@@ 2
hie, 2
motor@@ 2
Kid@@ 2
Angi@@ 2
erig@@ 2
Aristotel@@ 2
Ent@@ 2
aut 2
prü@@ 2
cht 2
zu 2
Management 2
Broo@@ 2
Foie 2
Chef 2
fit 2
m: 2
sile. 2
Prin@@ 2
Para@@ 2
hole 2
Terror@@ 2
Antar@@ 2
Gord@@ 2
dru@@ 2
such@@ 2
fau@@ 2
Serie 2
etter 2
Ideal@@ 2
heit. 2
Watt 2
wart@@ 2
Inf@@ 2
erst@@ 2
Polar@@ 2
zir@@ 2
Film@@ 2
arium 2
intit@@ 2
chen. 2
aten 2
@ 2
Harv@@ 2
ager@@ 2
Epi@@ 2
farmac@@ 2
Urban@@ 2
hing@@ 2
Mai@@ 2
bald 2
fe, 2
frem@@ 2
Sport 2
ator, 2
stren@@ 2
ror@@ 2
Reserv@@ 2
gen 2
zwei@@ 2
Neg@@ 2
imbr@@ 2
urop@@ 2
Caf@@ 2
hen 2
Transport@@ 2
Masch@@ 2
Kauf@@ 2
ken, 2
nette 2
fen 2
Ultra@@ 2
Mann, 2
Marshmall@@ 2
us-@@ 2
billi@@ 2
Billion 2
nach@@ 2
ter: 2
Puzz@@ 2
itre@@ 2
Fund 2
Vall@@ 2
kind@@ 2
prag@@ 2
Fair@@ 2
Modell@@ 2
wom@@ 2
Batter@@ 2
alog 2
vier@@ 2
men. 2
Isol@@ 2
enzen. 2
ren 2
flo@@ 2
chang@@ 2
S.: 2
ogen 2
Pakist@@ 2
an." 2
lanti@@ 2
unesimo 2
Citt@@ 2
Fing@@ 2
ā@@ 2
je 2
Ster@@ 2
schil@@ 2
tank@@ 2
mir, 2
Portra@@ 2
mas 2
immer. 2
immer, 2
Impul@@ 2
Found@@ 2
rick@@ 2
hek@@ 2
itten. 2
errei@@ 2
alles 2
buch@@ 2
gesu@@ 2
HIV-@@ 2
L.@@ 2
nie. 2
Sandel@@ 2
♪ 2
Masse 2
Gen 2
Trend@@ 2
Fok@@ 2
et? 2
haf@@ 2
compas@@ 2
Hab@@ 2
Mein@@ 2
siasi 1
station 1
inspiri@@ 1
ror 1
Software 1
sen: 1
kes@@ 1
desig@@ 1
en... 1
China, 1
ickel@@ 1
rai@@ 1
Bei 1
des, 1
skept@@ 1
yn: 1
Instrum@@ 1
Ih@@ 1
Male 1
auf@@ 1
ographic 1
Himmel@@ 1
blau 1
quival@@ 1
stab@@ 1
symmet@@ 1
Strategi@@ 1
Dot@@ 1
osev@@ 1
gabe 1
animi@@ 1
enz. 1
Yoch@@ 1
haus 1
rimpic@@ 1
stad@@ 1
also 1
Fang@@ 1
“, 1
Massach@@ 1
hell@@ 1
Ganz 1
hier@@ 1
filos@@ 1
Mod@@ 1
etz 1
zt, 1
Kul@@ 1
Synchron@@ 1
Golf 1
Training@@ 1
uns. 1
Ball 1
mann, 1
Pizz@@ 1
ystem@@ 1
fortem@@ 1
mmer@@ 1
andere 1
lose 1
Lamp@@ 1
Source 1
Phant@@ 1
a-croce-@@ 1
stap@@ 1
sind@@ 1
motivi@@ 1
doch 1
yp@@ 1
Bed@@ 1
geg@@ 1
ution 1
kei@@ 1
Sow@@ 1
Viet@@ 1
nack@@ 1
Link 1
Fic@@ 1
einig@@ 1
symbol@@ 1
Kil@@ 1
Religion@@ 1
ciat@@ 1
enz, 1
hos 1
`@@ 1
Berk@@ 1
Beginn@@ 1
veran@@ 1
Katz@@ 1
Chance 1
.“ 1
Vog@@ 1
Chips 1
ung? 1
summ@@ 1
sein@@ 1
Ski@@ 1
human@@ 1
Weg@@ 1
chiat@@ 1
Neut@@ 1
fort. 1
Diag@@ 1
nosti@@ 1
vertr@@ 1
iett@@ 1
frau@@ 1
Jem@@ 1
Zeu@@ 1
tot. 1
™ 1
R: 1
elt, 1
kor@@ 1
Fall 1
ten 1
Gottes@@ 1
Kom@@ 1
Bio-@@ 1
ogramm@@ 1
Geb@@ 1
blas@@ 1
Dru@@ 1
hing 1
ged@@ 1
Biot@@ 1
"Sch@@ 1
ist." 1
net 1
ts. 1
Nest@@ 1
Paris 1
İ@@ 1
Manifest@@ 1
aden, 1
ses 1
gens. 1
kab@@ 1
atz, 1
"Ich 1
habe 1
Heb@@ 1
inie 1
kat@@ 1
erei, 1
t'@@ 1
Ug@@ 1
indi 1
Nobel@@ 1
ehl@@ 1
ewi@@ 1
mal, 1
Uni 1
schu@@ 1
Intell@@ 1
Humor 1
Mir 1
derm@@ 1
Pittsbur@@ 1
Training 1
Parks 1
n?" 1
Tasch@@ 1
® 1
Element 1
sile, 1
andere. 1
Fast@@ 1
Gold 1
Poly@@ 1
tat. 1
Invec@@ 1
velli 1
fer. 1
Holz@@ 1
RSW: 1
nur@@ 1
ert, 1
schen@@ 1
ohn 1
entw@@ 1
Immun@@ 1
Pir@@ 1
Ech@@ 1
auf, 1
Front@@ 1
enz 1
ier. 1
idente 1
cker 1
eng 1
andel@@ 1
cool 1
las, 1
alls 1
Alphab@@ 1
afrik@@ 1
Organis@@ 1
Code 1
Box@@ 1
Minute 1
Pock@@ 1
drin 1
etti-@@ 1
pack@@ 1
bei@@ 1
jung@@ 1
aiss@@ 1
Pent@@ 1
Titan 1
Parall@@ 1
Schl@@ 1
ž@@ 1
Uru@@ 1
ging@@ 1
Mann: 1
ebook 1
Graph@@ 1
Ins@@ 1
BM 1
Displ@@ 1
der-@@ 1
-St@@ 1
agen 1
Bem@@ 1
Zw@@ 1
Chemi@@ 1
ѐ 1
zul@@ 1
opti@@ 1
ations@@ 1
National@@ 1
Population 1
Emp@@ 1
en! 1
bis 1
Priv@@ 1
Chic@@ 1
Computer. 1
war, 1
schn@@ 1
Guten 1
Wurzel@@ 1
Lange 1
enheit 1
Gei@@ 1
100-@@ 1
Carne@@ 1
Papi@@ 1
papi@@ 1
atur 1
er." 1
Intervi@@ 1
zep@@ 1
Rez@@ 1
Origin@@ 1
Babi@@ 1
¼@@ 1
Refer@@ 1
enter 1
Magnet@@ 1
Brust@@ 1
um? 1
UN 1
¥ 1
Rog@@ 1
Risi@@ 1
Abra@@ 1
ikop@@ 1
verli@@ 1
Bombe 1
Business@@ 1
ö@@ 1
uss 1
Stelle, 1
Nerv@@ 1
auff@@ 1
Spiegel 1
minister 1
sten, 1
Rak@@ 1
arme 1
ganz 1
wider@@ 1
Isa@@ 1
dar, 1
Art, 1
genös@@ 1
sische 1
für 1
Geist@@ 1
iges 1
Eigent@@ 1
Göt@@ 1
wird 1
fahr@@ 1
weise 1
recht@@ 1
geschützt 1
welche 1
Kunst 1
durch 1
spezif@@ 1
isch 1
aufger@@ 1
äum@@ 1
Regel@@ 1
äs@@ 1
keiten 1
allgemeinen 1
mensch@@ 1
neue 1
Wirk@@ 1
ungen 1
erzi@@ 1
elen 1
möglich 1
wird@@ 1
Land 1
technologie 1
-, 1
itten 1
Cockt@@ 1
Tast@@ 1
scim@@ 1
schm@@ 1
Computer, 1
Wir@@ 1
ammer 1
verw@@ 1
Lut@@ 1
Kop@@ 1
â@@ 1
och 1
fang 1
ung" 1
politi@@ 1
mau@@ 1
pen 1
ool 1
Design, 1
–@@ 1
ê@@ 1
Ur-@@ 1
Such@@ 1
dril@@ 1
erste 1
opher 1
Plan 1
real 1
Fotografi@@ 1
nd 1
was 1
Ding@@ 1
bat 1
Hypoth@@ 1
en; 1
vania 1
zett@@ 1
informi@@ 1
metap@@ 1
ghil@@ 1
Stim@@ 1
interessi@@ 1
Feu@@ 1
bank, 1
Jet@@ 1
sche, 1
heil@@ 1
Evoluti@@ 1
Wort@@ 1
© 1
Team 1
itt. 1
Gas 1
uss, 1
– @@ 1
Aug@@ 1
Blin@@ 1
terer 1
Trick@@ 1
ben, 1
Hero@@ 1
Kohl@@ 1
rt 1
rand@@ 1
Im 1
Frei@@ 1
los, 1
Tin@@ 1
gen, 1
dem. 1
Mobil@@ 1
acht. 1
ular 1
Baseb@@ 1
Gas@@ 1
Mön@@ 1
Jung@@ 1
Idee, 1
rem 1
Comic@@ 1
Zun@@ 1
Auto, 1
sion, 1
Hef@@ 1
Elef@@ 1
schen. 1
Region 1
Stock@@ 1
Doll@@ 1
integri@@ 1
strit@@ 1
Intervist@@ 1
Schau@@ 1
"Na@@ 1
zel 1
Herr 1
chene 1
Privile@@ 1
Baby@@ 1
kan@@ 1
lich: 1
Emis@@ 1
Israel 1
ow-@@ 1
Teenager 1
oka@@ 1
ahl@@ 1
Mais@@ 1
Material@@ 1
vile@@ 1
Misch@@ 1
Anal@@ 1
andere, 1
Philanthr@@ 1
omen 1
hab 1
sion. 1
Also 1
bet 1
ards 1
ends 1
Anthr@@ 1
Epidemi@@ 1
archie 1
Frag@@ 1
Kö@@ 1
alt, 1
emar@@ 1
Lieb@@ 1
gerne 1
dozz@@ 1
talent@@ 1
Haus. 1
Dunk@@ 1
Geni@@ 1
Konz@@ 1
Band@@ 1
person 1
cken 1
zu, 1
trei@@ 1
Phot@@ 1
ök@@ 1
ś@@ 1
ć 1
ã@@ 1
Sfortun@@ 1
[...]
