die 42770
en 42734
und 37543
der 32608
, 28794
en, 28760
er 27975
. 27798
t 27793
es 27004
en. 26427
k@@ 26070
er@@ 25378
in 24489
das 22477
zu 22445
e 22052
ist 21530
ich 21047
l@@ 20509
t@@ 18978
den 18945
h@@ 18872
s@@ 18666
wir 18470
n@@ 17522
M@@ 17284
f@@ 17194
en@@ 16385
K@@ 16180
st@@ 15867
s 15729
S@@ 15573
ein 15523
eine 15391
ten 15365
Und 15005
sie 14845
Sie 14621
g@@ 14524
von 14509
an@@ 14221
t, 14127
te 13944
d@@ 13821
dass 13641
sch@@ 13462
ver@@ 13322
F@@ 12972
e@@ 12946
e, 12900
w@@ 12819
m@@ 12775
z@@ 12717
B@@ 12369
D@@ 12263
b@@ 12154
o@@ 11856
ä@@ 11664
nicht 11661
t. 11567
ein@@ 11506
r@@ 11324
H@@ 11153
T@@ 11114
mit 10980
W@@ 10920
in@@ 10515
ung 10309
auf 10280
el@@ 10095
ch@@ 10016
a@@ 9950
Ich 9844
au@@ 9814
un@@ 9646
L@@ 9566
wie 9547
G@@ 9534
um 9514
ei@@ 9188
für 8933
i@@ 8915
u@@ 8882
-@@ 8756
sich 8740
P@@ 8435
al@@ 8428
einen 8198
R@@ 8108
man 7965
e. 7836
ri@@ 7815
ü@@ 7791
an 7679
dem 7648
N@@ 7639
als 7599
re@@ 7564
be@@ 7557
Das 7397
ar@@ 7389
"@@ 7247
g 7108
ent@@ 6987
si@@ 6977
li@@ 6944
was 6907
m 6797
Es 6788
so 6776
: 6764
cht@@ 6757
A@@ 6554
aus@@ 6515
or@@ 6438
ur@@ 6398
at@@ 6395
ge@@ 6391
es@@ 6321
p@@ 6299
lich 6288
Z@@ 6279
sind 6271
Sch@@ 6215
et@@ 6203
des 6139
diese 6122
ö@@ 5892
im 5879
wenn 5817
haben 5798
St@@ 5787
ab@@ 5702
Wir 5631
war 5505
einem 5391
am@@ 5330
Ver@@ 5330
um@@ 5329
? 5327
it@@ 5322
ge 5310
einer 5287
em@@ 5280
eh@@ 5272
über 5263
gen 5226
O@@ 5192
kl@@ 5185
y@@ 5170
cht 5160
che 5137
chen 5133
der@@ 5122
on@@ 5080
de 5068
eg@@ 5068
zu@@ 5064
da@@ 5019
ß@@ 4982
n 4967
d 4959
zi@@ 4944
and@@ 4937
sag@@ 4912
ra@@ 4903
aus 4833
uns 4821
E@@ 4798
ol@@ 4793
di@@ 4793
auf@@ 4781
eit@@ 4778
gen@@ 4756
J@@ 4724
wei@@ 4690
rei@@ 4618
-- 4609
oder 4565
ag@@ 4528
An@@ 4514
l 4389
ut@@ 4342
ig@@ 4342
Aber 4330
a 4317
aber 4296
Die 4292
Er@@ 4267
el 4258
and 4249
eb@@ 4205
auch 4205
j@@ 4188
gl@@ 4072
sehr 4071
ung@@ 4043
is@@ 4032
ti@@ 4032
ist, 4032
ber@@ 4012
ach@@ 3931
st 3924
än@@ 3908
hier 3896
ter@@ 3893
ier@@ 3891
stell@@ 3888
ges@@ 3883
sten 3867
k 3852
nur 3785
C@@ 3769
all@@ 3765
V@@ 3728
ni@@ 3724
ek@@ 3676
ot@@ 3662
war@@ 3652
lich@@ 3629
ch 3611
dann 3603
– 3594
- 3570
1@@ 3532
tr@@ 3530
ech@@ 3500
hat 3475
il@@ 3457
I@@ 3448
us@@ 3437
am 3385
om@@ 3377
In@@ 3366
ing@@ 3362
wer@@ 3344
vor@@ 3283
ungen 3282
her@@ 3274
über@@ 3265
geb@@ 3245
em 3244
f 3242
gibt 3222
as@@ 3209
also 3204
fin@@ 3200
noch 3184
bei 3182
dar@@ 3181
dieser 3163
werden 3146
tig@@ 3126
ter 3106
mich 3070
le 3055
geh@@ 3051
ell@@ 3051
etwas 3044
de@@ 3000
ma@@ 2973
est@@ 2950
ern@@ 2910
können 2906
er, 2902
r 2892
wi@@ 2890
z 2887
kann 2879
ar 2874
nach 2870
et 2870
denk@@ 2848
ne 2837
te, 2825
nen 2825
wird 2818
Wenn 2814
Menschen 2804
ak@@ 2784
habe 2780
ger@@ 2765
ens@@ 2762
." 2756
wir@@ 2747
ste 2745
je@@ 2708
♫ 2704
on 2687
os@@ 2684
den, 2655
pr@@ 2647
se 2647
vor 2628
ör@@ 2624
Ar@@ 2601
alle 2583
Al@@ 2574
ed@@ 2570
ischen 2559
ul@@ 2557
ische 2525
äh@@ 2524
eu@@ 2520
ir@@ 2509
mehr 2496
spr@@ 2488
bl@@ 2484
ck@@ 2465
sp@@ 2465
wä@@ 2463
op@@ 2458
ün@@ 2454
liche 2450
eben 2448
Ges@@ 2447
Ein@@ 2442
fl@@ 2437
end@@ 2417
wirklich 2407
Gr@@ 2400
eines 2394
mi@@ 2392
ru@@ 2387
fü@@ 2373
zum 2371
gel@@ 2356
all 2338
den@@ 2326
men 2316
groß@@ 2311
isch@@ 2310
ff@@ 2305
mir 2300
mö@@ 2299
komm@@ 2278
lichen 2272
Ihnen 2271
tz@@ 2270
ann@@ 2265
mach@@ 2264
ik@@ 2254
weil 2252
vi@@ 2251
ft 2251
wel@@ 2250
ungs@@ 2235
Welt 2228
ef@@ 2225
sen 2223
Pro@@ 2211
durch 2210
enn@@ 2207
s, 2207
oh@@ 2193
" 2190
mal 2174
ro@@ 2173
ist. 2155
hi@@ 2153
gr@@ 2153
ob@@ 2145
ück@@ 2141
unter@@ 2141
ah@@ 2141
woll@@ 2139
weg@@ 2129
inn@@ 2126
lan@@ 2116
eren 2115
dieses 2114
ist@@ 2103
U@@ 2097
Er 2077
utz@@ 2077
immer 2071
könn@@ 2070
Was 2070
sehen 2064
hei@@ 2058
bei@@ 2053
v@@ 2047
og@@ 2046
gem@@ 2039
hr@@ 2035
En@@ 2021
hin@@ 2014
viel 1999
al 1997
wen@@ 1997
beg@@ 1995
o 1988
Bil@@ 1977
diesem 1973
bi@@ 1973
er. 1972
pl@@ 1961
keine 1949
Also 1944
off@@ 1936
Re@@ 1931
ern 1915
y 1914
for@@ 1909
keit 1909
da 1905
ex@@ 1901
wur@@ 1893
ation@@ 1887
eit 1887
neh@@ 1882
ort@@ 1879
soll@@ 1877
Be@@ 1877
geg@@ 1872
diesen 1870
d, 1869
ess@@ 1855
gesch@@ 1855
ent 1846
a, 1844
gew@@ 1841
best@@ 1839
ung, 1834
meine 1832
versu@@ 1831
unsere 1824
lei@@ 1810
per@@ 1807
ass@@ 1807
Au@@ 1806
dr@@ 1803
ihre 1798
ann 1793
viele 1791
wo 1788
kt 1786
ten, 1782
so@@ 1777
ation 1771
är@@ 1759
gi@@ 1758
Or@@ 1753
ant@@ 1752
s. 1749
ur 1748
ür@@ 1735
führ@@ 1735
Leute 1734
Ch@@ 1732
ere 1731
sein 1731
anz@@ 1723
ander@@ 1710
ß 1708
ben@@ 1703
ert 1699
den. 1693
Der 1686
es, 1681
und@@ 1672
ihr@@ 1670
zei@@ 1668
ap@@ 1666
Ge@@ 1666
wis@@ 1666
en? 1664
hal@@ 1659
sich@@ 1655
Di@@ 1650
zwei 1647
wür@@ 1646
ic@@ 1644
Art 1632
ad@@ 1632
wurde 1629
fer@@ 1623
2@@ 1622
ll@@ 1620
te. 1619
de, 1610
gest@@ 1606
einfach 1606
zeig@@ 1603
Zu@@ 1597
Aus@@ 1596
heit 1591
ung. 1590
mer@@ 1585
amm@@ 1582
sier@@ 1575
br@@ 1572
haben, 1571
kann@@ 1570
Jahr@@ 1569
chte 1568
n, 1563
du@@ 1560
erk@@ 1558
dies 1557
jetzt 1552
Ent@@ 1551
äu@@ 1550
Wi@@ 1545
In 1542
leb@@ 1541
su@@ 1539
andere 1536
Wel@@ 1536
zur 1530
bin 1526
och 1518
pi@@ 1516
Zeit 1515
bis 1512
Leben 1511
ich@@ 1508
ganz@@ 1507
seh@@ 1505
c@@ 1504
Wie 1501
kommen 1497
d. 1496
anderen 1492
n. 1488
Vor@@ 1484
lu@@ 1479
u 1477
hl@@ 1477
etz@@ 1476
Kin@@ 1475
ihr 1475
bring@@ 1472
Ide@@ 1472
3@@ 1466
letz@@ 1461
ie 1461
under@@ 1456
Leb@@ 1454
Kon@@ 1449
brau@@ 1444
Dinge 1444
tig 1443
schl@@ 1439
Pr@@ 1435
e: 1434
das@@ 1425
pf@@ 1423
h 1421
gut@@ 1421
rit@@ 1416
auen 1413
glich@@ 1412
Li@@ 1411
rag@@ 1411
damit 1409
nach@@ 1404
.@@ 1403
bes@@ 1402
Unter@@ 1395
0@@ 1392
steh@@ 1390
kei@@ 1387
Jahren 1386
du 1385
et, 1383
alles 1382
ön@@ 1372
kon@@ 1366
be 1365
chten 1361
pp@@ 1361
lie@@ 1360
sen, 1358
ende 1358
uns@@ 1356
imm@@ 1356
enschaf@@ 1353
arbeit@@ 1352
ec@@ 1351
ehr@@ 1349
ale 1345
glaub@@ 1345
spiel@@ 1345
wich@@ 1343
mus@@ 1341
eig@@ 1339
mei@@ 1338
isch 1338
änder@@ 1330
schaf@@ 1330
haben. 1327
etw@@ 1321
Un@@ 1319
de. 1319
Jahre 1318
fol@@ 1318
ati@@ 1312
Fra@@ 1311
ehen 1310
Man 1308
müssen 1306
erst@@ 1299
schein@@ 1298
Ma@@ 1295
ens 1294
eht 1294
denen 1288
konn@@ 1288
eil@@ 1283
hatte 1283
fahr@@ 1277
Bei@@ 1274
re 1273
oll@@ 1268
aten 1266
sind, 1265
kt@@ 1259
eten 1258
hab@@ 1258
Proz@@ 1257
bar@@ 1256
alt@@ 1254
so, 1248
heraus@@ 1248
zusamm@@ 1243
denn 1243
ih@@ 1242
eich@@ 1238
machen 1235
sehen, 1231
sind. 1229
ang@@ 1217
im@@ 1213
cht. 1213
gan@@ 1212
lass@@ 1209
sol@@ 1208
0 1207
ken 1204
jem@@ 1202
af@@ 1200
schon 1197
halt@@ 1196
halb 1194
waren 1194
Hier 1194
enz@@ 1193
an, 1193
ok@@ 1190
bil@@ 1189
et. 1189
mein 1185
ob 1185
eg 1184
wissen 1182
ellen 1179
ahr@@ 1177
nicht@@ 1175
wahr@@ 1173
muss 1172
inter@@ 1170
ten. 1169
unser@@ 1167
tra@@ 1165
Sp@@ 1162
Ihr@@ 1161
woh@@ 1159
vielleicht 1157
nah@@ 1157
war, 1157
end 1155
igen 1148
hatt@@ 1148
Mensch@@ 1146
ft@@ 1145
or 1144
rik@@ 1143
jek@@ 1143
selbst 1143
hä@@ 1143
passier@@ 1142
For@@ 1141
5 1140
ing 1136
ück 1136
schi@@ 1136
str@@ 1135
fä@@ 1135
5@@ 1134
dort 1133
omm@@ 1130
andel@@ 1129
bin@@ 1129
Wei@@ 1127
arb@@ 1127
4@@ 1125
ihnen 1124
sel@@ 1124
einige 1123
ben 1122
ganz 1122
Ab@@ 1121
Des@@ 1121
enden 1120
schen 1117
werden. 1116
weiter@@ 1115
bet@@ 1113
Sy@@ 1113
ch, 1113
irgend@@ 1112
Nun, 1111
schie@@ 1110
Auf@@ 1109
Gel@@ 1102
schaft 1101
spi@@ 1096
eri@@ 1095
können. 1092
mm@@ 1091
ick@@ 1089
tatsächlich 1088
ank@@ 1087
wieder 1086
geht 1086
Ding@@ 1086
üh@@ 1082
Inter@@ 1082
00 1078
ab 1074
tiv@@ 1068
ett@@ 1066
lieg@@ 1064
Bl@@ 1061
Fr@@ 1059
Mar@@ 1058
paar 1058
; 1058
bess@@ 1057
elle 1056
ho@@ 1055
'@@ 1050
größ@@ 1050
werde 1048
drei 1047
neu@@ 1045
ali@@ 1045
schaff@@ 1042
seine 1041
weise 1040
würde 1037
viel@@ 1035
Per@@ 1034
zeu@@ 1032
pro@@ 1032
TED 1031
Geh@@ 1030
Mil@@ 1029
nicht, 1028
x@@ 1027
ihn 1026
fen 1022
öh@@ 1021
me 1021
Ih@@ 1021
Wass@@ 1019
besch@@ 1019
Gl@@ 1014
man@@ 1014
heute 1012
unter 1008
eigen@@ 1006
ahl@@ 1006
ßen 1001
ag 998
Ber@@ 997
tun 996
os 995
mit@@ 994
ell 992
?" 991
Um@@ 991
des@@ 990
entwickel@@ 990
möchte 988
Sie, 987
en: 986
a. 985
alen 983
hör@@ 977
natür@@ 977
Diese 976
nun 974
form@@ 973
zwei@@ 967
chen, 966
mal@@ 962
Spi@@ 959
acht 956
19@@ 953
get@@ 952
ete 951
b 947
wär@@ 947
setz@@ 947
Str@@ 946
Kinder 946
vom 945
sein. 945
Mon@@ 943
Problem@@ 943
! 940
entlich 940
Ein 940
le@@ 938
zurück@@ 937
Ü@@ 937
st, 936
schw@@ 936
hrend 936
Gen@@ 935
meiner 934
itt@@ 934
neue 932
kom@@ 931
son@@ 930
Arb@@ 930
gut 930
8@@ 929
fall@@ 928
leg@@ 928
genau 927
Dies 927
laub@@ 926
det 924
6@@ 924
lich, 923
sy@@ 922
Geschichte 921
teil@@ 919
versteh@@ 919
erzähl@@ 919
tion@@ 918
schn@@ 916
fi@@ 916
durch@@ 916
Mo@@ 914
Her@@ 913
unserer 912
davon 912
Th@@ 910
äch@@ 909
age 907
ac@@ 907
Jahr 906
Bi@@ 904
an. 904
können, 903
ten@@ 903
kauf@@ 902
Teil 900
sog@@ 900
Nach@@ 898
Nat@@ 898
zwischen 896
funktion@@ 894
los@@ 893
hat, 892
lang@@ 890
El@@ 890
kein 889
Bu@@ 889
iert 888
äd@@ 887
bedeut@@ 885
erz@@ 881
sondern 881
näch@@ 880
hät@@ 879
Technologi@@ 877
Dank@@ 876
at 876
chte, 875
r, 875
stän@@ 871
essen 869
Fre@@ 869
gli@@ 868
sein, 867
mo@@ 867
Rau@@ 865
Af@@ 862
hat@@ 861
gib@@ 861
wirk@@ 860
Wo@@ 855
Leut@@ 854
darüber 850
ationen 850
ige 850
Com@@ 850
sam@@ 849
gier@@ 849
rich@@ 848
dig@@ 848
mensch@@ 848
veränder@@ 848
sagt@@ 846
Ex@@ 844
wus@@ 843
qu@@ 842
Stu@@ 842
mu@@ 841
oc@@ 840
itz@@ 839
etzt 838
bau@@ 837
gerade 836
9@@ 836
mitt@@ 835
iger 835
Wiss@@ 834
fühl@@ 834
gehen 833
chi@@ 831
fr@@ 830
Doll@@ 830
ös@@ 829
kommt 828
gt 828
Uni@@ 828
eil 826
art@@ 825
tion 823
ast@@ 823
es. 823
Eine 822
eite 822
wor@@ 821
Ne@@ 821
Ph@@ 820
rank@@ 819
Viel@@ 818
Millionen 818
eln 816
ziem@@ 816
ich, 815
Als 814
Geb@@ 811
kann. 811
ität 809
ami@@ 808
zier@@ 807
Sa@@ 807
öff@@ 806
hat. 804
p 801
pt@@ 797
olog@@ 797
voll@@ 796
tu@@ 793
sion@@ 790
Mat@@ 789
ev@@ 788
cht, 778
ein, 777
m, 774
7@@ 773
ster@@ 766
fas@@ 765
ort 761
ergi@@ 759
uti@@ 757
To@@ 756
Ni@@ 756
ei 752
put@@ 747
beh@@ 746
are 744
War@@ 744
Geschi@@ 743
.000 739
stem@@ 737
Talk 735
So 734
tun@@ 733
nie 733
sa@@ 719
Subtitles 713
Transcript: 713
vol@@ 712
Si@@ 711
ene 708
un, 702
no@@ 699
ult@@ 696
eut@@ 695
ne@@ 695
ep@@ 694
aff@@ 692
lin@@ 691
fun@@ 687
Ri@@ 687
att@@ 684
Y@@ 681
ran@@ 679
i 679
iti@@ 676
Ö@@ 663
Indi@@ 662
ost@@ 659
bis@@ 659
A 657
Medi@@ 657
interess@@ 656
... 655
wie@@ 655
ord@@ 655
At@@ 654
müs@@ 652
selb@@ 646
2 643
sen@@ 642
dern 642
Vi@@ 639
Ä@@ 634
Qu@@ 628
y, 626
ign@@ 626
zur@@ 625
k, 625
sin@@ 625
itä@@ 617
usi@@ 614
w 613
„@@ 609
on, 608
son 605
o. 605
10 604
,@@ 602
fra@@ 596
bra@@ 596
men@@ 596
Sti@@ 595
ont@@ 595
as 591
est 589
ide@@ 588
enn 583
liar@@ 581
ris@@ 578
üs@@ 577
un 576
", 573
onn@@ 572
". 565
ov@@ 564
v 562
ed 562
ha@@ 561
dent@@ 558
e? 556
amer@@ 555
bri@@ 551
20 551
par@@ 550
Gra@@ 544
nor@@ 544
oo@@ 544
50 542
sor@@ 541
Amer@@ 536
o, 536
edi@@ 535
roß@@ 533
Su@@ 531
produ@@ 522
ogra@@ 518
stri@@ 517
deut@@ 516
aut@@ 516
ve 511
entr@@ 507
meh@@ 501
ine 499
ori@@ 495
ser@@ 492
per 489
rat@@ 486
Par@@ 486
8 485
ate 485
reb@@ 481
sti@@ 479
stat@@ 474
se@@ 473
zus@@ 473
min@@ 472
3 459
dies@@ 458
las@@ 457
au 454
200@@ 452
pun@@ 445
ram@@ 444
ust@@ 441
co@@ 435
Pu@@ 435
“ 431
4 430
arti@@ 425
tere 424
mor@@ 424
indi@@ 423
int@@ 422
nell@@ 422
stru@@ 418
mat@@ 415
20@@ 410
etr@@ 409
ber 406
chit@@ 404
6 402
Tech@@ 399
ologi@@ 397
ma 390
pass@@ 388
x 386
ari@@ 385
na@@ 385
00@@ 384
ini@@ 384
sit@@ 383
öß@@ 383
tri@@ 381
ck 381
7 377
ativ@@ 376
met@@ 376
sent@@ 374
dav@@ 374
perim@@ 371
1 370
iss@@ 370
itu@@ 368
bu@@ 363
ce 361
eder@@ 361
pa@@ 353
TE@@ 351
ente 348
Po@@ 348
pol@@ 346
eff@@ 342
ats@@ 342
glob@@ 336
aub@@ 335
ähl@@ 333
les 329
mar@@ 323
% 319
test@@ 316
del 314
zw@@ 310
fu@@ 309
000 308
fel@@ 307
rel@@ 307
anzi@@ 306
po@@ 304
pas@@ 302
einfa@@ 298
sein@@ 297
S 294
stra@@ 294
lor@@ 291
Beh@@ 291
ott@@ 289
ktion@@ 286
av@@ 282
gion@@ 282
osp@@ 282
9 280
organ@@ 279
elleicht 278
sei 278
ina 276
avi@@ 274
entw@@ 274
to 274
' 273
[@@ 273
ia 266
ante 265
Tran@@ 258
gh@@ 255
ure 255
!@@ 254
sig@@ 253
te@@ 252
dis@@ 250
ment@@ 247
dere 247
mas@@ 240
mon@@ 240
evol@@ 240
posi@@ 237
ric@@ 237
] 236
pon@@ 235
esse 235
fa@@ 235
ai@@ 233
ete, 231
uni@@ 229
tel@@ 229
gra@@ 227
mag@@ 221
dell@@ 220
uto 219
eute 215
studi@@ 210
mis@@ 208
— 208
da, 207
gn@@ 206
oni@@ 205
gend@@ 205
il 205
vit@@ 202
c 202
tem@@ 201
enzi@@ 201
ier 200
ins@@ 195
res@@ 195
ator@@ 193
ette 192
pu@@ 191
che, 190
pot@@ 186
ament@@ 185
pen@@ 185
medi@@ 185
ci@@ 184
?@@ 180
pri@@ 178
fil@@ 177
one 177
atsächlich 176
reg@@ 175
la 173
gener@@ 172
vis@@ 170
“@@ 169
prog@@ 168
ahr 167
not@@ 165
ensch@@ 165
inv@@ 164
anti@@ 163
dop@@ 162
essi@@ 159
rei 158
/@@ 157
vent@@ 157
egn@@ 156
fot@@ 154
tut@@ 153
–@@ 152
atsäch@@ 151
ulti@@ 150
C 150
ese 149
far@@ 147
gu@@ 146
por@@ 144
essere 143
imp@@ 142
i, 141
V 141
 @@ 138
energi@@ 138
arri@@ 138
pres@@ 136
gru@@ 133
ore 130
dur@@ 129
I 129
ve@@ 128
ha 128
D 126
era 126
nologi@@ 126
anni@@ 124
mol@@ 122
ra 122
ade 119
ogi@@ 118
problem@@ 117
sar@@ 117
Tal@@ 117
ai 116
pag@@ 115
i. 115
Sub@@ 115
anche 115
ede 115
..@@ 114
stu@@ 113
T 112
ad 111
amit 111
atter@@ 111
rem@@ 111
port@@ 109
zz@@ 107
dom@@ 106
ren@@ 106
o: 106
orn@@ 105
sto 105
ole 103
abil@@ 101
X@@ 97
issi@@ 93
lion@@ 92
quell@@ 89
stor@@ 89
qual@@ 87
ogn@@ 85
inu@@ 85
ente, 85
part@@ 84
sal@@ 83
serv@@ 83
ellei@@ 82
nu@@ 82
ande 80
amente 79
insi@@ 79
uman@@ 79
azi@@ 78
Million@@ 78
a? 78
delle 77
mom@@ 77
asi 77
rest@@ 76
sc@@ 75
person@@ 74
:@@ 74
io 73
ven@@ 73
over@@ 73
do 71
neg@@ 70
emente 70
P 70
]@@ 66
utt@@ 66
ale, 66
O 65
bam@@ 63
abb@@ 62
dir@@ 60
N 60
super@@ 59
co 59
ossi@@ 58
prim@@ 57
%@@ 56
fac@@ 56
nat@@ 56
di 56
” 55
ola 52
E 52
B 51
val@@ 51
econ@@ 50
col@@ 49
ta 49
li 48
lung@@ 46
etti@@ 45
comput@@ 45
com@@ 45
X 44
nelle 44
K 44
inc@@ 44
ica 43
circa 42
… 42
♪ 41
ale. 41
ickel@@ 41
d'@@ 39
zwis@@ 39
peri@@ 39
$@@ 39
fos@@ 38
iti 38
ero 38
Q@@ 38
con@@ 38
seg@@ 37
&@@ 37
L 36
o? 36
é@@ 35
attra@@ 35
bell@@ 35
R 34
fon@@ 34
La 34
M 33
pren@@ 33
ra. 33
G 33
ente. 33
$ 33
post@@ 32
vic@@ 31
ra, 31
sem@@ 30
are, 30
[ 30
asp@@ 30
tra 29
vo@@ 29
W 28
bile 28
diver@@ 28
po 28
ca 28
U 28
car@@ 27
spazi@@ 27
pre@@ 27
prov@@ 26
á@@ 26
F 25
vel@@ 25
kön@@ 25
ora 24
cc@@ 24
ambi@@ 24
cu@@ 24
can@@ 24
H 24
´@@ 24
tit@@ 24
nel 24
ani 23
ro 23
ness@@ 23
atti@@ 23
ura 23
½ 23
pos@@ 22
q@@ 22
si 22
za 22
»@@ 22
ire 22
signi@@ 22
’@@ 21
mi 21
are. 20
svi@@ 20
ho 20
°@@ 20
é 19
acqu@@ 19
β@@ 19
va 18
differ@@ 18
ali 18
sul@@ 18
ati 18
temp@@ 17
num@@ 17
ello 17
amente, 17
ata 17
icol@@ 17
cre@@ 16
—@@ 16
Y 16
«@@ 16
gran@@ 16
/ 16
;@@ 16
sta 16
Q 15
ino 15
ini 15
ari 15
vere 15
« 15
e' 14
lo 14
bbl@@ 14
fa 14
Ed 14
‟ 14
ici@@ 13
cor@@ 13
= 13
ca@@ 13
mente 13
‘ 13
‚@@ 13
l'@@ 13
ó@@ 13
otto 13
Z 13
ono 12
J 12
ci 12
do, 12
² 12
dal 12
ñ@@ 12
cin@@ 11
ori 11
ante. 11
ando 11
ico 11
) 11
fat@@ 11
ti 11
emo 11
ava 10
bas@@ 10
azz@@ 10
rac@@ 10
abbi@@ 10
cam@@ 10
‘@@ 10
cas@@ 10
”@@ 10
+ 10
eci@@ 10
ano 10
» 10
oi 9
ica, 9
etti 8
altr@@ 8
vo 8
to, 8
#@@ 8
j 8
fu 8
ato 8
uno 8
aggi@@ 8
cer@@ 7
cent@@ 7
ü 7
inci@@ 7
ito 7
pens@@ 7
♫@@ 7
soci@@ 7
parl@@ 7
sia 7
cal@@ 7
ica. 6
amo 6
cont@@ 6
eva 6
(@@ 6
sco@@ 6
cos@@ 6
etto 6
Un 6
ó 6
una 6
anim@@ 6
acc@@ 6
fam@@ 5
=@@ 5
ico, 5
dic@@ 5
chi 5
à 5
alc@@ 5
possi@@ 5
è@@ 5
ali. 5
sa 5
@@@ 5
Per 5
zie 5
forma@@ 5
avo 5
indi 5
…@@ 4
´ 4
endo 4
í@@ 4
+@@ 4
L'@@ 4
’ 4
° 4
do. 4
perch@@ 4
mo 4
`@@ 4
pi 4
ezz@@ 4
agli@@ 4
quel 4
›@@ 4
pic@@ 4
della 4
vi 4
ã@@ 4
uti 4
¼ 3
parte 3
un'@@ 3
no 3
²@@ 3
lav@@ 3
œ@@ 3
¥ 3
cir@@ 3
ç@@ 3
ico. 3
Cos@@ 3
gente 3
pt: 3
™ 3
½@@ 3
esso 3
sap@@ 3
q 3
olo 3
â@@ 3
cap@@ 3
‹@@ 3
enza 3
^@@ 3
stata 3
non 3
sopr@@ 3
acci@@ 3
solo 3
anti 2
compl@@ 2
š@@ 2
  2
come 2
sci@@ 2
Le 2
amento 2
♪@@ 2
esi 2
prima 2
dei 2
spec@@ 2
Una 2
fic@@ 2
Il 2
scor@@ 2
ati. 2
à@@ 2
É@@ 2
cell@@ 2
ento 2
^ 2
@@ 2
Sono 2
present@@ 2
indi, 2
cit@@ 2
` 2
tec@@ 2
„ 2
quest@@ 1
blem@@ 1
Non 1
ć@@ 1
egli@@ 1
¾ 1
import@@ 1
ú@@ 1
alla 1
coll@@ 1
pian@@ 1
* 1
Ho 1
á 1
Ma 1
dell'@@ 1
³ 1
)@@ 1
© 1
enti 1
€ 1
anto 1
igli@@ 1
due 1
anza 1
con 1
anni 1
® 1
ê@@ 1
‹ 1
@ 1
sul 1
rius@@ 1
к@@ 1
ë@@ 1
gi 1
ano. 1
doll@@ 1
Ec@@ 1
£ 1
diff@@ 1
ā@@ 1
Ç@@ 1
nei 1
ato, 1
sic@@ 1
ï@@ 1
à. 1
*@@ 1
andare 1
， 1
qui 1
Mi 1
î@@ 1
ø@@ 1
β 1
