a 62610
di 56378
e 56281
che 46220
i 42170
o 40493
la 27521
un 26080
è 25683
il 24337
in 23491
are 21296
o. 20598
c@@ 20490
o, 20243
s@@ 19434
in@@ 18859
per 18831
e, 18689
o@@ 18393
, 18092
e. 17231
una 17084
i@@ 16890
. 16821
d@@ 16810
ar@@ 16680
di@@ 15682
le 15297
non 15222
t@@ 14933
a. 14764
f@@ 14574
p@@ 14358
a, 14177
m@@ 14053
at@@ 13900
ato 13865
l@@ 13544
E 13355
or@@ 13339
si 13319
u@@ 13110
er@@ 12780
b@@ 12670
e@@ 12584
l'@@ 12104
ri@@ 12084
r@@ 12083
v@@ 11994
vi@@ 11981
a@@ 11827
ci@@ 10763
da 10650
sono 10547
av@@ 10145
st@@ 10101
gi@@ 10057
es@@ 9968
on@@ 9844
an@@ 9730
si@@ 9498
g@@ 9496
del 9422
et@@ 9366
it@@ 9334
n@@ 9299
i, 9129
ano 9045
come 9001
ic@@ 8772
con 8716
al@@ 8712
ol@@ 8602
se 8397
amo 8396
pi@@ 8368
ci 8329
pr@@ 8203
en@@ 8098
con@@ 8086
più 7963
questo 7915
"@@ 7908
ma 7772
i. 7770
am@@ 7680
per@@ 7656
della 7440
li@@ 7338
C@@ 7334
S@@ 7256
qu@@ 7247
to 7155
à 7125
de@@ 7124
D@@ 6752
ut@@ 6663
os@@ 6660
ur@@ 6611
po@@ 6601
em@@ 6562
chi@@ 6446
re@@ 6421
lo 6381
par@@ 6252
mi 6242
ett@@ 6206
ver@@ 6157
so 6138
ha 6093
ec@@ 6074
is@@ 6059
al 6001
ti@@ 5881
ale 5817
do 5807
ot@@ 5717
nel 5663
mi@@ 5593
co@@ 5585
ate 5523
P@@ 5507
im@@ 5430
ess@@ 5400
ati 5388
ra@@ 5386
sc@@ 5370
tr@@ 5370
gli 5315
ent@@ 5307
oc@@ 5203
amente 5134
ric@@ 5121
est@@ 5094
io 5061
-- 5055
: 4918
ete 4889
era 4798
for@@ 4753
ità 4733
Ma 4697
te 4690
questa 4660
ando 4659
ho 4656
ter@@ 4654
om@@ 4653
com@@ 4614
el@@ 4599
molto 4597
su@@ 4592
ti 4579
dei 4573
cosa 4568
A@@ 4567
zione 4526
vol@@ 4514
N@@ 4495
us@@ 4436
delle 4419
ica 4388
as@@ 4373
ono 4344
vi 4318
eg@@ 4312
ris@@ 4305
ore 4250
uno 4214
T@@ 4188
cre@@ 4177
ap@@ 4172
and@@ 4172
azione 4160
ac@@ 4133
sp@@ 4115
M@@ 4105
alla 4067
re 4059
O@@ 4045
att@@ 4045
abbiamo 4032
str@@ 4005
un@@ 4004
cui 3968
li 3968
ma@@ 3937
Non 3929
ag@@ 3924
ant@@ 3907
essere 3906
ev@@ 3882
og@@ 3866
'@@ 3844
ata 3843
mo@@ 3786
ov@@ 3786
ere 3783
z@@ 3731
bi@@ 3721
anche 3699
ad@@ 3687
anno 3681
h@@ 3661
B@@ 3653
ò 3649
L@@ 3611
all@@ 3602
fin@@ 3567
der@@ 3561
La 3531
quando 3515
zi@@ 3508
cer@@ 3480
dell'@@ 3467
loro 3449
mo 3448
cor@@ 3425
perché 3424
lu@@ 3415
ad 3400
col@@ 3393
1@@ 3384
fic@@ 3357
V@@ 3348
ist@@ 3337
ia 3335
ce 3325
ne 3315
G@@ 3314
sta 3293
ment@@ 3291
zz@@ 3277
hanno 3267
Il 3238
etto 3225
fare 3212
met@@ 3208
solo 3205
ell@@ 3204
pro@@ 3144
su 3143
ai 3134
persone 3109
ante 3072
man@@ 3064
enti 3033
un'@@ 3022
tutto 3011
cos@@ 3000
far@@ 3000
ente 2996
sol@@ 2987
quello 2969
I@@ 2963
zion@@ 2957
port@@ 2953
co 2928
da@@ 2921
esso 2910
così 2894
op@@ 2882
? 2874
ito 2839
ta 2839
tiv@@ 2836
tutti 2833
pens@@ 2817
ori 2802
pot@@ 2799
inter@@ 2785
br@@ 2781
nella 2771
ven@@ 2769
R@@ 2753
ali 2732
E@@ 2720
ed 2718
ie 2710
uto 2707
sia 2704
H@@ 2689
modo 2680
pen@@ 2678
ra 2673
ab@@ 2644
mon@@ 2640
enza 2623
ch@@ 2607
ul@@ 2602
dis@@ 2589
anni 2569
siamo 2565
♫ 2561
ciò 2549
sion@@ 2548
dere 2547
ser@@ 2536
-@@ 2523
Questo 2491
ico 2479
ni@@ 2473
queste 2462
pa@@ 2455
rit@@ 2454
questi 2453
edi@@ 2451
quest@@ 2435
egn@@ 2427
cose 2423
E' 2422
fatto 2413
um@@ 2409
ati@@ 2408
gra@@ 2404
ten@@ 2398
dov@@ 2396
mia 2386
ing@@ 2380
all'@@ 2371
ura 2354
one 2345
va 2344
F@@ 2337
tut@@ 2328
ei 2317
azion@@ 2317
ero 2308
ig@@ 2302
il@@ 2295
ento 2294
fer@@ 2271
pres@@ 2265
stato 2263
ogni 2256
- 2250
er 2247
Qu@@ 2241
min@@ 2238
ament@@ 2232
o? 2226
nuov@@ 2222
ire 2222
tu@@ 2203
oi 2201
acc@@ 2199
mio 2185
" 2182
qual@@ 2180
pp@@ 2179
' 2168
parte 2158
sione 2150
diver@@ 2143
du@@ 2138
ale. 2136
prog@@ 2133
po 2130
ass@@ 2128
car@@ 2120
due 2119
... 2116
ro@@ 2115
endo 2113
ir@@ 2110
no@@ 2106
end@@ 2096
enz@@ 2091
." 2087
ora 2060
k@@ 2055
mondo 2047
cu@@ 2045
parl@@ 2038
person@@ 2032
cas@@ 2018
alle 2014
trov@@ 2007
cap@@ 2004
lavor@@ 2004
bu@@ 1998
fon@@ 1994
so@@ 1989
anti 1989
prima 1987
fi@@ 1975
succ@@ 1975
bil@@ 1974
c'è 1970
s 1966
é 1964
ast@@ 1954
Quindi 1953
sap@@ 1951
au@@ 1941
migli@@ 1939
dove 1932
dal 1931
problem@@ 1922
può 1919
tra@@ 1915
y@@ 1911
chi 1911
mol@@ 1894
gu@@ 1887
inizi@@ 1879
de 1876
w@@ 1873
cont@@ 1866
ve 1861
quell@@ 1860
cambi@@ 1853
sul 1853
poi 1850
contr@@ 1843
mer@@ 1834
In 1828
pol@@ 1826
ed@@ 1825
ori@@ 1823
den@@ 1814
giorn@@ 1811
qualcosa 1802
abil@@ 1789
me 1782
gen@@ 1776
zioni 1775
pren@@ 1774
sar@@ 1774
ben@@ 1774
mat@@ 1773
almente 1769
ari 1768
piccol@@ 1753
verso 1748
int@@ 1745
à, 1744
noi 1731
evo 1728
anz@@ 1722
o: 1720
ca 1717
sto 1716
sulla 1709
Al@@ 1709
Se 1708
ann@@ 1707
tra 1706
ina 1704
mostr@@ 1703
are. 1698
ine 1695
vit@@ 1694
ezz@@ 1693
ari@@ 1691
tre 1690
utt@@ 1688
import@@ 1674
degli 1662
". 1656
ale, 1655
aff@@ 1646
entr@@ 1631
rebbe 1631
chiam@@ 1629
anza 1626
e? 1623
qui 1623
L'@@ 1621
sa 1604
K@@ 1601
etr@@ 1597
sci@@ 1597
orn@@ 1596
2@@ 1592
e: 1591
olo 1591
anni@@ 1580
immag@@ 1579
pos@@ 1579
prov@@ 1574
Questa 1574
mai 1572
ato. 1570
bambin@@ 1568
quel 1564
y 1560
prim@@ 1558
etti@@ 1548
possi@@ 1547
d 1546
aggi@@ 1545
vedere 1545
indi@@ 1543
quella 1539
dir@@ 1538
amento 1534
etti 1532
sin@@ 1525
ino 1525
alt@@ 1524
do. 1522
St@@ 1517
davvero 1517
ai@@ 1512
mente 1510
rem@@ 1508
ole 1495
Ch@@ 1489
vita 1482
stess@@ 1479
eff@@ 1477
rac@@ 1477
sco@@ 1476
3@@ 1469
divent@@ 1469
dalla 1464
meno 1464
do, 1460
stra@@ 1457
0@@ 1454
fr@@ 1453
pre@@ 1443
ancora 1442
pl@@ 1437
ava 1436
vostr@@ 1436
possiamo 1429
J@@ 1428
nostro 1428
des@@ 1428
facci@@ 1427
gli@@ 1426
semplic@@ 1425
guar@@ 1419
ato, 1415
dic@@ 1409
suo 1406
uman@@ 1404
dom@@ 1399
dur@@ 1398
ici 1391
ott@@ 1388
sent@@ 1388
altro 1387
vo 1385
quanto 1384
È 1383
ont@@ 1379
cin@@ 1379
grande 1378
interess@@ 1375
sul@@ 1374
eva 1372
fa 1364
fac@@ 1364
l 1363
ve@@ 1363
ort@@ 1363
.@@ 1363
leg@@ 1360
pass@@ 1359
gi 1359
acqu@@ 1342
amm@@ 1341
bile 1337
peri@@ 1336
dell@@ 1333
oll@@ 1332
5@@ 1329
sua 1326
sit@@ 1324
d'@@ 1322
costru@@ 1319
ogli@@ 1316
post@@ 1316
ini 1312
res@@ 1310
eb@@ 1307
Sono 1304
ola 1304
azioni 1301
Per 1300
are, 1295
erano 1291
gente 1287
ici@@ 1284
Ed 1283
sempre 1280
alizz@@ 1278
Ho 1277
nostra 1277
I 1274
anti@@ 1269
comun@@ 1269
Ci 1266
t 1265
pon@@ 1265
gran@@ 1263
on 1254
ff@@ 1254
nell'@@ 1251
cit@@ 1242
ide@@ 1236
sem@@ 1235
bero 1233
part@@ 1227
A 1226
ber@@ 1225
tere 1222
In@@ 1220
tutte 1218
evano 1215
tecnologi@@ 1214
rei 1210
asi 1210
tempo 1208
compl@@ 1206
sic@@ 1203
otto 1199
conos@@ 1199
essi@@ 1189
nat@@ 1188
el 1188
coll@@ 1187
sal@@ 1183
tipo 1181
avere 1179
0 1173
ra. 1171
ra, 1170
abb@@ 1170
ult@@ 1167
ulti@@ 1161
secon@@ 1160
nei 1159
qualche 1159
Si 1158
posi@@ 1153
4@@ 1151
W@@ 1148
senza 1147
dire 1144
proprio 1141
ord@@ 1137
ru@@ 1134
circa 1132
Perché 1131
dopo 1129
cent@@ 1129
ens@@ 1124
n 1124
e' 1124
ete, 1122
medi@@ 1121
arriv@@ 1119
aut@@ 1119
soci@@ 1118
funzion@@ 1116
ins@@ 1115
vere 1113
na@@ 1110
icol@@ 1110
voi 1107
Abbiamo 1106
esempi@@ 1106
00 1105
idea 1104
?" 1097
anto 1095
quindi 1089
cal@@ 1084
to, 1084
spi@@ 1083
lor@@ 1083
pian@@ 1083
esi 1081
inv@@ 1076
possono 1076
temp@@ 1075
econ@@ 1073
mom@@ 1072
mal@@ 1072
vel@@ 1071
Le 1070
fil@@ 1068
volta 1067
altra 1063
igli@@ 1063
cono 1060
guard@@ 1059
ved@@ 1057
cerc@@ 1056
Un@@ 1056
An@@ 1056
gener@@ 1056
diff@@ 1054
aggio 1054
ure 1054
cominci@@ 1052
bas@@ 1051
! 1050
Come 1048
nelle 1047
realt@@ 1047
altri 1044
rest@@ 1043
can@@ 1043
punto 1042
Gra@@ 1041
stata 1041
5 1034
vo@@ 1033
enzi@@ 1033
cam@@ 1031
maggi@@ 1029
pubbl@@ 1027
po' 1027
comp@@ 1026
unque 1025
Per@@ 1022
asp@@ 1021
evol@@ 1020
tratt@@ 1020
capi@@ 1019
egli@@ 1017
ì 1017
vent@@ 1016
ente. 1013
TED 1010
se@@ 1010
8@@ 1009
'è 1009
pri@@ 1008
eci@@ 1005
emente 1005
present@@ 1004
gono 1004
inci@@ 1004
no 1003
diamo 1001
le@@ 997
molti 995
amente, 995
over@@ 991
fatt@@ 990
ì, 989
hi@@ 987
forma@@ 985
ro 980
Ora, 977
conc@@ 977
mor@@ 974
issi@@ 972
piac@@ 970
a? 970
Quando 970
è@@ 968
stesso 967
signi@@ 967
ich@@ 967
uti 967
ica. 965
storia 964
cres@@ 963
attra@@ 959
ness@@ 958
lin@@ 958
Mi 955
obbiamo 955
ger@@ 954
serv@@ 954
ì@@ 954
ica, 952
lung@@ 951
Un 950
à. 948
dall'@@ 948
Cos@@ 947
sistema 945
proc@@ 945
ello 944
stu@@ 944
reg@@ 944
agli@@ 943
nostri 943
ragazz@@ 943
6@@ 939
mis@@ 937
zie 935
vello 934
altre 933
citt@@ 931
perch@@ 929
U@@ 929
che, 927
negli 926
svilu@@ 926
uom@@ 922
or 921
bisogno 921
pas@@ 920
rel@@ 918
ese 917
potete 917
pag@@ 914
vic@@ 913
avo 911
Quest@@ 911
Così 909
tras@@ 908
andare 907
viene 907
eri@@ 906
doll@@ 904
ico. 900
u 900
9@@ 898
avano 896
ambi@@ 895
men@@ 893
ità. 892
c'@@ 889
dav@@ 888
fat@@ 888
mar@@ 887
an 887
rag@@ 886
and 885
gr@@ 885
form@@ 884
fam@@ 883
dett@@ 882
avi@@ 881
atti@@ 881
fu@@ 881
Ecco 879
Af@@ 878
emo 878
mu@@ 877
sopr@@ 875
bell@@ 874
stiamo 872
ani 872
qualc@@ 871
uni@@ 871
zione. 870
organ@@ 870
voglio 869
prod@@ 869
altr@@ 867
Quindi, 867
ano. 866
entro 866
fuori 865
gru@@ 864
pu@@ 861
ran@@ 861
rius@@ 860
ossi@@ 857
; 857
’@@ 856
stanno 854
propr@@ 853
ezzo 852
segu@@ 851
k 851
acci@@ 851
ren@@ 850
dent@@ 849
7@@ 847
lasci@@ 846
pi 845
sen@@ 844
scor@@ 841
pun@@ 841
ar 840
abbi@@ 836
alcuni 836
num@@ 834
fino 834
mentre 834
not@@ 833
aveva 832
spec@@ 830
test@@ 826
posto 826
ante. 823
sch@@ 823
insi@@ 823
milioni 823
cell@@ 823
reb@@ 821
lavoro 821
za 820
ung@@ 819
ali@@ 818
continu@@ 818
fosse 818
fu 818
credi@@ 816
sarebbe 816
mus@@ 816
ati. 815
ede 814
quale 814
macch@@ 811
Er@@ 811
ali. 811
visto 811
differ@@ 808
Una 806
cost@@ 806
gioc@@ 805
ico, 804
anim@@ 803
imp@@ 800
dar@@ 800
gion@@ 799
comput@@ 798
spazi@@ 795
19@@ 790
vogli@@ 788
olog@@ 786
esse 785
ogra@@ 782
plic@@ 782
liar@@ 779
mag@@ 776
bl@@ 776
val@@ 774
sti@@ 773
iti 773
son@@ 772
sa@@ 769
inc@@ 768
super@@ 768
tel@@ 768
atter@@ 766
sei 765
nor@@ 764
energi@@ 756
ier@@ 755
ini@@ 753
ne@@ 750
stri@@ 748
onn@@ 745
te. 744
itu@@ 743
sor@@ 737
ator@@ 737
ente, 737
studi@@ 734
ram@@ 731
Talk 728
te, 726
te@@ 726
gn@@ 725
ust@@ 716
Subtitles 713
Transcript: 713
ll@@ 709
lan@@ 706
fot@@ 705
ami@@ 704
inn@@ 704
ò@@ 700
ca@@ 700
bar@@ 696
é@@ 695
fel@@ 693
vor@@ 692
fa@@ 688
vis@@ 687
ù@@ 687
fl@@ 687
uti@@ 685
alcun@@ 681
ende 678
arti@@ 674
ene 674
ob@@ 673
m 672
da, 667
", 666
ha@@ 662
por@@ 661
ette 654
ologi@@ 651
nostr@@ 651
anzi@@ 650
% 649
Di@@ 648
nell@@ 647
tem@@ 647
oni@@ 643
ebbe 643
h 642
Beh@@ 642
ativ@@ 641
gl@@ 637
unqu@@ 636
.000 630
Si@@ 628
10 624
2 623
aus@@ 622
cir@@ 613
stru@@ 611
Y@@ 611
nu@@ 603
stor@@ 595
,@@ 590
azz@@ 579
de. 577
mas@@ 576
ang@@ 576
ste 564
gh@@ 559
dr@@ 556
g 550
cc@@ 550
sistem@@ 547
produ@@ 543
Indi@@ 542
w 538
Pr@@ 538
ge 537
osp@@ 536
Ne@@ 536
arb@@ 529
mit@@ 529
50 527
ost@@ 527
tri@@ 525
ù 522
ef@@ 519
ge@@ 513
glob@@ 512
vero 512
Mar@@ 512
amer@@ 511
fos@@ 509
art@@ 508
ogn@@ 508
perim@@ 506
Amer@@ 504
eder@@ 500
elle 497
y, 495
bri@@ 492
20 488
alc@@ 485
de, 485
Su@@ 482
dop@@ 479
Com@@ 479
ter 478
arri@@ 474
200@@ 474
scri@@ 467
Po@@ 465
imm@@ 461
4 460
3 458
chit@@ 442
bra@@ 442
ché 439
so, 437
..@@ 431
iti@@ 425
TE@@ 423
stat@@ 422
azi@@ 416
lav@@ 416
8 414
20@@ 414
af@@ 413
k, 408
6 407
pic@@ 406
schi@@ 405
es 403
et 402
off@@ 399
à@@ 397
tec@@ 396
fra@@ 396
r 388
neg@@ 388
x@@ 387
bin@@ 380
ei@@ 379
en 378
Par@@ 376
Pu@@ 371
p 370
7 365
00@@ 363
1 361
iss@@ 358
[@@ 354
las@@ 354
Inter@@ 351
Ar@@ 347
oh@@ 341
dig@@ 338
bisogn@@ 337
For@@ 336
ern@@ 336
rat@@ 335
er, 335
000 332
j@@ 331
Uni@@ 325
tun@@ 322
d, 322
sier@@ 321
“@@ 317
ande 315
gest@@ 313
stell@@ 313
Nat@@ 310
O 308
er. 307
seg@@ 305
tit@@ 305
enn@@ 303
itt@@ 302
Pro@@ 302
est 300
d. 300
!@@ 299
ign@@ 298
sig@@ 297
ok@@ 289
Z@@ 288
be 287
Ec@@ 284
f 283
] 283
ancor@@ 282
Vi@@ 281
oo@@ 279
be@@ 274
ep@@ 273
her@@ 270
s, 266
9 265
ing 265
ak@@ 262
gel@@ 258
Ri@@ 256
usi@@ 253
ah@@ 250
gan@@ 248
lass@@ 247
Mon@@ 246
Sti@@ 243
ster@@ 242
– 241
ho@@ 239
Li@@ 239
Sp@@ 237
as 237
Mo@@ 236
der 234
Ma@@ 233
ogi@@ 231
war@@ 231
Bi@@ 229
ben 229
sel@@ 227
Vor@@ 224
am 220
t, 220
fas@@ 218
x 217
an, 213
?@@ 212
En@@ 212
Bu@@ 211
son 211
At@@ 210
ur 208
sog@@ 207
fun@@ 203
X@@ 202
ex@@ 200
s. 198
ft@@ 197
c 197
bis@@ 196
on, 196
man 196
esem@@ 195
ein@@ 193
” 186
”@@ 184
%@@ 184
b 182
get@@ 181
sag@@ 178
indi, 174
t. 172
lei@@ 171
Wi@@ 169
S 166
Be@@ 162
V 160
Th@@ 160
et. 156
beh@@ 156
os 153
rei@@ 152
ation@@ 151
zu@@ 147
Medi@@ 147
Re@@ 146
sempr@@ 145
Ge@@ 142
C 141
omm@@ 141
Bil@@ 140
an. 139
♫@@ 139
ade 138
et, 137
ik@@ 136
D 136
Or@@ 130
To@@ 129
n, 128
z 127
ach@@ 127
Au@@ 126
um 124
Gen@@ 123
erz@@ 123
Gr@@ 123
Ver@@ 122
eh@@ 122
/@@ 122
es, 121
cch@@ 120
ck@@ 119
fol@@ 119
bbl@@ 117
hr@@ 116
Mil@@ 113
spr@@ 113
etw@@ 112
soll@@ 110
m, 109
fall@@ 108
Ni@@ 107
n. 104
sie 102
eut@@ 100
Wo@@ 100
ch 99
Ab@@ 97
milion@@ 97
ick@@ 96
die 96
Sa@@ 94
es. 94
Ein@@ 94
andel@@ 93
en, 92
X 92
at 92
’ 90
bam@@ 90
les 90
ek@@ 90
q@@ 90
Bl@@ 89
ech@@ 88
:@@ 88
Sch@@ 88
T 87
kl@@ 86
nie 86
Ph@@ 86
So 84
inu@@ 79
L 79
Ber@@ 75
all 74
im 74
Stu@@ 74
Mat@@ 74
mm@@ 73
]@@ 72
wi@@ 71
das@@ 70
War@@ 69
Tal@@ 69
hab@@ 68
ation 68
put@@ 68
hei@@ 68
Gl@@ 68
ander@@ 67
Des@@ 67
Ex@@ 66
Sy@@ 66
Q@@ 66
en. 66
eu@@ 65
ein 65
ft 64
El@@ 63
ergi@@ 63
age 62
G 62
lich@@ 61
° 60
lion@@ 57
v 57
ú 56
ob 55
ck 55
Str@@ 55
ort 54
und 53
eit@@ 53
ank@@ 53
B 52
nologi@@ 52
und@@ 52
ell 51
Fre@@ 51
&@@ 50
P 50
best@@ 45
Her@@ 45
wer@@ 43
end 43
gem@@ 43
N 43
K 42
hal@@ 42
«@@ 42
hatt@@ 41
@@@ 41
ent 41
Kin@@ 41
;@@ 40
— 40
R 39
… 39
ein, 39
Fr@@ 38
pt@@ 38
biamo 38
wel@@ 37
den 37
$ 37
q 37
liche 37
Ges@@ 36
É 35
$@@ 35
wir@@ 35
á 35
Spi@@ 33
ab 33
eine 33
rich@@ 32
U 32
em 32
Tran@@ 32
gend@@ 31
M 30
sy@@ 30
Kon@@ 30
 @@ 29
sich@@ 29
svi@@ 29
bei 28
Man 27
hl@@ 27
st, 27
je@@ 26
tion 26
ann 26
hat@@ 25
sam@@ 25
» 25
andere 24
itz@@ 24
wor@@ 24
isch@@ 24
st 23
bet@@ 23
ich 23
zier@@ 23
ges@@ 22
ó 22
ch, 22
mal 22
geg@@ 21
´@@ 21
ehr@@ 21
ens 21
Y 21
au 21
H 21
wis@@ 21
erk@@ 21
Sub@@ 21
mach@@ 20
hin@@ 20
Tech@@ 20
í 20
also 20
eil@@ 20
ung 20
cht@@ 19
uns@@ 19
tion@@ 18
W 18
rank@@ 18
) 18
bes@@ 18
von 18
eig@@ 18
Art 17
ber 17
Ide@@ 16
eil 16
»@@ 16
ist 16
un, 16
r, 15
en: 15
ag 15
kt@@ 15
tig@@ 14
mei@@ 14
dies@@ 14
stem@@ 14
hat 14
á@@ 14
geb@@ 13
Z 13
*@@ 13
voll@@ 13
°@@ 12
+@@ 12
tz@@ 12
lie@@ 11
schw@@ 11
mit 11
under@@ 11
Fra@@ 11
enn 11
Q 11
weil 10
ats@@ 10
F 10
des 10
+ 10
J 9
/ 9
men 9
unser@@ 9
í@@ 9
du 9
ahr@@ 9
(@@ 8
ert 8
Gel@@ 8
ung, 8
j 8
rik@@ 8
sten 8
ö@@ 8
#@@ 8
mitt@@ 7
ó@@ 7
den, 7
sen 7
iger 7
sen, 6
eg 6
auf@@ 6
=@@ 6
los@@ 6
etz@@ 6
Zu@@ 6
ih@@ 6
bau@@ 6
Proz@@ 6
ern 6
Rau@@ 6
ken 6
wei@@ 6
´ 6
als 6
Wei@@ 6
kon@@ 5
Bei@@ 5
unter@@ 5
Um@@ 5
lieg@@ 5
wich@@ 5
beg@@ 5
…@@ 5
blem@@ 5
  4
den. 4
‘@@ 4
* 4
ung. 4
einer 4
Doll@@ 4
eich@@ 4
wen@@ 4
ú@@ 4
schen 4
gut@@ 4
lich 4
ñ@@ 4
dies 4
Problem@@ 4
wo 3
Leb@@ 3
Technologi@@ 3
ich, 3
aus 3
ige 3
“ 3
= 3
²@@ 3
en? 3
ten 3
ç@@ 3
war 3
` 3
utz@@ 3
Aus@@ 3
È@@ 3
wur@@ 3
acht 3
ü@@ 3
ä@@ 3
ensch@@ 3
ier 3
neu@@ 3
½ 2
¼ 2
€ 2
das 2
och 2
leb@@ 2
kei@@ 2
dem 2
sein@@ 2
sein 2
)@@ 2
û 2
Million@@ 2
sein, 2
bei@@ 2
mir 2
gib@@ 2
ist, 2
Ent@@ 2
cht 2
zu 2
–@@ 2
erst@@ 2
aten 2
@ 2
gen 2
zwei@@ 2
fen 2
nach@@ 2
ā@@ 2
alles 2
♪ 2
ickel@@ 1
Ih@@ 1
`@@ 1
™ 1
Geb@@ 1
İ@@ 1
Ich 1
habe 1
indi 1
® 1
entw@@ 1
ž@@ 1
ѐ 1
bis 1
war, 1
schn@@ 1
heit 1
¼@@ 1
¥ 1
ganz 1
ös@@ 1
für 1
wird 1
fahr@@ 1
weise 1
gesch@@ 1
durch 1
isch 1
einen 1
mensch@@ 1
neue 1
ungen 1
mö@@ 1
â@@ 1
ê@@ 1
was 1
Ding@@ 1
© 1
ön@@ 1
ahl@@ 1
Also 1
ś@@ 1
ć 1
ã@@ 1
[ 1
² 1
˚ 1
£@@ 1
unter 1
^@@ 1
auf 1
sein. 1
tun 1
É@@ 1
Ç@@ 1
ï@@ 1
deut@@ 1
weg@@ 1
igen 1
chen, 1
Was 1
immer 1
wie 1
‘ 1
♪@@ 1
dass 1
bin 1
dern 1
Wel@@ 1
