<unk>
<pad>
<s>
</s>
die
und
der
in
das
zu
ist
es
ich
wir
Und
sie
Sie
von
ein
eine
dass
den
nicht
mit
auf
Ich
wie
sich
für
man
Das
er
als
was
um
Es
so
sind
diese
dem
an
wenn
im
haben
einen
Wir
war
des
über
uns
--
oder
einer
Aber
aber
en.
einem
Die
en,
auch
sehr
ist,
hier
aus
nur
–
dann
-
hat
also
gibt
dieser
noch
werden
mich
.
-@@
etwas
,
en
können
kann
nach
"@@
wird
Menschen
habe
s
e,
Wenn
♫
t.
t
t,
er@@
alle
ver@@
bei
e.
mehr
wirklich
zum
mir
Ihnen
ten
weil
Welt
ung
ist.
an@@
te
dieses
am
durch
Er
immer
vor
diesem
keine
Also
en@@
viel
ein@@
diesen
Was
sehen
da
meine
unsere
ihre
aus@@
viele
eines
Leute
?
zwei
wo
auf@@
sein
Art
wurde
Der
einfach
e
haben,
dies
jetzt
ab@@
andere
zur
bin
In
Zeit
bis
Leben
anderen
:
ihr
s@@
Dinge
un@@
damit
Jahren
du
alles
Wie
er,
k@@
ge@@
haben.
Jahre
all
Man
müssen
be@@
hatte
sind,
denn
machen
sind.
es,
ungen
schon
Hier
waren
s,
mein
muss
vielleicht
Ver@@
selbst
sch@@
dort
."
war,
ihnen
einige
K@@
ganz
ung,
S@@
werden.
sehen,
wissen
"
er.
können.
tatsächlich
geht
wieder
ung.
B@@
H@@
ent@@
paar
ische
werde
drei
Nun,
seine
An@@
würde
ob
TED
en?
t@@
nicht,
ihn
s.
über@@
heute
tun
möchte
Sie,
and
Diese
nun
h@@
R@@
denen
Kinder
sein.
vom
st@@
meiner
neue
gut
ischen
Dies
genau
Ein
um@@
Geschichte
ungs@@
davon
unserer
vor@@
Jahr
zu@@
können,
te,
Teil
hat,
kein
sondern
T@@
sein,
an,
ern
b@@
darüber
L@@
mal
unter
gerade
zwischen
F@@
Millionen
sten
ich,
lich
Als
kann.
hat.
Eine
el@@
ohne
sagen,
werden,
P@@
ten,
Ein@@
ziemlich
Aus@@
ganze
sogar
e@@
gab
w@@
ihren
machen.
an.
wird.
während
M@@
Sch@@
erste
W@@
jeder
etwa
warum
sagen
letzten
E@@
ende
kommen
f@@
ersten
gehen
Talk
einmal
unser
Ab@@
nicht.
So
Er@@
n@@
Prozent
m@@
sieht
große
Subtitles
Transcript:
te.
nie
hatten
r@@
Ihre
in@@
de
Vor@@
könnte
meisten
welche
dazu
enden
et
sagte
D@@
Beispiel
z@@
kommt
war.
st
liche
d@@
es.
Also,
isch
nichts
!
kann,
ert
meinem
wird,
wäre
wissen,
macht
Problem
sagte:
kleinen
N@@
Tag
A@@
Arbeit
ihrer
ins
Dann
al@@
d
das,
ter
gen
dafür
eigentlich
el
aus.
kleine
wurden
eren
chen
en:
G@@
ch@@
meinen
ging
lichen
machen,
gemacht
l@@
Bild
denke,
g@@
glaube,
Dollar
her@@
unter@@
Menge
großen
o@@
;
10
Denn
natürlich
keinen
vier
Un@@
weiter
will
Ende
end
ganzen
Idee
m
y
ungen,
Im
re@@
...
C@@
doch
kam
em
et,
tun,
Ihr
?"
pro
„@@
Frage
unseren
dabei
Geld
weniger
es@@
Weg
ihm
et.
hin@@
al
sehen.
zurück
denke
et@@
p@@
ten.
seiner
y@@
weiß
Wasser
ungefähr
jemand
sagte,
en."
jeden
würden
allen
n
Land
on
seit
sollte
tun.
durch@@
indem
20
Seite
ger@@
St@@
daran
at@@
gute
ge
besser
gibt,
or@@
ation
gel@@
ä@@
ar@@
sollten
Menschen,
wollen
Da
jedes
Z@@
stellen
glaube
wahrscheinlich
wenig
Auf@@
vielen
wollte
Jetzt
O@@
k
ere
on@@
zurück@@
eb@@
eigenen
darauf
etwas,
a@@
Mal
geben
gegen
J@@
"Ich
Weise
ste
Technologie
di@@
nehmen
konnte
li@@
Zukunft
ete
lange
beim
Erde
fast
nächsten
neuen
seinen
bisschen
st,
ungen.
lassen
Afrika
Dinge,
fünf
g
eten
brauchen
ter@@
Vielen
u@@
Daten
Wissen
Sache
jede
bekommen
habe,
ja
eln
le
Raum
denken
der@@
passiert
se
wir,
Du
e-@@
'@@
Weil
aus,
zusammen@@
finden
it@@
".
ischer
ur@@
wurde.
e:
ieren
kl@@
unserem
ens
nach@@
enen
Probleme
oft
Person
ja,
gehen,
ei@@
Ideen
Milliarden
könnten
weit
Warum
arbeiten
Planeten
d.
euch
Dank.
Frauen
erst
seinem
mit@@
Über@@
ü@@
New
ern,
geb@@
hatte,
leben
Welt.
licher
ung@@
de@@
denken,
gesehen
Gehirn
j@@
schnell
d,
",
Kind
Nun
irgendwie
n,
nen
später
Welt,
ak@@
i@@
wurde,
Lebens@@
Mit
bevor
bereits
ert.
isches
zeigt
wer
Meine
rei@@
e?
lich.
ne
zeigen,
100
50
namens
genug
Dieses
a,
anzu@@
oben
30
end@@
Be@@
Natur
überall
ern.
gesch@@
ken
all@@
ene
os@@
Fall
ber@@
gehen.
heraus@@
sagt
einigen
I@@
eh@@
ihrem
Mann
cht@@
n.
ri@@
bringen
Arten
Ort
gerne
dachte
ek@@
hier,
Für
Grund
den,
lang
menschlichen
fl@@
verschiedene
z
zeigen
Energie
Re@@
vor,
weiß,
Zu@@
kommen.
Mutter
au@@
cht
iert
verschiedenen
zusammen
hätte
am@@
hin
begann
geben,
den@@
el,
ier@@
mir,
t?
gar
liches
je
o
wichtig
Leuten
innerhalb
Form
Frau
meine,
sie,
In@@
Computer
Auf
System
is@@
sah
Oder
eg@@
elle
geben.
ot@@
auf,
sechs
st.
einzige
sprechen
gleichen
so,
Bilder
a
besonders
en-@@
Moment
Stadt
wegen
ter,
uns,
gen@@
sp@@
ale
sen
Buch
ag@@
besten
fen
finden,
igen
Unter@@
em@@
da@@
heißt
lich,
ra@@
tes
ß@@
beiden
ges@@
habe.
halten
bi@@
gibt.
jedem
Leute,
Wissenschaft
dar@@
eben
möglich
verstehen,
Al@@
Design
Mein
Minuten
aller
bringen.
USA
anderes
ens@@
Körper
Dieser
Um
ul@@
Gruppe
richtig
versuchen
ö@@
weiter@@
wollen,
eren.
gleich
menschliche
Fragen
dich
mich,
ig@@
machte
Zeit,
Zeit@@
kon@@
Antwort
alen
men
weitere
Indien
ert,
Welt@@
bar
de,
Gebäude
Kl@@
eren,
zwar
Di@@
ant@@
eher
el.
ro@@
bei@@
ell
15
ein,
gen,
h
ing@@
welches
än@@
Punkt
gemacht.
nächste
würde.
t:
Geschichten
anders
alten
gest@@
ige
stellt
verstehen
de.
heraus,
nämlich
Spiel@@
ein.
gleiche
würde,
Ja,
enk@@
geh@@
also,
glauben,
hatte.
ik@@
lich@@
Schule
Vielleicht
sei
Stück
V@@
liegt
stehen
Doch
wohl
überhaupt
Gott
che
wer@@
Mädchen
Um@@
musste
Informationen
Musik
Vor
gesagt,
schw@@
Grunde
Nicht
chten
recht
tr@@
gl@@
us@@
ed@@
sagen:
Stunden
bedeutet
bringen,
ellen
ieren.
kommen,
Lassen
tige
bl@@
finden.
letzte
end.
ieren,
konnten
sich,
Mon@@
eigene
manchmal
dem,
Ist
a.
alt
as
sicher
zi@@
ben
ben@@
deren
gern
ch
obwohl
Bei
Film
weiter.
Projekt
ationen
ell@@
ol@@
schen
war@@
Haupt@@
Kindern
Licht
auszu@@
pl@@
steht
Schul@@
op@@
waren,
weg@@
Universum
auf.
braucht
geht,
spr@@
ti@@
alt@@
bel@@
end,
direkt
schauen
sprechen,
on,
Internet
dr@@
ern@@
är@@
Kopf
nehmen,
niemand
ok@@
40
Ar@@
Bi@@
Fl@@
hier.
.@@
Zum
gehört
ing
sk@@
funktioniert
sagt,
Ge@@
Gesellschaft
entwickelt
gut.
teil@@
bedeutet,
lassen.
sen@@
Lage
damals
hoch@@
jedoch
solche
Sp@@
isch.
3
Hand
Hilfe
si@@
Möglichkeit
k,
Bau@@
Entwicklung
Mar@@
bauen
heit
um,
Nach@@
Tiere
bar@@
det
g.
os
s-@@
Kon@@
acht
dir
hören
k.
sieben
völlig
zweite
den.
ut@@
waren.
'
chte
f
o,
Sehen
best@@
kleines
meines
mi@@
möchte,
sage
wollen.
CA:
Familie
chen,
b
könnte.
tern
unten
Regierung
To@@
[@@
ender
erte
müssen,
sprechen.
tigen
unglaublich
2@@
Augen
o-@@
Anfang
allem
alles,
arbeiten.
darin
fand
Danke.
Sachen
ad@@
ehr@@
müssen.
2
as@@
darüber,
hätten
kurz
Sprache
anderer
enz@@
Grund@@
isch,
ma@@
Art,
ab.
Denken
Wort
ten@@
ab
ar
dessen
genauso
us
wei@@
zwei@@
Anzahl
Haus
Jeder
geht.
isch@@
kamen
gen.
sehr,
Gen@@
in,
o.
Auto
aufzu@@
gew@@
zer@@
Jahren,
Lebens
Unsere
Glück
ah@@
dern
g,
gesagt
kommt,
lernen
chen.
hinter
nimmt
Alle
Pl@@
Vater
ange@@
führen
größte
los@@
neu
versuchen,
zeigen.
Dingen
ation@@
der,
voll@@
Herz@@
Stellen
]
bringt
fahr@@
glauben
halten.
ist:
ist@@
Länder
das?
er-@@
fer@@
hab@@
sie.
unseres
Kunst
Schauen
en;
est@@
fest@@
nahm
5
Unternehmen
York
ge,
getan
jemals
kennen
8@@
Reihe
Ziel
gem@@
ger
größten
wurden.
y.
—
groß
hatten,
me
niemals
sagt:
weg
's
3@@
Alles
eins
reden
u
versch@@
4@@
Bl@@
ation,
br@@
ck@@
hatten.
m,
zehn
"Was
cht,
schwer
äu@@
Namen
Viele
Vortrag
arbeiten,
dass,
ft
kt
will,
Jahren.
Rück@@
ation.
daran,
führ@@
gesamte
v@@
wieder@@
Tage
Verbindung
bare
falls
fanden
Ihren
ab,
en?"
führt
ie
man,
or
wäre,
Ch@@
Oberfläche
and@@
deshalb
die,
ent
fragen
iert.
ni@@
nutzen
um.
6@@
Macht
ch,
e"
ft@@
ierte
schaffen
Wasser@@
Wochen
bekommen.
l
Woche
genommen
lei@@
Hause
Li@@
dachte,
erst@@
mag
ser@@
Eltern
ach@@
nachdem
so@@
tig
Natürlich
U@@
alte
cht.
eu@@
hoch
kt@@
stellte
ür@@
4
Gefühl
Sinn
Spiel
Wer
ausge@@
erkennen,
fe
ur
wür@@
Gel@@
Liebe
Teile
Unterschied
Vereinigten
anz@@
auch,
darum
il@@
los
miteinander
schließlich
versucht
Str@@
bau@@
besteht
einander
her
liebe
ter.
voll
Monate
Nein,
Technik
a-@@
bitte
guten
kleiner
mussten
pf@@
"Das
En@@
Gr@@
Menschen.
Par@@
al.
leben.
ün@@
Größe
Land@@
Thema
einzu@@
essen
helfen
m.
nennen
soll
Au@@
China
Qu@@
Rest
ann@@
davon,
mer@@
ob@@
se@@
wichtig,
zeigt,
Autos
Gra@@
Ma@@
Von
beide
daraus
denk@@
draußen
eck@@
kommt.
Deshalb
Hand@@
Se@@
at
be
bekommen,
großer
passiert,
sonst
stellen.
zuvor
7@@
Am
Ent@@
Kor@@
Krieg
darum,
leben,
ler
mache
og@@
om@@
Einige
Ihrem
Kraft
Mit@@
Schritt
Verhalten
Video
absolut
aten
fahren
führen.
ick@@
ir@@
könnte,
lässt
"H@@
Meter
Mitte
Muster
Zeit.
danach
dazu,
einfache
möglichen
pi@@
wi@@
zen
!"
Vi@@
Y@@
endes
str@@
vi@@
25
All
Atom@@
Co@@
Gedanken
ank@@
dafür,
ers
findet
herum
leg@@
macht,
neues
ster
und@@
Ihrer
Preis
Selbst@@
fen,
hier@@
5@@
Ber@@
plötzlich
richtige
ste,
Blick
Ding
Staaten
Tatsächlich
beg@@
bist
das.
i
im@@
pp@@
1@@
Freunde
Mo@@
bauen.
bet@@
dann,
ex@@
lassen,
lieb@@
sicher,
zurück.
Lösung
Nach
e."
elt
gebaut
gleich@@
heit.
komm@@
per@@
soziale
stand
x
zeit@@
ang@@
nehmen.
sl@@
Lehr@@
Luft
Richtung
gesehen,
heit,
hl@@
iert,
land@@
passiert.
spiel@@
ziehen
So@@
Eines
El@@
Essen
Karte
Patienten
ch.
chte,
funktioniert.
hal@@
herum@@
nahmen
oren
y,
zeige
Chris
Groß@@
Grund,
Hälfte
Idee,
Mensch@@
anstatt
hast
schaffen,
Meinung
Ru@@
Technologien
Während
beginnen
fragte
ph@@
sen,
sin@@
und,
worden
zeit
Bewegung
Design@@
Schw@@
daß
entwickeln
gestellt
setzen
wollten
Amerika
Markt
Schl@@
Vorstellung
ans
eller
konnte.
scheint
sel@@
spielen
6
Dinge.
Erfahrung
Leben.
att@@
benutzen
einzelne
erzählen.
macht.
schaft
verstehen.
18
200
Eis@@
Foto
Pro@@
Prozess
Wirtschaft
chten,
innen
leicht
per
12
Si@@
ati@@
ess@@
falsch
gingen
konnte,
le@@
man@@
Evolution
Fahr@@
Heute
Ihnen,
Tat
Tier@@
baren
beste
c@@
ef@@
erzählen,
gut,
halten,
heiten
seh@@
so.
Firma
Geschichte.
Kultur
ast@@
außer
en"
ete,
komplett
leb@@
sagen.
Boden
bekommt
beweg@@
gemacht,
ff@@
ru@@
verändern.
"S@@
1
Können
Licht@@
Nur
Reise
Wal@@
al,
beh@@
da,
daher
ha@@
schi@@
sehe
ums
Computer@@
Regeln
Studenten
ap@@
bes@@
ca.
essen.
hinter@@
jemanden
lichkeit
p
richtigen
ster@@
sterben
tig@@
wurden,
Öl@@
8
Bereich
Sache,
Super@@
Wahrheit
bauen,
bereit@@
davon.
eil@@
erk@@
ör@@
.“
Auch
Modell
Sonne
Struktur
Team
gt
ko@@
stellen,
voller
60
Ländern
Situation
Veränderung
Zahl
and,
ech@@
hei@@
spricht
Tages
bestimmten
gesehen.
leit@@
sagten,
wachsen
welcher
Best@@
Hoch@@
Lehrer
Or@@
bin@@
erreichen
erung
grün@@
stark
ändern
Frage,
ack@@
erzählt
ett@@
gleichzeitig
heißt,
neu@@
sagten
sen.
ständig
verändert
wert@@
wären
Nummer
af@@
egen
enten
gi@@
ho@@
ität
wunder@@
zuerst
zumindest
Männer
Neu@@
deine
drei@@
glücklich
men@@
ment@@
nutzen,
par@@
schrieb
sofort
7
Kinder@@
Teil@@
and.
erhalten
frei@@
gegeben
hervor@@
langen
mel@@
men,
son@@
trotzdem
verändern
19@@
Kunst@@
Million
Umwelt@@
Wirklichkeit
abzu@@
bewegen
ger,
gewesen
of
schön
tun?
vier@@
ß
9@@
Architektur
Beziehung
Ex@@
Platz
qu@@
stell@@
tut
wollte,
wusste
zw@@
ät@@
Süd@@
Wissenschaftler
erkennen
gr@@
ker
länger
Fähigkeit
Jahrhundert
Möglichkeiten
brachte
eig@@
gegenüber
gesamten
großartige
irgendwo
nur,
wirk@@
x@@
Erfolg
Generation
Körper@@
Wi@@
bar.
deut@@
fangen
fort@@
get@@
iger
ihres
lag@@
muss.
te@@
tion
Aufgabe
Leben,
Rei@@
bil@@
bin,
erzählen
interessante
mo@@
muss,
on.
schaffen.
wichtige
zusammen.
"Die
80
Ku@@
Sh@@
Sk@@
Theorie
Ur@@
ations@@
halt@@
her.
mehr.
ähnlich
Publikum
Rolle
bedeut@@
bekannt
besch@@
helfen,
hen
ich.
mach@@
mögen
nicht@@
normalerweise
ris@@
rund
seines
sowohl
verwenden
äh@@
Bedeutung
Bezug
David
Freund
Kom@@
Krebs
Prinzip
Spr@@
ander@@
bestimmte
cher
fing
hi@@
interessant
kam,
nen,
oder?
oll@@
po@@
schl@@
zu.
“
500
@@
Kosten
Natur@@
Orte
Su@@
Tagen
Zu
amerikanischen
bald
größer
herauszufinden,
könnten.
nis
würden.
Geb@@
TED-@@
Zwei@@
bereit
echte
einfach@@
ich@@
nutz@@
pr@@
wider@@
würden,
äl@@
"Wir
fen.
immer,
schlecht
sich.
Beispiel,
Bildung
Einfluss
Gehirn@@
Ger@@
Her@@
Im@@
Wo
beginnt
bessere
ekt@@
ensch@@
erten
hören.
kannst
ner
passieren
Bo@@
außerhalb
bo@@
denken.
ens,
fall@@
fin@@
hör@@
manche
offensichtlich
t."
weise
wir@@
An
Br@@
Google
Mensch
Nacht
Problem.
Tatsache,
Wert
aufge@@
bekam
eigen@@
er:
fi@@
globalen
laufen
neben
sobald
solchen
Gemeinschaft
Gesundheits@@
Kinder,
Stelle
Straße
dies@@
inn@@
machten
nennen.
tausende
viel@@
%
20@@
Mann,
West@@
ass@@
danke
echt
endlich
ente
ke
konnten.
lernen,
ran@@
san@@
sollte.
versucht,
All@@
Bücher
Fähigkeiten
Monaten
Mor@@
are
kaufen
riesige
selben
sieht,
sier@@
tiger
wichtiger
Alter
Bevölkerung
Dar@@
Gesch@@
Ro@@
Universität
Version
age
allein
alter
ed
funktionieren
großes
ine
könn@@
la
lan@@
nun,
z,
Bet@@
Gebiet
Kur@@
OK,
Sa@@
anischen
enst@@
in.
reg@@
sagten:
setzt
treffen
Einer
Geschichte,
Ju@@
Oh,
Okay,
Städte
aler
einzelnen
fragen,
kann@@
-S@@
198@@
Bakterien
Denk@@
Gesundheit
Maschine
Mikro@@
Ort,
Zahlen
dung
entweder
genannt
gutes
her,
hoffe,
hol@@
könnten,
natürlich,
näher
sahen
stand@@
verw@@
vorstellen
Eis
Grenzen
Ja.
Met@@
Programm
Roboter
Schulen
Sicht
ant
einge@@
fel@@
fliegen
hundert
itz@@
junge
mal@@
na@@
onen
se,
tion@@
weltweit
"W@@
De@@
Mitgefühl
Objekt
eit@@
fühl@@
gezeigt
gra@@
komme
ma
spielen.
uren
versuche
wann
Angst
Beginn
Geschäfts@@
Herausforderung
Jahr@@
Konzept
Menschheit
Raum@@
Vergangenheit
Wei@@
acht@@
est
heutigen
os,
schwierig
uns.
verwendet
z.B.
,@@
9
Hei@@
Mars
Name
Prot@@
Seiten
Spezies
Uhr
che,
du@@
gebracht
heit@@
hören,
interessiert
ität,
ität.
jetzt,
klar,
ock@@
r
sprach
unterschiedliche
wahr@@
zweiten
ären
Beispiele
Haus@@
Kan@@
Leb@@
Ozean
Po@@
Sicherheit
Tr@@
Umgebung
ales
aufgrund
bewusst
enz
essen,
führte
gemeinsam
langsam
nein,
unglaubliche
vor.
ßen
Gegen@@
So,
alt.
dritte
eten.
gelernt
ierten
kor@@
lösen
ne@@
vorher
wichtig.
wirklich,
Amerikaner
Formen
Gest@@
War@@
chten.
enden,
hing@@
lesen
mehrere
nah@@
selbst.
sozialen
tig.
tiges
zahl@@
"Wie
Armut
Gruppen
Material
Umwelt
Wirk@@
ber
eure
gekommen
nennt
sa@@
teilen
Artikel
Gemein@@
Konferenz
Monat
Suche
Und,
amm@@
anz
begannen
egal
ehen
heutzutage
inter@@
lu@@
mein@@
oh@@
sche
schneller
schreiben
sten,
system
wä@@
ziehen.
zu,
At@@
Daher
Entscheidungen
For@@
Forschung
Information
Jahre,
Luft@@
Mal,
Nutz@@
Ri@@
Weg,
Zi@@
bisher
ebenso
größeren
legen
ord@@
sollte,
suchen
tionen
Designer
Ebene
Gesicht
Kar@@
Krankheit
Mal@@
Ne@@
Noch
Wel@@
Zentrum
extrem
gefunden
jungen
mar@@
mer
neun
vorstellen,
Öl
äch@@
öffentlichen
Bu@@
Danke
Fotos
John
Kr@@
Meer
Nord@@
Ok,
Orten
arbeit@@
ativen
brauchen,
damit,
gier@@
hän@@
ismus
kan@@
kennen,
lin@@
ll@@
lö@@
möchten
sollten.
star@@
tragen
verbunden
veränder@@
zusammen,
älter
300
Bar@@
Dorf
Mi@@
Problem@@
app@@
arbeitet
ebenfalls
einfachen
erreichen.
geschrieben
klein
schon,
statt
steh@@
sti@@
will.
zurück,
Auswirkungen
Experiment
Himmel
Interesse
Jedes
Kontrolle
Linie
Medien
ac@@
bra@@
eln,
f.
finanzi@@
gegangen
hab
heraus
län@@
mu@@
nehme
schn@@
ändern.
Arbeits@@
Arm
Farbe
Leuten,
Morgen
Nor@@
Reg@@
Sinne
Web@@
ben.
einfach,
einfach.
ens.
erreicht
eten,
fall
herunter@@
kenn@@
möglich@@
ost@@
us,
wert
übrigens
"N@@
Damit
Durch@@
Energie@@
Fel@@
Film@@
Geist
Gene
Menschen@@
Part@@
Problem,
Tod
Zeitpunkt
bestimmt
echten
einig@@
form@@
globale
kaum
klar
links
schlechte
stoff@@
zul@@
üs@@
Fisch@@
Künstler
Man@@
OK.
Produkt
Realität
Zusammen@@
arbeite
ate
c
eln.
fehl@@
keiner
kom@@
mitt@@
riesigen
sein@@
tig,
Auge
Einzel@@
Hinter@@
Okay.
Sache.
Typ
Weise,
Zugang
ben,
blick@@
ft,
ist?
mal,
met@@
sh@@
sitzen
tau@@
tief
weisen
wenige
-T@@
Energi@@
Ergebnis
Frei@@
Hy@@
Internet@@
Markt@@
Meeres@@
Zellen
bleiben
einzigen
f,
finde
gang
größere
guter
spann@@
spielt
stehen.
su@@
wahr?
11
Blut@@
DNA
HIV
Hirn@@
Ide@@
Verständnis
entfernt
helfen.
krei@@
land
liegen
mil@@
re
vers@@
18@@
197@@
Bil@@
Bäume
Druck@@
Grad
Möglichkeit,
Nahrung
Nahrungs@@
Per@@
Pr@@
aren
dein
desto
eigenes
entwickeln,
erreichen,
fun@@
gesprochen
ic@@
il
ologie
one
schauen,
siert
sollen
tausend
tigkeit
us.
zut@@
Ak@@
Bühne
Dort
Gi@@
Gott,
Jahr.
Regel
Spaß
Unser
ag
betrachten,
bewegen.
bilden
bleibt
dadurch
führen,
handelt
hinzu@@
keit,
neuer
nicht?
schlag@@
statt@@
trag@@
196@@
Am@@
Fehler
Industri@@
Krankheiten
Musik@@
alle,
darauf,
erz@@
fallen
fertig@@
fühlen
läuft
ori@@
os.
stelle
tra@@
Aufmerksamkeit
Dollar.
Gew@@
Gl@@
Herz
Keine
Land,
Le@@
Materialien
Pflanzen
Pil@@
Software
Tür
Wohn@@
Zeug
Zwei
alisier@@
ang
fer
geg@@
men.
ose
rat@@
testen
Gerät
Haben
Labor
Milliarde
Publikum:
Punkte
darin,
fest,
h,
hinaus
ingen
lief
nung
ort@@
stra@@
tolle
usw.
wollte.
wär@@
zogen
Europa
Gesetz
Kopf@@
Manchmal
Mittel@@
Pal@@
Teilen
Trau@@
Vari@@
alität
arbeitete
as,
auen
elles
es?
fahren,
fr@@
frühen
ft.
gener@@
glich
gut@@
lieben
off@@
ott@@
sch
schaften
schul@@
schön.
tief@@
zei@@
ück@@
Atmosphäre
Firmen
Job
Lösungen
Personen
Selbst
Sprach@@
Tag,
Test@@
Wasser,
aden
aut@@
dig@@
dorthin
frei
früher
fte
gehört,
geschehen
gestern
hinein@@
ink@@
jemandem
ken,
klar@@
lige
natürliche
reden.
s:
schöne
setzen.
tu@@
verloren
verändert.
weiterhin
wichtigsten
Bewusstsein
Bild,
Dr.
Flugzeug
Gleich@@
Hände
Jahr,
Masse
Rech@@
betr@@
dasselbe
geboren
gefähr@@
he@@
hätte,
kauf@@
konnten,
mich.
mir.
mor@@
müs@@
nis@@
recht@@
rechten
sage,
sollten,
stehen,
tion,
unden
woll@@
ziehen,
üt@@
Innovation
Kern@@
Manche
My@@
Nein.
Organisation
Pf@@
Stimm@@
Stunde
Technologie,
Tier
Wachstum
Wahl
Zw@@
ali@@
anten
benutzt
bewegt
ce
deck@@
dreht
entwickelt,
erinnern,
erstes
etz@@
geworden
irgend@@
letztes
linken
n?
nach,
osen
scher
stellung
tat
tiert
versuchte
zus@@
A
Ball@@
Brot
Frau,
Herr
Mathematik
Netzwerk
Niemand
Paul
Richard
Wer@@
agen
aller@@
dem@@
els
ett
fähig
für@@
gebracht.
hoffe
nenne
omi@@
ons
sei@@
sion
sozusagen
verwenden,
vorher@@
wiederum
CO2
Forsch@@
Fuß@@
Kohl@@
Nachricht
Sehr
Sterne
Wesen
at,
ck
dig
erzählte
eut@@
far@@
fil@@
gab.
gearbeitet
har@@
km
kostet
ließen
nachdenken,
or,
raus@@
rechts
sag@@
setzen,
sodass
stu@@
weg.
werde,
ßen,
000
0ern
Ander@@
Behandlung
Buch@@
C
Fuß
Genau
Mil@@
Revolution
Sie.
Sohn
Wand
Worte
ade
amerikanische
denkt
for@@
ganzes
gestellt,
hält
iti@@
mon@@
möglicherweise
treten
weiter,
wusste,
20.
Dass
Drei@@
Erd@@
Geh@@
Geschäft
Kilometer
Lei@@
Meilen
Regierungen
Veränderungen
ansehen,
ator
aussehen
dort,
este
fertig
führt.
gende
hängt
keit.
keiten
ker@@
mehr,
mindestens
nütz@@
reden,
"Es
"Oh,
Arbeit,
Dingen,
Lern@@
Politik
Projek@@
Ster@@
TED@@
Wasser.
Werte
chen@@
den?
der.
ds
eine,
ent.
erschaffen
frage
geschieht
kurze
los.
pro@@
sah,
setz@@
soll@@
stellt,
stellten
utz@@
vermutlich
wissen.
zier@@
ähn@@
üch@@
Beg@@
Bürger@@
Dank
Ideen,
Jung@@
Liste
Massen@@
Netz
Not@@
Projekte
Pu@@
Sen@@
chter
d-@@
enh@@
erklärt
etten
fühle
gt,
hin.
lebt
reichen
ren
sein?
selbst,
später,
versteh@@
will@@
ße
äs@@
"Nein,
-F@@
10.000
16
AIDS
Arbeit.
Aus
Bill
Chance
Engl@@
Farb@@
Fil@@
Hän@@
I
Jahre.
Krieg@@
Ph@@
Prei@@
Produkte
Schei@@
Spitze
Verfügung
dieselbe
do@@
edi@@
em,
erfolgreich
ette
ften
gebaut.
hil@@
hr@@
hy@@
ich:
ihnen,
ligen
mas@@
nahe
rück@@
sicher@@
sicherlich
tier@@
wohin
24
Englisch
Fernseh@@
Gol@@
Gut,
Haufen
Nachrichten
Nehmen
Nähe
Raum,
San
Schönheit
Stimme
Studie
Todes@@
Verhaltens@@
antwort@@
bin.
bli@@
erinnere
gaben
ge.
ill@@
losen
ner@@
verschw@@
welchem
wissenschaftliche
z.
,"
Augen@@
Den
Eigenschaften
Falls
Geld@@
Gewalt
Klima@@
Ost@@
Person,
Schn@@
Th@@
Verantwortung
Warum?
abl@@
anfangen,
chte.
dachten
emp@@
erklären,
fa@@
fahren.
fängt
gehe
gestellt.
gt.
hin,
hörte
ini@@
irgendwann
kur@@
lernen.
nen.
no@@
psych@@
sau@@
se.
stimm@@
verändern,
vollständig
weis@@
wissenschaftlichen
äre
"A@@
0@@
Abend
Affen
Bes@@
Erde.
Fähigkeit,
Geschwindigkeit
Kamera
Kre@@
Materie
Medi@@
Virus
Zusammenhang
ante
ari@@
ationen.
benutzen,
eben@@
ent,
freund@@
gar@@
klein@@
ling@@
machen?
reich@@
rische
schreiben.
spielen,
teilen.
to@@
umzu@@
w
wechsel@@
wor@@
ßen.
üst@@
199@@
Ansatz
Biologie
Familien
Hel@@
Ho@@
No@@
Op@@
Radi@@
Zustand
abge@@
begann,
betrachten
brau@@
da.
des@@
erlaubt
erster
gebe
gehört.
heits@@
hel@@
heraus.
jene
ken.
lauf@@
möchte.
oni@@
ppen
richt@@
schei@@
schönen
sinn@@
stimmt
verstanden
vorstell@@
weiteren
worüber
400
Bauern
Druck
Entscheidung
Höhe
Krei@@
Nacht@@
Prozent.
Schi@@
Sonnen@@
Studi@@
Tisch
Vergleich
Wahl@@
Wieder@@
Zell@@
anderen.
ationen,
beeindruck@@
chi@@
dabei,
elte
ete.
fizier@@
fu@@
fällt
fühlt
genutzt
hunderte
ing,
kaufen,
kennen.
kt.
lau@@
merk@@
mm@@
nachzudenken,
nächstes
oben.
plan@@
produzieren
tigt
unterschiedlichen
verb@@
weiteres
wen@@
wunderbare
zell@@
90
Ameisen
Aut@@
Beh@@
Bis
Ergebnisse
Fest@@
Hin@@
Hoffnung
Inter@@
Kamer@@
Kollegen
Leidenschaft
Mann:
Sub@@
Unterschiede
anfangen
ator@@
bu@@
buchstäblich
eben.
entlang
erin
ey
fol@@
ging,
kr@@
kurzen
kürz@@
mut@@
orn@@
sicht@@
tion.
/@@
70
Bef@@
Finanz@@
Flug@@
Forschungs@@
Gar@@
Großteil
Idee.
Karten
Loch
Plan@@
Schüler
analy@@
andere,
benutzen.
bleiben.
enzen
flieg@@
formen
gilt
größ@@
hafte
halte
hört
i.
kenne
konstru@@
ks
mittel
mäch@@
möglich,
passierte
politische
rieb@@
schaut
sieren
traf
treffen.
trei@@
unbedingt
welchen
wichtigste
zehn@@
zusamm@@
"Wenn
-B@@
Geg@@
Mö@@
Objekte
Religion
Ressourcen
Seite,
Sie?
Tag.
Tal@@
Universums
Verbindungen
Vielfalt
Welche
art@@
enn@@
fasst
fen@@
fli@@
folgen
gab,
gering@@
hart
hö@@
irgendetwas
modernen
natürlichen
produ@@
sowie
ts
wach@@
wes@@
wussten
Gang
Gesetz@@
Herzen
Indi@@
Jede
Land.
Maschinen
Mitt@@
Pri@@
Sekunden
Spezi@@
Wind@@
Zeiten
anderem
anti@@
ar,
as.
aub@@
benutz@@
bis@@
druck@@
du,
ennen
entschied
erhalten,
gewisse
h.
ig
is.
kaufen.
lernte
pa@@
reich
schau@@
sich@@
sor@@
ur.
verlassen
vollkommen
0er
Demokratie
Ehr@@
Eing@@
Frage.
James
Komplexität
Lebewesen
Mond
Regen@@
Sol@@
Stand@@
Tanz@@
Tatsache
Teilchen
Tran@@
Wort@@
anische
diskut@@
elt.
ernst@@
eter
fisch@@
he
hoffentlich
hohe
hohen
komplizier@@
kten
letztendlich
lösen.
olog@@
ordn@@
pfen
schaff@@
selbst@@
sion,
sion.
stei@@
suchen,
to
trotz
zen@@
zufällig
Ä@@
"Warum
Beziehungen
Fol@@
Glauben
Kinder.
Kli@@
Lad@@
Prä@@
Seit@@
Sommer
Sti@@
Strom
Stufe
Werkzeuge
Wind
afrikanischen
besseren
diejenigen
einiger
entdeckt
entschieden
erinnern
erstaunliche
erzeu@@
ev@@
form
fühlen,
gewissen
grundlegende
hielt
hilft
ing.
is,
log@@
ment
miss@@
männ@@
nach.
nichts.
nis.
nutzen.
ow@@
rechte
satz
sionen
spar@@
wahr
wur@@
zug
“@@
00@@
Arbeit@@
Charles
Dat@@
Del@@
Du@@
Einkommen
Ern@@
Farben
Fü@@
Gefühl,
Ges@@
Ha@@
Methode
Rau@@
Systeme
Tag@@
ative
auch.
auftau@@
bri@@
dagegen
e!
eben,
ehrlich
ei
einmal,
elt,
ep@@
eri@@
faszinier@@
hätte.
i,
int@@
kosten
ließ
ogen
rot@@
schaft.
seit@@
sf@@
ste.
steht,
tigung
total
un
unmöglich
v
verbr@@
wirtschaftlichen
ß,
äm@@
Do@@
Dollar,
Fach@@
Fi@@
Fische
Intelligenz
Kann
Ko@@
Müll@@
Netz@@
Neur@@
Pol@@
Präsident
Sand@@
Schlaf@@
Te@@
Ter@@
Typen
Wunsch
art
ay@@
bewegen,
dachten,
deinen
dern,
dort.
drück@@
egt
eich@@
entwickeln.
erhalten.
flu@@
fuhr
gro@@
halb
hand@@
hauptsächlich
heiß@@
hlen
ihr,
isten
kin@@
kürzlich
lieber
min@@
mis@@
mögliche
nisse
politischen
praktisch
schie@@
schätz@@
schön@@
setzung
sicht
solch
th@@
unde
ung?
werk@@
wieso
wis@@
änder@@
ös@@
überrasch@@
"Du
"M@@
Abl@@
Bur@@
Fortschritt
Frauen,
Freude
Gegensatz
Hund
Ihnen.
Los
Mittel
Papier
Risiko
Sauerstoff@@
Sein
Straßen
Tur@@
Tür@@
Wo@@
ausdrück@@
bel
che.
dessen,
ener
eng@@
entwickelten
erfüll@@
esten
falsche
fotograf@@
frag@@
funktionier@@
gefunden.
genden
gkeit
groß@@
heb@@
ih@@
indi@@
itt@@
lebens@@
lehr@@
lig
lose
mat@@
prä@@
pt@@
quasi
rel@@
richtig?
s?
sam
scheinen
schlagen
sei,
spreche
stecken
sterben.
taten
wäre.
zeigte
zentr@@
zurückzu@@
150
Bei@@
DNA-@@
Fernsehen
Geld,
Ki@@
Landes
Mut@@
Position
Programm@@
Recht
Rede
Seite.
US-@@
Vide@@
Wirtschafts@@
anschau@@
co@@
entwickelt.
experiment@@
gegeben,
geschaffen
immer.
ker,
legt
mitten
musst
ort
rau@@
rein
schaft,
schwarze
selber
son
tru@@
tz@@
vollen
voraus@@
wasser
wenigen
zeichn@@
ät
üb@@
"Der
1,@@
10@@
50@@
:@@
Aber,
Antworten
BF:
Bank@@
Bitte
D
DH:
Entwicklungs@@
Flu@@
Früh@@
Gefühle
Jahres
Mir
Obwohl
Ordnung
Physik
Reaktion
Schrit@@
Sicherheits@@
Telefon@@
Wissenschaft@@
a:
ast
au
befinden
bekannten
bewahr@@
dauert
dreh@@
drehen
erkennen.
geleg@@
ger.
haf@@
holen
kraft
lag
lös@@
normalen
punkt
runter
samm@@
schen,
seien
tere
weder
zog
11.
Ad@@
Afrika,
Außerdem
Filme
Gründe
Hom@@
Kampf
Kin@@
Klimawandel
Mass@@
Mess@@
Sauerstoff
Seine
Wege
aner
aus?
befindet
dank@@
deutlich
eck
eil
füll@@
gen?
glück@@
ja.
ler@@
lern@@
morgen
na
offen
ppe
sammeln
sar@@
sch.
somit
wobei
zellen
ändern,
"B@@
"Sie
14
Aktivität
Al
Anderson:
Blog@@
Charakter
Erfahrungen
Finger
Fot@@
Grün@@
Gu@@
Hu@@
Kontakt
Kontin@@
Kunden
Medizin
Modell@@
Museum
OK?
Solar@@
Soldaten
Verw@@
Wohl@@
akzep@@
alles.
anschauen,
auff@@
außerdem
betrachten.
brauchen.
einfacher
eit
folg@@
gab@@
genannt.
herum.
inen
interessant,
kost@@
könnt
leider
lesen.
mehr@@
pan@@
rate
seite
sol@@
stand.
tut,
vorzu@@
werfen
zieh@@
zü@@
Ärzte
ähnliche
Bildungs@@
Botschaft
Folge
Freund@@
Gelegenheit
Hintergrund
Junge
London
Na
Nieder@@
Objek@@
Organismen
Psych@@
Robert
Studien
Tief@@
ach
alle.
allerdings
armen
atur@@
bemerk@@
bild
dat@@
dige
dün@@
em.
erwähn@@
erzeugt
findet,
funktioniert,
führung
gegeben.
gemein@@
ig.
kehr@@
keit
organ@@
pass@@
passier@@
projek@@
präsent@@
prü@@
repräsent@@
rig@@
satz@@
sie:
stoff
teil
trau@@
treffen,
verkaufen
verlieren
volle
wart@@
weiss
wichtigen
wir.
zerstör@@
"Ja,
200@@
Erde,
Far@@
Fluss
George
Gott@@
Hum@@
Lag@@
Mis@@
Quelle
S
Sachen,
Sal@@
Sor@@
Wahrscheinlichkeit
Win@@
Wörter
ad
aktiv
alleine
atte
barer
besondere
braucht,
diejenigen,
drit@@
e;
ehen.
en!
ende,
fach@@
finde,
fühlte
führt,
gebracht,
gehalten
gn@@
groß.
haben?
hinein
hä@@
immer@@
jährige
keiten.
kop@@
lang.
lass@@
lässt,
meistens
nis,
omie
realen
rik@@
sens@@
starke
steht.
steigen
t;
tern,
unden@@
ur,
verkauft
wahrschein@@
weise,
wel@@
wieder.
wiederhol@@
zunächst
zuzu@@
"Nun,
13
Begriff
Bio@@
Freunden
Gal@@
Jahrhunderts
Jungs
Kreativität
Landwirtschaft
Medikamente
Nachdem
Nichts
Pat@@
Planeten,
Projekt,
Punkt,
Schau@@
Sex
Spielen
Washington
angefangen
assen
aten.
bares
beginnen,
begonnen
brauche
brauchte
del@@
deswegen
dunkle
ebt
empf@@
erklären
gebaut,
gend
gespielt
herr@@
icht.
ka@@
leisten
lichkeit,
mir:
ologen
om
rich@@
schwer@@
soll.
te:
trifft
verdi@@
welt
wirkliche
zeiten
ütz@@
"-@@
1.
5.000
600
Bedingungen
Des@@
Entdeck@@
Gehirns
Jemand
Kal@@
Kat@@
Lage,
Leist@@
Lied
Moleküle
Null@@
Region
Sam@@
Sozial@@
Stück@@
Weg@@
Wider@@
Zuerst
achen
achten
alist@@
beobachten
davor
erleb@@
ermöglicht
erzähle
fand,
fass@@
gelöst
geschah
ging.
halbe
heil@@
heute,
ierung
jährigen
liche,
lichsten
lässt.
mark@@
mus@@
möglichkeiten
nissen
online
opp@@
pfer@@
rein@@
relativ
ren@@
schein@@
sion@@
sprech@@
tanz@@
ump@@
ung:
verlang@@
vertrau@@
war:
wohl@@
y-@@
Über
"The
35
Arzt
Baum@@
Bel@@
Büro
Drittel
Finger,
Ganze
Gesamt@@
Kontroll@@
Mc@@
Ober@@
Rahmen
T
Tu@@
Verbreitung
Versuch
Vir@@
Wil@@
Zauber@@
akt@@
ase
basiert
bekann@@
besu@@
betrachtet
enheit
ente,
erfolgreich@@
erfunden
erhöh@@
erweiter@@
ey@@
fragt
geführt
gesagt:
geworden.
greif@@
iges
imm@@
interessant.
ismus,
jahr@@
klapp@@
krieg@@
kurz@@
laut
les@@
me,
mer,
om,
passt
produziert
reu@@
rä@@
schaft@@
schen.
ser
sieren.
studi@@
stör@@
tik@@
ts@@
unglaublich.
ust@@
warten
weise.
wirst
wirtschaft@@
äum@@
Afrika.
Dabei
Durch
Erwachsen@@
Fenster
Fr@@
Frage:
Gesellschaften
Infrastruktur
Kaffe@@
Kind@@
Krankenhaus
Krit@@
Meer@@
Männern
Nachbar@@
Park@@
Partner
Perspektive
Physi@@
September
Sind
Sorgen
System,
Ti@@
Tre@@
Vol@@
Wald
Wes@@
abhängig
agen,
alt,
ane
barkeit
det.
einander.
entwickelte
erschaffen.
erzeugen
fest
fiel
freien
gli@@
grund
habt
haften
herauszu@@
jemand,
kriegen
las@@
lig@@
mensch@@
mus
ne,
normale
res@@
rett@@
schlag
setzte
sub@@
ten?
traditionellen
unglück@@
verursacht
was,
17
4.
Baum
Beispiel.
Bildern
Bro@@
Dan
Deswegen
Energie,
Fein@@
Fer@@
Feuer
Galaxien
Ganz@@
HIV-@@
Industrie
Kein
Koll@@
Kräfte
Mat@@
Schön@@
Seit
Stadt@@
arbeit
atoren
bau
digen
durch.
enti@@
entscheiden,
enz.
erlauben
ese
esen
forder@@
genauer
gestalt@@
häufig
ihnen.
ins@@
kn@@
la@@
lagen
lass
los,
mag@@
mal.
moderne
nahme
naja,
raus
realisier@@
sch,
schnell.
sollen.
stück@@
teren
vergessen
wesentlich
wohn@@
ze
zeig@@
zit@@
21.
Bild@@
Brief@@
Dr@@
Dra@@
Eigentlich
Erfindung
Freiheit
Gehirn.
Gei@@
Größ@@
Holz@@
Händen
Jungen
Les@@
Me@@
Netzwer@@
Phänom@@
Planeten.
Ros@@
Schwer@@
Sekunde
Stadt,
Stern@@
Themen
Tieren
Web
aktiv@@
ale,
an?
anderen,
beobacht@@
denkt,
ehen,
entwickel@@
erinnert
erlaub@@
esi@@
fallen.
fei@@
flü@@
forsch@@
gebrau@@
gehei@@
genommen,
genug,
höher
ick
ind@@
ischem
ismus.
klingt
klu@@
lichem
lichen,
lichkeiten
licht
maß@@
menschliches
mess@@
messen
mischen
möchten,
nah
net@@
ologe
orient@@
rier@@
roten
spezi@@
stattdessen
verhalten
weg,
werde.
werk
woh@@
wollten,
zahlen
äußerst
öffnen
überprü@@
1.@@
Andere
Arbeiten
Architekten
Dem@@
Details
Fal@@
Fin@@
Galaxie
Gesetze
Haut
Ihres
Interess@@
Kam@@
Klei@@
Lebens.
Mau@@
Min@@
Mus@@
NASA
Plan
Plastik@@
Qualität
Seh@@
Terror@@
Unternehmer@@
Video:
Zunächst
abstra@@
ard
arr@@
atur
aufre@@
aussieht.
bar,
basier@@
bilden.
dritten
eder@@
entdecken
erzähl@@
euer@@
furcht@@
gei@@
geschichte
gewöhn@@
glich@@
hoch.
igen,
ingen,
kletter@@
körper@@
laufen.
lediglich
legen,
leist@@
lichkeit.
ms
nein.
nennen,
ologie,
ossen
pas@@
persön@@
positive
riff@@
s"
saß
scht
ses
tä@@
verein@@
wahre
weißen
wirtschaftliche
ys
zieht
zusammenzu@@
üh@@
1.000
45
Aff@@
Beim
Beine
Bereich@@
Bus@@
Daten@@
Ding@@
Etwas
Fall,
Fra@@
Funktion@@
Gewicht
Gutes
Herausforderungen
Hü@@
Invest@@
Ir@@
Lu@@
Mark@@
Materi@@
Medien@@
Mehr
Michael
Modelle
National
Posi@@
Post@@
Präsentation
Recht@@
Regierungs@@
Städten
Verstand
altet
arbeiteten
atz@@
beantwort@@
begegn@@
bereich@@
dert
ecke
enden.
erl@@
errei@@
erschaffen,
es:
fü@@
grundsätzlich
hat@@
herausfinden,
hält,
igkeit
inspirier@@
ktion
kultur@@
kämpf@@
langer
leich@@
läu@@
mittel@@
mt
noch,
noch@@
ologische
organisier@@
pen@@
por@@
profit@@
reb@@
selbe
sten.
stoffe
trä@@
trägt
täglich
uch@@
uner@@
vergröß@@
vorne
wuchs
zer
ähnlichen
16@@
Car@@
Daten,
Daten.
Einsatz
Feld
Fern@@
Gef@@
Geld.
Gener@@
Glas@@
Indien,
Individuen
Ins@@
Instrum@@
Kontext
Kun@@
Men@@
Moment,
Möglichkeiten,
Naja,
New@@
Nutzen
Pa@@
Quadrat@@
Schluss
Sex@@
Spieler
Student@@
Tausende
Tex@@
Verantwort@@
X@@
aff@@
ai@@
anschauen
asen
ay
beginnen.
behandelt
benötigt
beschäftigt
bestehen
bringt.
dafür.
det,
det@@
dlich
e".
ec@@
entstehen
ess
fingen
funktion@@
funktionieren.
ignor@@
kre@@
kte
ktion@@
liegt.
modell@@
nichts,
nochmal
or.
passen.
perfekte
problem@@
rech@@
schaute
sehe,
sitz@@
soll,
sä@@
teilen,
tern.
tieren
tieren,
tut.
unk@@
verantwortlich
verletz@@
vorstellen.
zent@@
är
öffentliche
AB:
Bür@@
Den@@
Dis@@
Einstein
Experiment@@
Fisch
Frau:
Glück@@
Laufe
Minuten,
Schiff@@
Schmerz
Sinn@@
Stein@@
System@@
Traum
Vision
Weile
andlung
ativ
az@@
baut
bedeutet.
beinahe
bekämpf@@
beruh@@
bloß
cool@@
defin@@
del
ecken
eilen
erkenn@@
erwarten
existiert
fragen:
fre@@
früh
fähig@@
fügen
grosse
haft
hinaus@@
kun@@
kurzem
legen.
moralische
morgens
mö@@
nö@@
persönlichen
physi@@
reicht
schafft
schlechten
schli@@
schreib@@
schreiben,
soviel
spricht,
stand,
sucht
system@@
tern@@
unglaublichen
up@@
ure
verwenden.
Ahnung
Astron@@
Basis
Beispiel@@
Berg
Berg@@
Drit@@
Erleb@@
Fortschrit@@
Fällen
Ganz
Golf
Grundlage
Gute
Heimat@@
Irak
Japan
Kil@@
Kontinent
Kriegs@@
Leute.
Musik,
Organis@@
Roll@@
Sogar
Staaten,
The@@
Thomas
Titel
Verhältnis
Voll@@
Wandel
Wieso
Wild@@
agen.
altung
arb@@
at.
ausprobi@@
bieten
design@@
digitalen
durchschnittliche
ege
fern
gegenüber@@
genommen.
gestorben
getötet
grei@@
großartigen
grund@@
heben
herzustellen.
hierher
hätten,
internationalen
is
komplex@@
komplexe
kontrolli@@
kraft@@
lautet:
möglich.
ra
red@@
retten.
richten.
ries@@
sam@@
sowas
spür@@
tert
tet
tri@@
ven@@
viel.
vorbei@@
welt@@
worden.
zel@@
überzeugt,
"L@@
Afrikas
Besch@@
Bild.
Bot@@
Bru@@
Büh@@
Eindruck
Erst
Familien@@
Feu@@
Gründe,
Handy
Ideen.
Jobs
Kerl
Laptop
Linien
Lo@@
Lös@@
Mission
Papi@@
Person@@
Planet
Schutz@@
Sel@@
Son@@
Sonn@@
Spiele
Stamm@@
Stattdessen
Verb@@
Werk@@
Zelle
Zusammenarbeit
ah
angen
asch@@
asi@@
biologischen
brachten
brauchten
dest@@
dische
e?"
eli@@
enorme
erhält
erstaun@@
etische
fas@@
ff
fik@@
gel,
gelegt
gelernt,
gend@@
gän@@
hinweg
hoch,
ische,
kopi@@
lang@@
materi@@
mei@@
nachdenken
nachzu@@
oh,
olle
oo@@
richten
schließen
schreck@@
schu@@
schütz@@
sierung
spezielle
stolz
strei@@
tag@@
unabhängig
was?
wieder,
wünsch@@
ßt
ösen
Bevölkerungs@@
Buch,
Computer.
Damals
Dreh@@
Erklär@@
Folie
Geburt
Geräte
Gut@@
KB:
Kind,
Kombination
Lasst
Lieb@@
Motor@@
Ozeane
Phase
Probleme,
Prozess@@
Roh@@
Strukturen
Technologie.
Tochter
Werbung
Will@@
Zukunft.
aber,
ahn@@
arme
be.
begrei@@
begrenz@@
bein@@
bewusst,
biet@@
den:
egen.
erei
erer
erlaubt,
fragten
gefunden,
gegenseitig
hat?
hergestellt
höhere
iker
krank@@
letz@@
leucht@@
mittels
motivi@@
oben,
onn@@
ore
persönliche
prozess
rede
rief
rit@@
schon.
sehr.
sel
suchen.
tem
tot@@
verbin@@
verring@@
wa@@
weiterer
wieviel
wähl@@
zwei,
äuß@@
öl@@
"J@@
0-@@
2000
5.
Bal@@
Bau
Bra@@
Eff@@
Elemente
Experimente
Fehl@@
Geheim@@
Hinsicht
Insel
Institutionen
Kost@@
Nation@@
Nigeria
Näch@@
Organisationen
Osten
Partner@@
Risik@@
Sitz@@
Stadt.
Städ@@
Unterstützung
Voraus@@
Vort@@
andere.
automatisch
bemerkenswer@@
bewusst@@
bild@@
brechen
dene
dieselben
err@@
gel
ges
gesetzt
gesprochen.
gesund
gewisser
hoff@@
it
kam.
keit@@
kombin@@
krank
laufen,
lebenden
lösen,
nachzudenken.
notwendig
näher@@
ov@@
pu@@
reiche
schauen.
schlu@@
schwierig,
sieht.
sig@@
sitzt
solcher
speziellen
steckt
streck@@
sü@@
the
tigen,
wahr.
werke
wofür
wovon
wären,
yl@@
ym@@
yn@@
yp@@
zeichnet
ändert
überqu@@
100.000
Amerikan@@
Art.
Ben@@
City
Ecke
Effekt
Fleisch
Fragen,
Gemeinde
Generationen
Glob@@
Go@@
Großbritannien
Kart@@
Lieblings@@
Mas@@
Mos@@
Myth@@
Nan@@
National@@
Neuro@@
Ozean@@
Pfer@@
Sport@@
Straß@@
Telefon
Temperatur
Tonnen
Videos
Wettbewerb
Zitat
aden.
alter@@
ani@@
atten
aufgenommen
aust@@
bahn
beschleunig@@
betracht@@
biologische
das@@
dennoch
ehl@@
eine.
elen
ell,
endet
erforder@@
erledi@@
esch@@
etwas.
falsch.
fern@@
fokus@@
gemeinsamen
gesetz@@
gewinn@@
gh@@
glaub@@
gol@@
herstellen
hinten
holen.
kamen,
kel
kt,
las
lasse
lebte
liegt,
läuft.
menschlicher
neur@@
offen@@
ot.
passen
rufen
schafts@@
schicken
schlechter
schwer,
spä@@
super@@
tionen,
verli@@
veröffentlicht
wand
wirklichen
wählen
195@@
Anteil
As@@
Ausmaß
Baby
Bedürfnisse
Bezieh@@
Con@@
Einen
Entdeckung
Erklärung
Fre@@
Führ@@
Führungs@@
Galaxi@@
Grenz@@
Grenze
Handel@@
Herr@@
Lernen
Malaria
Maßstab
Mu@@
Nachbarn
Nam@@
Nationen
Nicht@@
Phänomen
RB:
Rock@@
Sinn,
Standard@@
Vorfahren
Wahr@@
Website
Worten
Wur@@
Wür@@
Zer@@
Zivilisation
Zusamm@@
abb@@
be,
beeinflus@@
berühr@@
besser.
bezüglich
bitt@@
bleiben,
cken
di
dor@@
drei,
druck
entsteht
er?
fallen,
fälle
gefragt,
gehör@@
gemeinsam@@
jener
lich?
medi@@
medizinische
meiste
mol@@
niss@@
persönlich
plat@@
pul@@
rist@@
schnei@@
schutz@@
setzt,
setzt.
stamm@@
tor@@
tue
töt@@
ull@@
verbess@@
verbrachte
verbreit@@
verbreitet
vergangenen
wen
wit@@
zeu@@
zig
zur@@
zusammenge@@
Achse
Aktiv@@
Ausbildung
Ausstellung
Bildschir@@
Bruder
Dimensionen
Elektro@@
Forscher
Funktion
Geschichten,
Golf@@
Gripp@@
Informations@@
Kaffee
Konfer@@
Küste
Leistung
Lin@@
Mütter
Ob
Problemen
Schlüssel@@
Schule.
Stand
Steve
Süß@@
Test
Verstehen
Wahrnehmung
Wol@@
Wor@@
abel
ahn
anger@@
asse
ats@@
aufs
auftr@@
bat
besonder@@
bezahl@@
bilden,
brech@@
dete
digitale
entstanden
ere,
erwartet
esen.
euer
eute
folgende
fris@@
fünf@@
gemeinsame
gesto@@
getroffen
gezeigt,
glamour@@
ha
handel@@
herum,
höre
inge
interessanten
itzen
kar@@
kart@@
ku@@
lichste
lo@@
machte,
male
manchen
nicht-@@
oten
rieb
sal@@
sches
schick@@
schwarzen
sech@@
seitdem
servi@@
solange
speich@@
steck@@
strahl@@
t-@@
tatsächlich,
te?
technischen
uren,
vermut@@
viele,
werden?
wichtig@@
wisst
wüs@@
ziert
ätz@@
äus@@
2,@@
2.
Alles,
Aspekt
Atem@@
Ausdruck
Bedürf@@
Bibel
Dafür
E
Epidemie
Firma,
Gottes
Handel
Jo@@
Kindern,
Landschaft
Mach@@
Mann@@
Mem@@
Mik@@
Mont@@
Mädchen,
Möglichkeiten.
Ni@@
O
Philosop@@
Produktion
Reak@@
Red@@
Sobald
Spektr@@
Sur@@
Szen@@
Tests
Viel@@
Wikipedia
Wunder@@
Zeitung
Zit@@
a"
afrikanische
alismus
amp@@
anders.
ar.
ater
aut
bekommt,
bestimm@@
bewegt,
brenn@@
bringt,
ches
deiner
egal,
elten
enz,
erheb@@
erseits
ew@@
extrem@@
freie
fuer
genügend
getan.
getragen
grossen
hren
interessier@@
irgendeine
kam@@
keiten,
kont@@
laden
lasst
liefer@@
liegen.
macht@@
nei@@
nutzt
nötig
offenen
ogen@@
omen
passieren.
pflanz@@
programmi@@
rag@@
relev@@
schle@@
seltsame
senden
sierte
soweit
transpor@@
unterschei@@
verrückt
versuchten
verteil@@
waff@@
weiße
wirklich.
worden,
ände
-,
1000
17@@
A,
Ach@@
Ansicht
B
Bas@@
Bevor
China,
Diskussion
Euch
Fing@@
Freu@@
Glück,
Göt@@
Hö@@
Ident@@
Ingenieur@@
Je
Kenn@@
Kohlenstoff@@
Kreis
Kultur@@
Lass
Leider
Oper@@
Orte,
Prinzi@@
Regionen
Samm@@
Schimpansen
Sonnenlicht
T-@@
Tages@@
Tiere,
Ton@@
Unternehmer
Weg.
Zahn@@
ahl@@
ala
ana
anal@@
arbeitet,
ass
aussehen.
av@@
beeinflusst
bekamen
bekomme
bem@@
benötigen
blaue
brauch@@
dere
derzeit
dies,
e",
egen,
einhalb
emotion@@
en...
eres
eur@@
fan@@
fangen.
fließ@@
fäl@@
gegen@@
halb@@
inner@@
inspiri@@
integri@@
interessiert,
junger
krat@@
kühl@@
lang,
laut@@
ler,
lustig@@
momentan
moralischen
musste,
nehm@@
niedrig@@
omm@@
platz
pol@@
ppi@@
raum
richtung
rischen
siv@@
so:
spielte
stadt
steigt
sterben,
stär@@
tausenden
teilweise
tel@@
trock@@
ungsp@@
ust
verbessern
verblüff@@
verfügbar
verändert,
vorbei
wand@@
weiß@@
wenden
westlichen
wie,
wunderbaren
zt
Ähn@@
"T@@
...@@
100@@
Außer@@
Blut
Brenn@@
Brücke
Cent@@
Design,
Einfach@@
Emotionen
End@@
Gefühl@@
Indien.
Inst@@
Ira@@
Karriere
Kommunikation
Kraft@@
Militär@@
Molekül
Mot@@
Motiv@@
Mutter,
Ohne
Professor
Real@@
Resultat
Rätsel
Röntgen@@
Rücken
Schlüssel
Schu@@
Sech@@
Sich@@
Sozi@@
Text@@
Times
Tit@@
Tö@@
Wesentlichen
atz,
ba@@
ban@@
darüber.
de:
drüben
einfaches
einiges
eleg@@
entscheiden
erfahren
erleben
ernsthaft
etzen
feld
fliegen.
fried@@
früh@@
fün@@
gelesen
geschafft
heiten.
itä@@
kos@@
lesen,
leu@@
mit,
mittlerweile
mü@@
nde
nennt.
ock
person@@
pfl@@
rote
sei.
setzten
sexu@@
sprach,
stellung,
teile
tigkeit.
train@@
ungs-@@
unten.
verg@@
verständ@@
versu@@
verwendet,
visuelle
wenigstens
wächst
zäh@@
ät,
überleben
überleben.
“.
3.
75
Arz@@
Bewegungen
Beweise
Billionen
Blutgefä@@
Chromos@@
Col@@
Computer,
Design-@@
Elektrizität
Entscheid@@
Entschuldig@@
Entwickl@@
Ereig@@
Ergeb@@
Existenz
Fast
Gut.
Illu@@
Inhalt
Innov@@
Je@@
Kindheit
Klang
Komment@@
Kommunik@@
Kultur,
Lachen
Liebling@@
Medizin@@
Mengen
Minute
Molekül@@
Mär@@
Netzwerke
Rand
Rob@@
School
Schöpf@@
Sei@@
Stuhl
Tom
USA,
Verbind@@
Wagen
Weise.
Werkzeug
Westen
Zeichen
Zimmer
Zweck
abe
aktuelle
allem,
am,
arbei@@
beding@@
behandeln
bezieh@@
dern.
dis@@
en.“
eng
entfernt,
entlich
entr@@
erh@@
ernst
etzt
eucht@@
flei@@
freu@@
füg@@
gedacht,
gelebt
geschlossen
gewohn@@
großartig.
handeln
herzustellen,
industrie
ing-@@
inspiriert
itäten
kal@@
ke,
kulturelle
lage
link@@
mann
maschine
modell
muster
ne.
noch.
oli@@
ow
pack@@
pfen.
produktiv@@
ragen.
raten
runter@@
schließen.
schätzen
sozi@@
tigen.
tiv@@
toll
träge
umfass@@
unden.
ve
verbringen
verloren.
versuchen.
west@@
worum
zugänglich
ß.
ök@@
99
Akt@@
Anwendung
Autor@@
Büch@@
Bürger
CO2-@@
Dau@@
E:
Erzähl@@
Es@@
Freun@@
Gefahr
Gibt
Grupp@@
Helden
Kern
Klein@@
Kommen
Konfli@@
Labor@@
Laptop@@
Liebe,
Länder,
Maß@@
Ment@@
Mädch@@
Okay?
P
Politiker
Polizei
Potential
Schließlich
Star@@
Strom@@
Südafrika
Tab@@
Tel@@
Vorstellungen
Wich@@
Wirtschaft@@
Wissenschaft,
Wurzeln
Zeich@@
amer@@
amm
angesch@@
annt
arbeitet.
ard@@
aussieht,
außer@@
bekomm@@
besorg@@
besteht,
bür@@
dachte:
dank
dauerte
dlichen
dur@@
effektiv
effizi@@
erfahren,
erklär@@
ero@@
fache
gefangen
gern,
geschi@@
getr@@
gewinnen
gewinnen.
geworden,
grünen
heiten,
heran@@
hung@@
ier
insbesondere
interessanter
ischen,
je@@
jek@@
jüng@@
kennt
ler.
li
lich:
ling
lokalen
nachdenken.
nu@@
oss
reagieren
regel@@
rigen
schien
sieren,
simuli@@
sogenannten
sprachen
stieg
stoffen
t?"
verantwort@@
versorgung
verst@@
wissenschaft@@
wären.
äng@@
194@@
32
?“
A-@@
Afghanistan
Afrik@@
Arbeitspl@@
Augen,
Auto@@
Beweis
Blick@@
Brit@@
Damen
Danach
Definition
Eigen@@
Erfahrung,
Gedank@@
Gedanke
Gehen
Har@@
Hem@@
Intern@@
Kap@@
Klasse
Knochen
Komplex@@
Laden
Machen
Maus
Merk@@
Natur.
Oel
Ort.
Pass@@
Pfund
Richtig?
SW:
Schwester
Seele
Sprachen
Stras@@
Such@@
Unterhalt@@
Viren
Wass@@
Wein@@
Ziele
aktu@@
alten,
andl@@
anhand
antrei@@
arten
aun@@
außen
befinden.
begeistert
beobachten,
berühm@@
betra@@
bewegt.
bewirk@@
bewohn@@
blau@@
block@@
braucht.
breit@@
dan@@
domin@@
dungen
dürfen
eder
effektiv@@
eht
eigentliche
elektrische
entschei@@
ermöglichen,
erschein@@
erstaunlich
erzeugen.
etc.
eth@@
exponenti@@
fe,
feu@@
fliegen,
frem@@
fäll@@
fällt,
fühlen.
gan@@
gegangen.
gehol@@
genau,
gerei@@
gesetzt.
gewesen.
grüne
halt
ht
hängen
innov@@
jetzt.
ki@@
künstliche
linge
machte.
nachhal@@
net
nicht."
nieder@@
nisse.
oberen
ograph@@
omet@@
ox@@
pot@@
retten
ruh@@
rum@@
räum@@
schaue
schil@@
schlimmer@@
schlä@@
schule
schönes
ta
teilt
ter-@@
trinken
typ@@
ursprünglich
ven
verbreiten
verfüg@@
versuchte,
wachsen.
weltweiten
weshalb
win@@
wissenschaf@@
wollten.
wundervolle
zogen.
äß@@
überleg@@
"E@@
2005
27
Armen
Bereichen
Bewegung.
Dam@@
Darstellung
Darwin
Eigent@@
Gefängnis
Gesellschaft,
Hat
Häus@@
Immer
Konzep@@
Krise
Lager
Leg@@
Microsoft
Norden
Peter
Politik@@
Potenzial
Raum.
Rechts@@
Sau@@
Sens@@
Spi@@
Spitz@@
Staats@@
Statistiken
System.
Theater
Ton
USA.
Werk
World
Worten,
Zy@@
anden
annte
ansehen
appen
aufbau@@
aufger@@
beacht@@
belieb@@
ber,
berech@@
berechn@@
beschäftig@@
besseres
bezeichn@@
bruch
chst@@
dahin
deten
drücken
eff@@
eil,
eingesetzt
elle,
eln@@
erklären.
erklärt,
ermöglicht,
fantastische
fung
geber
gef@@
genug.
gewal@@
gib@@
grau@@
guck@@
herausfinden
herausgefunden,
hilft,
hätten.
indischen
intelligente
ise
iss@@
issen
itze
klär@@
konsumi@@
kontr@@
langwei@@
lebten
mache,
nam@@
oss@@
over@@
pflanzen
probi@@
profession@@
r,
s."
scheint,
schrei@@
schön,
sig
sind?
siv
sonder@@
stan@@
starken
ständig@@
teuer
tieren.
uch
unde,
ungewöhn@@
unternehmen
untersu@@
uss,
uten
verbessern.
verbunden.
verfolg@@
vergleich@@
verschmutz@@
vir@@
weisen.
wil@@
worauf
wärm@@
y:
zeug
zähl@@
äf@@
8.
Air@@
Anstatt
Auswahl
Autor
Bienen
Designs
Diagramm
Erst@@
Extrem@@
Fall.
Gebi@@
Gegend
Genom
Gründen
Individu@@
Islam
Jahres@@
Kopf.
Korallen@@
Kos@@
Kreb@@
Kris@@
König@@
MIT
Meg@@
Mein@@
Mund
Männ@@
Nase
Nest@@
Obama
Parti@@
Prozent,
Raumfahr@@
Regier@@
Sach@@
Samen
Satz
Schwierigkeiten
Ste@@
Stell@@
Strategi@@
Stücke
Tra@@
Typ@@
Tä@@
Uns
Ursprung
Verlust
Versuch@@
Vertrauen
Wachst@@
War
Wert@@
Wirkung
Wüste
Zeu@@
Ziel,
Zucker
Zur
ache
adi@@
ager
al-@@
amb@@
anstelle
anz,
anzi@@
ativ@@
basierend
beginn@@
besser,
bestand
betrachtet,
betreff@@
blauen
buch
büch@@
chemische
daran.
daten
dent@@
digit@@
dire@@
dischen
doppelt
durch,
ed,
enkt
entfernt.
entstand@@
erforsch@@
ergibt
ernähr@@
erreicht.
etes
ex
explodi@@
fassen.
folgenden
fürs
gebi@@
geln
getrennt
greifen
grundlegenden
hier?
ingen.
istischen
kat@@
kollektiv@@
kümmern
les
lustig
mag,
mann@@
merkwür@@
ner,
nimmt,
onen,
oren,
positiv@@
prakt@@
rat
re,
reduzier@@
regener@@
ring@@
sb@@
schar@@
schlaf@@
schnell,
schöner
sie?
sieh@@
speziell
tat,
technische
ten:
test@@
trenn@@
tritt
uni@@
unteren
untersuchen
uss
verab@@
verbinden
verbra@@
verdienen
vernünf@@
wein@@
wenig@@
wiesen
winzi@@
womit
woran
Überleben
öh@@
.,
..
14@@
Ac@@
Ah@@
Appl@@
Asp@@
Aufnahme
Ausdruck@@
Bakteri@@
Bank
Bereiche
Berge
Darum
Drei
Eins
England
Entwicklungsl@@
Erfolg.
Ernährung
Faktor
Gebäude,
Gesichts@@
Glas
Grafik
Gras
Grippe
Gü@@
Herstellung
Howard
Institut
Jon@@
Kir@@
Klass@@
Konflikt
Lebens,
Mathemati@@
Milch@@
Mobiltelef@@
Müt@@
Nad@@
Nat@@
Nation
Neben@@
Oh
Organ@@
Patient@@
Pfleg@@
Phantom-@@
Pi@@
Port@@
Privat@@
Ruf
Räume
Sachen.
Schnell@@
Schutz
Schwei@@
Second
Ser@@
Serie
Staat@@
Stir@@
Stoff@@
Stra@@
Stör@@
Sym@@
UN@@
Verfüg@@
Verwendung
Weis@@
Wir@@
Würde
X
abgesch@@
aden,
angeh@@
angeneh@@
ansieht,
assen,
ater@@
ath@@
auch@@
aufnahme
befindet.
beherr@@
beit@@
berücksich@@
beunruhig@@
biolog@@
blin@@
brin@@
chem@@
dam@@
de?
dehn@@
doch,
dramat@@
echter
eiten
elektrischen
en".
endste
enorm
entdeckt,
essi@@
est,
fluss
führten
gal@@
gefällt
gehö@@
gekommen.
gel.
genetische
genetischen
gesp@@
gigant@@
groß,
histor@@
inzwischen
irgendjemand
kamen.
klar.
klei@@
komplexen
krit@@
künst@@
langsam@@
lebende
ma,
me@@
mechan@@
meist
mäß@@
mögen,
nor@@
nützlich
passieren,
passiert?
programm
präsentiert
reflek@@
richten,
ron@@
sammeln.
schaften,
scheinbar
schlagen.
schließ@@
schmerz@@
schock@@
schätzen,
selten@@
sorg@@
stellt.
steu@@
still@@
ters
tiefer
trag
unden,
untersuchen,
ve@@
versuche,
viel,
vielleicht,
voneinander
warten,
wird@@
wirtschaft
ysi@@
zige
zweimal
Öffentlichkeit
änder
äumen
öff@@
öse
"O@@
0.
Afrikaner
Amerika,
Anrei@@
Aspekte
Bit@@
Cent
Code
Doktor@@
Einfachheit
Em@@
Emo@@
Entstehung
Entwicklungsländern
Ereignis
Erfinder
Erinnern
Essen,
Evolution@@
Familie.
Flü@@
Form@@
Fossi@@
Gas@@
Gesundheit@@
Gleiche
Große
Harvard
Innovationen
Kameras
Kapit@@
Ker@@
Kont@@
Kulturen
Lauf@@
Level
Life
Mak@@
Metapher
Netzwerk@@
Ob@@
Pinguine
Prinzipien
Quellen
Rak@@
Redwoo@@
S:
Sand
Schlag@@
Spektrum
Spiel.
Staat
Strand
Tiefe
Tri@@
Tro@@
Uni@@
Webseite
Ziel@@
Zuschau@@
aktive
alien
all,
also:
ange
aschen
aw@@
behaupten,
beizu@@
besteh@@
bezahlt
bildung
dahinter
dauer@@
derselben
des.
dien@@
echnologie
eh
en",
entdecken,
erkennt
erste,
erzählt,
existieren
fall.
fein@@
folge
förder@@
füt@@
geboren.
gefragt
geist@@
geschieht,
gesprochen,
heute.
hält.
häss@@
häu@@
höchste
hüb@@
ig,
ik,
interpret@@
jenseits
klassi@@
klin@@
konzentrieren
kreativen
läch@@
mier@@
nehmen@@
ober@@
ologischen
on-@@
projekt
repar@@
ret@@
schwierig@@
sehen?
selten
sollen,
stammt
stärker
system,
systeme
ton
tragen,
uli@@
ult@@
utt@@
vielmehr
vorbereit@@
wandel@@
weiss,
weit@@
wo@@
woher
zeichnen
zeigt.
zentrum
ämpf@@
überzeugen,
üsse
19.
?@@
Abschluss
Ahnung,
Anti@@
Aufgaben
Bildschirm
Boot
Christ@@
Computern
Cra@@
Dün@@
Ende.
Entdeckungen
Entfernung
Erfahr@@
Ernähr@@
Fall@@
Fe@@
Fortschritte
Francisco
Frau@@
Frem@@
Freunde,
Füße
Gang@@
Gefangen@@
Geräusch@@
Heil@@
Ingenieure
Innerhalb
JH:
Kirche
Kompon@@
Kö@@
Leut@@
Market@@
Mehrheit
Metern
Möglich@@
Neuronen
Noti@@
Programme
Punkt.
Rek@@
Schwierig@@
See
Sil@@
Sinne,
Soldat@@
Student
Techni@@
Titel@@
Top@@
Vorstellung,
Wahrscheinlich
Wann
Wissenschaftler,
Wochen@@
Wohlbefinden
aktiven
anschaut,
aster
beispielsweise
bekannt.
beschrän@@
bewer@@
bewäl@@
bietet
circa
cm
dann@@
de-@@
ding@@
drehte
ef
egel
einander,
enspiel@@
entdecken.
entscheiden@@
entschieden,
entspricht
erreich@@
erschi@@
exakt
fab@@
fragte:
fährt
gearbeitet,
gearbeitet.
gebraucht
gerung
geschieht.
grupp@@
gruppe
gäbe
heim@@
höh@@
höheren
ihn,
ina
ingt
isol@@
kompl@@
kostenlos
können?
kümmer@@
lebt.
len
letztlich
lok@@
lokale
mitgli@@
musikal@@
müsste
nachts
nden
nerv@@
of@@
oh
ok,
ou@@
our@@
pag@@
plan
proz@@
schlecht@@
schließen,
schluss
schwere
schwimmen
sich:
sicher.
spieg@@
späten
stru@@
sätze
tigkeit,
ungssystem
ungsver@@
unterstütz@@
untersuchen.
ute
vent@@
verkaufen.
verlangsam@@
verlei@@
verwand@@
vieles
wal@@
werfen,
werfen.
wunderbar
wussten,
wäl@@
wärts
ächen
ön@@
öpf@@
…
"Oh
2008
7.
Analyse
Anführer
Auß@@
Außen@@
Bein
Beste
Bibliothek
Bis@@
Blätter
Brück@@
C,
Cam@@
Char@@
Comput@@
Elef@@
Familie,
Fei@@
Fig@@
Flugzeuge
Fried@@
Fälle
Gehirne
Geschäfte
Gipfel
Hand.
High
Hot@@
Häuser
Inspiration
Irgend@@
Kühl@@
Lang@@
Literatur
Mahl@@
Minuten.
Miss@@
Mitarbeiter
Mode@@
Mond@@
Musik.
Nachbarschaft
Nahr@@
Natur,
Normalerweise
Off@@
Origami
Patient
Pra@@
Präsent@@
Psychologie
Schule,
Sign@@
Spe@@
Spen@@
Stiftung
Stär@@
Technologien,
Temp@@
US@@
Uganda
Universum,
Unter
Untersuchung
Vater,
Versuch,
Viertel
Welten
Werden
Zei@@
ach,
age,
also.
altes
ament@@
anne
arti@@
ausschließlich
außergewöhn@@
baute
beginnt,
besag@@
beschreibt
besitz@@
bestä@@
bewegung
bit@@
bringe
darf
darunter
dau@@
deinem
dick@@
durchgeführt
ei.
eien
entfern@@
erschreck@@
esse
eter@@
ewi@@
flog
g-@@
ganz@@
geni@@
gericht@@
geseh@@
gesetzt,
gezogen
go
hau@@
hef@@
heisst
herauszufinden
herein@@
ickel@@
id@@
informi@@
itt,
kannte
keits@@
kommunizieren
linke
lächer@@
malen
möcht@@
möchten.
nannte
näch@@
oc@@
ogen.
oll
ologi@@
ont@@
pon@@
produzieren.
ragen,
richtig.
rige
sahen,
schalten
schließt
schte
sions@@
sit@@
standen
starb
steigen.
stieg@@
tragen.
umso
und.
verglichen
verursach@@
werden."
wörtlich
zz@@
äft@@
„Ich
♪
'.
-K@@
-L@@
Ameise
Antwort@@
Arm@@
Augenblick
Auswahl@@
B.
Beispiel:
Blogs
Brief
Buchstaben
Chi@@
Clu@@
Deutschland
Eltern,
Emp@@
Erfahrung.
Erforschung
Exper@@
Fakten
Flugzeu@@
Fokus
Folgen
Form,
Form.
Frauen.
Fru@@
Fünf
Gebiete
Gedanken,
Gespräch
Gore
Haus.
Hinblick
Indem
Infek@@
Inhalte
Jahrzehn@@
Kab@@
Kalifornien
Kapital@@
Koch@@
Kommun@@
Kunst,
Letz@@
Link@@
Mensch,
Milliar@@
Mutter@@
Nah@@
Num@@
Nutzung
Ok.
On@@
Opfer
Platt@@
Poly@@
Problems
Prof@@
Qual@@
Rätsel@@
S.
Schatten
Schne@@
Signal
Spaß.
Spiegel
Statistik@@
Steven
Sä@@
Technologi@@
Tim@@
Trends
Valley
Veranst@@
Verlauf
Vier@@
Vogel@@
Vorstellungskraft
Vorteil
Werbe@@
Witz@@
Wun@@
Zeitraum
Zukunft,
ain@@
ami@@
arm
aufgebaut
bal@@
ball@@
bedroh@@
berfläche
brach
bricht
den."
denen,
depres@@
des,
dokument@@
eingel@@
eins,
eni@@
enten.
enzi@@
erscheint
ets
fig@@
gehabt
gehören
gekommen,
genie@@
gerät
gesunden
gewesen,
gewinnen,
gewissermaßen
gewonnen
geworfen
hinsichtlich
human@@
ik.
infizier@@
inklusive
interessiert.
internationale
invest@@
iten
itt.
jemanden,
langsamer
leichter
licherweise
lie@@
lieben,
liegen,
lust@@
mals
maßen
medizinischen
mer.
nahmen,
neig@@
netz@@
o:
ogi@@
ograf@@
ore@@
organis@@
plötz@@
port@@
reit@@
ric@@
riffe
riffen
sage:
same
schicken.
schlecht.
schwarzes
schützen.
sis
stehe
techn@@
tel
tionen.
tran@@
töten
unge@@
unterschiedlich
untersucht
verfolgen
verkauf@@
verlieb@@
verwandel@@
wachsen,
wird?
wirken
wunderschöne
zept@@
zeug@@
zug@@
zun@@
zurückkehr@@
Änderungen
Ökosystem@@
äst@@
übri@@
“,
$@@
Anim@@
Archit@@
Artik@@
Atem
Aufbau
Augen.
Berat@@
Beweg@@
Boden@@
Charakter@@
Chines@@
Darauf
Darüber
Depres@@
Diszipl@@
Erstaun@@
Erstens,
Flugzeug@@
Fort@@
Fragen.
Freundin
Frieden
Gegenwart
Gehirn,
General
Gerechtigkeit
Gerät,
Geschicht@@
Gesichter
Glamour
Großmutter
Haare
Hau@@
Haut@@
Hey,
Innen@@
Interaktion
Jap@@
Jugend@@
Ka@@
Kleb@@
Klima
Komm@@
Korallen
Korruption
Krieges
König
Larry
Lek@@
Licht,
Mag@@
Magi@@
Mehr@@
Mel@@
Methode,
Mom@@
Moment.
Musli@@
Offen@@
Ordnung.
Probleme.
Programmier@@
Ray
Rich@@
Sag@@
Sagen
Show
Stock@@
Symmetrie
Sü@@
Techn@@
Tor@@
Treffen
Träume
Universum.
Waffen
Wahrnehm@@
Willen
Wunder
Yo@@
Zeitalter
ade@@
aden@@
allen,
angeb@@
anik
anscheinend
api@@
aten,
außerord@@
ax@@
beeinflussen
begrün@@
behandel@@
beinhaltet
bekannt,
bereit,
besessen
betreib@@
bildet
billi@@
blieb
britischen
dit@@
dran@@
dung.
echtes
eile
ellen,
ement@@
ener@@
entworfen
erfinden
erwart@@
fest.
fluss@@
folgt
formen.
fragt,
froh,
fügt
gebor@@
gefühl@@
gelang@@
gelangen.
geschlossen.
geschrieben,
gestalten.
gewöhnlichen
greifen,
hast,
hatt@@
hervorra@@
heut@@
hundert@@
höchsten
ia
ide@@
irgendwelche
ischerweise
itäts@@
jeweils
kreative
küste
landen
lebe
letzter
lieg@@
ließ@@
line@@
magnet@@
metho@@
mitteln
normal
normal@@
ogramm@@
ohn@@
ole
one,
org@@
part@@
passierte.
physische
prech@@
preis
ration@@
regier@@
roll@@
sagen?
satz,
schauten
schnelle
schrieb@@
schrit@@
schöpf@@
seid
sein."
selb@@
sicht,
so?
sprach@@
spüren
sto@@
suchte
symmet@@
t"
trink@@
ungst@@
ursprüngliche
verr@@
versteht
vertraut
vieler
vierte
visuellen
volles
weltweite
wiss@@
zeit,
zen.
zentrale
zusätzlich
zweit@@
zwis@@
zählen
äd@@
ät.
überwälti@@
übrig
ühr@@
2,
20.000
5,
Anwend@@
Appar@@
Aqu@@
Aufgab@@
Bedeut@@
Benutz@@
Bett
Bewusst@@
Bildung.
C.
Chancen
Chemik@@
Chemikalien
D-@@
Danke,
Debatte
Dek@@
Design.
Dinosaurier
Durchschnitt
Erinnerung
Fo@@
Foie
Garten
Gegenden
Gemeinschaft,
Gleichung
Handys
Hir@@
Hor@@
Hunde
Ih@@
Inn@@
Insel@@
Inseln
Instrument
Instrumente
Jedenfalls
Karri@@
Kindes
Kohle
Krank@@
Krebs@@
Kurz
Körpers
LG:
Lan@@
Leit@@
Martin
Medikament@@
Moral
Mün@@
Oran@@
Park
Pen@@
Por@@
Q@@
Regel@@
Religionen
Res@@
Risiken
Rot@@
Schil@@
Scho@@
Schwar@@
Sonnensystem@@
Standpunkt
Stat@@
Stein
Telef@@
Transport@@
Unternehmen,
Vögel
Weltraum
Wetter@@
Woh@@
Währ@@
Zerstörung
alisierung
angen@@
assi@@
avi@@
befrei@@
bemerkenswerte
beschei@@
beschreib@@
beschreiben
beschrieb@@
brechen.
dimension@@
drehen,
dy@@
eilen,
ekt,
elle.
endi@@
enes
enten,
erb@@
erkannte
erscheinen
erstellt
fand.
fantast@@
fig
folgen@@
fort.
führenden
gegangen,
gend,
gere
geschrieben.
geschwindigkeit
gesti@@
geteilt
gewöhnliche
grossar@@
gur@@
heirat@@
heiße
herstellen.
häus@@
ident@@
irgend
istische
itten
jem@@
kein@@
kleb@@
konzentrieren,
leben@@
lenk@@
lig.
mach
manipuli@@
markt
me.
mehreren
mern
mische
mitzu@@
musste.
niedri@@
nisse,
nör@@
perfek@@
perfekt
platz@@
popul@@
ps
rad@@
rebs
retten,
richtungen
samkeit
sauber@@
schluss@@
schreckliche
spiel
st?
steigen,
stol@@
stän@@
stütz@@
sw@@
taten,
treff@@
tö@@
uh@@
ulen
unterschied@@
verlieren,
veränderte
vielfäl@@
wass@@
weiß.
werden@@
wort@@
währ@@
zeichen
zeichnet.
zeit.
zimmer
zufäl@@
zunehmen@@
zweites
zy@@
Ökon@@
äger
öffn@@
"Hey,
0,
15@@
2007
21
65
Abhängigkeit
Apple
Arten,
Baumkron@@
Bildung,
Biosphäre
Brust@@
Bundes@@
Chin@@
Detail
Dienst
Dingen.
Dollar-@@
Erkenntnis
Erlebnis
Eu@@
Feuer@@
Flieg@@
Foli@@
Fu@@
Gh@@
Hunderte
Hunger
Koloni@@
Konsu@@
Kä@@
Küch@@
Lö@@
Mangel
Modell,
Momente
Märkte
Oberfläch@@
Oberflächen
Pau@@
Perspektiv@@
Preise
Projekt.
Redu@@
Richtungen
Schle@@
Schnitt@@
Schwarz@@
Sinn.
Sl@@
Still@@
Stu@@
Süden
Tau@@
Train@@
Vö@@
Wegen
Whit@@
Wieder
Wäre
Zentral@@
Zeug,
Zun@@
Zweitens
ale.
an:
anf@@
ate,
ate@@
ationalen
atives
atm@@
aufgewachsen
ausger@@
außergewöhnliche
bauten
bekannte
bericht@@
betrifft,
biz@@
bt,
dann?
dar.
derer
dir@@
draht@@
dreidimension@@
drin
dring@@
eindeutig
einst
einziges
ele
ell.
enormen
enr@@
erfunden.
erschaff@@
erstaunlichen
esen,
et?
existier@@
existiert.
falschen
fläche
flüs@@
fra@@
gebeten
gegründet
gelassen
gert
gerweise
gestell@@
gewalt@@
glaubt,
glichen
grenz@@
haben:
haltung
heißen
här@@
häufig@@
ica
ihm,
ings
innere
inneren
investieren
isch-@@
ju@@
jähr@@
k-@@
kaufte
keinem
klasse
kontrollieren
kra@@
kä@@
kündig@@
machen."
material
misch@@
mittel,
mp@@
nann@@
nen@@
nett@@
nä@@
och
ok.
one.
p,
passen,
passierte,
potenti@@
prei@@
prozess@@
r.
reak@@
recht.
reib@@
sah.
schlimmsten
schon@@
schutz
schwer.
schwierige
seg@@
sigen
sorgen,
spät
st."
such@@
teu@@
tun@@
tägliche
ug@@
unten,
unterhalb
unterstützen
vari@@
ver
verkün@@
verlor@@
vern@@
verpflicht@@
verschieden
verschiedener
versor@@
verwendet.
vorzustellen,
warum.
was.
weißt
wählen,
x,
zen,
zerstört
zeuge
zieren
zunehmend
zusetzen.
Überall
ärm@@
ästh@@
öhn@@
ül@@
"P@@
"Und
120
2006
Anfän@@
Anru@@
Anstieg
Anti-@@
Architekt
Arme
Aufmerksamkeit.
Belohn@@
Beobacht@@
Bilder,
Biologen
Blumen
Bö@@
Chem@@
Comic@@
Detail@@
Dienst@@
Dinger
Dutzend
Elektr@@
Element
Emissionen
Entfern@@
Ereignisse
Erstens
Frank
Fun@@
Fut@@
Gegenteil
Gerä@@
Gesundheitswesen
Gewebe
Großen
Gut
Hai@@
Hal@@
Hier@@
Hirn
Hoffnung,
Impfstoff
Install@@
Intellig@@
Internet.
Itali@@
JA:
Kapital
Knochen@@
Kolonie
Kraft,
Königin
L
Lebenserwartung
Liebes@@
Lini@@
Luft.
Mac@@
Male
Medikament
Medium
Mei@@
Metho@@
Million@@
Minist@@
Mio.
Mitglied
Moder@@
Muse@@
Nachhal@@
Ohr@@
Ohren
Pan@@
Pap@@
Physiker
Produkt@@
Proz@@
Punkt@@
Quanten@@
Religion@@
Respekt
Rom@@
Schritte
Schwein@@
Sek@@
Stahl@@
Stim@@
Strategie
Tech@@
Teleskop@@
Toten
Tradi@@
Tradition
Twitter
Uhr@@
Unterhaltung
Versuchen
Werkzeu@@
York,
Zehn@@
Zucker@@
abhängi@@
ade,
alen,
alisiert
anden,
anfing,
anfän@@
angel@@
argument@@
arten.
artige
ash@@
ate.
bedi@@
begannen,
bemüh@@
bereich
besagt,
bevorzu@@
bitte.
blo@@
blüh@@
brachte.
dazu@@
denselben
diert
dunklen
durchzu@@
echn@@
einbe@@
einen,
ektor
en-
endung
ennt
enswer@@
ers,
etik
etr@@
fe@@
fehlt
flug@@
gen:
genaus@@
günst@@
haben."
handeln.
heis@@
herstell@@
hie@@
hieß
hinauf
ine,
inform@@
interessieren
irgendeinem
irgendeiner
ition
kommerzi@@
konkur@@
kontrollieren.
kosten@@
kü@@
ländlichen
ma.
mathemat@@
mittleren
mmer@@
mus.
nebenbei
neg@@
o?
offizi@@
physischen
problem
probleme
produzieren,
radi@@
region@@
riesiges
risk@@
schlimmer
schuldig@@
seltsam@@
sionen,
spektakul@@
sper@@
spreche,
sta@@
steigen@@
ster.
stimmt.
stor@@
stri@@
struktur
stück
tiv
toll,
toll.
treiben
ungeheuer
uns@@
verbrauch
verk@@
verl@@
verlieren.
verschwinden
versich@@
verstanden,
versteck@@
verstehe
vertr@@
verwend@@
virtuellen
warten.
wasser@@
wem
wid@@
wie@@
wohner
ziem@@
zunehmen.
Ärz@@
ärmsten
öffentlich
öffnen.
"R@@
-D@@
250
700
Altern@@
Angebot
Angst,
Anruf
Antwort.
Bedarf
Bedrohung
Berechnungen
Bericht
Bibliothek@@
Budget
Bäum@@
Dazu
Demokrati@@
Dorf@@
Eck@@
Effizienz
Einheit
Epidemi@@
Erschein@@
Exist@@
Frankreich
Funktionen
Führer
Gas
Gefängn@@
Gem@@
Geni@@
Gesell@@
Gott.
Grafi@@
Gri@@
Gruppe,
Gän@@
Herausforderung,
Himm@@
Hotel
Identität
Ingenie@@
Insekten
Investitionen
Konstru@@
Konzer@@
La@@
Laptops
Lau@@
Licht.
Löcher
Magn@@
Maschin@@
Mitarbei@@
Mitglieder
Nerv@@
Origin@@
Person.
Persön@@
Raub@@
Rechte
Region@@
Reserv@@
Rus@@
Röhr@@
S-@@
Satellit@@
Schimpan@@
Schlu@@
Schri@@
Schuhe
Sicher@@
Skulpt@@
Speich@@
Spiegel@@
Start@@
Stur@@
Temperatur@@
Theori@@
Umfeld
Ungefähr
Ungleich@@
Up@@
Urkn@@
Ursprün@@
Vent@@
Verbrauch@@
Verbrechen
Vergnügen
Verschw@@
Vielzahl
Vogel
Vorstell@@
Vorträge
Völ@@
Wasserstoff@@
Weihnachts@@
Wein
Weisheit
Welches
Wett@@
Winter
Wissenschaftlern
Wohlstand
Wort,
Zivilis@@
afrik@@
aktivi@@
all.
ande
atik
att
au,
bedeck@@
begriff@@
bei.
besa@@
beschloss
besitzen
beweisen,
brauch
bt
cht?
darstell@@
dende
derung
drückt
dung,
eb
ee
eg
eil.
ektion
endsten
ennen.
entdeck@@
entstand
erfahr@@
erforschen.
erlang@@
erlebt
ermutig@@
erweise
es."
euren
fach
fal@@
fang@@
fassung
fe.
feststellen,
frü@@
früheren
fuhren
gebeten,
gebiete
gefl@@
gehe,
gelangen,
gemacht@@
genau@@
gend.
gesell@@
getroffen,
gewähl@@
grös@@
größe
gs
gung
gängi@@
halben
handeln,
hoffnungs@@
hü@@
imit@@
inmitten
insgesamt
io
isse
iz@@
jenen
kel@@
klassische
kommenden
komplizierte
konzentriert
kreativ
kul@@
kämpfen
kö@@
lach@@
lernt
ley
meinen,
mung
nahezu
niem@@
ogen,
oper@@
ordnung
osphä@@
ot
positiv
produzier@@
religi@@
rufen,
satz.
scher@@
schlimm@@
schlägt
schrieben
sinni@@
sorgen
spru@@
stat@@
studieren
stärk@@
t!
tatsächliche
teilung
traditionelle
trat
trop@@
umgehen
umgekehr@@
ung"
unterhalt@@
unterstützen.
unver@@
ure,
uss@@
ut,
ut.
verbinden.
verknüpf@@
vermehr@@
vorhin
we@@
weite
y"
zeichnen,
zimmer@@
Ö@@
übertragen.
17.
2001
26
9.
AR@@
Absicht
Anerkennung
Angestell@@
Annahme
Arbeiter
Archi@@
Ba@@
Baby@@
Ball
Bandbreite
Beruf@@
Bestimm@@
Bien@@
Brian
Bäumen
Cha@@
Chri@@
Computer-@@
Dach
Dann,
Deb@@
Earth
Ed@@
Elektriz@@
Erinner@@
Explosion
Film,
Fir@@
Gebäu@@
Geist@@
Geistes@@
Gemeinden
Gemeinschaften
Gerü@@
Geschäf@@
Gewinn
Git@@
Glaub@@
Glei@@
Gleichgewicht
Hab@@
Hans
High@@
Hilf@@
Höhepunkt
Impf@@
Ja@@
Jahrzehnt
Juli@@
Kampf@@
Katastroph@@
Kevin
Kind.
Kohlenstoff
Kommunikations@@
Kontak@@
Lauf
Lektion
Ländern.
Mad@@
Mechan@@
Moral@@
Motor
Musiker
Niveau
Null
Pet@@
Phot@@
Popul@@
Presse
Prü@@
R
Reb@@
Richtige
Schokol@@
Simul@@
Spiel,
Sprache,
Steine
Stephen
Steu@@
Steuer@@
Stimmen
Streck@@
Säu@@
Treff@@
Unabhängi@@
Verh@@
Verk@@
Veränder@@
Videospiele
Volk
Vorteile
Wach@@
Werb@@
Wirtschaft,
Wissen,
Wisst
Ye@@
Zug
allzu
angefangen,
anz.
arbeitung
are@@
aufen
beantworten.
behalten
beinhalt@@
bemerkt
benutzt,
berührt
besei@@
betrieb@@
blas@@
bleib@@
bro@@
chemischen
chinesischen
darstellt.
denn,
diges
dran
dum@@
ebi@@
ehmen
ektiv@@
el-@@
emotionale
enthüll@@
ermöglichen
erreicht,
erwarten,
erzeugen,
et:
etw@@
eur
fall,
flüssig@@
folgen.
freiwil@@
funktionieren,
gebro@@
gebrochen
gefallen
gefährlich
gestimm@@
getan,
gif@@
glücklich.
grundleg@@
gründete
gänge
halte,
herausgefunden
herstellen,
hinunter@@
hält@@
hörten
ik
illeg@@
in-@@
investieren,
irdischen
jag@@
kaput@@
kennen@@
kompliziert
kraft,
kulturellen
künstler@@
lange,
lautet
lebendig
lebt,
leidenschaft@@
mit.
mussten,
mögen.
nationale
neulich
nimmt.
not@@
okay,
ologisch
oph@@
opti@@
passt.
ppen,
produktion
reale
rechn@@
repräsentiert
saßen
schaut,
schlechtes
schläge
schä@@
sicht.
spielt.
springen
später.
stes
stimmen
strö@@
suche
sweise
syn@@
system.
teur@@
tiert,
tions@@
tlich
umher@@
umm@@
undes
unend@@
veranst@@
verd@@
verfolgt
verkauft.
verschieden@@
versorg@@
vier,
winzigen
wirt@@
wuer@@
wundervollen
zelle
zunehmen,
zusetzen,
zusätzliche
Änderung
Ökonomen
ächt@@
ältesten
änge
ös
übertragen
"Aber
"Okay,
$
',
..."
2.000
2.@@
23
50.000
6.
800
Adr@@
Akti@@
Ali@@
Amat@@
Anwäl@@
Ara@@
Asi@@
Ausrüstung
Australien
Band
Betr@@
Blei@@
Blickwinkel
Blät@@
Brasili@@
Buch.
CE@@
Chemie
Chr@@
Cl@@
College
Com@@
Deck@@
Dies@@
Dollar@@
Eigenschaft
El
Erfind@@
Erwachsenen
Experten
Freiwil@@
Frequ@@
Gall@@
Gebrauch
Gedanke,
Geheimnis
Gelegenheit,
Genom@@
Gru@@
Grü@@
Guten
Hard@@
Heutzutage
Hi@@
Hunder@@
Hyper@@
Hör@@
Informationen,
Jahrzehnte
Jetzt,
Journ@@
Kampagne
Kenia
Kerl@@
Kolum@@
Komm
Krankenhäus@@
Könnte
Körper.
La
Lux@@
Magazin
Mann.
Milli@@
Mutter.
Neb@@
Nein@@
Nu@@
Nähr@@
Online-@@
Open
PC@@
Pollen
Population
Proben
Prozess,
Publik@@
Reaktionen
Restaurant
Rover
Saturn
Schnee
Schon
Schwimm@@
Sicht@@
Sichtweise
Softwar@@
Stadi@@
Stift@@
Studio
Symbol
Tasche
Teil,
Umständen
Vit@@
Volks@@
Vorder@@
Wähl@@
Wör@@
Wörter@@
Zuhör@@
abil@@
akadem@@
akti@@
alem
alisieren
allen.
anders,
ansehen.
atom@@
b,
b.
ba
bell@@
bemerken
benötig@@
beobachten.
ber.
beschrieben
bewusst.
bezahlen
bitte,
breiten
bru@@
bt.
bur@@
ce.
darauf.
diese,
dig.
dustrie
einander@@
eingesch@@
ekt.
ement
engl@@
entdeckte
entwerfen.
erhalt@@
erkrank@@
erungen
ester
etten@@
extra@@
fassen,
formi@@
fragen.
fällen
garanti@@
gebiet
gedacht
gegensei@@
gekauft
gesagt.
geschickt
geschütz@@
gesellschaft
gewöhnlich
glücklicherweise
gros@@
großartig
großartiger
große,
grundlegend
handelte
hem@@
hielt,
hielten
hoffen
ie,
ier,
infiziert
interessant@@
interessantes
ite
itt
itz
kommen?
komplette
konzentrier@@
kreu@@
kurzer
kör@@
leisten.
leistungs@@
leiten
liger
linie
machst
markt@@
mich:
multi@@
my@@
natur@@
nenne.
ner.
nämlich,
ol
onie
oren.
pel@@
prim@@
reagier@@
realist@@
reff@@
reise
romant@@
sc@@
schnell@@
schreibt
schüt@@
sex@@
sfähig@@
sichtbar
sitzen,
spiele
statt.
sterben@@
test
tiert.
treibt
uck@@
umgeben
unbe@@
unendlich
ung."
ungeh@@
unglaub@@
ursprünglichen
verbessert
verbringen,
vergleichen
verhindern,
verrückt.
verstär@@
verteilt
wahren
wander@@
wir?
wissenschaftler
zeich@@
zentralen
zir@@
züge
Überzeug@@
änden
äume
ökonomischen
über,
überall.
übernehmen
ügen
-P@@
0,@@
3,@@
4,
99@@
?",
Afrikan@@
Aktion
Alkoh@@
Alters@@
Barri@@
Basi@@
Betrachten
Bran@@
Brü@@
Chicago
Colleg@@
Comics
Diam@@
Elektron@@
Erste
Et@@
Felsen
Figur
Flug
Fran@@
Fün@@
Ganzen
Gebiet,
Gebäuden
Geck@@
Gewinn@@
Globalisierung
Goldene
Größen@@
Haar@@
Haiti
Hoffn@@
Hon@@
Höh@@
Indiens
Intuition
Jahrhunder@@
Job@@
Kategori@@
Konsequ@@
Konsumenten
Krab@@
Kreuz@@
Kräf@@
Ky@@
Köni@@
Könnten
Liebe.
Mach
Meere
Meet@@
Metaphern
Methoden
Neues
Pakistan
Preis@@
Prin@@
Projekten
Prozent@@
Präsident@@
Präsidenten
Rechner
Reich
Richt@@
Rohstoff@@
Schaltkrei@@
Schiff
Schnitt
Schuld
Sequ@@
Sher@@
Sin@@
Sklav@@
Spann@@
Sprache.
Strahl@@
Streben
Syn@@
Tagen,
Ther@@
Toil@@
Training
Transistor@@
Treib@@
Typ,
Täusch@@
University
Unterstütz@@
Urheber@@
Verteilung
Vertr@@
Viel
Viertel@@
Vorher@@
Wander@@
Wasserstoff
Wege,
Weiter@@
Welle
Weltraum@@
Würden
York.
Zentr@@
Zü@@
],
ah,
ahnen
ail@@
allgemein
allgemeinen
am.
andel@@
anderes,
anfangen.
ang,
annehmen,
aufbauen
aus:
ausbreit@@
bedeuten
befinden,
bei,
belast@@
beobachtet
berühmten
beschwer@@
beschütz@@
besorgt
besuchen
bieten.
bildet,
bitten
chinesische
chmal,
chter@@
chts@@
cle@@
dauern@@
drücken,
echni@@
eder,
einmal.
einmal@@
ennen,
entgegen@@
entliche
entschlos@@
erforschen,
erfreu@@
erie
erkann@@
erstellen,
erzi@@
faszinierende
flug
formuli@@
frustri@@
fundamentale
gefährliche
gehend
gen."
gerettet
geschlagen
gestalten
gewonnen.
gewählt
glauben.
glücklich,
hoffen,
häl@@
icken
identifizier@@
ie.
iere
ierende
ige,
ihr@@
industrielle
installi@@
it,
jeder,
katastrop@@
klag@@
kleine,
konzep@@
korre@@
kraft.
kräf@@
kte,
käm@@
liefert
lä@@
medizin@@
messen.
müssten
nahmen.
nationalen
neu.
neuesten
niemanden
oft,
ogra@@
ogramm
oi@@
organisiert
other@@
pe
pli@@
pres@@
pun@@
raub@@
raus,
reicher
rem@@
riechen
sach@@
schaffte
selbstverständlich
seln
sequenzi@@
sige
sinn
son,
sozialer
starten
stein@@
städtischen
stücke
teste
tot
trafen
trotz@@
täglichen
ums,
un,
uss.
ut
verbor@@
verdamm@@
vergessen,
verkaufte
verlassen,
vernetz@@
vollständig@@
vorbei.
vorhanden
werdet
wich@@
willst
winzige
wohlhab@@
wozu
ystem@@
zeige,
Ökosystem
Üb@@
äufer
überrascht
ürz@@
"Mein
"Wissen
%.
--@@
.000
1,
2003
3-@@
Akt
Angst.
Anthrop@@
Asien
Aust@@
Autoren
Beding@@
Beinen
Bemerk@@
Blatt
Blau@@
Bom@@
Boston
Brasilien
Brüder
Bus
Cal@@
China.
Cre@@
Dadurch
Dank,
Demon@@
Ding,
Dinosauri@@
Ei@@
Einstellung
Empf@@
Erwartungen
Etwa
Europ@@
Flasche
Fläche
Flüssigkeit
Fur@@
Gebäudes
Gefahr@@
Gemälde
Genau@@
Geräusch
Geräusche
Gespräch@@
Hause.
Heli@@
Hilfs@@
Hitze
Ig@@
Inneren
Interview
Kapitalismus
Kartoff@@
Katz@@
Kerz@@
Klini@@
Kno@@
Konsequenzen
Konzepte
Kunst.
Kurz@@
Köpfen
Künst@@
Lab@@
Lam@@
Laufen
Logik
Länder.
Macht,
Marke
Material,
Medik@@
Menschlichkeit
Mexiko
Mini@@
Mitgli@@
Mobil@@
Mr.
Muster.
Näh@@
Oder,
Orbit
Paar
Pak@@
Personen,
Pflanzen,
Phant@@
Pyramide
RI@@
Rat@@
Rechen@@
Ressourc@@
Rhythmus
Saal
Sar@@
Schaf@@
Schicht
Schicksal
Sie:
Silicon
Sing@@
Sir
Spa@@
Spezies,
Sprech@@
Staaten.
Stick@@
Stil
Straßen@@
Strukt@@
Stufen
Stärke
Subst@@
Summe
Symptome
Szene
Technik,
Tot@@
Trans@@
Universum@@
Unsicher@@
Unterschied.
Verein@@
Verlu@@
Vo@@
Waff@@
Wandel@@
Weltkrieg
West
Wörterbuch
Zellen,
Zentimeter
Zigar@@
abhän@@
absolute
ah.
ak
aktuellen
alten.
amin@@
ammer
anc@@
ann,
anschauen.
arbeite,
arm@@
atz
aufgenommen,
aul@@
ausgeb@@
ausgesetzt
auslän@@
aussehen,
authent@@
bat@@
begeister@@
beides
beruf@@
beschlossen
besonderen
bezahlen,
bieten,
bilder
billiger
bom@@
brachte,
brilli@@
bung
bü@@
chaot@@
cool.
das?"
dest
dort@@
draussen
dreimal
dro@@
dungs@@
e's
eidig@@
eingeladen
einzel@@
endet.
endete
englischen
enthält
entsteht.
erforschen
erhielt
erhöht
erwis@@
exist@@
fang
fangen,
ffen
fress@@
fän@@
gedacht.
gedank@@
gefragt:
gelö@@
geren
geru@@
geschaffen,
geschafft,
gestalten,
gesunde
gewissem
gewähr@@
gleich,
glückliche
großar@@
großartiges
größeres
halt,
heutige
hilfe
holen,
hät@@
indische
izi@@
kleinere
klop@@
koll@@
konzentrieren.
kunft
legte
licher,
licht@@
lief@@
lier@@
militä@@
mittel.
mus,
mussten.
nannten
neigen
offensichtlich,
ographie
ologen,
orit@@
pal@@
perfekten
positiven
prinzi@@
privaten
prot@@
punkte
quelle
ral
rational
richtet
riff
rus
sagt.
schicht
schickte
schlau
schlau@@
schlech@@
schlug
schrecklich
schreit@@
seltsam
sitz
sogenannte
spl@@
stands@@
stein
stellungen
ster,
stets
streit@@
stün@@
stür@@
tat.
technisch
tiefe
tiefen
tolles
toren
u,
ums@@
under@@
une
unmöglich.
unterscheiden
verbracht
verdienen.
vereinfach@@
vergess@@
vertik@@
verwandeln.
vielmals.
virtuelle
vort@@
vorwärts
weiger@@
welt.
wirft
wohl,
wunderschönen
wässer@@
zeigten
zogen,
zustellen,
zuverläs@@
zweieinhalb
Ära
Ök@@
änderte
äter
öß@@
üft@@
-St@@
.com
00
193@@
2-@@
A.
AIDS-@@
Angriff
Auff@@
Aufnahmen
Auto.
Autob@@
Automobil@@
Bab@@
Bereich,
Berühr@@
Besitz@@
Besonder@@
Betracht@@
Blum@@
Bor@@
Brem@@
Bäck@@
Charak@@
D.
Dun@@
Eltern@@
Feind
Fettleibigkeit
Frank@@
Frau.
Gericht
Geschichtenerzähl@@
Gesellschaft.
Gesundheit,
Ham@@
Haus,
Hintergr@@
Hoffnung.
Hol@@
Holz
Interak@@
Interessen
Jahrhundert.
Jer@@
Jim
Johnson
Jäh@@
Kambodsch@@
Kapitel
Kontex@@
Kopf,
Krankenschwest@@
Kreisl@@
Kurve
Kurzem
Körper,
Lar@@
Lehre
Leiden
Liber@@
Links
Lösung,
Mathematiker
Militär
Mischung
Männchen
N
Neuig@@
Neut@@
Oli@@
Operation
Photos@@
Pock@@
Produk@@
Projekte,
Rah@@
Rand@@
Raumschi@@
Regen
Regierung,
Reich@@
Rick
Roboter@@
Roman
Roten
Ruanda
Schaden
Schauspiel@@
Schriftstell@@
Schwanz
Schäd@@
Situationen
Skulptur
Somit
Statistik
Steck@@
Street
Strö@@
Systems
TED.
Tats@@
Tauch@@
Teleskop
Teppi@@
Theorie,
Theorien
Tiefse@@
Tja,
Tode
U-Boo@@
Umgang
Videospiel@@
WK:
Wale
Waren
Was,
Wiederauf@@
Winter@@
Wissenschaft.
Witz
Zeug.
Zimmer@@
Zuhause
Zut@@
[
a?
abgesehen
agi@@
ahr@@
ais@@
anders@@
angeht,
anget@@
arch@@
are,
asp@@
ationale
aufregend
ball
benen
beschaff@@
beschreiben,
besucht
betrachtet.
bitten,
blick
britische
ci@@
cl@@
cool
dauern
definitiv
drinnen
ea
ebene
ehmen.
eile,
eingeführt
eingeschrän@@
einzigar@@
ek
ellen.
energi@@
engagier@@
er."
era
ere.
erfolgrei@@
erien
erlauben,
ermöglichen.
erneuer@@
erst,
erwähnt
eröffn@@
es"
esie
fantastischen
fasziniert
fer,
flexi@@
folgen,
front@@
gefahren
gehalten.
gemacht?
gemeinnüt@@
genannt,
geplan@@
geri@@
gern.
geschick@@
gesu@@
glaubte
großartig,
gänz@@
harte
hoher
ihr.
intern@@
interview@@
irgendein
irgendwas
italien@@
kei@@
kling@@
knapp
kommunizieren.
kompon@@
konvention@@
kreieren,
l,
land.
leiden
lied,
lle
lor@@
läuft,
mache.
nachhaltige
nirgend@@
offene
on:
optimist@@
osphäre
pft
polit@@
pri@@
priv@@
punkt.
quellen
ra,
ra.
ram@@
reck@@
reisen
reiste
religiöse
runter.
schließlich,
schmut@@
schwimm@@
sen:
sieb@@
siert.
skal@@
sofor@@
sorganis@@
statist@@
stration
strukt@@
stände
sur@@
sym@@
tags@@
tierte
tre@@
tur@@
ueber
ungser@@
unken
unt@@
unterstützt
usi@@
verbracht,
vermeid@@
versamm@@
verschi@@
versteckt
veröffent@@
voran@@
vorhand@@
weich@@
wert.
wirkt
wuß@@
wört@@
ypt@@
zahlt
zerstören
zurecht@@
zusätz@@
zwar,
Älterwerden
Überrasch@@
übereinstimm@@
üll@@
"F@@
"Naja,
1,5
1-@@
10,
13@@
20-@@
2004
3.000
30.000
8,
Abstand
Acht@@
Ag@@
Algorith@@
Alter@@
Apart@@
Aufstieg
Auseinander@@
Autos,
Beitrag
Besitzer
Betriebs@@
Bevölker@@
Bilder.
Boot@@
Brennstoff@@
Carto@@
Center
Chirur@@
Denkweise
Denn,
Designer,
Digit@@
Dimen@@
Diskus@@
Dok@@
Dokum@@
Dör@@
EC@@
Einmal
Energie.
Entwicklung.
Erwachsene
Europa.
Fabrik@@
Fant@@
Fertig@@
Feuerwehr@@
Film.
Finger@@
Fläch@@
Folgendes
Fähigkeiten,
Geschmack@@
Geschäft@@
Gesicht@@
Gesundheitswes@@
Gramm@@
Halb@@
Handlungen
Hill@@
Homo
Hüh@@
Initi@@
Internet,
Island
Kapaz@@
Kell@@
Knopf
Korrup@@
Krimin@@
Krähen
Kü@@
Lebensmittel@@
Lebensraum
Leiter
Log@@
London@@
M:
Macht@@
Mittelpunkt
Männer,
Nas@@
Offensichtlich
Onkel
Orig@@
Oxford
PC
Pingu@@
Plak@@
Pocken
Poll@@
Pop@@
Rat
Regeln,
Reichweite
Rhyth@@
Robo@@
Rückseite
Schaff@@
Schulen,
Seg@@
Sexu@@
Sno@@
Stap@@
Status
Sterb@@
Stern
Sternen
Straf@@
Stämme
Tast@@
Tat,
Tax@@
Tee
Them@@
Transform@@
Trotzdem
Tsunami
Verpack@@
Verpflicht@@
Video@@
Wahl.
Wahrscheinlichkeit,
Wellen
Woher
Wälder
YouTube
Zwill@@
Zähne
afen
alisierten
ana,
ang.
atmen
atori@@
atter@@
aufrecht
azi@@
band
begrenzt
behaup@@
beliebi@@
bemerkt,
berei@@
beschlossen,
beschäftigt,
besitzt
bestimmen,
beteiligt
beton@@
bildete
biologisch
bleibt.
blind
bräu@@
ce,
davon@@
detail@@
dicht
dliche
drücken.
dunkel
dus
e-
echnologi@@
echt@@
eckt
edern
egal.
ehmen,
einzige,
ellem
ema
empfind@@
enor@@
entspann@@
entspr@@
enttäusch@@
entwerfen
erfand
erforscht
erstellen
erstellen.
fasst.
fertig.
film
fir@@
fortgeschrit@@
fri@@
fur@@
fäh@@
fördern,
gebra@@
gedul@@
gefäll@@
gehalten,
geht's
gelangt
gelernt.
geli@@
gerett@@
gesammelt
getreten
geändert
graus@@
großzügi@@
haus@@
hey,
hierfür
hinein,
hinein.
hinunter
hir@@
hört,
ice
ickt
industri@@
inspirieren
inst@@
intelligenten
irr@@
ität@@
jen@@
jizier@@
kalt
klat@@
kleinen,
kontinuier@@
kreiert
kritische
lauf
leid,
lieben.
lung@@
mag.
massiven
mech@@
messen,
mir@@
mot@@
mächtige
nack@@
natür@@
natürlicher
nern
nie.
nun@@
pus
put@@
raffin@@
raft@@
raus.
regelmäß@@
regelmäßig
regi@@
respek@@
rest@@
sammeln,
schafften
schenk@@
schicken,
schüch@@
schüttel@@
sechs@@
sem@@
siert,
singen
staatliche
starben
start@@
stel
stir@@
strateg@@
straß@@
systems
tauchen
tollen
trug
tue,
unabhängi@@
unerwart@@
uren.
val@@
verstanden.
viellei@@
vo@@
vorsichtig
wahrscheinlich,
weiten
westliche
wirken.
wissenschaft
wodurch
ze@@
zeitgenös@@
zerbrech@@
zufrieden
zugleich
Öff@@
öck@@
öhr@@
ökologischen
überraschend
"St@@
12@@
19
33
4,@@
5-@@
55
7,
Abendessen
Adam
Agen@@
Allgem@@
Analysi@@
Angeles
Anhänger
Animation
Anweis@@
Argument@@
Art@@
Ausgaben
Australi@@
Babies
Batterie
Bereit@@
Bewegung,
Bob
Bohr@@
Boo@@
Cli@@
Don@@
Doppel@@
Dre@@
Drogen
Drogen@@
Durchschnitts@@
E-Mail@@
Ebenen
Eier
Entwicklungsländer
Entwurf
Erfolgs@@
Erk@@
Essen@@
Expedition
Fahrrad
Fallschir@@
Famili@@
Fas@@
Fav@@
Fett@@
Fund@@
G
Gates
Gebieten
Geburtstag
Gebäude.
Gegenstand
Gelegen@@
Genauso
Generation,
Geschichten.
Geschmack
Gesich@@
Gespräche
Geweb@@
Gig@@
Glück.
Gor@@
Gründer
Hektar
Höhl@@
Ikon@@
Institute
Inten@@
Iran
Is@@
Ja?
Kabel
Komponenten
Konkur@@
Künstler@@
Leh@@
Lehrer,
Letztes
Long
Läch@@
Ländern,
Mam@@
Marketing
Maschine.
May@@
Mitgefühl.
Musi@@
Muster,
Nachricht@@
Neue
Nigeri@@
Organe
Philosophie
Physik,
Plastik
Plötzlich
Portra@@
Power@@
Profess@@
Prototypen
Provin@@
Publikum,
Ra@@
Rad@@
Rec@@
Refer@@
Religion,
Result@@
Resultate
San@@
Schluss@@
Schuh@@
Schwarze
Schwimmen
Schül@@
Simulation
Sonnensystem
Spinn@@
Stunden,
Sy@@
Säuget@@
Taf@@
Tanz
Tasch@@
Team,
Thema,
Tric@@
Trink@@
Trotz
U
US
Universit@@
Universitäten
Versorgung
Verständ@@
Verwand@@
Video,
Vorgang
Vorschlag
Weltbevölkerung
Wen@@
Werke
Wohltä@@
Wände
Yorker
Zeitungen
Zufriedenheit
Zähl@@
absolut@@
afrika
agier@@
ahl
akt
alität,
allgemein@@
an."
ance
anderes.
anischer
arbeiter
ausser@@
basierte
bedeutend
befestig@@
begleit@@
behandeln,
behör@@
benutzt.
beschäftigen
besor@@
besserer
beteilig@@
bleiben@@
blut@@
bre@@
bring@@
damal@@
damit.
danach,
demokrat@@
diagnosti@@
doppel@@
drehen.
effizient
ehn@@
enge
enspiel
enswert
ensystem@@
entdeckt.
entsetz@@
entwor@@
erd@@
erkannt
erkannte,
erleben.
erweise,
eröffnet
ession
ethn@@
euch,
falls@@
fange
faszin@@
fiziert
fordert
fotografiert
freue
förmi@@
führer
gabe
gegenwär@@
gehen?
gelben
gelöst.
gemäß
geprä@@
ges,
geschaffen.
geschehen.
getrenn@@
gewi@@
gezeigt.
geändert.
gkeit.
glaubt
glob@@
go@@
gruppen
gte
gu@@
has@@
himm@@
hof
ihn.
interagieren.
inu@@
jap@@
kap@@
ket@@
koennen
kommun@@
konzentri@@
krieg
kräfte
kurzes
lad@@
laden,
langes
langfrist@@
lehren
liches,
lichkeits@@
llen
läng@@
läs@@
massive
mengen
monat@@
nett
nommen
obby
oder,
ografie
osp@@
pet@@
plus
produkt
punkt,
quell@@
rad
religiösen
rief@@
rik
romantische
ros@@
sche,
schrecklichen
schwerer
sign@@
sist@@
siven
sprach.
stabil@@
stag@@
steckt.
stie@@
städt@@
tag
technologische
tigsten
träum@@
ulation
un.
ungsan@@
unheim@@
unmittel@@
untere
unternehmer@@
unterwegs
veran@@
verbessern,
verbindet
verbindet.
verfolgen.
vergessen.
verlassen.
verloren,
vermei@@
versuchten,
verwandelt
vorbereitet
wagen
wahnsinni@@
wartet
weil,
weisen,
wenden.
wichtig?
wild
wäch@@
x.
yr@@
zahl
zent
zugeben,
zukünftige
zukünftigen
zwanzig
Äthiopien
Überlebens@@
ärger@@
äuschen
öffnet
ös,
ös.
überw@@
überzeu@@
"K@@
.00@@
29
3.@@
3D-@@
5000
6,
Alb@@
Alexander
Allgemein@@
Alternative
Amerika.
Architekt@@
Armee
Asteroi@@
B:
BC
Babys
Bag@@
Balance
Bedenken
Benjamin
Beru@@
Besten
Bewohner
Bier
Block@@
Boden,
Boden.
Bon@@
Bri@@
Can@@
Chol@@
Cit@@
Connectome
D,
Darw@@
Definiti@@
Dem
Dialog
Diesen
Dol@@
Durchmesser
Eg@@
Einfach
Einflus@@
Einschränk@@
Element@@
Endes
Entwicklungshilfe
Erfol@@
Ernährungs@@
Errungenschaf@@
Faktor@@
Fluss@@
Führung
Gegent@@
Geheimnisse
Gemeinschaft.
Gemüse
Gerech@@
Gerüst
Geschle@@
Gold
Großmut@@
Grös@@
Größenordnung
Hand,
Handeln
Heimat
Herstell@@
Herzinfar@@
Hollywood
Hören
Inform@@
Informationst@@
Innenstad@@
Instit@@
Interpretation
Jahrhundert,
Jedoch
John@@
Kalk@@
Karte.
King
Kleidung
Konserv@@
Leben@@
Leiden@@
Lein@@
Lesen
Lev@@
Liefer@@
Links@@
Lungen@@
Länge
Lösung.
Meme
Mig@@
Miner@@
Mittag@@
Muskel@@
Muskeln
Müll
NG@@
Orchester
Pandemi@@
Pandemie
Para@@
Pe@@
Phili@@
Philip
Planet@@
Programm,
Prozesse
Punk@@
Radio
Rechn@@
Reden
Reisen
Rin@@
Russland
Schmerzen
Schreib@@
Schweden
Signale
Sonne,
Sta@@
Struktur,
Stämm@@
Text
Theat@@
Trick@@
Tän@@
Unglaub@@
Unterschie@@
Vereinten
Versicher@@
Wachstums@@
Wais@@
Weißen
Werkzeuge,
Wettbewer@@
William
Winkel
Wird
Wüsten@@
Zahl@@
Zero
Zivil@@
].
aber@@
agieren
akzept@@
allgemeine
amen
amerikan@@
an-@@
angetrieben
ant.
anten,
anwend@@
anzun@@
artigen
aufzubauen,
ausch@@
auseinander
auseinander@@
ausgegeben
auslö@@
aussieht
auszus@@
auszut@@
bank@@
behalten,
behandeln.
bemerkenswert
bemerkte
besser@@
betrieben
betroff@@
beträgt
blät@@
boden
brei@@
char@@
chtes
coole
danken,
dar,
demonstri@@
dient
do
dreht.
druck,
drücke
durchge@@
e...
ed.
ehr
eilen.
einschließlich
einzigartig
elektr@@
elektron@@
ente.
entsprechend
erende
erhöhen
ermut@@
ern?
erober@@
erte,
esse,
ett,
ette.
exi@@
fantastisch.
fehler@@
fen?
festgestellt,
flo@@
flus@@
form,
fort,
fortschritt@@
fragte,
funktionierte
fär@@
genau.
gender
genen
generell
geschafft.
gesellschaftlichen
gestartet
gestor@@
gewaltige
graben
greift
griech@@
halbes
haus
hinaus,
hing
hn@@
individuelle
inist@@
intensiv
jahr
jü@@
kette
kg
klare
klü@@
kooper@@
kti@@
ktionen
kümmert
last@@
leh@@
leistung
lern,
live
machten,
masch@@
mitfühl@@
moral@@
nennt,
nit@@
ocken
od@@
ografische
ok?
okay.
ong@@
origin@@
oten,
ozi@@
pat@@
ph
planet@@
politisch
primi@@
ras@@
revolution@@
richtig,
riech@@
rise
rot
ruft
rug
ruhig
s".
sammelt
sche.
schein
schied@@
schlei@@
schlüs@@
schnitte
schwarz@@
schär@@
schö@@
schützen
sensi@@
sierten
sische
sitzen.
spazi@@
sprang
spunkt
staat@@
stap@@
steuern
stimme
stürz@@
theoret@@
ton@@
tun."
umen
umgehen.
ums.
up
verdammt
verhindern
verrückte
verschwin@@
verursa@@
vielerlei
vit@@
w,
weil@@
weist
well
wesen
wichtiges
win
zeichnen.
zeichnung
zigen
zuhause
zustimm@@
Übertragung
älteren
é@@
über.
übertrag@@
übrigens,
ümm@@
"D@@
"Wer
'9@@
,000
---
10.
16.
22
28
350
50.
9,
Aber@@
Ah,
Aktivitäten
Alpha
Ameisen@@
Anal@@
Ansichten
Ari@@
Armut,
Atomenergie
Ausnahme
Bedeutung.
Behandl@@
Behör@@
Beide
Beschäf@@
Bio-@@
Biot@@
Blog
Bord
Bret@@
Brow@@
Business
Bürgermeister
Büro@@
Camp@@
Charaktere
Chip
Craig
Cricket
Deine
Diabetes
Dimension
Ehre
Einlad@@
Eisen@@
Erfolg@@
Erstens:
Fahrzeuge
Februar
Filmemach@@
Ford
Fä@@
Gedicht
Gehir@@
Gestaltung
Gesundheitssystem
Glaubens@@
Glet@@
Glücklicherweise
Grand
Handl@@
Hil@@
Hinweise
Hundert@@
Hur@@
Investiti@@
Jahrhunderts.
Jahrzehnten
Jeden
Jeff
Junge,
Jupit@@
KA:
Katastrophe
Keni@@
Kn@@
Konzentr@@
Kopf-Zahl-@@
Kopie
Kreise
Kugel
Kultur.
Landes.
Leid
Linsen
Magazin@@
Manag@@
Maschine,
Material@@
Maus@@
Misch@@
Mitgefühl,
Modell.
Moment@@
Moor@@
Mur@@
Muster@@
Mut
Mör@@
Nachhaltigkeit
Nelson
Ner@@
Ordnung,
Organismus
Ozeans
Party
Perio@@
Planung
Produktion@@
Proph@@
Prozess.
Quar@@
Redner
Rettung
Rezept
Richtung.
Sammlung
Schlacht@@
Schätz@@
Sektor
Sekunden,
Selb@@
Sequenz
Seri@@
Sili@@
Situation,
Skel@@
Slums
Solarenergie
Sommer@@
Sonne.
Source
Spani@@
Spezial@@
Spur
Stammes@@
Stammzellen
Stei@@
Stift
Straße,
Symmetrien
Tour
Trupp@@
Träum@@
Unfall
Unternehmens@@
Vagina
Ven@@
Vermut@@
Vernun@@
Versionen
Vertri@@
Veränderung.
Vier
Volk@@
Vortrag@@
Wald@@
Wellen@@
Wende@@
Wink@@
Wirklich
Wissens@@
Worüber
Wär@@
Zeichnungen
Zuck@@
Zukunft@@
aben
abgel@@
abor@@
ach.
ald
alisten
allgegenwär@@
altern@@
altungs@@
ame
andlungen
angeleg@@
angesehen
arbeitete,
architektonische
ational
ativer
aufnahmen
ausgest@@
ausreichend
ausseh@@
automat@@
außergewöhnlichen
beein@@
beibringen,
benutzte
berühmt
beschreiben.
beschäftigen,
besitzen,
besitzen.
bestimmen
betrifft
bezeichnen
bildet.
billig
bot
brechen,
bruch@@
definiert
denken:
denkt.
dich,
dich@@
dienen.
dit
draußen,
draußen.
drüber
dun@@
durchaus
einziger
eis@@
entfernten
entgeg@@
entscheidende
entwerfen,
entwickl@@
entzün@@
enzeit
ep
erem
erenden
erinnert,
erinnerte
ermaßen
erschafft
erschw@@
erstaunlich,
erwartet,
erzählt.
ese,
est.
etischen
ette,
fassen
fiel@@
finanziellen
fisch
fliegt
fläch@@
frucht@@
fte.
gas@@
gedruck@@
geht's.
geleist@@
geläh@@
gemessen
geordn@@
geschlossen@@
gestoßen
getroffen.
gewann
gie
gkeit@@
glaubte,
gleich.
glücklicher
großem
haftes
hassen
hen.
hielt.
hingehen
il,
in:
involvi@@
japanischen
jung
jähriger
karten
kleinste
kol@@
konserv@@
kriegt
kte.
kultur
kämpft
liches.
liegenden
lien
liert
lock@@
losigkeit
mathematische
meist@@
menge
misst
nachhaltig
nacht@@
neugier@@
odi@@
ollen
ome
ose,
ost
pie
pien
planen
private
probieren
radik@@
ragen
ran
real
restlichen
resulti@@
rin@@
robu@@
rom@@
ruf
räume
sac@@
sage.
schaf@@
schel@@
schlagen,
schnellen
schnitt
schreibe
schuldig
sicherer
sicherstellen,
sigkeit
sind:
sität
sive
sogar,
sozial
sparen
spezifische
spont@@
staat
starb@@
stirbt
studiert
sätz@@
te."
tem@@
tens
teure
tiefer@@
tigt,
tot.
treten.
u.
umweltfreund@@
unsicht@@
verbreitete
verhält@@
verliebt
vernicht@@
verrückt,
verstand
verstand@@
verwirk@@
veröffentlich@@
vierten
wachstum
wandern
wechseln.
wegs
weniger.
wort
wun@@
zwei.
Übergang
Überraschung
á@@
ältere
ändert,
ärer
äubi@@
öl
ück
üte
-U@@
2:
AS@@
Allerdings
Amerikaner,
Anfang.
Apr@@
Asteroiden
Auswirkung
Auto,
Begegn@@
Benzin
Bergsteiger
Besitz
Betra@@
Betrieb@@
Bett@@
Big
Bron@@
Buches
Bush
Chef
Chinesen
Dank@@
Dean
Dienstleistungen
Dir
Dokument@@
Einzelnen
Elektronen
Erwärmung
Erzähler:
Essen.
Ethik
F
FG:
Fabrik
Fak@@
Faktoren
Fass@@
Folgendes:
Fotograf
Fotografie
Frag@@
Fäll@@
Gedächtnis
Gefähr@@
Gehör@@
Geometrie
Gerade
Getrei@@
Geträn@@
Gold@@
Herkunft
Herren,
Hollywoo@@
Hund,
Hung@@
Hölle
I.
Impfstoff@@
Individuum
Initiative
Institution
Interview@@
Jan@@
Jesus
Kannst
Katze
Keith
Klassi@@
Kohlendioxid
Kolli@@
Koordin@@
Kranken@@
Krankheit,
Krankheit.
Krat@@
Kul@@
Köpfe
Las@@
Last@@
Mama
Mani@@
Matt@@
Media
Monate,
Motivation
Multi@@
Möbel@@
Nag@@
Oberfläche.
Oktop@@
Operationen
Orchest@@
Ordn@@
Out@@
Pflanz@@
Plankt@@
Play@@
Pot@@
Produktivität
Psy@@
Publikum.
Quadrat
Raket@@
Ran@@
Reichtum
Rel@@
Repräsent@@
Republik@@
Revolution,
Riesen@@
Roboter,
Ruh@@
Ruhe
Rut@@
Sav@@
Schacht@@
Schlussfol@@
Schwefelwasserstoff
Schwestern
Schwi@@
Sha@@
Sho@@
Sicherheit@@
Sieben
Sohn,
Sprecher:
Spuren
Stad@@
Stuhl@@
Städte,
TEDx@@
Taliban
Teenager
Teilnehmer
Teufel@@
Tim
Titan
Tragödie
Training@@
Trend
Tropfen
U.S.
Umwelt,
Ursache
Verbesserung
Verfahren
Vergnü@@
Vorgehens@@
Wa@@
Websi@@
Wesen,
Wichtig@@
Wichtigkeit
Wiss@@
Wissenschaf@@
Wissenschafts@@
Wright
Zurück
Zweitens,
Zwisch@@
ade.
aktiver
alber@@
anci@@
andel
angem@@
animi@@
ann
annten
anwenden
art,
assozi@@
atz.
auf:
aufeinander
aufhin
aufhören
back@@
bedarf
begann.
begonnen,
begrü@@
beibringen
beigebracht
beispiel@@
beli@@
benutze
berichtet
besteht.
bestimmtes
besuchte
bewegte
bewus@@
bist,
blau
ble
bücher
chron@@
dabei.
daher,
damals,
dargestellt
dat
dauer
den-@@
designer
diesmal
drin@@
drucks@@
durchschnittlich
dynam@@
echnik
ehe
eigentlichen
einen.
einsetzen
eite
ektoren
elang
enthalten
erklärte
erläut@@
erwäh@@
ession@@
europ@@
europäischen
eventuell
ey,
falsch,
festen
flogen
französi@@
fähr@@
fügen.
führte,
geboren,
gefun@@
gegangen@@
geglaub@@
gelang
gelern@@
gesamm@@
geschlag@@
gesellschaft@@
gestorben.
gewand@@
gkeit,
gten
ham@@
heiraten
heisst,
hilf@@
hinzu.
höher@@
interagieren
irdi@@
ist."
ist;
jederzeit
kab@@
kapit@@
klein,
kleinsten
klen
konst@@
kreieren
kriege
kühlt
lehrt
leicht,
leid
liber@@
lig,
line
lion@@
man.
meinte
meister@@
minim@@
mochte
moder@@
moralisch
mäßig
müh@@
n:
nachdenkt,
nachzudenken
nahme,
netz
neugierig
nächst@@
offensicht@@
ographi@@
ol.
ologie.
ologischer
orie
oti@@
over
park
post@@
rechner@@
rechts.
reduzieren
risch@@
ro-@@
rt
runter,
rö@@
s",
sammlung
saubere
schließend
schlimmste
schnitt@@
schri@@
schwieriger
sek@@
sent@@
sieben@@
sprache
spüren,
ss@@
staatlichen
steigt.
stellige
stimmt,
stimmung
struktur@@
t's?
tatsäch@@
tatsächlichen
theorie
trans@@
trifft,
töten.
ular@@
ungen?
ungspr@@
unsichtbaren
unterstützen,
unvorstell@@
ution
vention
vention@@
verdient
verdoppel@@
verheirat@@
verliert
verrück@@
vorn
völ@@
wachsenden
wag@@
wald
wasser.
way
wechseln
weißt,
welt,
werte
wirr@@
wissenschaften
wunderbar.
wärmer
zin@@
zt,
Ägyp@@
Öl,
Öl.
ädig@@
ähnlich.
älle
öst@@
überleben,
"C@@
"Nein@@
"Sch@@
2009
3,
47
60@@
80@@
Ab
Abent@@
Absol@@
Af@@
Amazon@@
Amerik@@
Anders
Angel@@
Angiogenese
Angriff@@
Anlage
Annahme,
Arbeitsplätze
Argument
Arthur
Aufgabe,
Ausma@@
Aussage
Austausch
Ban@@
Barb@@
Begriff@@
Behaupt@@
Bek@@
Bemüh@@
Ben
Berechnung
Beruf
Bescheid
Beschreibung
Besonders
Besu@@
Betrachtung
Bewegungs@@
Bewusstsein@@
Breit@@
Bücher,
Büchern
Caf@@
Cor@@
DR:
Dasselbe
Depression
Dezember
Dom@@
Dunk@@
Dunkelheit
Durchschnitt@@
Dy@@
Dynamik
Eigenschaf@@
Ende,
Engag@@
Enzyklopä@@
Erwart@@
Familien,
Flügel
Fotografi@@
Frequenz
Freund,
Frieden@@
Funk@@
Füßen
Gab@@
Gebil@@
Gehirns.
Geschwi@@
Gravitation
Grund.
H
Heb@@
Himmel@@
Hitz@@
Hügel
Isl@@
Isra@@
Jack@@
Jag@@
Januar
Journalisten
Kath@@
Kauf@@
Keiner
Klar@@
Klimawandels
Kluft
Kollap@@
Kolonien
Kongress@@
Kontra@@
Krankheit@@
Krankheiten,
Kredit@@
Kreislauf
Kreu@@
Kriege
Küst@@
Labor,
Landwirt@@
Lebensmittel
Lehren
Lincoln
Logo
Lor@@
Luft,
Markt.
Maß
Maßstä@@
Mer@@
Metall@@
Mex@@
Milch
Milliarden.
Mittagessen
Mittel,
Myzel
Müh@@
Na,
Nachfrage
Nachri@@
Nadel
OL@@
Obdach@@
Onk@@
Organisation,
Organisationen,
Orten,
Pack@@
Parasi@@
Patienten,
Pferd
Pflanzen@@
Pion@@
Polizei@@
Poster
Prostat@@
Rad
Rande
Realität.
Regi@@
Rein@@
Ressour@@
Ressourcen,
Rest@@
Ries@@
Rob
Roboter.
SMS
Schmu@@
Schulter
Schwest@@
Selektion
Sklaverei
Sky@@
Sonder@@
Sondern
Sper@@
Spieg@@
Sport
Stimme,
Stipendi@@
Studenten,
Studium
Stunt@@
Symmetri@@
Synap@@
Systemen
Taschen@@
Tausenden
Team@@
Teams
Teil.
Tem@@
Termin@@
Thema.
Tol@@
Tragö@@
Trick
Ty@@
Umgebung,
Umstände
Unterschied,
Verkehr@@
Verletz@@
Verzweiflung
Veröffentlich@@
Vielfal@@
Visualisierung
Vorbereit@@
Vorbild
Vorhersagen
Wasch@@
Wechsel
Weih@@
Wetter
Widerspruch
Wirtschaft.
Woche,
Wolfram
Wolke
Wollen
World@@
Wä@@
Zehen
Zeichn@@
Zufall
abilität
absur@@
ada@@
age.
aggressi@@
akzeptieren
ambi@@
and?
andi@@
angepasst
anges@@
ansteck@@
arg@@
arien
arischen
arium
asse,
atemberauben@@
aufregende
auß@@
beauf@@
bedingungen
befür@@
bekam,
benutzten
beobachtet,
berg
berühren
beschädig@@
bestehen.
bestimmt,
bestimmt.
beut@@
bewerkstell@@
bildung.
bislang
bo
brüche
büh@@
chie@@
dacht
darin.
dazu.
definieren
diese.
dig,
diger
direkte
dler
dramatisch
dran.
drast@@
droh@@
drän@@
drü@@
dumm
dy
ebt.
efer@@
ehre
eingest@@
einsetzen,
einzigartige
einzigartigen
eiter
ekten,
en?“
enke
enspi@@
entstehen.
ereig@@
erfun@@
erg@@
ergi@@
erin.
erinner@@
erinnern.
ern:
erweitern
evolution@@
famili@@
fasst,
fer.
finden@@
folgender@@
formen,
fort
fuhr@@
fälle,
fördern
fördern.
gang@@
gebildet
gebäu@@
gegessen
geleit@@
gemeinschaft@@
genomm@@
gerichtet
geräte
gesag@@
gespann@@
gewebe
gewöhnt
global
grösser@@
ha,
haar@@
haft@@
haut
herunter
herzu@@
hiel@@
hierbei
hinaus.
hob
hüll@@
icht,
ierte,
ierter
ihm.
individu@@
industriellen
intuitiv@@
irgendw@@
itive
jenes
jährlich
kauft
keinerlei
kern
klang
kleineren
komm
kommunizier@@
komplex
komplexes
kostenlose
könne
können."
küh@@
langen,
le.
lebte,
legten
leid.
lese
liest
lungen
länder
machten.
maschin@@
mau@@
melzen
merken,
mich@@
mikroskop@@
mmer
mächtig
n?"
natürlich.
nete
ney
nutzt,
offenbar@@
olit@@
omat@@
ond@@
ora
ote
packt
pen
pigment@@
plik@@
prakti@@
rah@@
reichen.
reinig@@
rennen
replizier@@
rieg@@
ritt
schafft,
schaften.
schalt@@
schen@@
scheu@@
schickten
schlafen
schlecht,
schlicht
schlussendlich
schmei@@
schneiden
schuf
schwachen
schwar@@
schwierig.
schwitz@@
schützen,
seltsamen
sicheren
sinn.
son.
st:
station
sten@@
stig@@
stop@@
stände,
ständige
sum@@
teils
tert.
the@@
tige,
tigt.
tit@@
toten
traf,
transformi@@
traurig
trägt,
umge@@
unabhängige
ungskraft
univers@@
unmöglich,
verbinden,
vergift@@
verkehr
verkehr@@
verlag@@
vermittel@@
verständlich
vert@@
vertrauen
verursacht.
verwirr@@
voll.
vorge@@
wahr,
ware
wegen,
weh@@
weiterzu@@
weltwei@@
wend@@
weniger,
werb@@
werden:
wesentlichen
wie:
wiederholt
wieg@@
wieviele
wuch@@
wunderbares
wusst@@
würdest
zeh@@
zeichnete
zeitig
zulassen.
zuru@@
zurzeit
zutiefst
´@@
Öffent@@
Ü@@
Übrigens,
ähnliches
ähr@@
öffnen,
ökon@@
ör
üben
übers
ücken
üssen
"Er
"Ihr
"Ist
.'
20,
24@@
30@@
48
50,
90@@
95
98
Absichten
Alan
Anfang@@
Ang@@
Anwendungen
Anzieh@@
Ap@@
App@@
Architektur,
Aristotel@@
Artenvielfalt
Athei@@
Auffassung
Augenblick,
Ausgabe
Ausgang@@
Ausschnitt
Autorität
Bakterium
Ballon
Barmherzigkeit
Beleucht@@
Belohnung
Beschleunig@@
Bestandteil
Bewei@@
Brad
Brown
Brun@@
CD@@
Cambridge
Cap@@
Carol@@
Chance,
Dame
Dampf@@
Das@@
Datenbank@@
Davon
Diagramm@@
Dick@@
Diplomat
E-@@
E-Mail
Einblick
Einricht@@
Einzelne
England,
Entschei@@
Enzy@@
Epi@@
Erfüll@@
Erinnerungen
Est@@
Eth@@
Everest
Fakt
Faszin@@
Fehler@@
Fem@@
Fenst@@
Fett
Fleisch@@
Forschung,
Frakt@@
Fußab@@
G-@@
Gast@@
Gegn@@
Geschwindigkeit,
Gewi@@
Gipf@@
Glaube
Gleichungen
Gletscher
Glühbirne
Großbritanni@@
Grönland
Gär@@
He@@
Hier,
Hinweis
Häl@@
Höhle
Interessante
Interviewer:
Iran@@
Ja
Jah@@
Jam@@
Jay
Juni
K
Karo-@@
Klimawandel.
Konsument@@
Krieg.
Kurs
Künstler,
LK@@
Lab
Lamp@@
Landschaften
Leidenschaft.
Lithi@@
Mais@@
Mandel@@
Mannes
Maße
Medizin.
Mich
Mikro-@@
Millionen.
Mod@@
Monterey
Nahrungsmittel@@
Namen.
Neocort@@
Oft
Ohr
Osteurop@@
Pflanze
Pill@@
Politik.
Produ@@
Quant@@
Ram@@
Reih@@
Rohr@@
SJ:
Satur@@
Schreck@@
Schriftsteller
Schätzung
Schülern
Science
Sedi@@
Sekunde.
Situation.
Sitz
Somm@@
Spielzeug@@
Sprung
Statu@@
Stoff
Techniken
Teen@@
Terrorismus
Teufel
Therapie
Treibstoff
UV@@
Umgebung.
Unternehmen.
Venezu@@
Verbraucher
Vergangenheit,
Verhalten,
Verhalten.
Verkehr
Verlangen
Verrück@@
Vietnam@@
Virtu@@
Vorträ@@
Wahrschein@@
Wat@@
Woche.
Wüst@@
Zehn
Ziel.
Zus@@
Zuschauer
Zweifel
abet@@
achten,
ake
amerika
amerikanischer
ammen
angemess@@
angenommen
ani
anter
anzut@@
apie
ativ.
ator.
atti@@
attraktiv@@
atur.
aufnehmen
aufregend.
aufw@@
aut.
aß
barung
beginne
beginnt.
behalten.
bemerkte,
benötigen,
benötigt.
berichten,
berichten.
besi@@
beu@@
bevölker@@
bildung,
bilität
blicken
bor@@
bzw.
bö@@
can@@
chinesisches
cht:
da?
dafür@@
darf.
darstellen.
dienst@@
dimensionalen
dir,
don@@
dri@@
dringen
durchführen
durchs
dürf@@
ehemal@@
eigent@@
ekte
ektivität
elektromagnet@@
ellos
enen,
enhaus
eren?
ergeb@@
ergeben
erkennt,
erstaunlich.
ess,
esser@@
ett.
etter@@
eurem
eurer
ever
existiert,
fertigt
finanziert
fische
fließt
flüch@@
folgendes:
fon@@
formt
forschung
fot@@
frau@@
fördert
fühlt,
füllt
fünf,
geeig@@
geführt,
gegriffen
geheim@@
gelbe
genutz@@
geschah,
geschwindi@@
geschützt
gespr@@
getrieben
gewaltigen
gil@@
glaubten,
gste
halb,
handelt,
handelt.
hat:
hen,
holz
ht@@
igen.
impor@@
interessanterweise
irdische
jahre
jeg@@
jenem
karte
keines
kennt.
klick@@
klug
kognitive
kriegen.
ktion,
ktiv@@
künstlich
lage,
langsam.
lauter
le,
leben?
lichen.
lichkeit@@
liebe,
ließ.
lit@@
lle,
loc@@
massiv@@
mathematischen
ministerium
mittl@@
mm
mobili@@
modi@@
männer
nehmen?
ness@@
neue,
nigeri@@
obb@@
ola
ood
opo@@
optimi@@
organisierten
pass
passt,
personen
physikal@@
piel@@
ppen.
probieren.
produkte
radikal
rank@@
ration
recherchi@@
recht,
redet
reduzieren,
reduziert
reich,
ro
sagte.
samen
scheint.
schießen
schlüssel@@
schmeck@@
schwierigen
schätzung
setzungen
simp@@
sionen.
sonst@@
sorge
spezifischen
spiritu@@
splant@@
stopp@@
strahl
straße
städte
stöß@@
tert,
tigkeits@@
tliche
toller
ts,
tätig
täusch@@
ue
ull
um-@@
umgewandel@@
umor@@
unausweich@@
unges@@
ungsin@@
ungsweise
urist@@
uti@@
ver,
verbreitet.
verdopp@@
verhinder@@
verließ
verschwunden
versorgen.
verteilt.
verwund@@
von@@
vorgestellt
waffen
warf
weck@@
wichtiger,
wiegt
wink@@
winzig
wirtschaftlich
wünsche
yn
zieht,
ziel@@
zog@@
zum@@
zustellen.
zutriff@@
zuvor.
zweifel@@
zählt
½
Än@@
änen
ätzen
öffnete
ökonomische
öser
öt@@
überall,
übt
"Weißt
.”
190@@
200.000
2010
25@@
50%
AM:
Abschnitt
Akademi@@
Amp@@
Anführ@@
Anreize
Antibiotika
Antrieb@@
Argum@@
Atome
Aufgabe.
Auflösung
Auftrag
Aufzeichnungen
BI@@
BIP
Baby,
Band@@
Baseb@@
Bedeutung,
Bedürfnis
Berichte
Bindung
Block
Brand@@
Buddh@@
Böse
Chanc@@
Chil@@
Comm@@
Communit@@
Datenbank
Dienste
Differ@@
Dilem@@
Direktor
Ebene,
Echtzeit
Energien
Entw@@
Erdn@@
Erfindungen
Erlaubnis
Erzählung
Etwas,
Europa,
Ev@@
Explo@@
Farbe,
Farm
Feld@@
Fernseher
Fiktion
Fliegen
Flücht@@
Flüssig@@
Franz@@
Friedens@@
Früher
Frühl@@
Fußball@@
Gedanken@@
Gehirns,
Geschenk
Geschlech@@
Geschäftsl@@
Getreide
Gewinner
Ghana
Haar
Hall
Haup@@
Helikop@@
Hemisphäre
Herangehensweise
Herausforderungen,
High-@@
Hoffentlich
Horizon@@
Humor
Inder
Informationen.
Inti@@
Israel
Jahrhunderts,
Jane
Jefferson
Jem@@
Jugend
Kamel
Kanal
Karik@@
Klinik
Knie
Kombin@@
Kosten.
Krankenh@@
Krankenhaus@@
Krebs,
Krieg,
Kühe
L:
Lach@@
Landkarte
Latein@@
Lebensqualität
Lee
Lehrerin
Lif@@
Liter@@
Lärm
M
Magnet@@
Mai
Mal.
Manhattan
Mathematik.
Matri@@
McC@@
Mechanismus
Meil@@
Meinung,
Meister@@
Meth@@
Mexik@@
Migrän@@
Mill@@
Minut@@
Minute.
Must@@
Nervenz@@
Newton
North
Näm@@
Oel@@
Ol@@
P:
Paradig@@
Pause
Pin@@
Plattform
Pläne
Praxis
Psychologen
Refl@@
Reihenfolge
Rennen
Reson@@
Restaurants
Richtung,
Rolle.
Sat@@
Schild
Schir@@
Schlimm@@
Schmer@@
Schweine
Schwing@@
Schwä@@
Sechs
Sekunden.
Shir@@
Sicherheit,
Sieb@@
Software,
Sonde
Song
Spaghetti-Sau@@
Spot@@
Stach@@
Standards
Start
Strategien
Stre@@
Strei@@
Stunden.
Sum@@
Sylvia
Systeme,
Südafrik@@
TED,
Technik.
Tempo
Tun@@
UN-@@
Umlauf@@
Umstän@@
Universums.
Unterricht
Vagina-@@
Verkehrs@@
Verletzungen
Versu@@
Verteidig@@
Vertrau@@
Verzerr@@
Vortrags
Vulkan@@
Waffe
Wahn@@
Wart@@
Werkzeug,
Wichtigste
Wie@@
Winden@@
Wohin
Wolken
Wurzel@@
Wäl@@
Wärme
Zelt
Zusammenh@@
Zweiten
absich@@
ack
ad,
ahme
ai
aktor
altung,
aly@@
ament
ampf
anen
anfäl@@
angenehme
angesichts
angs@@
anisches
anlage
anni@@
anschließend
ansonsten
anzen
anzusehen,
ards
ary
asse.
attent@@
auf?
aufbauen,
aufgewach@@
aufzubauen.
ausgelö@@
ausgewähl@@
ausgewählt
austr@@
außergewöhnlich
ay,
barkeit,
bedeckt
bedeutete,
bedeutungs@@
behaupte
berichten
bert
berühmte
besied@@
bewegungen
bezahlen.
bezahlt.
bezeichnet
beängstig@@
biologischer
blö@@
bombe
brand@@
breit
dacht@@
deckt
dete,
din@@
diver@@
dreht,
dumme
durchführen,
durchschnittlichen
ear@@
eb.
echsel@@
ehle
einfachste
eingebett@@
eins.
einzelnes
emotionalen
ena
ene,
energie
entdeckte,
entfernen
entscheidend
entwar@@
entwicklung
erei,
ereien
erfahren.
ergie
erin,
ering
erkannt,
ernst.
erter
erwähnen,
erwähnt,
etz
fachen
fanden,
fasste
ffe
findet.
fix@@
form.
fossilen
frau
frei.
fte,
gang.
gangs@@
gefüllt
gegeb@@
geholfen
gelangen
geld
gene
genießen
geringer
gerufen
geschlossen,
geschrieb@@
geschätz@@
gespeich@@
getau@@
getöt@@
gewachsen
gewor@@
gewünsch@@
gleichen.
globaler
grad
großen,
gründen
gucken
gänzlich
göt@@
gül@@
haft,
hafter
halten?
heim
heiß
hell@@
herbei@@
historischen
hl
holte
hu@@
hunder@@
hängen.
höchst
iPod
ich?
ichten
imm
institution@@
interessieren,
investiert
ire
ismus@@
iss
itäre
itäten,
jeder@@
jedoch,
jenigen,
jetz@@
jetzt?
jähri@@
ka
ke.
kognitiven
komische
kontrolliert
kreieren.
krimin@@
können:
köpf@@
langweilig
leisten,
lernte,
lernten
liefern
links,
loses
länge
lü@@
mail@@
marsch@@
maxim@@
meter
n."
nachgedacht
nahen
nahm,
nahme.
nenn@@
nähr@@
ock,
okay?
orn
ortex
oten.
pein@@
perfekt.
phi@@
philosoph@@
physikalischen
politischer
position
ppich
produziert,
q@@
registri@@
riecht
riesiger
rup@@
rut@@
rän@@
rüber
schalten.
schuldigen
schwache
sechs,
sorgen.
spielt,
sse
stark,
startete
stecken.
steht:
stellte,
steri@@
stimuli@@
streich@@
struktu@@
städ@@
ständigen
synth@@
systemat@@
tausend@@
tens,
ther@@
tigem
tive
toll@@
tox@@
trage
trägt.
uli
umwandel@@
ungs
ungsfähigkeit
ungsmittel
unmittelbar
uns:
unser@@
unterrichtet
us-@@
ver.
verbreiten,
verbringen.
verbun@@
verhindern.
verkauften
verkörper@@
vermitteln,
verrückten
verschwunden.
versprech@@
verwandeln
vili@@
visu@@
visualisier@@
vorherrsch@@
wachsende
warn@@
wehr@@
weitaus
weswegen
wettbewer@@
wol@@
woraus
wu@@
wärts.
wör@@
ynth@@
ze.
zeug.
ziert,
ziger
zugrunde
zugänglich@@
zweiter
»@@
Ästh@@
Überwach@@
ähnlicher
äle
äußeren
ört@@
üblichen
üblicherweise
ünst@@
ür
üttel@@
10-@@
1960
2020
34
40.000
50-@@
6.000
60.000
85
99"
AT@@
Ahnung.
Alphab@@
Alumini@@
Amei@@
Anfang,
Anten@@
Antikör@@
Anzeige
Arbei@@
Assist@@
Atmosphäre.
Aufklär@@
B,
Bangladesch
Bauch@@
Belast@@
Bestechung
Besuch
Betracht
Bevölkerung,
Blas@@
Blase
Blin@@
Bow@@
Branche
Canyon
Cas@@
Chemi@@
Chips
Chirurgen
Comedy
DV@@
Dankeschön.
Delp@@
Det@@
Dichte
Dopam@@
Dorf,
Dumm@@
Dynami@@
Echt@@
Ecken
Ehem@@
Eigenschaften,
Empfind@@
Entscheidungs@@
Erfin@@
Erkennt@@
Erzieh@@
Europä@@
Expedi@@
Experiment,
Fehler,
Firma.
Flag@@
Flaschen
Flei@@
Fotograf@@
Freunde.
Fünf@@
Geben
Gebur@@
Geburts@@
Geburtstag@@
Gefühle,
Geht
Gelände
Gen
Geschlechts@@
Geschwindi@@
Gesicht,
Gewohn@@
Glied@@
Google@@
Gordon
Gras@@
Gravit@@
Haie
Halluzinationen
Heim@@
Hex@@
Hilfe.
Histor@@
Hülle
IM@@
Information,
Infrastruktur,
Ingenieuren
Interface
Interviews
Ja!
Jamie
Jonathan
Julia
Jungs,
Kach@@
Karte,
Klavier
Kondome
Konsum
Kreativit@@
Kreaturen
Küche
Lat@@
Lebewesen,
Lewis
Lex@@
Lim@@
Live-@@
Magie
Mais
Malari@@
Mark
Meist@@
Metap@@
Methan
Methoden,
Mike
Mikroskop
Mittleren
Moskitos
Mount
Mr@@
Mäus@@
Nacht,
Namibia
Nebenwirk@@
Nest
Nicht-Nullsumm@@
OK
Objekte,
Objekten
Orten.
Ozean.
Paar@@
Papier,
Pazifik
Persönlichkeit
Pfl@@
Pflanzen.
Pflege
Philanthropie
Pik@@
Polizi@@
Potenzi@@
Primat@@
Probanden
Punkten
Quer@@
Research
Rez@@
Rund@@
SETI
Saf@@
Satelliten
Schatt@@
Schizophr@@
Schlei@@
Schlä@@
Schädel
Sender
Sieg@@
Skizz@@
Smith
Soll
Sowjetunion
Spaß,
Sputnik
Später
Stamm
Stanford
Stelle,
Stoffwechsel@@
Stol@@
Strahlung
Strat@@
Stränge
Synth@@
Synästh@@
Südasi@@
Tank@@
Taten
Tausend
Tendenz
Thail@@
The
Time
Tinten@@
Toilette
Treibhausgase
Tränen
Typen,
Umw@@
Ut@@
V
Val@@
Verbrenn@@
Vergessen
Verhalt@@
Verhält@@
Versuche
Verteidigungs@@
Veränderung,
Vorstellungs@@
Vortrag.
Wag@@
Wahlen
Weibchen
Welt?
Weltkrieg@@
Wh@@
Wirbel@@
Wochen,
Wochen.
X-@@
Yor@@
Zeitpunkt,
Zeitspanne
Zentren
[un@@
a."
abends
absorbi@@
ad.
allmäh@@
alter,
alter.
ami
anderthalb
anfing
anzugehen.
asie
ask@@
ator,
aufen.
aufgenommen.
ausgesprochen
bahnbrech@@
bank
bank,
baum
beantworten
beeinflussen.
begra@@
behaupt@@
behinder@@
behörde
beliebigen
belohn@@
bene
berührt.
besetz@@
bestehen,
betreiben
beziehen
bezieht
bildeten
billige
brillan@@
buch@@
ce-@@
d"
dageg@@
de."
dee
dem.
dienst
dies.
dies:
ebo@@
echnologie,
ehren
ei,
eindeut@@
einges@@
ele.
elektronische
empfehl@@
endem
endlich,
enkreb@@
enne
entgegen
erfin@@
erschien
ersetzen
ersten,
erung,
erweitern.
erzählte,
erzählten
eti@@
evol@@
exter@@
falten
faszinierend.
fau@@
figer
for
forscher
frieden@@
fröh@@
förmige
gan
ganz,
gedei@@
gefei@@
gefr@@
gegenwärtigen
geh
gehende
gehenden
geht@@
gelassen.
genannten
gendes
gens.
geschicht@@
geschl@@
gesehen?
gesünder
geteil@@
gewis@@
gingen,
gleichzei@@
gründen,
gäbe,
gänger@@
heben,
herab@@
herausforder@@
hergestellt.
herzlichen
hinzufügen.
hole
holt
ierenden
immateri@@
ingenie@@
intelligent
intensiv@@
itten.
jed@@
jedenfalls
jedes@@
jet@@
jähriges
jüngeren
kann?
ken@@
ker.
klam@@
kompliziert.
koordin@@
kosten.
kostengünst@@
kreb@@
krise
kritischen
kurs
kämpfen.
kümmern.
künstlichen
lands@@
lassen?
leer
legt,
lehn@@
lehnen
lem@@
lerin
letzt@@
ließ,
ließen,
lokal
loser
lung
läd@@
länger@@
machen?"
mi
minister
minus
mär@@
nachgedacht,
nat@@
nost@@
notwen@@
nutzten
offensichtliche
oftmals
oller
ologe,
opfer@@
orientiert
ossen.
pflanzen,
pfleg@@
plätze
praktischen
preis@@
prob@@
präch@@
pt
qual@@
quali@@
rahl@@
ramm@@
rem
richtet.
rieren
rühr@@
schir@@
schrift
schritt@@
schrän@@
seite.
sens
sicherzustellen,
sim@@
sitze
spi@@
spieler@@
spielten
spol@@
springen.
starb,
starten,
starten.
stre@@
stren@@
stät@@
suchten
symbol@@
taus@@
temperatur
tendieren
testen,
testen.
tierten
til@@
tin
tlichen
treten,
träumen
ts.
typische
täglich@@
ueber@@
uh,
ultim@@
ungewöhnliche
unglaubliches
urban@@
urteil@@
uver@@
ve,
verdeut@@
vergewaltigt
vermeiden
vermitteln.
vermute,
verschmutzung
verschwinden.
verteilen
verursachen.
verwandeln,
verwen@@
voll,
vorherseh@@
vorherzus@@
weibliche
weltweit.
wenden,
wesenheit
wilde
wollen?
wächst.
yc@@
ydr@@
zahlen.
zett@@
zieht.
zipi@@
zon@@
zu-@@
zueinander
zunehmen
zurückge@@
zurückgehen
zurückkehren
Äuß@@
änder,
äne
änger
überraschende
überzeugt
ücke
ühl@@
!@@
"Eine
"In
"Na
&amp;
-Ver@@
100-@@
18.
2,5
43
50ern
72
Agent@@
Agrar@@
Air
Albert
Algorithmen
Amerikanischen
Amerikas
Analogie
Analy@@
Angeb@@
Angestellten
Annahmen
Anspruch
Anstreng@@
Antworten.
Apfel
Astrolabi@@
Atmosphä@@
Ausbruch
Ausrüst@@
Bakterien,
Bech@@
Bedroh@@
Beispiele.
Beobachtung
Bestandteile
Beteilig@@
Bezahl@@
Bildhau@@
Bin@@
Bioluminesz@@
Biomasse
Bir@@
Blind@@
Bol@@
Bombe
Brot@@
But@@
CA@@
Chaos
DAR@@
Dalai
Dank!
Dauer
Dav@@
Deut@@
Diabet@@
Diagnose
Dichter
Disk@@
Distanz
Dokumentar@@
Dorf.
Dram@@
Dänemar@@
Einrichtungen
Engine@@
Enkel
Entwicklung,
Erdbeben
Eric
Evolution.
Ewi@@
Experte
Filme,
Filmen
Firmen,
Flagge
Formel
Französi@@
Frü@@
Gebirg@@
Gedi@@
Gedul@@
Gedächt@@
Gefängnis@@
Gemeinsam@@
Genen
Gerichts@@
Gerät.
Gewässer@@
Glauben@@
Ground
Großar@@
Grundlagen
Gründen,
Gur@@
Hallo
Handlung
Hef@@
Held
Herbst
Herzkrank@@
Hilfsmittel
Hät@@
Häu@@
Höhlen
Hüfte
Hühnchen
Idi@@
Infrar@@
Innere
Innovation,
Innovation@@
Int@@
Integ@@
Interessanterweise
Interessantes
Investoren
Iron@@
Jack
Japan,
Japan@@
Jill
Joe
Kalifornien,
Kampag@@
Kanada
Kerami@@
Kilomet@@
Kind:
Kindern.
Klar,
Kni@@
Koff@@
Kommt
Kopi@@
Kram@@
Krist@@
Käl@@
Labor.
Langzeit@@
Letzt@@
Lieder
Liter
Liz@@
Lou@@
MIT,
MS:
Maledi@@
Manifest@@
Materialien,
Meeresspiegel
Meiner
Mitte.
Mittel-@@
Mode
Monat.
Män@@
Mögliche
Mön@@
N.
Nachricht,
Nachrichten@@
Nanot@@
Nar@@
Neuseel@@
Nicht-Nullsummen-@@
Nick
Niem@@
Nik@@
Nordpol@@
Nuklear@@
O.@@
Oze@@
PM:
Palä@@
Parall@@
Pilze
Planet,
Platten
Plätze
Politik,
Press@@
Privileg
Probe
Produkten
Proteine
Prototyp@@
Py@@
Rate
Raumes
Reise,
Relativit@@
Renn@@
Richter
Richtig.
Sahara
Schall@@
Schenk@@
Schrei@@
Schreiben
Schreibtisch
Schwerkraft
Seel@@
Sehn@@
Selbstmord@@
Sieht
Sierra
Skelettmuskeln
Skep@@
Sorge
Sorte
Staub
Staub@@
Streit
Struktur.
Sün@@
T-Shir@@
Tage,
Tages,
Tansania
Tar@@
Taus@@
Teek@@
Teilchenphysi@@
Tomat@@
Tony
Transi@@
Treibhaus@@
Trocken@@
U-@@
U-Bahn
UN
Umweltschutz@@
Unfälle
Univer@@
Unterwasser@@
Veget@@
Vergangen@@
Vergewal@@
Vulk@@
Washington,
Wechsel@@
Wechselwirk@@
Weltall
Werten
Wieviele
Wohl
Worte,
Wortes
Wow.
Zeichnung
Zo@@
Zug@@
Zur@@
Zusätzlich
Zwischen@@
[undeutlich@@
able
ablen
ager@@
akte
alisierte
alltäglichen
amerik@@
andauern@@
angekommen
anten.
anti-@@
anzus@@
anzusehen.
arbeitete.
arbeiteten,
archi@@
are.
ario
arre
astronom@@
athie
ative,
aufgereg@@
aufhören,
aufmerksam
ausgebildet
ausgedrück@@
ausgestatt@@
ausreich@@
aust
bauer
baut.
beenden
begeistert,
beherber@@
bekam.
bekannter
benötigen.
benötigt,
berfläch@@
beri@@
beru@@
berührt,
bess@@
betroffen
betrü@@
bewunder@@
bildet@@
chines@@
darf,
dauern,
dauert,
deines
der-@@
ders
design
drauf@@
draus@@
drin.
durchgeführt.
dü@@
ebe
eck.
egel@@
eigentlich,
eineinhalb
eingeb@@
eingesetzt.
ekomm@@
ekton@@
ender@@
ends
energie.
erinn@@
erkläre
erneut
ernähren.
erscheint,
erstreck@@
esischen
esst
etten,
evolutionären
existierenden
fahrt
fak@@
falsch@@
farbi@@
fettleibi@@
fiel.
film@@
firma
fischen
fließen
französische
frequenz
fundament@@
geben?
geform@@
geformt
gefährlich,
geleitet
genaue
geniale
gens
gerade@@
geradezu
geraten
gerech@@
ges.
gesam@@
geschei@@
geschichte.
geschäft
geöffn@@
glaubten
glei@@
glänz@@
grundsätz@@
größer.
grün
gründen.
half
hebt
hervor,
hi
hingegen
ho
iPhone
ick,
ien
ina,
insel
integrier@@
intelligenter
interagieren,
investieren.
involviert
islam@@
issen,
itzt
ja?
jene,
junges
kampag@@
keln,
klav@@
klettern
km/@@
komisch
kostet,
kriti@@
kter
ktiv
ktu@@
könntest
l.
land,
landete
lange.
lasen
laufe
lebten,
legend@@
leicht.
leiden.
leihen
lern
lernt,
liar@@
liebe.
liebt
liebte
liefern.
liges
low@@
lösung
magischen
man:
mangel@@
masse
ministeri@@
muslimischen
mysteri@@
müsst
natürliches
nein@@
nenne,
nette
nied@@
niedrig
noch?
nochmals
normaler
nur:
nur?
offenbar
og
ohnen
ool
opernik@@
opt@@
osexu@@
p-@@
packen
papi@@
pfel
phab@@
problemat@@
produziert.
programm@@
proportion@@
protest@@
prozent@@
rak@@
ranken
rasch
re.
regeln
reich.
rekor@@
rigkeit
rufen.
rupp@@
sagst
scann@@
schief@@
schlossen
schneller.
schnellsten
schuss
schwarz
schäd@@
schätze
sehen:
sich?
sichere
sichten
sischen
skrank@@
spirituellen
starkes
stattfindet.
stig
stit@@
streb@@
strit@@
sträger
sucht.
svi@@
südlich
ta@@
telefon@@
ten."
terer
tigkeit@@
toler@@
tradition@@
transpar@@
trifft.
trinkt
tro@@
träch@@
tun?"
tötet
tür@@
ulti@@
ultimative
umar@@
unde.
unterrichten.
ura
ventionen
verdrei@@
verklein@@
vermin@@
versi@@
versteckten
verstor@@
vertret@@
verwandelt.
verwendeten
vielen,
voraus,
w.
wachte
wahrhaftig
wale
warte
wegn@@
weis
weit.
wenigsten
werk,
wertvolle
willkür@@
wissenschaftlicher
wunderbar,
wärts@@
wünschte
würdig@@
wütend
yp
zah@@
ze,
zeln
zerstören,
ziehe
zig@@
ziges
zustand
zykl@@
°@@
Ärm@@
Äthiopi@@
Übersetz@@
Überzeugungen
Übung
älteste
änder.
äut@@
öcke
öfter
überhaup@@
überlegen,
überzeugen
überzeugen.
üre
”
"?
"Ja."
"Lasst
"die
'000
-und-@@
....
00.000
130
15.
185@@
1999
30-@@
37
3D
40@@
Abenteuer
Aktivi@@
Alzheimer
Ameisen,
Angelegen@@
Angelegenheiten
Angesicht
Anleit@@
Anstelle
Ant@@
Antarkt@@
Antrieb
Anw@@
Anzeichen
Arbeiter@@
Architektur@@
Ash@@
Asth@@
Atm@@
Ausgangs@@
Banken
Bat@@
Bausteine
Beam@@
Bedien@@
Benz@@
Beob@@
Berlin
Bildungssystem
Black@@
Blasen
Bonob@@
Bruchteil
Brut@@
Buckel@@
Bud@@
CO2-Emissionen
Celsi@@
Charl@@
Cur@@
Da@@
Danny
Daraus
Denkens
Diejenigen
Ding.
Displ@@
Dist@@
Dod@@
Donn@@
Dor@@
Drittel@@
Dur@@
Ebene.
Effekte
Einkaufs@@
Einrichtung
Eisb@@
Energies@@
Enkel@@
Entscheidungen,
Entweder
Entwicklungen
Erdo@@
Ergebnis,
Ergebnis.
Erkenn@@
Ethanol
Exempl@@
Fab@@
Falle
Fid@@
Fit@@
Flasch@@
Fle@@
Flugzeug,
Formen.
Fortpflanz@@
Foto,
Freit@@
Freizeit
Früherkenn@@
Fälle,
Galaxien,
Gegenst@@
Gegenstände
Geistes
Genome
Geri@@
Geschäft.
Gestalt
Gewalt,
Graph@@
Gre@@
Großbritannien,
Grundstück@@
Gruppe.
Größe.
Gummi@@
Güter
Hak@@
Halluzin@@
Handels@@
Handy,
Handy@@
Harmonie
Hausaufgaben
Hauses
Haushalts@@
Hausmeisters
Heilung
Herrn
Hersteller
Herz-@@
Higgs-@@
Holoc@@
Hotel@@
Human@@
Hungers@@
Hut
Höhe,
Hütte
Imperi@@
Impfstoffe
Information@@
Irgendwie
Job,
Joshua
Kalifornien.
Kalorien
Katzen
Kid@@
Kilometern
Kindersitze
Klavi@@
Kleine
Klu@@
Knö@@
Kollegen,
Konstruktion
Konz@@
Kreation@@
Krokodi@@
Kurse
Käs@@
Künste
Landes,
Lautsprech@@
Lebensstil
Lehrern
Lich@@
Lichter
List@@
Lunge
Län@@
Löch@@
MI@@
Mac
Malt@@
Mars.
Mart
Maschinen,
Mauer
Meeresboden
Meile
Millionen,
Minder@@
Monaten,
Mul@@
Mädchen.
Nachmittag
Nathan
Natürlich,
Netze
Nicholas
Nicht-@@
Nobelprei@@
Nordpol
Noten
Notfall@@
November
Nährstoffe
Oder?
Organismen,
Os
PE@@
Paradigma
Path@@
Patienten.
Pharma@@
Pix@@
Prak@@
Prioritäten
Produkt,
Produzenten
Protein
Pyrami@@
RSW:
Rechenleistung
Regierung.
Region.
Remi@@
Repu@@
Ritu@@
Rollen
Satz@@
Schauspieler
Schicksal@@
Schildkrö@@
Schlagan@@
Schrift@@
Schöne
Scien@@
Shanghai
Sinnes@@
Span@@
Speicher
Spiels
St.
Stahl
Statt
Steinen
Strang
String@@
Stunts
Stück,
Sw@@
Symph@@
Säugetiere
Technologien.
Teig
Therapien
Tochter,
Tromm@@
Tunnel
Twit@@
U.@@
Ultra@@
Uni
Union
Universität,
Untersuchungen
Ursachen
Verbesserungen
Verschmutz@@
Virus@@
Visu@@
Vog@@
Vogelgrippe
Vorsitz@@
W.
Weit@@
Weiß
Werkzeug@@
Wettbewerb@@
Wort.
Zahlen,
Zeile
Zugriff
Zusammensetz@@
Zustand,
abges@@
abzul@@
ackt
aj@@
alternative
altung.
ands
angefangen.
angehen
angeht.
annehmen
annähernd
anony@@
anpass@@
anpassen
ante,
antreiben
antworten
antwortete:
arbeite.
arm,
asche
att,
att.
aturen
aufgeh@@
aufgeregt,
aufgest@@
ausführ@@
ausmacht.
autist@@
auton@@
aßen
bast@@
bedroht
beeindruckende
befassen.
begeist@@
begrenzten
ben?
berfläche.
beschleun@@
betonen,
betrifft.
bewirken
bewirken.
bir@@
biß@@
blau,
bot@@
brem@@
buddh@@
chr@@
d.@@
d:
dadurch,
dasselbe.
dazwischen
definieren.
digkeit
din
dose
dringend
du?
dynami@@
dürfen.
ed-@@
effiziente
effizienter
ehl
eingehen
ement.
empfinden
enderweise
endgül@@
entdeckten
entsprechende
entstehen,
enzen,
erei@@
erfinden,
erscheinen,
ert@@
et."
etabli@@
fanden.
fantastisches
fehlt,
fess@@
flut@@
folgendes
froh
frühe
fundamentalen
gal,
gebauten
geblieben
gebr@@
gefährlich.
gegrün@@
gehabt,
gelangt,
gelassen,
gelaufen
gelehrt
geomet@@
gerä@@
gespielt.
gesün@@
getrieb@@
geworfen.
gezogen,
gezw@@
gie@@
gig@@
gkeiten
gleicht
gliche
globales
greifen.
grosser
grösste
größtenteils
günstig
haber
haft.
hand
heißt.
heißt:
herausra@@
herrsch@@
hervor.
hint@@
höf@@
hörte,
identifizieren
iere,
ima
imp@@
ina.
individuellen
ingegen
inti@@
issen.
ith@@
jeden,
jedermann
jeman@@
jemandem,
journ@@
jünger
kehr
kler
kollab@@
komplexer
kontrollieren,
konzentrierte
kriegen,
kris@@
kurzfrist@@
lag.
langfristige
langsam,
lerweile
lichten
liefen
liegende
maschine.
maschinen
meine.
meint
menschlich
minü@@
mität
mmen
mord@@
mos@@
mutig@@
nahm.
nahm@@
negativen
neun@@
neutr@@
nicht:
niemandem
nochmal,
normales
ns
nüt@@
om.
onen.
ons@@
ordentlich
osse
oze@@
p.
pflanzen.
phil@@
phänomen@@
platt@@
plizier@@
potenzi@@
ppen@@
ppt
prechen
primitiv@@
probe
programme
präzis@@
quer
raum@@
reagieren,
rechtzeitig
regende
reichhal@@
rein,
reine
reiz@@
rieben@@
riert
riken
ritu@@
roskop@@
rufe
sache
sah@@
sauber
sauberes
schalten,
schau
schlag,
schlage
schlüsse
schneller,
schnellste
schrecklich.
schrift@@
schwei@@
schwimmen.
schwä@@
schätzen.
selbst-@@
sen?
serv@@
sichtbaren
sind@@
situ@@
sitzt,
skept@@
solches
sons
sozus@@
spezif@@
stabili@@
stad@@
stammen
stande
statt,
stattgefunden
stellungs@@
stet@@
stoß
strom@@
strä@@
ström@@
studieren.
stur@@
ständen
suspendi@@
süchtig
tauschen
teilte
tes,
theit
tier
tiere
tiven
trag,
typisch
tödliche
uff@@
umgeb@@
umkehr@@
undes@@
ungefähr@@
ungen@@
unglaublich,
ungsfähig@@
unterhalten
unterrichten,
unterscheiden.
unterstützt.
urb@@
urbane
ure@@
use
ution@@
verblüffende
verbrauch@@
verbraucht
verbreiten.
verdienen,
verkaufen,
vor:
vorhersag@@
vorsich@@
wahrgenommen
wahrhaft
war's.
warm
wechsel
wegzu@@
weiblichen
weit,
wendet
werk.
wett@@
wir:
woanders
wunderbar@@
wählen.
zeichnet,
zeigte,
zellen,
zerr@@
zug,
zuletzt
zusammenhän@@
zö@@
zücht@@
äck@@
ämmer@@
ängen
ätze,
é
überschreit@@
überwieg@@
überzeug@@
ürze
β@@
„Das
"Ein
"G@@
"I@@
"Was@@
'8@@
's,
.500
00.
1998
2002
60er
97
Abkommen
Abstamm@@
Agnes
Alltag@@
American
Anderson
Angiogen@@
Anpass@@
Anstrengungen
Antarktis
Antwor@@
Artef@@
Arten.
Arten@@
Aufmerksam@@
Auth@@
Autismus
Autom@@
Autos.
Balken
Bangal@@
Barack
Batterien
Bauch
Beachten
Beck@@
Beginn@@
Begrün@@
Behandlung,
Benzin@@
Bezir@@
Bilder@@
Box
Box@@
Brilli@@
Börsen@@
CN@@
Chef@@
Cheryl:
Chris,
Clinton
Cop@@
Cyber@@
Daniel
Delhi
Deutschl@@
Dialog@@
Diskussionen
Du,
Durchbruch
Dü@@
Eben@@
Ebenso
Einkommen,
Einkommens@@
Eis,
Ek@@
Elektronik
Eltern.
Emis@@
Endeffekt
Entwür@@
Erderwärmung
Erkenntnis,
Erkenntnisse
Erschaffung
Experiment.
Extra-Dimensionen
Fakult@@
Fangen
Fast@@
Fehler.
Felder
Fische,
Fischer
Fischerei@@
Flus@@
Flüchtlingsl@@
Flüsse
Freiheit,
Freiwilligen
Front
Gefahren
Genau.
Generation.
Geographic
Gesetzen
Glücks
Google,
Grafik@@
Gro@@
Großvater
Grundsätz@@
Gruppen,
Gy@@
Haft@@
Harry
Haust@@
Hefe
Hilfe,
Hong
Hypothese
Höhe.
I-@@
IM:
Illusion
Imit@@
Immunsystem
Industrie,
Infrastruktur.
Inspir@@
Institutionen,
Integrit@@
Intell@@
Intelligenz,
Intelligenz.
Intuiti@@
Irgendwann
Italien
Jedenfalls,
Joh@@
Jones
Journalist
Junk@@
Jur@@
Kalten
Kandidaten
Kari@@
Kas@@
Kass@@
Ke@@
Kiste
Klang@@
Klimawandel,
Knoten
Kogn@@
Komprom@@
Konflikte
Kongr@@
Konzentration
Kop@@
Kopenhagen
Krebs.
Kuh
Kör@@
LE@@
Lange
Lebensunterhalt
Leich@@
Letzten
Leu@@
Libellen
MA
Mama,
Management
Markt,
Mars@@
Mart@@
Materie,
Meinungen
Menge,
Messungen
Mission@@
Mitgefühls
Mol@@
Mäuse
NAS@@
Nacht.
Neuigkeiten
Nicht,
Nollywoo@@
Objekt,
Oka@@
Okt@@
Olym@@
Optimismus
Osten,
Pakistan,
Pant@@
Papp@@
Paris
Perf@@
Performan@@
Phil@@
Polar@@
Pro-@@
Produktions@@
Prototyp
Prozentsatz
Prozesses
Pul@@
Rag@@
Recher@@
Reis
Reise.
Ring@@
Rolle,
Rom
Romanti@@
S,
SB:
SS:
Sc@@
Schein@@
Schlagzeilen
Schmerz@@
Schweizer
Schwellen@@
Scott
Seni@@
September,
Sim@@
Ski@@
Spar@@
Spor@@
Spreng@@
Sprich@@
Standard
Stellt
Sterne,
Stickstoff@@
Stig@@
Streifen
Studien@@
Supermarkt
Symbol@@
Synthese
Südafrika,
T:
Talente
Texas
Themen,
Tieren,
Times,
Tour@@
Trennung
Tum@@
Tumor
Umfang
Umgebungen
Vaku@@
Vakuum
Veg@@
Verg@@
Verkauf
Verli@@
Versorg@@
Voraussagen
Völker@@
W:
WI@@
Wahrheit,
Weisen
Weiter
Weiß@@
Weltbank
Werbes@@
Wesen.
Wide
Wunder,
Wü@@
Zahl.
Zeiten,
Zeitschrift
Zeitschriften
Zivilisationen
absichtlich
absol@@
achtet
achtung
ader
akust@@
alen.
ali
alisierung,
alz@@
anda
ander
angeblich
angebracht
angewandt
annen
anreg@@
anspruchs@@
anwenden,
appe
arabischen
arbeit,
ard-@@
ati
aufgeb@@
augen@@
aum
ausmachen.
aussehen?
ausserhalb
auswei@@
aut,
autom@@
autos
awa
bahn@@
bakteri@@
band@@
beachten
beeinflussen,
beenden.
befassen
begleitet
begonnen.
behandelt.
beliebtesten
bereit.
bereiten
bereiten.
beschäftigte
bestell@@
bestän@@
bevor@@
bezeichnet.
bohr@@
boli@@
branche
car@@
charakter@@
chirurg@@
cker
computer
con@@
dakt@@
dam
dankbar
das:
de"
deh@@
dekor@@
demokratischen
demonstriert
den?"
dent
dezentr@@
die.
drahtlose
dreidimensionalen
durchgeführt,
ebung
ecken.
effek@@
effekt
effektiver
ehemalige
ehen?
ehmi@@
eilung
einfallen
einheit@@
einzig
eisen
elieg@@
ellig@@
ement,
empfindlich
englische
enschaft
entes
entheorie
enthält.
entsprech@@
entwarfen
enzu@@
erfüllt
erhielten
erledigt
ernähren
ers.
ers@@
erseits,
ersetzen.
erstaunliches
erweck@@
erziel@@
essel@@
etter
ettr@@
evolutionäre
ewig
fac@@
fehlende
finanzielle
fit
flach
forschungen
funktionierte.
fährt,
fällt.
geeignet
gefalt@@
gefilm@@
gefolgt
gefüg@@
gegründet,
geholt
gehört?
gelesen,
gelingt
gemach@@
gemis@@
genauen
genetisch
genutzt.
gerade.
gered@@
geringen
gerne,
gerät.
geschaff@@
geschickt,
geschw@@
geschäf@@
gestaltet,
gesteu@@
gesucht
gesundheit@@
geteilt.
getestet
gewach@@
gezwungen
gibt's
gleit@@
graben,
h:
halt.
halte.
hang
hart@@
haupt
heben.
heilen
heiligen
herausfand,
hervorzu@@
hie,
hilfreich
hoh@@
hohem
hom@@
hungrig
i:
icht
ics
ier.
ikan@@
ind
ine.
ingt,
inie
inne
innen,
instink@@
int
intellektuelle
intellektuellen
interessan@@
irgendeinen
irgendwie,
iron@@
itik@@
itär@@
jegliche
jewei@@
kali@@
kannten
kast@@
katastroph@@
kau@@
kehrt
kern@@
king
kins
klicken
klinische
knall@@
komment@@
kompet@@
konfrontiert
kosmischen
krank.
kreativer
kugel
kömm@@
langfristig
las,
lebendi@@
leere
leeren
lich."
ling,
lionen
löst
mals,
mas
metaphor@@
metter@@
mikro@@
modell,
molekular@@
muse@@
musi@@
mächtigen
mäßigen
möglichst
nachrichten
nervös
netten
niedrigen
niedriger
nomm@@
notwendi@@
notwendig,
notwendigen
obere
objek@@
ol,
omen,
omin@@
os-@@
plikationen
pol
politik
posi@@
position@@
pothek@@
pper@@
primier@@
provis@@
punkt@@
put
rangi@@
rec@@
rechnen
rechnen,
rechts,
redete
rekt
rekt@@
rollen
ror
räte
sagen@@
sahen.
schlimme
schreiten
schrieb,
schrum@@
schufen
schwang@@
schweren
schwimmen@@
sein;
seltsam.
setze
shi@@
sil@@
sind."
sind;
sing@@
sinkt
sorgt
soziales
spitze
splan@@
springt
stab@@
stadi@@
stammt.
stands
steckt,
stehende
stehenden
stellen:
sterb@@
steuern.
still
stoppen
stoßen
ständig.
stätten
sucht,
tank@@
tene
teri@@
tiefgreif@@
tigste
trainiert
traurig@@
trieben
tritt@@
tu
typischen
umpe
umsonst
unsterb@@
unt
unterschiedlicher
usel@@
verbindet,
verbleiben@@
verfolgen,
verh@@
verknü@@
verletzt
verlor
vermeiden.
vermittelt
verrat@@
verschwind@@
versicher@@
verwirrt
verzweifelt
veröffentlicht,
vide@@
ville
vist@@
visueller
vol@@
vollständige
warum?
weitgehend
weitreich@@
werken
wertet
wertvoll
wiederzu@@
wirkt.
wirtschaftliches
wom@@
wächst,
ynami@@
zeugen
ziert.
zit
zo@@
zoomen
zutret@@
zählen,
zählen.
zöger@@
Ärger
Ökosysteme
Überleg@@
älen
änger@@
ärz@@
öffentlicher
überaus
überrascht,
überwinden
überwinden.
überwäl@@
übliche
üge
–,
’@@
!“
"Bitte
"Ver@@
"War@@
"Wo
,5
1990
3000
60ern
7.@@
80%
90%
A:
Abh@@
Adop@@
Afghanistan,
Akkor@@
Algen
Allein
Altern
Angriffe
Anhän@@
Anpassung
Arbeitsk@@
Armut.
Armuts@@
Atheisten
Atlantik
August
Ausschau
Av@@
Banj@@
Batteri@@
Begeisterung
Begrenz@@
Behandlung.
Beine.
Bekann@@
Belastung
Benutzer
Betrag
Beweis@@
Biologie.
Blu@@
Bomben
Botschaft,
Brau@@
Brille
Bruttoin@@
Buchstab@@
Business@@
Börse
Büro.
Büros
C:
Carnegie
Chirurg
Chop
Chris.
Clip
Cockt@@
Cola
Colli@@
Cricket@@
DG:
DNA,
DNS
Das,
Davi@@
Dein
Der@@
Diagn@@
Diät
Dog@@
Doktor
Drog@@
Droh@@
Dschung@@
Dutz@@
Däch@@
Dörfern
EE@@
Ehemann
Einstein,
Einwohn@@
Einzige,
Elis@@
Emily
Emma
Enthusias@@
Entscheidung@@
Entwurf@@
Eracht@@
Erkrankungen
Erziehung
Etik@@
Fahrrad@@
Familienplan@@
Fangschreck@@
Fic@@
Finanzierung
Flugh@@
Flughafen
Flut
Fotogra@@
Foundation
Friede
Fund
Fundament@@
Funktionsweise
Fähigkeiten.
Förderung
Ganges@@
Garten@@
Gebiet.
Gebrauch@@
Gedichte
Gene,
Genie
Geor@@
Gestern
Gesundheit.
Gewässer
Glücks@@
Glückskek@@
Golfwagen
Griff
Grundi@@
Grundstück
Gründen.
Hallo,
Handgelenk
Hause,
Haushalt
Haut,
Haw@@
Hawaii
Herangehens@@
Heraus@@
Herausforderung.
Hierarchie
Hindernis
Hindernisse
Hit@@
Hubschrau@@
Hun@@
Häupt@@
Impuls
Interfac@@
Isol@@
Jahrhunderte
Jet@@
Jä@@
Kabel@@
Kennedy
Kh@@
Kindersterblichkeit
Klassenzimmer
Kleider
Kleider@@
Kletter@@
Kok@@
Kondom@@
Kontrover@@
Konversation
Kooperation
Kosov@@
Kra@@
Kraft.
Kram
Kraw@@
Kreativität.
Kugel@@
Kämpf@@
Künstlern
Langlebi@@
Laser
Laser@@
Laut
Leidenschaft,
Leser
Leucht@@
Linken
Lock@@
Logi@@
Lok@@
Louis
Lust@@
Lücke
MR@@
Macht.
Mandela
Margaret
Mari@@
Massachusett@@
Mast@@
Materiali@@
Mathemat@@
Maßnahmen
Medien,
Meer.
Meerjung@@
Milo
Monat@@
Moskitonetze
Musikstück
Mustern
Märkten
Nationalpar@@
Neig@@
Neigung
Nenn@@
Nervenzellen
Netzwerken
Neugier
Nordamerik@@
Nordamerika
Notwendigkeit
Oktober
Olympischen
Open-@@
Opti@@
Orgasmus
Ozean,
PA
PH:
Panz@@
Param@@
Parks
Past@@
Pestizi@@
Pfad
Pho@@
Pilot
Pir@@
Planet.
Post
Pre@@
Premierminister
Produkte,
Projekts
Puzz@@
Quad@@
RO@@
Rab@@
Rauschen
Regeln.
Reguli@@
Renaiss@@
Rettungs@@
Revolution.
Richtlinien
Rituale
Robotern
Rot
Russland,
SIe
Sag
Sah@@
Santa
Schaffens@@
Schließ@@
Schwanger@@
Schwed@@
Schwein
Schädig@@
Schö@@
Schü@@
Sei
Sekunde,
Selbst,
Show@@
Singap@@
Situationen,
Ski
Sklaver@@
Software-@@
Sollte
Sollten
Spannung
Spiele,
Spielzeug
Spl@@
Sto@@
Straße.
Straßen,
Strom.
Studie,
Syndr@@
Sätze
Söh@@
TS:
TV-@@
Tage.
Talks
Technik@@
Teile.
Teils
Telefone
Temperaturen
Tempor@@
Terra@@
Tick@@
Tier,
Tisch@@
Traditionen
Transparenz
Trenn@@
Träumen
Töne
Türen
Türkei
Uhr,
Umgeb@@
Universitäts@@
Untersuch@@
Ushahi@@
Vater.
Verbindungen,
Vergleich@@
Verleg@@
Vernetz@@
Vic@@
Vom
Vordergrund
Völkermord
Wahl,
Wahrheit.
Wand@@
Weblog@@
Well@@
Wert.
Werte,
Wiederhol@@
Wissen.
Wohnwagen
Worauf
Wunsch,
Wünsche
Würfel
Yeah,
Zack@@
Zahl,
Zahlen.
Zehntel
Zeitraff@@
Zelle,
Zeug@@
Ziemlich
Zufäl@@
Zuhaus@@
Zweifel@@
Zweitens:
Zwischen
a",
abend
absoluten
acht.
akteri@@
alistischen
allein.
allen@@
allererst
amente,
anden.
ane,
angesehen,
angewendet
ant,
anzieh@@
anzust@@
architekton@@
arische
arktischen
arren
arten,
ase,
asien
ativ,
atmen.
atten@@
aufnehmen.
aufwuch@@
ausgeben
ausgehend
auszul@@
bedeuten,
bedeuten.
bedeutende
bedeutete
befriedi@@
begegnen
behauptet,
bekommen?
bende
benötigte
bequ@@
beschul@@
beschäftigen.
besitzt,
besuchen,
beten
blei@@
blicken,
bra
brauchte,
breitung
brill@@
brot
brun@@
brut@@
brü@@
cen
danken
dauerhaft
davor,
decken
demselben
den"
derzei@@
derzeitigen
dest,
dienen
dist@@
disziplin@@
dorthin,
dreck@@
drucken
drängt
drüben,
dsel@@
dunk@@
dunkel@@
durfte
dynamisch
dynamische
dürfen,
ebens@@
echnologien
echt.
ede
edes@@
een
egn@@
ehrlich,
eilchen
eingeschlossen
einig
einstellen
element@@
ello
ensystem
entschied,
entschloss
entwickelte,
entworfen.
eranz
erfassen
ergeben.
erkunden
ermögli@@
ermöglicht.
erneu@@
erneuerbare
erreg@@
ersch@@
erschüt@@
erwachsen@@
erwartet.
erwi@@
ethnische
etti@@
euch.
existieren.
explo@@
expor@@
extra
ey.
feg@@
fesseln@@
festzu@@
fis@@
flach@@
flügel@@
folgt.
fragt:
frakt@@
freier
fressen
freuen
frisch
fuhr,
fähigkeit
fügen,
fühl
führte.
füllen
fürcht@@
gaben,
ganzer
ge:
gebieten
geflogen
gefror@@
gefüll@@
gehören,
geistige
gekauft.
gelegenen
gelegt.
gelehr@@
geliefer@@
gen;
gere@@
geschah.
geschah@@
geschlagen,
geschn@@
geschnitten
gesetzte
gesteuert
gewicht
gewinnt
geöffnet
gh
ght
giftigen
gingen.
gross
größer,
gänger
h-@@
hab's
halbi@@
harm@@
herausfanden,
herausgestellt,
herrscht
hh@@
hielten,
hiervon
hinzu,
hinzufügen,
horizont@@
hunderten
höl@@
höre,
i-@@
ickl@@
idealen
ierte.
iertes
ignorieren
illu@@
intelligent@@
inten@@
interessiere
ischste
ismen
ison
isst
jenigen
jung@@
kalten
kasten
kathol@@
kauften
klassischen
kli@@
klus
kni@@
knüpf@@
koenn@@
koloni@@
kombiniert
komme,
kommerzielle
konn@@
krümm@@
ktes
ktion.
körperlichen
kümmern,
lag,
lage.
lar@@
lat@@
leichte
liche.
licht,
ligkeit
lini@@
lohnt
lungen,
mann,
markt,
massen
mat
materiellen
meinte,
meister
min
mithilfe
mitnehmen
mitteln,
mochten
mod@@
moderner
molekulare
molekularen
motor
motor@@
märkte
möglichkeit
n-@@
nas@@
nebenbei,
nebeneinander
neh@@
nimm@@
normal.
nukle@@
nuklearen
oder@@
oft.
okapit@@
om-@@
onale
onnen,
opar@@
optimistisch
optische
ord
organisieren
organisieren,
ots
packen.
perfekt@@
pfei@@
plizieren
projizi@@
präsi@@
pumpen
quadri@@
quivalent
quäl@@
radikale
raft
re?
reagieren.
rechter@@
rechts@@
reduzieren.
reguli@@
reiben
rein.
reserv@@
resist@@
rie@@
rum.
samer
schießen.
schlafen.
schlimm
schlägen
schmerzen
schott@@
schriften
schwierigsten
schwind@@
sitzt.
soli@@
sorgfältig
spek@@
spitzen
sprachen,
spunk@@
stadt@@
starb.
steigt,
stelle,
stellen?
stern
stheorie
stoßen,
streben
studien
studieren,
studierte
stärksten
sul@@
synthetische
systematisch
säule
süß
technischer
terte
terung
them@@
thos
transportieren
tum
tut@@
töd@@
töten,
ufen
umgesetzt
umin@@
umkrei@@
umpf@@
unbekannte
unsichtbare
unternehmen.
unterrichten
unterstützt,
ura@@
usw.,
verantwortungs@@
verarbeit@@
verboten
verfügbar.
vergleichbar
verhe@@
verknüpft
vernachlässig@@
verstand,
versteckte
verstümm@@
versuch@@
versus
verurteilt
verwor@@
veröffentlicht.
veröffentlichten
vorbei,
vorhanden.
vorherigen
vul@@
wach
wachst@@
wahl@@
wahrnehmen
way@@
werf@@
wich
widerspieg@@
widmet
widmet@@
wilden
wisst,
wonach
worin
wuchsen
wurzel@@
wü@@
wünschte,
x-@@
zep@@
zerst@@
zerstören.
zeuge,
zieren,
zigern
zoom@@
zulegen.
zusehen,
zusetzen
zwangsläu@@
äden
ähl@@
äischen
äres
äugige
äumen.
äusch@@
üche
„Wie
's.
/
0
180
1:
30,
36
AIMS
Abend@@
Abraham
Acc@@
Alt@@
Antibiotik@@
Arme@@
Augenblick@@
Auton@@
BMW
Barr@@
Bay
Bess@@
Billion
Brooklyn
Carl@@
Cassini
Che@@
Coll@@
Dimit@@
Disney
Dunkel@@
Eames
Ech@@
Einst@@
Ell@@
Erdb@@
Evan
Evoluti@@
Experim@@
Fair@@
Farmer
Fettleibi@@
Force
Francis
Front@@
Gottes@@
Griff@@
HIV/AIDS
Hell@@
Hero@@
Hus@@
IR@@
Ideal@@
Immun@@
Ind@@
Inf@@
Ivan
Jas@@
Joseph
Kelly
Kiber@@
Klimawandel@@
Kol@@
Kopf-@@
Köpf@@
Küh@@
Lego
Leonardo
Link
Lond@@
Marshmall@@
Max@@
Mech@@
Mich@@
Mitgefühl@@
Moh@@
Mum@@
Murray
NM:
Natasha
Neg@@
Non@@
Obam@@
Parl@@
Pian@@
Pic@@
Pizz@@
Point
Pon@@
Prior@@
Priv@@
Produktiv@@
Reicht@@
Restauran@@
Rezep@@
Sarah
Service
Smit@@
Sony
Sook
South
Space
Stewart
Sty@@
Sus@@
Synchron@@
Tat@@
Ten@@
Tiger
Tin@@
Trend@@
Unterschied@@
Ur-@@
Urban@@
Vagin@@
Vat@@
Watt
Weißt
Will
Wow,
Y
Zap@@
Zul@@
af
ager,
ain
all-@@
alls
als.
ama
ana.
anst@@
anthrop@@
ara
aria,
asiat@@
au.
auben@@
ave
aver@@
behin@@
beschlos@@
breite
bron@@
ca
cel@@
chene
chil@@
computer@@
cre@@
da?"
derm@@
dieren
dio
dsch@@
dür@@
eBay
eich
elli@@
elo@@
els.
ene.
enf@@
enter
entfer@@
ents
entw@@
enzen.
er"
ermöglich@@
eser@@
ess.
esse.
ester@@
ezi@@
fro@@
fronti@@
gang,
geda@@
genann@@
gestart@@
gets
ging@@
greich@@
gä@@
haupt@@
he.
insi@@
inter
inzi@@
isten,
jün@@
kaufs@@
kind@@
konsu@@
ky
kün@@
lied
liste
lohn@@
m:
max@@
minist@@
molek@@
nehmer
ness
net.
nov@@
o."
offensichtlich.
oka@@
ony@@
ore,
organisieren.
ossen,
ota
ow-@@
paar@@
packte
parallel
passte
pern
pfeil@@
prognosti@@
provi@@
psychologische
quet@@
rauf
rauszu@@
reagi@@
rede,
regionen
reichen,
reisen,
rekonstru@@
rick@@
risik@@
rock@@
ruin@@
russischen
sam,
scharfen
schliesslich
schließe
schloss
schneiden.
schwank@@
schüs@@
sein:
seitige
selbstverständ@@
sendet
ser,
sey
sho@@
sichtbare
siehst
singt
so...
solle
spitz@@
sport@@
spreche.
sprich@@
sprung
sprüch@@
sprüh@@
spül@@
starker
starteten
stattfinden
stecken,
steckten
steiger@@
stimmi@@
stoppen.
stoß@@
strom
sun@@
sy@@
süch@@
südlichen
t's
technologie
technologischen
ter:
tiefgrün@@
tiefsten
tot,
treu
ular
umher
umr@@
unabhängigen
ung;
unge
universelle
uns?
unsichtbar
unterbrochen
untereinander
unterricht
unterricht@@
untersuch@@
unterweg@@
uri@@
v.
va@@
van
ve.
ven,
ven.
verbrauchen
verbunden,
verdoppelt
verfein@@
vergleichen.
verhält
vermögen
versorgt
verstop@@
verteilung
verurteil@@
veröffentlichte
visuell
voranzu@@
vorder@@
wahrer
wahrsten
wandert
war's
warum,
wasch@@
weißer
welch
wenn,
wette,
wissenschaftlich
wundervoll.
ya
ymp@@
yrint@@
zau@@
ziel
zog,
zufälligen
zukommen
zukunft@@
zukünf@@
zusammenarbeiten,
zwass@@
zweitens
zweitens,
zwölf
zählt.
zün@@
«@@
Äl@@
Ärzte,
Ökologie
Überblick
Übrigens
ßt,
ächte
ähnlich,
ände,
änderung
äser
äufe
öch@@
öffent@@
ökonom@@
örtlichen
üben.
übersetzen
übertragen,
überwach@@
überwinden,
übrigen
ünkt@@
—@@
":
&amp;@@
-t@@
.000.
1945
1991
1995
2050
26@@
30.
300.000
4.000
70@@
8-@@
900
Acumen
Adam@@
Arch@@
Atlanta
Ausr@@
Avel@@
Ax@@
Bed@@
Bern@@
Bitt@@
Blickwink@@
Blogger
Blue
Brig@@
Buddha
Bush-@@
Contr@@
Cro@@
DE@@
DP:
Darwin@@
East
Einzi@@
Gene.
Gil@@
Herausforder@@
Hinder@@
Impul@@
Indon@@
Interessant@@
Iran,
Jes@@
Jill@@
K-@@
K.
KS:
Kandi@@
Ken
Konvers@@
Kuh@@
L.A.
Luc@@
Lung@@
Luther
M.
Map@@
Maßst@@
Mississi@@
Mountain@@
Na@@
Nobel@@
Normal@@
Norman
Ny@@
Panbanisha
Pazifi@@
Pentag@@
Pink@@
Pist@@
Poliz@@
Pran@@
Pur@@
Q
Rachel
Restaurant@@
Ron
Roots
SET@@
Schlagzei@@
Schnei@@
Sem@@
Send@@
Serge@@
Shakespeare
Sig@@
Square
Stanfor@@
Star
Susan
T.
Ted
Thula
Tok@@
Top
V-@@
Vereinig@@
Videospi@@
Vietnam
Williams
Wu@@
ZK:
Zeh@@
ace
ache,
ack,
ada,
aku@@
allgem@@
allo.
ambur@@
amour@@
angiogen@@
arit@@
arl@@
atte.
aturi@@
aube
audi@@
bb@@
beteili@@
blu@@
bole
brasili@@
by
co
code
com@@
cool,
d?
demo@@
diejen@@
differenzi@@
dom
du.
eck,
ekt
ende.
enny
enschaf@@
erkun@@
etc@@
ete:
etro@@
ever@@
fair
falt@@
gavi@@
gehab@@
gekauf@@
gelegen@@
genu@@
genü@@
gers
gespro@@
gewiss@@
griff
grov@@
iPh@@
identi@@
iere.
inn
ino
intr@@
issi@@
itik
kil@@
kk@@
mak@@
mati@@
mem@@
modern@@
mom@@
negative
neuron@@
nord@@
ogn@@
ografi@@
olli@@
ook
ophi@@
oris
ose.
ossi@@
pazi@@
pend@@
perman@@
person
pos@@
pren@@
presse
program@@
re-@@
rei
rey
rieben
ron
rus@@
seri@@
sied@@
sport
sth@@
student@@
talent@@
tick@@
totale
trivi@@
umindest
unker
vere
vergangen@@
virtu@@
visi@@
w!
weib@@
wenn@@
zel
zügi@@
«
Är@@
ähen
änz@@
"Wo@@
"Wow,
.org
1,3
100%
110
140
15,
1950
1994
250.000
450
46
5%
Alab@@
Amster@@
Apollo
Astr@@
Auswirk@@
Bart@@
Beck
Berechn@@
Berkeley
Boul@@
Brid@@
Brother@@
Bruce
Cameron
Carl
Christopher
Clint@@
Colum@@
Connect@@
Cont@@
DN@@
Dan@@
Diplom@@
Disne@@
Dop@@
E.
E8
Ed
Erinn@@
Erkrank@@
Facebo@@
Fantast@@
Francisco.
För@@
GPS
Galva@@
Gam@@
Gle@@
Glu@@
Goul@@
Grace
Great
HIV.
Haf@@
Hai
Hawai@@
Henry
Hock@@
Hoff@@
Hop@@
Hühn@@
Ihr@@
Inner@@
It@@
Julian
K:
Katastrop@@
Kit@@
Kompl@@
Könn@@
Las
Lav@@
Levi@@
Lit@@
Live
Magazine
Master
McDonald's
Mes@@
Mob@@
Mobile
Montana
NI@@
Nike
Nug@@
O-@@
Oh.
P.
Philadelphi@@
Pittsburgh
Program@@
Project
Ral@@
Ren@@
Report@@
Resp@@
Ret@@
Revol@@
Rose
Schwef@@
Sergio
Shar@@
Show.
Sobule:
Stev@@
Sudhir
T-S@@
TD:
TEDGlobal
TV
Tan@@
Teles@@
Teszler
Therapi@@
Tom@@
Versch@@
Virgin
Wirt@@
Wood@@
Zau@@
abilit@@
aby@@
ado@@
ah!
ail
ala,
alte,
amente.
ami,
ams
angl@@
apit@@
archie
ari
artik@@
assen.
bbl@@
biot@@
boo@@
bus
cer
chest@@
cu@@
d'@@
dan
diplomat@@
ds,
durchschnitt@@
e!"
e'
edr@@
egori@@
eim@@
einstimm@@
einzi@@
eist@@
ekten
ela
elimin@@
ellen@@
embr@@
emente
emente,
emo@@
energie,
enze
enze,
epi@@
esam@@
esie,
ex,
ext@@
exu@@
fa
feh@@
fett@@
figur@@
fizieren
fru@@
fut@@
gespiel@@
getest@@
h"
hack@@
han
heh,
hor@@
hr
iPo@@
ign@@
industrie.
ine@@
ing:
ini
innovative
ino@@
interagier@@
itte
iv@@
keln
keni@@
kle@@
lei
manifest@@
ministr@@
mobil@@
modelle
motiv@@
nehmer@@
nell@@
obi@@
off
olly
omateri@@
ong
onik
op
oret@@
oton@@
pe@@
per,
ppe.
quisi@@
rag
rel
ri
rib@@
ril@@
roh@@
rott@@
ry
sam.
schied
schlos@@
se?
signifi@@
spektiv@@
spor@@
strum@@
sugger@@
säu@@
tempor@@
tor
tus
vat@@
vergewal@@
vergi@@
verhin@@
verläs@@
versit@@
verzweifel@@
vin
ward
was@@
web@@
wichti@@
wow,
wählt
ye@@
ämm@@
ändert.
‟
!",
"Be@@
"Mam@@
%,
0.000
00,
1/@@
13.
15.000
1970
2015
30%
3:
42
44
7.000
70.000
8.@@
96
=
?”
AIDS,
Abhängi@@
Ahn@@
Aimee
Alber@@
Alexand@@
Allig@@
Ambul@@
Americ@@
Ani@@
Anth@@
Argent@@
Arkans@@
Armstrong
Aven@@
Beschei@@
Bestech@@
Bü@@
CB@@
Carb@@
Chicag@@
Club
Corn@@
Dave
Demok@@
Dev@@
Diag@@
Dienstleist@@
Digital
Direc@@
Dubai
Extra@@
Exxon
Fili@@
Fis@@
Flick@@
Fro@@
Furb@@
Gan@@
Gat@@
Gli@@
Harl@@
Hawking
Head@@
Hemisphä@@
Herb@@
Herbie
Himalay@@
Hypoth@@
ID@@
IDEO
Image
Insi@@
Intel
Isaac
Janu@@
Joy@@
Katrina
Kay
Kindersterb@@
Kosovo
Lama
Langley
Lay@@
Leak@@
Linux
Ly@@
Maitre@@
Molek@@
Moore
My
Navi@@
Negroponte
Neil
Net@@
Ok?
Ot@@
Pakist@@
Papa
Pier@@
Pog@@
Prax@@
Que@@
Richard,
Rio
Riverside
Rock
Ronald
Royal
Ruanda,
Schalt@@
Schreibt@@
Serv@@
Seth
Simon
Smo@@
Som@@
Spac@@
State
Sweeney:
Sz@@
Tamiflu
Ted@@
Thin@@
Tho@@
Tibet
Tut@@
Tyrann@@
U.S.@@
Urheb@@
Van
Venter
Walter
Warren
Web.
Weib@@
Wik@@
Willi@@
Wis@@
Wit@@
Work@@
Wrigh@@
Z
Zerstör@@
Zone
a!
abi@@
aer@@
agn@@
ahr
ally
alog
amide
appy
arab@@
ard,
ard.
ardi@@
arte
ata
atsäch@@
beträ@@
blü@@
brid@@
brillante
buchstäb@@
ca@@
cr@@
dach@@
day
deb@@
demie
deutlich@@
dustri@@
eber@@
ect@@
elef@@
eme
entlichen
erlei
esist@@
ez
fine
ganis@@
gru@@
grü@@
hai
halts@@
hek
ical
icht@@
ici@@
il.
ingu@@
inien
interne
isa
knü@@
ktis
kut@@
künf@@
l'@@
lam@@
laub@@
len@@
lo
logarit@@
mani@@
masse,
mente
mm,
nar@@
nie,
nitten
noti@@
näh@@
oft@@
okus@@
ology
ome.
onnen
ory
ot,
otto
partner
pert
press@@
prom@@
quote
raff@@
regionale
ren,
ren.
respon@@
riti@@
ror@@
rosa
sequ@@
sexy
sik@@
simul@@
son:
stelle.
topi@@
unterbro@@
ver:
vil@@
wan
wart,
wasserst@@
welch@@
yo@@
ystem
za
zeichnungen
Änder@@
ó@@
ünsch@@
–@@
‘
‚@@
"Hey
"So
%@@
0.@@
1,2
12.
12.000
1996
3,5
49
5.@@
Abu
Adi@@
Agr@@
Alaska
Alex
Alp@@
Alzhei@@
Andrew
Atlanti@@
Austr@@
Automo@@
BL:
Bah@@
Bilba@@
Bill@@
Bollywoo@@
Botsw@@
Boy@@
Bre@@
Budd@@
Buff@@
CP:
Charlie
Chev@@
Christi@@
Clar@@
D.C.
D:
DD@@
David,
Dien@@
Dinosau@@
Dir@@
Disco@@
Einkomm@@
Eli@@
Encel@@
Flor@@
Florida
Fron@@
Fähig@@
Galileo
Galois
Gand@@
Gau@@
Geschi@@
Glüh@@
Good@@
Graham
Green
Grön@@
Guardi@@
H.
Hadron
Han@@
Heut@@
Höhe@@
Hüt@@
II@@
Immuns@@
Independent
J
Jimm@@
Kim
Kohlendioxi@@
Kong
Kooper@@
LH@@
Lov@@
Mah@@
Manu@@
Marin@@
Math@@
Nash@@
Natür@@
Nev@@
Notwen@@
Oh@@
Ok@@
One
Ov@@
Pennsylvania
Pepsi
Ple@@
Potenti@@
Pun@@
R-@@
RNA
Ras@@
Red
Reihen@@
Ric@@
Rosling
Russl@@
SARS
Sad@@
Scherz@@
Seattle
Servic@@
Shangha@@
Shi@@
Sir@@
Situ@@
Skelettmus@@
Societ@@
Stau@@
Stäm@@
Ta@@
Tai@@
Teilchen@@
Tenness@@
Tesz@@
Tig@@
Trag@@
Tsun@@
Urugu@@
Verwend@@
Virginia
Vivi@@
W
Wikipedia,
Zel@@
Zentim@@
aa@@
ada.
add@@
algorit@@
alist
ane.
anne,
asst
aster@@
attra@@
awatt
bai
befest@@
besti@@
bran@@
buchst@@
ce"
ci
cy@@
dafrik@@
dag@@
dal
darüber@@
demon@@
do,
dor
dra@@
e,@@
ee,
eh,
elev@@
enber@@
ensatz
ensetz@@
eo@@
erry
ese.
evit@@
ff,
foo@@
forn@@
frequ@@
för@@
gas
ghan@@
gin@@
ham
he,
hig@@
inf@@
intellektu@@
intellig@@
it.
itra
k"
kes
kop
lamp@@
ling.
linien
loy@@
mie
mord
o"
ob,
ogg@@
ok
oto
pakist@@
param@@
pil@@
pit@@
poth@@
rank
refl@@
relative
renz@@
resp@@
revol@@
robot@@
rug@@
s!
sell
sog@@
stag
star
ste@@
stock
strategi@@
strategie
super
tal@@
tasche
tei@@
test.
ton,
tort@@
tra
uk@@
ul
um:
ume
uro
utig
va
van@@
venti@@
ves
virale
wachsene
zone
²
Äg@@
Übri@@
ähig@@
ñ@@
"I
"Ok,
'"
)
.000,
.:
.or@@
125
150.000
160
2/@@
20%
2000.
22.
25.000
300@@
38
52
56
73
76
83
92
AL@@
AM@@
Alex@@
Allen
Aller@@
And@@
Andy
Ann
Aufl@@
BB@@
BM@@
Banglades@@
Bank,
Barbi@@
Baust@@
Begeister@@
Benjam@@
Benki
Berlin@@
Beschreib@@
Bestand@@
Bev@@
Bhutan
Bin
Boein@@
Bost@@
Bott@@
Browne
Bush.
Cany@@
Cat@@
Charli@@
Conn@@
Conserv@@
DL:
DR@@
Dallas
Dawkins
Dennett
Detro@@
Din@@
Direkt@@
Divi@@
Dougl@@
E,
E.@@
Eart@@
Eig@@
Emer@@
Ep@@
Erlaub@@
Ethan@@
Ethi@@
Explor@@
F.
FDA
Facebook
Finanzi@@
Full@@
Galapagos
Gemäl@@
Geometri@@
Harri@@
Hein@@
Hekt@@
Hillis
Hospit@@
Howar@@
Hud@@
Hul@@
Hunt@@
IBM
Ill@@
Inde@@
Instituti@@
Island,
Istan@@
JC:
JP@@
Jab@@
Jerry
Journal
Kaliforni@@
Kalori@@
Kepl@@
Khmer
Kik@@
Laut@@
Law@@
Lincol@@
Lynn
Mary
McDonald'@@
McLu@@
Metapher@@
Micha@@
Michig@@
Micros@@
Natalie
Nav@@
Nicole:
Nive@@
Nov@@
O,
O.
Oprah
Os@@
Ox@@
Oxford,
PR:
Pac@@
Park,
Parkinson
Pati@@
Patric@@
Pazi@@
Penn@@
Pink
Prest@@
RC@@
Rit@@
Robic@@
Roger
Roosev@@
Rory
Ross
Schlüs@@
Schwarzschil@@
Schwefel@@
Schä@@
Shakespe@@
Skyp@@
Spo@@
Squ@@
Sri
Stan@@
Starbuck@@
Sud@@
Super
Sympt@@
Tansan@@
Toy@@
Toyota
Trade
Transpar@@
UCL@@
UF@@
Verbesser@@
Vik@@
Virgini@@
Wal-@@
Was@@
Weltbevölker@@
Wikipedi@@
Window@@
York@@
YouTu@@
Yves
Zeitschri@@
Zimbabw@@
ada
agnost@@
air@@
aka@@
alli@@
alog@@
andau@@
ando
appell@@
aqu@@
aria.
arma@@
ash
assung
aste
atember@@
athan
autor@@
betei@@
bombar@@
dar
diag@@
dow@@
ea,
ebr@@
eda
eden
efl@@
ektr@@
elektro@@
eler@@
elli
emis@@
emo
erfol@@
ero
eso@@
fat@@
fo@@
forschen
fossi@@
fotogra@@
fund@@
fusi@@
gam@@
gebau@@
ged@@
gesund@@
gradu@@
graf@@
gramm@@
gran@@
hek@@
husi@@
ian
ico
iet@@
illa
impl@@
ing"
ingsu@@
intu@@
intuiti@@
ish@@
ita
ita@@
itu@@
ity
jam@@
klear@@
km.
li,
liberale
lineare
lou@@
mec@@
mentale
migr@@
milit@@
mini@@
moment@@
mond
more
neb@@
non@@
näm@@
omos@@
ona
onder@@
ondere
op.
orbit@@
orie,
otter@@
ovi@@
oy@@
pac@@
parti@@
plast@@
präz@@
quadrat@@
qualität
qui@@
radio@@
rann@@
retro@@
rie
rigi@@
rout@@
ruhig@@
sbur@@
scherz@@
sichtlich
sky
sonni@@
spon@@
standard
steig@@
stern@@
summ@@
sych@@
tast@@
team
tens:
terweise
test,
traum
traum@@
uchs@@
ulare
ule
ultraviol@@
ument@@
umpen
umwelt@@
unaus@@
urop@@
utu@@
verur@@
vest@@
video
virus
vog@@
wärmung
y",
y?
zenten
zwöl@@
ähle
ühm@@
";
"Mamma,
+
100,
170
186@@
188@@
3,7
31
400@@
57
8.000
?'
AA@@
AB@@
AG:
Aka@@
Allo@@
Amazon
Amy
Andre@@
Angeles.
Atlant@@
Barmherzi@@
Batter@@
Bay@@
Bedar@@
Berkel@@
Bez@@
Bonobo
Buckminster
Buil@@
Calt@@
Carolyn
Chan@@
City,
Corexit
Coun@@
Dopp@@
Dou@@
Eb@@
Elean@@
Elec@@
Ess@@
Everest.
Flüchtling@@
GPHIN
Gandhi
Gapmin@@
Gary
Gebr@@
Gell-@@
Georgetow@@
Ghrai@@
Gilli@@
Glenn
Glühbir@@
Guatem@@
H,
H5N1
HIV,
Harv@@
Hawk@@
Herkun@@
India
Jac@@
Jackson
Jacqueline
Johnn@@
Kamen
Kanzi
Kent@@
Kro@@
Lank@@
Lebew@@
Len
MacCread@@
Madag@@
Maria
Meeresspieg@@
Minnes@@
Moskitonetz@@
Mumba@@
Myhrvol@@
Mäd@@
Nairo@@
Nancy
Nap@@
Neugi@@
News
Nigeria.
Nix@@
Novograt@@
Okto@@
Ord@@
Parkin@@
Pep@@
Power
Pres@@
Princet@@
Proj@@
R.S.:
RISD
Rap@@
Reagan
Reli@@
Rockef@@
Rockett@@
Roy
Sam
Satell@@
Saul
Schwefelwasserst@@
Sci@@
She@@
Skycar
Sout@@
Sputni@@
Stal@@
Street@@
Stun@@
Sul@@
Sun@@
TR:
Tay@@
Temberer@@
Tenden@@
Tenn@@
Tul@@
U-B@@
Wall
Warner
Wi-F@@
Wilson
a".
abbi@@
abyte
ado
agon@@
agu@@
ak,
allo
amente
amt@@
anch@@
angewand@@
ano
antast@@
ante.
ap
ara.
ative.
atu@@
auto
ava
azz
azz@@
bai@@
beschäf@@
bi
bos@@
burg
cast@@
ce@@
chiat@@
chirur@@
chter,
cin@@
clin@@
codi@@
com
cop@@
cor@@
cul@@
cus
depon@@
di,
diri@@
div@@
ecca
ee@@
eflyer's
egi@@
egoist@@
ektu@@
elast@@
ele,
elem@@
equ@@
erec@@
erie.
esp@@
evi@@
ez@@
feder@@
feste
find@@
format@@
frit@@
fä@@
ga
genet@@
gens,
get
hirl@@
hop
hot@@
hyth@@
höch@@
ia,
ia.
implement@@
itiv@@
ki
konfron@@
kw@@
kür@@
let@@
lett@@
ley,
limit@@
list@@
lob@@
lust
manag@@
mittelt
moti@@
mur@@
nd
omatopo@@
omp@@
oping
opol@@
ora,
ore.
ori
orie.
otball@@
otte
out@@
ove
oxi@@
peri@@
perim@@
pf
pilo@@
porte
ppi
predi@@
profess@@
randomi@@
rapi@@
re."
regu@@
reste
rigor@@
risi@@
sab@@
sagt@@
schliess@@
separate
set
sfor@@
stec@@
studio
teles@@
tende
tum@@
ue,
um?
umanit@@
unit@@
utz
verfol@@
vet@@
vietnam@@
wachsen@@
wart
woo@@
zona
»
‘@@
"An@@
"OK,
"Oka@@
"]
.com,
.com.
16,
35.000
4.@@
400.000
500.000
6,@@
78
95%
Act
Airstre@@
Angeles,
Anton@@
Aravin@@
Attra@@
Auflös@@
Aug@@
BO@@
Bang@@
Barry
Bast@@
Bell@@
Bhut@@
Bono
Bosni@@
Bronx
C.A.:
CD
CO@@
Cargill
Carolina
Central
Cham@@
Cheet@@
Chicago.
Cla@@
Clay
Cloni@@
Company,
Corpor@@
Costa
Cric@@
Cy@@
DNA.
Da,
Dankeschön@@
Demokrat@@
Deng
Dieg@@
Diff@@
Dipl@@
Domin@@
Dot@@
E-Ma@@
ED:
ES@@
Econ@@
Edison
Eduardo
Effizi@@
Emmanuel
Encelad@@
Eng@@
Ernest
Extra-@@
Florida,
Francisco,
Frankl@@
Fri@@
Ful@@
G,
GB:
Gehry
Gemü@@
Geographic@@
Geschichten@@
Global
Gom@@
Goog@@
Gran@@
Greenpeace
Greg
Grey
HI@@
Had@@
Himalaya
Hyderab@@
Hyun
I,
J.
Jacqu@@
Jennifer
John,
Joshu@@
Juan
Just@@
Kaluza
Krishn@@
Laurie
Lawrence
Lebenserwart@@
Leon@@
Libr@@
Lifes@@
Lind@@
Linus
Live@@
Lyn@@
Länder@@
Mahatma
Marshall
Meeress@@
Mell@@
Michel@@
Mid@@
Millenni@@
Mister
Monterey,
Mozart
NK:
Nachmitt@@
Nami@@
Networ@@
Nir@@
Nord
O'@@
Ohi@@
Oliver
Orgas@@
Ori@@
Orient@@
Paci@@
Pakistan.
Philosoph@@
Preg@@
RN@@
Richard.
Robot@@
Rönt@@
Sang@@
Schick@@
Schli@@
Sco@@
Septem@@
Servi@@
Speci@@
Stanley
Stefan
Sut@@
Sween@@
SysAd@@
T,
TA@@
TEDME@@
Tes@@
Tokyo
Trock@@
Tru@@
U,
UG:
USDA
Univers@@
Universität@@
Unternehm@@
Valde@@
Verzwei@@
Vill@@
Village
Walker
Washington.
We@@
White
Wiki@@
Windows
Worldchanging@@
X,
a;
abit@@
agog@@
alle@@
alluzin@@
amera
anda.
anie
anna
appen@@
asc@@
atell@@
atrice
ausi@@
auto@@
av
awi@@
ba.
bag@@
beob@@
bibliot@@
bili@@
bol@@
bril@@
cats
co,
de?"
denz@@
diagn@@
dot@@
edy
eilig@@
einand@@
elbe
elen@@
ell-@@
ellei@@
eman
emat@@
empi@@
ence
ens:
ensei@@
entschied@@
enze.
eo
ept@@
esti@@
etzt,
ey:
fic
fond@@
fristig
fter
genom@@
getro@@
gewandel@@
gion@@
glori@@
go.
gon@@
got@@
gri@@
ham,
hauptsäch@@
hieu
ic,
ica,
ingl@@
ingst@@
insk@@
interesse
irre@@
iste
jeden@@
jährig@@
kodi@@
kommuni@@
lant@@
ler:
ley.
lieb
low
mage
martph@@
matri@@
meg@@
moni@@
nomin@@
num@@
o!
ohn
oi
ole@@
oni
opi@@
osh@@
ote.
otteri@@
ow,
pak@@
parad@@
pedi@@
perio@@
pfer
plo@@
pro-@@
pur@@
qualit@@
quanti@@
que
rap@@
re:
restau@@
rete
riel
scheinend
seu@@
sistor
sm@@
sourc@@
spanne
spruch
stitu@@
ti
trover@@
ub@@
uck
ueb@@
und-@@
up.
ute,
vey
ville,
wahrhaf@@
wai@@
wak@@
wbo@@
zin
zugän@@
zwanzi@@
Übertrag@@
äb@@
äfte
ähne
äten
ätze
äß
überhau@@
#@@
..@@
1.100
11,
1500
192@@
2%
2000,
21@@
3%
?".
AIDS.
Afghanistan.
Ai@@
Alask@@
Alh@@
Ambi@@
Antri@@
Armstr@@
Arth@@
Bam@@
Bay,
Benn@@
Berech@@
Bond
Bonn@@
Bulg@@
Cambridge,
Cape
Capit@@
Catherine
Clark
Coca-Cola
Columbia
Compan@@
Cooper@@
Cru@@
D.@@
Dah@@
Delhi,
Dez@@
Diejen@@
Evel@@
FA@@
Fac@@
Febru@@
Flickr
Florida.
Fond@@
Foundation,
Franc@@
G.
G:
GP@@
Gehr@@
Get@@
Green@@
Guer@@
Gust@@
HIV/AIDS.
Hav@@
Heat@@
Hill
I.@@
IBM@@
IP@@
Il@@
Jeff@@
KIP@@
Karen
Kev@@
Klassenzi@@
Kohlendi@@
L.
L.@@
Lewis,
Lyndon
MA@@
MIT.
McDonal@@
Mount@@
NO@@
Nairobi,
Narr@@
Nicht-Null@@
Nig@@
Oxford.
P,
Pas@@
Pittsburgh@@
Reag@@
Sac@@
Samu@@
Sear@@
Seatt@@
Set@@
Shoot@@
Simp@@
Sinclair
Sour@@
Splashy
Steve,
Stone
Sudan
TEDster
TT@@
Ugan@@
Ul@@
Verzweifl@@
Vogelgri@@
Wikipedia.
Yochai
Zufrieden@@
a!"
a...
aci@@
akul@@
alie
alop@@
amo@@
amput@@
anco@@
andal@@
andin@@
ando@@
anga
appar@@
arn@@
atar
atem@@
ausch
auspiel@@
bas@@
batter@@
begann@@
begr@@
bile
biom@@
blog@@
boom@@
brio
cam@@
cann@@
cas@@
chef
col@@
ct@@
da:
dap@@
definiti@@
desig@@
dite
dkrö@@
domest@@
e]
ect
edback
ee.
eget@@
ego@@
eli
ellow@@
enc@@
enseit@@
erfolg@@
erot@@
erv@@
essere
essour@@
etab@@
etti
fem@@
ford
fu
gase
gefrag@@
geschlos@@
gewisser@@
gruppi@@
ha.
han,
ia@@
ic.
ile,
illegale
iment@@
immen@@
inc@@
influenz@@
integr@@
ir
ish
iso@@
isse,
j
ji@@
km@@
lis
lück@@
mand@@
meda@@
metall@@
metri@@
mherzi@@
mone
mut
numer@@
nur@@
o.@@
ock.
oh.
oli
oline
oma
online,
onnen.
ood@@
ooh,
ope
orchest@@
parall@@
patri@@
petei@@
pin@@
pire
porter@@
pragmat@@
privile@@
prov@@
quantit@@
rac@@
ramm
rate.
real@@
reben
rob@@
ry,
sand@@
schm@@
schmer@@
scre@@
sene
serie
sess@@
sey,
signi@@
sli@@
spir@@
stabile
stehung
summen@@
sv@@
tig?
to,
top@@
ty
ulpt@@
umul@@
uno
usa
ute.
vigi@@
vo
ympischen
yrigh@@
äher@@
ängstig@@
é,
üll
"...
1%
12,
18,
189@@
2007,
2020.
25%
40,
47.
66@@
AIM@@
Afghan@@
Andr@@
Anges@@
Armut@@
Associ@@
Atlanta,
Bedi@@
Blair
Bos@@
CIA
California
Camer@@
Chicago,
Cir@@
Coca
Coca-@@
DVD
Desig@@
Donnell
Durchmess@@
Einstein.
Entwur@@
Erder@@
Erschaff@@
Fok@@
Gebir@@
Geburt@@
Him@@
ID
Islam,
Kurzweil
Luci@@
ME@@
MS
Manhatt@@
Manhattan,
Marine
Microsoft,
Mosk@@
Moskit@@
Moskiton@@
Moz@@
NASA.
Nai@@
Neum@@
Neumann
Nichol@@
Nigeria,
Ott@@
Pos@@
Prem@@
Princeton
Prize
Prob@@
Prog@@
S.@@
SA@@
SE@@
SI@@
Sant@@
TE@@
TEDster@@
Times.
Valley.
Vel@@
Vinci@@
Viv@@
Vul@@
Worl@@
Zent@@
Zig@@
]@@
a?"
abili@@
acom@@
addi@@
affin@@
ai,
air
ala.
allo,
analog@@
anspr@@
anten@@
anthr@@
apr@@
arri@@
ato
ato@@
bere,
bian@@
cal@@
carbon@@
cat@@
cent@@
chip
comput@@
cra@@
demi@@
designer,
designer.
destens
dom@@
ea.
ela.
eloqu@@
emi@@
energet@@
erne
erstör@@
esz@@
falt
fantasi@@
file
fotografie
fram@@
fran@@
fung@@
ga,
gent@@
gesamt
go,
gratis
gratu@@
gust@@
high-@@
ide,
ideale
idi@@
iero
imi
inson
interagi@@
ito
konzent@@
ktischen
labor@@
lanti@@
leiden@@
lässig@@
ma:
mail
male,
manu@@
mart
membr@@
mes@@
metap@@
mik@@
mme
mort@@
multin@@
musli@@
mäh@@
nec@@
nes
neut@@
nieman@@
o",
ole,
open
osau@@
oth@@
oto,
otten@@
oz@@
parl@@
paus@@
pe.
pens@@
pessimist@@
pieg@@
pir@@
pliziert
poet@@
porn@@
pre@@
quartier
rand@@
rasch@@
rauch@@
redi@@
redu@@
ria
rig
rimin@@
rip@@
robo@@
sachen
se:
si,
sia
sili@@
släu@@
sonsten
sop@@
sorgfäl@@
spin@@
spontan@@
stem@@
ständ@@
suff@@
säch@@
tab@@
tapp@@
tech
temper@@
tend
tim@@
ton.
tori@@
trib@@
ultur
ultur@@
ummi@@
up,
ursprün@@
val
vater
verdien@@
wachs@@
windi@@
yn,
Älter@@
ü
ülle
ünstig
♫@@
"Ah,
"Sei
"U@@
"V@@
'?
(@@
10%
10,000
2004,
2008.
2009,
40%
4000
6%
6000
70%
Artenviel@@
Bangladesh
Billi@@
Bomba@@
Bril@@
Britann@@
British
Brookl@@
C.@@
CI@@
Casa
Cher@@
Connectic@@
Cu@@
DA
Dann@@
Darfur.
Date
Denn@@
Dil@@
Doll@@
Econom@@
Edu@@
Feder@@
Feh@@
Gilber@@
Google.
HA@@
HIV/@@
Harmon@@
Harvard.
Hig@@
Hinsi@@
Hori@@
II
Interpret@@
Katr@@
Kenya
Kün@@
Lebensst@@
Lär@@
Maggi@@
McDon@@
Monter@@
Nell@@
Nich@@
OK@@
Oce@@
Optimis@@
Philanthr@@
Philanthropi@@
Premier@@
Princ@@
RIS@@
Rach@@
Rett@@
Revoluti@@
Rift
Risi@@
SAR@@
SL@@
Sandel@@
Scot@@
Sistema
Sow@@
Sowjetuni@@
Spagh@@
Stanford.
Stru@@
Suprem@@
TA
Tali@@
Toky@@
Tön@@
Türk@@
U.
Uganda,
Un
Vis@@
William@@
Zusätz@@
abbat@@
abol@@
acc@@
aco
ader@@
alia
aliforni@@
altru@@
ami.
amo
anda@@
ani,
ania.
anim@@
ansi@@
antwor@@
appl@@
ari.
arte,
astr@@
astron@@
atomi@@
avit@@
ba,
babw@@
bac@@
ban
bedingt
berfl@@
betriff@@
bia,
bla
boc@@
bon@@
boten
bud@@
che@@
clu@@
co-@@
cos@@
dai
dell@@
dens@@
denzi@@
dison
dok@@
dominante
don
dop@@
duc@@
e,"
ela,
emente.
ena,
eno
enorm@@
erkennung
erkl@@
erwä@@
esc@@
este,
este.
estra@@
etto
eva
ezu@@
falls,
fet@@
fin
formal@@
frist@@
genit@@
geschieh@@
gger@@
heorie
hi.
ica.
ichts
ics.
imper@@
inspi@@
instit@@
intendo
interessante,
invasi@@
ister
istor@@
ite.
iti
ival
lab@@
lap@@
leun@@
lev@@
mart@@
merksam@@
messe
miser@@
mist@@
mobile
neben@@
nol@@
nos@@
nostal@@
null@@
o?"
ogh@@
ogie
ographic
ohn,
omo@@
onach
online.
osoph@@
ota,
ota.
otto,
ow.
pad@@
pann@@
paran@@
ped@@
pendi@@
perf@@
phä@@
plas@@
plur@@
po
polare
ppo@@
rati@@
ri-@@
ricket.
ricul@@
rotte
roul@@
sari
schwi@@
sco@@
senz@@
sere
set@@
solut
spot
sta
status
stem
stere@@
summen-@@
supp@@
t'@@
terr@@
terror@@
toria
tral@@
trick@@
turbin@@
ule.
umane
una
usw@@
uten@@
utionen,
vill@@
viol@@
volum@@
ww@@
zi
zwang@@
züglich
äugi@@
ó
önt@@
ücksich@@
üssig@@
"Na@@
"Si@@
"Tu
"Vi@@
.B.
1960,
1994,
2001,
2005,
70,
8%
=@@
@@@
Aim@@
Anthr@@
Beit@@
Bem@@
Buchst@@
Buck@@
Bush,
Cambrid@@
Cant@@
Cer@@
Congr@@
Cost@@
Dad@@
Dai
Dankesch@@
Dass@@
Dec@@
Dsch@@
ER@@
Elizabet@@
Ende@@
Enrico
Exx@@
Fang@@
Fik@@
Flas@@
Folgen@@
Found@@
Galax@@
Galil@@
Geleg@@
Gesprä@@
Giuli@@
H5N@@
Haiti,
Handgel@@
Harvard,
Hausauf@@
Henr@@
Infrastrukt@@
Innenst@@
Jos@@
Josep@@
Ken@@
Latt@@
Letter@@
Magaz@@
Masch@@
Mic@@
NASA,
Nort@@
ON@@
Oxfor@@
Pennsylv@@
Pent@@
Per
Plast@@
Plötz@@
Poli@@
Privile@@
Rig@@
Roy@@
Schok@@
Sinc@@
Skelett@@
Syl@@
TV.
TV@@
Temper@@
Trotz@@
University,
User@@
Vag@@
Vall@@
Vu@@
Weihna@@
You@@
ades@@
ahe
akter@@
alc@@
ale@@
ali,
ali.
alit@@
ama,
amat@@
ammi@@
anda,
anteri@@
ape
app
ario,
aro
avo
barb@@
batte
bend
berer@@
bi.
bile.
britanni@@
bus@@
ce?
cer@@
cha@@
cher@@
chi
co.
da."
dasselb@@
degra@@
design,
di.
diagnost@@
dic@@
diesel@@
dings
diverse
dol@@
drauß@@
e'.
ebra@@
eig
eils
elegante
emer@@
enn
ensch
enst
entro@@
eo.
epidemi@@
eri
erkt
esser
estern@@
estr@@
fili@@
film,
film.
flanz@@
forma@@
fos@@
foto.
fron@@
gefä@@
gegn@@
gere,
getroff@@
grandi@@
herz@@
hi,
hili@@
i?
ice.
ico,
icon
ign
immens@@
impul@@
indi
inklu@@
interess@@
inver@@
io,
ip@@
irrit@@
isi
istan,
iti.
kognitiv@@
kosteng@@
li.
lo.
merit@@
mest@@
modul@@
multi-@@
mutz@@
nam
nan@@
nelle
neurale
ni
noma@@
note
obbi@@
odore
ohle
omb@@
omen@@
ometri@@
onor@@
onto
operni@@
orni@@
osa
pa
passiv@@
pau@@
pe,
pflicht@@
pion@@
poche
possi@@
post
post-@@
prof@@
profil@@
pure
puzz@@
quival@@
rep@@
ridi@@
rifu@@
rim@@
ropolit@@
roskop
sa
sala
schieden
siva
sogen@@
source
spen@@
spende
spu@@
stas@@
stens
streng@@
string@@
surf@@
team.
tener
termin@@
tes@@
tos@@
tron@@
tunnel
turb@@
ua
udi@@
uma
univer@@
universal@@
ure.
usal@@
usi
usti@@
uto,
va,
vag@@
vo.
wahn@@
widm@@
zont@@
zuneh@@
zusetz@@
à
äche
è@@
öffentlich@@
ötz@@
+@@
.]
.com@@
.♫
2006.
3D,
7%
AID@@
Afghanist@@
Amer@@
Angi@@
Babi@@
Beloh@@
Bh@@
Bör@@
CL@@
CO2,
Ci@@
Coc@@
Cri@@
Dal@@
Dani@@
Daw@@
Dic@@
Dig@@
Dissi@@
EG
Eam@@
Elektri@@
F:
GPHI@@
Galapag@@
Gesund@@
H:
HIV@@
IDE@@
India,
Jeden@@
Jenni@@
Kenya,
Kontr@@
L'@@
Langl@@
Lewis@@
Lib@@
Mitge@@
Mola
Molekü@@
Moore,
ND@@
Nicol@@
O:
Onlin@@
Pad@@
Phän@@
Pitt@@
Protot@@
R.@@
Ris@@
Sap@@
Scri@@
Sergi@@
Skl@@
Soci@@
Sowjet@@
Stef@@
Step@@
Street,
Swe@@
TV,
Tamiflu@@
Twitter.
Virg@@
Wasserst@@
Worldchang@@
Yo
YouTube.
`@@
a.@@
ac
acco@@
agli@@
ale:
allu@@
ambul@@
ame,
amor@@
andert@@
angi@@
ani:
annäher@@
ano,
antro@@
antrop@@
appo@@
archit@@
aren@@
ari,
asso
astro
ati,
ature
autob@@
autonom@@
autorit@@
bass@@
belle
beun@@
bic@@
bio@@
biolumin@@
blik@@
brit@@
bul@@
cart@@
cc@@
chiav@@
chit@@
cia
cine
club
cock@@
crem@@
della
des:
deste
diment@@
dio,
disco@@
do.
donn@@
dru@@
e--
e?@@
econ@@
edere
egu@@
einfa@@
elek@@
emal@@
emar@@
enseits
eop@@
epo@@
eppi@@
era,
ere?
ernen
esa
eso.
espi@@
espl@@
etta
extr@@
ezz@@
fam@@
feb@@
fi
finale
flor@@
fragi@@
fum@@
füh@@
genealog@@
geschrit@@
ggi@@
gi,
gravi@@
h!
h?
hall
hemati@@
hos
i"
ide.
ile.
ili
inea
ines@@
infl@@
inger@@
inno@@
ino.
install@@
interesse,
interesse.
intra@@
ire,
itut
itär
kins,
lanci@@
ledi@@
legale
lent@@
lin
lo,
logi@@
mam@@
mata
matt@@
mher@@
mine
mul@@
musik@@
män@@
n'@@
new@@
no-@@
norm@@
nosti@@
nungs@@
obsol@@
ois
omo
opedi@@
orang@@
originale
otti@@
pap@@
pell@@
penn@@
pent@@
perc@@
perch@@
pi
pic@@
pie@@
pistol@@
prem@@
pret@@
prostit@@
pur
quant@@
quar@@
quel
quot@@
ra:
rant@@
rasse
re"
relativ@@
ri,
ric
rice
rieden@@
rov@@
schi
segn@@
separ@@
show
si.
sini@@
so."
solare
som@@
spo@@
sti
super-@@
tap@@
tar@@
tent@@
tip@@
to.
tonn@@
treich@@
trin@@
ulla
ultan@@
umi
urch
uti
vai@@
veri@@
verschie@@
vin@@
virus.
wa
y!
zie
°
´
Äthi@@
ã@@
í@@
’
”,
”.
…@@
›@@
"A
"in
'6@@
2006,
2008,
4%
75%
Afric@@
Amaz@@
Antik@@
Arb@@
Arg@@
Atten@@
Bangl@@
Beri@@
Brutto@@
Californi@@
California,
Canada
Colom@@
Cos@@
Darfur@@
Defin@@
Ever@@
Filmem@@
Flori@@
Fred@@
Gap@@
Ged@@
Hemis@@
Himal@@
Intervie@@
Inv@@
J:
Jeffer@@
Kathr@@
Keny@@
Kön@@
Lebensunter@@
Linu@@
MI,
Mang@@
Margar@@
Mio
Negro@@
Nob@@
Og@@
Open@@
Pace
Qual
Resear@@
Rog@@
Ron@@
Rw@@
Signi@@
Sob@@
Sog@@
Splash@@
Uns@@
Verbess@@
XI@@
^@@
acci@@
adul@@
ago
aia
anat@@
ani.
ania
ania,
annst
antan@@
anzö@@
apo@@
archivi@@
are."
ario.
armi@@
arte.
asha
asi,
assi
asso@@
astroph@@
ata.
ate:
atri@@
aubere
avor@@
azzi@@
bab@@
bens@@
benö@@
bet
bi,
bia.
bile,
biologi@@
bloc@@
bo,
bol
by@@
cap@@
care
chie
cog@@
coli
computer,
cont@@
cot@@
daf@@
dav@@
dell
dend@@
der?
dere,
deriv@@
design.
determin@@
differ@@
dip@@
disc@@
disper@@
ditorium
divi@@
dut@@
e...@@
echan@@
efly@@
elabor@@
eline
ena.
endo
endo.
eni
enk
enni@@
er's
eria
erseit@@
essa
essenzi@@
essi
esso
esten@@
ettere
etti,
etto.
expon@@
fa,
fate
fel
fere
fotografie,
frieden
gente
gia.
gio
gio@@
gion
gratis,
herine
hig
hängi@@
ice,
ico.
ill
imbar@@
impon@@
iner@@
infar@@
infra@@
ini,
intelligente,
iper@@
itti@@
izz@@
kament
koh@@
kontinu@@
la.
lassi@@
later@@
lav@@
lei,
lei.
lingu@@
liqui@@
l’@@
magi@@
mante
master
mate
meh@@
mente.
mi.
mic@@
mill@@
milli@@
miner@@
mmen@@
mo
monit@@
mont@@
mult@@
mun@@
neo-@@
nic@@
nir@@
no
non
nor
normale,
o;
ococ@@
offer@@
oia
ola.
oli,
olo.
oma,
onne
onni@@
ono
opia
oppon@@
ora.
ordin@@
osa.
ossi
para@@
parte
partner@@
passion@@
past@@
pende
pensier@@
periment@@
pia
pill@@
plank@@
po.
poch@@
poli@@
positi@@
prima,
primiti@@
pt:
q
quarti@@
ray
reag@@
recher@@
remi@@
renda
rende
resistente
ri.
ria,
richt
sale
sap@@
scanner
schrau@@
schränk@@
scont@@
si
sis@@
sno@@
solo
sopr@@
sour@@
spe@@
spun@@
squal@@
ssi@@
stam@@
stata
state
stim@@
stup@@
sub-@@
ta,
talk
ti,
tin@@
tive,
toc@@
tour
triff@@
truppe
tute
uber@@
ucc@@
ui
ula
ularen
uman@@
un'@@
ungef@@
urg@@
use,
use@@
useel@@
vale
verblü@@
vernach@@
vetr@@
vi
via
vic@@
vide
virus,
vis@@
vision@@
weile
wus@@
wässer
ywoo@@
zabet@@
zona,
zona.
zop@@
zophr@@
zutief@@
zzi
zzi@@
¥
²@@
¼
½@@
â@@
ç@@
ölle
überwin@@
ürf@@
œ@@
‹@@
™
&@@
0%
Africa
Agn@@
Ai
America
Antar@@
Babb@@
Behau@@
Berei@@
Broo@@
Busin@@
CO2.
Cel@@
Corex@@
Del
Devi
Dru@@
Dän@@
Emil@@
Emmanu@@
Enthusi@@
Francis@@
Getr@@
Gord@@
Got@@
Grande
Groen@@
Ha
Higg@@
Hub@@
Infra@@
Interessan@@
Intu@@
Jed@@
Kaff@@
Keit@@
Kenya.
Le
Mai@@
Miliar@@
Mittl@@
Monte
No.
Nobel
Opr@@
Panbanis@@
Pari@@
Prov@@
Restau@@
Sandel:
Secon@@
Sist@@
Sobul@@
Sono
Statist@@
Sudhi@@
Supp@@
Trot@@
Tu
Ug@@
Una
Valley,
Verbin@@
Via
Videos@@
Washing@@
Würf@@
Yoch@@
Zahl-@@
Zim@@
^
`
a'
abile,
adel@@
aio
alb@@
ale".
altr@@
ambi
amento
amento,
amento.
ano:
anti
anze
anzi
apor@@
arbit@@
ardo
are"
are".
arle
assem@@
astrop@@
ati.
ativit@@
atl@@
atric@@
atro@@
atta
atti
auti@@
auto.
avi
azien@@
azin@@
back
bam@@
batt@@
bene@@
bio
blog
bodsch@@
boom
bott@@
brac@@
brutt@@
budd@@
budget
bull@@
but@@
camp@@
car
caram@@
cci@@
cell@@
cen@@
chi,
cia,
cipl@@
cir@@
cit@@
co:
colog@@
come
compl@@
condi@@
corde
crat@@
cri@@
date
ddi@@
dedi@@
definitiv@@
dei
delfin@@
denar@@
deser@@
destr@@
deutig
dia
diam@@
dimen@@
dipl@@
disp@@
ditori@@
dog@@
dopp@@
dub@@
e',
ebre@@
egnen
einzig@@
elett@@
ell'@@
ella
ella,
elo
elson
email@@
emlich
ento
enza
eo,
era.
eria.
esi
esia,
essi,
estran@@
eta
eta.
eti
evident@@
fav@@
ferti@@
ffekt
fiam@@
fic@@
fica
finale.
fine.
fit@@
font@@
forme
foto
fragile
frig@@
fug@@
ful@@
ga.
genös@@
gia
gras@@
grazi@@
greg@@
hard@@
hause
hent@@
hori@@
hrend
i;
iche
ichi
icol@@
ikop@@
immat@@
indi,
infer@@
infrar@@
ino,
interes@@
interfer@@
internet
inva@@
investig@@
invol@@
io.
isco
ita,
ita.
ito,
itre@@
klopä@@
kogn@@
kunft@@
la,
latte
leader
lean@@
less@@
libell@@
lla
mac@@
mad@@
male.
mamm@@
manc@@
mani
margin@@
media
medit@@
meet@@
mi,
minut@@
mögli@@
nahe@@
narr@@
natura
navig@@
non-@@
nut@@
o]
occhio
och,
ographic@@
ola,
ole.
olla
omi.
onia
onlin@@
ono.
onore
ontan@@
open-@@
orb@@
orri@@
osci@@
osi@@
oto.
phän@@
pis@@
poll@@
pomp@@
ponte,
posit@@
positive,
present@@
prima
prima.
profit
proj@@
pron@@
pros@@
prostitu@@
qua
quiet@@
rab@@
rabbin@@
radun@@
rai
rence
reper@@
rieg
riem@@
riere
risp@@
rone
sali@@
scam@@
scar@@
schi.
sci@@
scor@@
sensu@@
si:
sin
sob@@
software
sorbi@@
sort@@
spec@@
spos@@
spre@@
strada
strat@@
studio,
sus@@
ta.
tas@@
tass@@
tasse
tax@@
tec@@
telef@@
temp@@
templ@@
tener@@
terrest@@
thi@@
tol@@
tom@@
transi@@
tribu@@
trot@@
ugu@@
una.
unci@@
undi@@
ungew@@
universit@@
unsch
usa,
usa.
vad@@
vali@@
veget@@
vel@@
vell@@
ventil@@
ves@@
vett@@
vie
viet@@
vorh@@
vu@@
vulg@@
week@@
weils
za@@
zugr@@
@@
É@@
à@@
ängnis
ünf@@
š@@
”@@
„
♪@@
!".
"Il
"La
"No,
"la
':
'The
)@@
*
*@@
;@@
@
Abra@@
Ama@@
Ausw@@
Berk@@
Bibliot@@
Biolumin@@
Canada,
Cia@@
Cin@@
Circa
Comand@@
Di
Dove
Ec@@
Entfer@@
Entr@@
Era
Eti@@
Evol@@
Fortun@@
Gefän@@
Giov@@
Gover@@
Gran
Grazie
Greenpe@@
Guar@@
Ho
Il
Imm@@
Isa@@
Kalu@@
Klimaw@@
Kohlenst@@
Li
Ma
Ma,
Me
Mett@@
Mi
Mia
Missi@@
Mondi@@
Nanc@@
Ness@@
No
Non
Nord.
ONG
PI@@
Pens@@
Polo
Quasi
R:
Re
Riversi@@
S.:
SI
Sauerst@@
Sent@@
Sep@@
Sett@@
Sier@@
Signore
Sole
Solo
Sonnens@@
Statt@@
Succ@@
Ulti@@
Uru@@
Us@@
Verbrau@@
Vergn@@
Viet@@
Virgin@@
Vist@@
X.
XX@@
Zukun@@
a...@@
a]
abile
acch@@
acchi@@
adig@@
adol@@
ador@@
aggi@@
aggio,
agit@@
agne
ai.
aiss@@
ale"
ale?
alien@@
all'
alla
alli
allung@@
alo
altri@@
ambe
amili@@
amit
amo.
andar@@
andare
andi
ando,
anni
anno,
ano.
anon@@
anta
antenn@@
anti,
anto
anza
api
apri@@
arbuck@@
are?
arie.
arlo
armon@@
arry
arsi
artist@@
ascin@@
aspi@@
assimo
assist@@
assu@@
ati:
ato,
atta,
attac@@
atura
atura.
ature,
ature.
augur@@
auto,
auto-@@
ava,
avan@@
avate
aver
azi
azzi,
baller@@
bandi@@
banis@@
basa
base
batterie
bbi@@
bene.
bere
bev@@
biotik@@
bit
blem
blem@@
blog,
boll@@
brutto
buff@@
business
ca,
cancer@@
carta
carta,
carta.
case
case,
cchi@@
cendo
cert@@
chang@@
chies@@
chim@@
chteil
cia.
circa,
climat@@
clip
coc@@
colleg@@
color@@
comm@@
computer.
con
cone
coni@@
consi@@
corpor@@
cosi@@
cus@@
cyber@@
d'
dato
deli@@
dell'@@
delle
destin@@
dev@@
devi
devi@@
dia.
dialog@@
diff@@
digitale,
dine
dini
disco
displ@@
display
distri@@
distribu@@
diszipl@@
diversi@@
do:
doc@@
dolce
dollar@@
due
dura.
dus@@
eca
ece
echsel
eci@@
eco@@
edit@@
edo
edu@@
eff
eggio
egli@@
ella.
elli,
ello,
ello.
emand
emerg@@
enda
endo,
enti
enza.
eol@@
erber@@
ereb@@
erig@@
erog@@
eso
esperi@@
essi.
esso.
estet@@
estin@@
etica
eto
etro,
etti-@@
etti.
etto,
event@@
eventu@@
evoluti@@
fame
fant@@
fare,
farne
fec@@
fid@@
fine,
fiori
flui@@
forman@@
former@@
formul@@
forte
forte,
fotografi@@
freg@@
freich
fren@@
ftwar@@
ftware
furi@@
futur@@
gas.
gehens@@
gente,
genz@@
geo@@
gete
ghi@@
gi
gi.
gia,
gill@@
glia
gom@@
gras
gratis.
gre@@
guer@@
gui@@
hail@@
heren
hotel
i...
ica"
ichter
idee.
igi
igi@@
igli@@
illumin@@
impan@@
import@@
impression@@
inare
inda@@
indica
infanti@@
inferi@@
influ@@
influenza
influenza.
ingr@@
ini.
inistr@@
insist@@
insul@@
inta.
integ@@
interv@@
intervi@@
inv@@
inven@@
invent@@
irle
isl@@
ispi@@
ista
itali@@
ite,
itore
kespe@@
kön@@
laptop
latt@@
lea@@
leader@@
lech@@
lia
libr@@
lic@@
lis@@
lista
lus@@
ma?
mais
mall@@
mani,
mapp@@
mappe
marine
market@@
marketing
materie
med@@
media,
meisters
mente,
mete@@
metropolit@@
mettere
mili@@
minster
mise
mission@@
mo.
modi
mondi@@
morbi@@
mpi@@
nai
nei
neon@@
networ@@
nev@@
ni,
ni.
nom@@
norme
o!"
o".
o'.
o,"
obes@@
occ@@
oci@@
oco
odor@@
oggi@@
oie
okay@@
oli.
ollo
ollywoo@@
olo
omi
onest@@
onna
ono,
ooper@@
ordi@@
organi@@
ori.
oria
oria.
orno
oro
orr@@
osa,
osi,
oso
oso,
ospit@@
osse@@
osso
ostante
otta
otto.
pane
parab@@
paradig@@
parte.
pastor@@
pendent
personale
pes@@
pi,
pian@@
pingu@@
pist@@
plac@@
plica
plodi@@
plu@@
po,
politi@@
polizi@@
polo
poster
posteri@@
pre-@@
prest@@
prev@@
prima@@
prime
primordi@@
privilegi@@
prog@@
progres@@
prolifer@@
protein@@
puli@@
qua,
quad@@
quass@@
quest@@
quette
qui
qui,
ra?
radio
rar@@
rav@@
rava
re...
reale,
reli@@
religion@@
rend@@
resi@@
retr@@
rica
riche.
ricket
rifi@@
rius@@
rivol@@
ro,
ro.
rover
roß@@
rub@@
sa,
sa.
sacch@@
sal
sala,
sanit@@
sant@@
satell@@
scan@@
scart@@
schem@@
schema
schizo@@
scu@@
sed@@
selt@@
semi-@@
senti@@
serve
setti@@
sfer@@
sfi@@
sfr@@
sic@@
sima
sint@@
skek@@
soff@@
software,
software.
sole
sole,
solo.
somm@@
speg@@
spekt@@
spendi@@
sta.
steroi@@
stile
stori@@
stran@@
sul
svol@@
tac@@
tale
tangi@@
tante
tante.
teg@@
teidig@@
temporale
tenteils
term@@
terra@@
terri@@
territori@@
tir@@
toller@@
tradi@@
trem@@
tren@@
tribun@@
tu,
tu.
ucci@@
ultra@@
umana.
umi@@
umini@@
una,
universale
uno,
ura,
ura.
uro,
util@@
uto
utto,
vagin@@
vant@@
vari
vegetari@@
veter@@
vi,
via.
vibr@@
video.
vitale
vo,
volta,
vorherr@@
wer:
wicht
wis
yn:
zi,
zie,
zutage
zuti@@
zw.
zza
£
©
®
³
¾
Ç@@
à.
á
ächst
äft
ähr
ê@@
ë@@
î@@
ï@@
ölker@@
ø@@
ú@@
ā@@
ć@@
β
к@@
‹
€
，
