<unk>
<pad>
<s>
</s>
di
che
e
la
un
è
il
in
a
per
una
non
E
i
le
si
sono
del
come
con
da
più
questo
della
ci
o
se
ha
nel
al
ma
lo
--
questa
Ma
molto
gli
dei
mi
cosa
l'@@
delle
ho
alla
cui
abbiamo
era
essere
Non
"@@
quando
anche
loro
perché
ad
La
o.
solo
a.
o,
fare
hanno
a,
su
ato
Il
persone
are
quello
così
tutto
tutti
nella
ed
modo
dell'@@
e,
sia
anni
uno
queste
vi
questi
Questo
♫
cose
ano
fatto
e.
E'
stato
-
ciò
mio
parte
ogni
due
ne
ai
mondo
ate
mia
ata
prima
c'è
Quindi
dove
dal
può
ri@@
ati
io
sul
poi
qualcosa
In
in@@
noi
siamo
sulla
tra
ando
degli
sta
Se
qui
quel
Questa
quella
vedere
davvero
mai
all'@@
vita
,
dalla
ancora
ti
possiamo
nostro
é
suo
alle
i,
un'@@
grande
fa
quanto
È
ora
sua
li
Ed
s@@
sempre
nostra
.
i.
gente
Per
Sono
Ci
tutte
Ho
tempo
avere
I
tre
nei
qualche
Si
tipo
senza
ò
proprio
circa
dopo
dire
voi
quindi
ato.
azione
Abbiamo
di@@
possono
nelle
altri
stata
Perché
Le
S@@
po'
volta
altro
punto
:
are.
molti
L'@@
?
erano
Ora,
TED
me
o@@
stesso
storia
Come
ato,
nell'@@
Quando
nostri
altre
Un
negli
meno
d'@@
bisogno
o?
potete
ali
Così
sistema
...
e'
c@@
ar@@
Mi
Ecco
e?
chi
voglio
Quindi,
fuori
ero
so
ale
stanno
stiamo
are,
che,
A
alcuni
andare
mentre
aveva
ale.
er@@
milioni
and
lavoro
fosse
fu
sarebbe
t@@
quale
ica
ic@@
Una
va
anno
con@@
visto
on@@
problema
at@@
penso
viene
per@@
i@@
creare
"
sei
primo
quelle
or@@
ore
verso
fino
ale,
anni.
g@@
d@@
avete
dall'@@
mondo.
am@@
bambini
già
molte
Talk
com@@
ico
e:
al@@
realtà
p@@
specie
'@@
credo
e@@
Subtitles
Transcript:
ava
a?
ino
nuovo
an@@
forse
miei
anni,
capire
qualcuno
volte
fine
parlare
tutta
Lo
attraverso
detto
potrebbe
Ora
sarà
stessa
dobbiamo
avuto
giorno
momento
dai
av@@
."
l@@
ce
pensare
grandi
u@@
stati
veramente
es@@
lui
alcune
sto
tecnologia
".
o:
ati.
ci@@
siano
importante
certo
nostre
a@@
r@@
fanno
ata.
m@@
abbastanza
quali
im@@
it@@
10
amente
C@@
Io
posto
oggi
C'è
car@@
amento
ol@@
ici
ito
ano.
ono
arsi
via
tanto
ali.
quelli
dati
ina
Che
ano,
v@@
st@@
endo
ali,
-@@
grado
M@@
allora
maggior
ica,
ac@@
far
problemi
Voglio
D@@
azioni
ico.
de@@
facendo
perchè
qui,
dalle
quattro
ati,
ica.
avevo
Nel
quasi
avano
posso
f@@
forma
sotto
azione.
dice
amo
sull'@@
numero
ente
usare
agli
us@@
secondo
ecco
insieme
te
trovare
cre@@
ico,
b@@
persona
a:
dire,
pi@@
re@@
vostro
ante
one
E@@
deve
y
senso
anti
piccolo
prendere
T@@
enti
dis@@
B@@
suoi
sc@@
ap@@
mondo,
inter@@
sulle
Poi
semplicemente
progetto
ver@@
vol@@
ate.
invece
ità
bi@@
piuttosto
state
questo,
sui
gruppo
casa
co@@
facciamo
A@@
and@@
ari
ch@@
Era
Gli
re
azione,
lungo
po@@
gi@@
meglio
F@@
de
questo.
un@@
vi@@
dollari
si@@
vostra
ata,
dato
domanda
vengono
tratta
Vi
appena
dare
durante
sa
esempio
to
cervello
possa
Beh,
ti@@
!
sembra
vita.
P@@
qui.
cambiare
et@@
foto
lì
avevano
ete
à
bene
lei
vedete
sapete,
spazio
allo
caso
probabilmente
Grazie
Quello
li@@
o."
troppo
en@@
dello
do
ent@@
quei
20
ate,
fa,
nello
siete
atore
idee
atori
aver
città
mezzo
significa
R@@
computer
costruire
N@@
ere
livello
ultimi
vediamo
Stati
mano
?"
L@@
ma@@
possibile
Questi
Cosa
esempio,
ra@@
un'altra
su@@
ag@@
est@@
mar@@
acc@@
cinque
miliardi
successo
completamente
contro
ori
s
abbia
Grazie.
par@@
qualsiasi
piccola
Ha
fin@@
nuova
puoi
arono
chiamato
col@@
em@@
is@@
ur@@
Penso
cose.
ta
Qui
difficile
farlo
hai
ir@@
nessuno
sappiamo
cal@@
chi@@
iamo
poter
ric@@
effetti
mettere
ore.
energia
h@@
ca
idea
niente
paio
New
spesso
amente,
me,
far@@
pens@@
Siamo
iniziato
cercando
os@@
col
ricerca
el@@
giro
luce
op@@
oc@@
ve
y@@
grazie
vero
V@@
oltre
vorrei
mente
messo
att@@
devo
diversi
zioni
ante.
ite
ore,
si.
O@@
ita
fer@@
ine
co
dentro
ett@@
sapere
Queste
tra@@
I@@
base
capacità
om@@
lavorare
si,
Potete
c'era
n@@
tu
G@@
almente
modello
nuove
sp@@
quell'@@
porta
Di
interessante
semplice
[@@
piace
adesso
mo@@
poco
stava
futuro
tuo
risposta
arci
donne
vista
l'idea
diventare
erà
30
ad@@
e."
100
funzion@@
ici,
cer@@
50
conto
libro
succede
è,
no@@
scoperto
tempo.
creato
seconda
chiama
diverse
ragazzi
tempo,
etta
ette
cor@@
forza
società
;
Ciò
as@@
zione
bene.
comunità
così.
man@@
sentito
ut@@
",
Possiamo
avo
persone,
zione.
macchina
Bene,
emo
mostra
possibilità
detto,
ammo
da,
armi
causa
paesi
pensato
sal@@
ti,
amo,
avrebbe
esattamente
noi.
sue
arlo
ici.
nome
portare
ario
dovuto
mon@@
iti
migliore
centro
sacco
z@@
Tutti
ante,
o".
o...
e...
l’@@
qu@@
a."
zione,
etto
“@@
cont@@
nuovi
saranno
str@@
vita,
H@@
eva
serie
trovato
faccio
storie
vogliamo
vuole
animali
mi@@
guardare
processo
cibo
ti.
ant@@
design
intorno
etti
migliaia
der@@
ec@@
dovrebbe
ando.
cambiamento
cercare
giorni
ini
tua
zz@@
arrivare
enza
fa.
struttura
ente.
fi@@
int@@
modi
ser@@
Da
O
buona
uomo
lavor@@
o-@@
potere
trov@@
natura
persone.
pr@@
cominciato
enti.
ire
questione
tipi
aff@@
là
parla
port@@
In@@
bambino
corpo
e"
gran
noi,
preso
ul@@
pag@@
posti
strada
indi@@
ottenere
E,
anno.
pianeta
altra
fare.
gener@@
ia
no,
rete
Con
an
Credo
luogo
ot@@
parti
Hanno
Tutto
ani
essi
medi@@
Anche
aria
piccoli
scuola
Dobbiamo
pass@@
15
gioco
sol@@
K@@
anno,
dir@@
media
scienza
donna
ora,
portato
mie
primi
ro@@
ten@@
gono
ragione
dovremmo
guerra
ment@@
mercato
campo
immagini
metà
ev@@
potuto
trova
da.
o"
otto
prov@@
ris@@
ab@@
gra@@
potrebbero
qualunque
d
diventa
l'ho
Noi
avrei
cambi@@
dagli
ità.
t
e".
guardate
lavoro.
periodo
piu'
rispetto
sorta
Così,
ing@@
vostri
aiut@@
corso
stessi
almeno
di,
quest'@@
disse:
for@@
pubblico
w@@
amente.
sistemi
terra
Al
Dio
bene,
diamo
ra
ter@@
Allora
Ogni
continu@@
me.
musica
video
3
alto
chiamata
cu@@
da@@
ma,
sopra
sor@@
umani
ana
buon
informazioni
quantità
bu@@
acqua
leg@@
nemmeno
osa
vicino
vo
co.
no.
all@@
avanti
indietro
li.
met@@
ca@@
differenza
mesi
stavo
vogliono
ell@@
ità,
prodotto
do.
giorno,
occhi
oni
oso
parole
potremmo
usando
5
alt@@
anza
cose,
funziona
via.
ente,
enti,
madre
film
k@@
studenti
ina,
li,
spar@@
amo.
esse
paese
parlato
sette
sviluppo
vivere
Uno
asse
disse
end@@
oggi.
parola
tr@@
ando,
loro.
mo
programma
te.
zi@@
tutto,
inizi@@
particolare
scritto
vi,
2@@
isce
mal@@
passato
...@@
volevo
–
4
chiamo
erò
motivo
pol@@
teoria
chiesto
realmente
'
ari,
evano
forme
insegn@@
pen@@
sola
super@@
a".
ari@@
not@@
pro@@
uomini
y,
devono
resto
usa
vanno
dov@@
esseri
fic@@
imparare
minuti
on
fra
a...
arriva
cellule
ci.
cosa.
poteva
ci,
co,
compr@@
de,
fatta
ie
serve
tratt@@
au@@
avevamo
c'erano
de.
dietro
do,
ino.
ito.
propria
Di@@
chiam@@
effetti,
ist@@
linea
ola
pezzo
sentire
andato
h
lu@@
J@@
ben
famiglia
parl@@
così,
crescita
domande
er
rendere
"Non
assolutamente
ni@@
oggi,
osi
più.
sito
dar@@
ov@@
pensiamo
soldi
tecnologie
termini
uso
40
eg@@
fossero
min@@
modo,
popolazione
spieg@@
vera
og@@
rit@@
anti.
ig@@
l'in@@
"S@@
CA:
abile
ass@@
imparato
o!
s,
segu@@
tanti
vi.
2
alta
cost@@
detto:
enza.
ina.
io,
nessun
Con@@
Terra
du@@
dur@@
enorme
governo
provare
se@@
situazione
usato
3@@
bile
uta
ei
mor@@
possano
y.
all'interno
davanti
sapete
superficie
ì
Dopo
Stiamo
W@@
ali@@
capit@@
fatto,
parlando
ru@@
deciso
esi
j@@
ott@@
pensate
sci@@
ven@@
Sapete,
arriv@@
ati@@
azioni.
genere
immagin@@
l'
sarebbero
studio
tu@@
faccia
ori@@
vit@@
esist@@
immagine
migliori
sent@@
te,
olo
ori.
ra,
rende
risultato
tante
valore
Ne
padre
pre@@
son@@
storia.
amenti
ann@@
o?"
oper@@
produrre
realtà,
riguardo
Forse
Uniti
avrebbero
centinaia
farlo.
iscono
macchine
molto,
ori,
piccole
ri
un'idea
vano
visione
bar@@
cultura
ono.
scoprire
stare
Perciò
U@@
amici
arli
be@@
capito
cento
ed@@
mare
permette
sione.
almente,
cap@@
chiunque
cos@@
dicono
lavoro,
one.
stesse
ben@@
ro
voi.
dovete
eri
gli@@
liber@@
present@@
strumenti
testa
volta,
4@@
cas@@
don@@
fondo
cosa,
giorno.
movimento
nulla
Allora,
corr@@
eranno
icamente
ini@@
problema.
progetti
umano
aspett@@
devi
este
giusto?
iniziare
metri
pot@@
6@@
8@@
Vorrei
aspetto
costruito
loro,
ma.
mat@@
molta
oggetti
one,
zioni,
fatti
go
lavorato
prot@@
so@@
Lui
dist@@
lato
person@@
riguarda
sti@@
.@@
a"
gruppi
strumento
cuore
deva
ebbe
ino,
mi,
milione
prodotti
20@@
che.
dà
esperienza
osserv@@
passare
pes@@
relazione
venire
Ero
appar@@
bile.
ge
limit@@
magari
poi,
posizione
tornare
vede
voi,
Prima
dico
importanti
simile
to@@
Dunque,
abilità
ban@@
bile,
ese
finanzi@@
incredibile
materiale
pa@@
pratica
qualità
è:
Ri@@
ari.
coll@@
facile
maniera
no
passo
pres@@
risolvere
sicuro
versione
virus
6
ament@@
guar@@
lasci@@
pu@@
scar@@
dopo,
eb@@
form@@
ismo
mis@@
pal@@
punti
aiutare
attività
azion@@
cia
fronte
miglior@@
oli
à.
5@@
Oggi
bisogna
morte
neanche
petrolio
prim@@
pò
1@@
Al@@
organizz@@
sioni
solito
viv@@
aree
arla
ast@@
chiamiamo
chieder@@
concentr@@
io.
so.
tutto.
ura
200
ambiente
azioni,
cur@@
e;
libri
lo.
mostr@@
sole
test@@
viaggio
attiv@@
ide@@
ito,
ra.
Alla
An@@
amento.
bella
can@@
colleg@@
conc@@
cura
fatto.
fece
lavorando
roba
St@@
anti@@
basso
dic@@
eravamo
esiste
ger@@
oggetto
piano
signific@@
à,
Ok,
diverso
emmo
entrare
figli
furono
i?
il@@
terzo
7@@
altro.
arlo.
atto
costo
eremo
mer@@
pochi
scala
scrivere
sin@@
so,
vivono
affrontare
caso,
esso
lan@@
malattie
potreste
stanza
volete
Perchè
bel
breve
ca.
controllo
divent@@
nessuna
percento
persino
sanno
stavano
Chris
aria.
consu@@
dice:
ess@@
essa
importante.
incredibilmente
ing
man
prende
soluzione
ure
12
ana,
auto
ber@@
ete,
fare,
globale
importante,
le@@
mo,
mostrarvi
s.
Adesso
costru@@
deci@@
ento
enza,
giusto
prefer@@
vo@@
Alcuni
Gi@@
arvi
cominciare
comportamento
concetto
di.
dimensioni
l'acqua
menti
ognuno
pianeta.
prezzo
No,
amento,
cav@@
denaro
e?"
estremamente
prossimo
risorse
venne
cent@@
cioè
ole
progett@@
raccont@@
re,
ved@@
cin@@
comune
condizioni
dollari.
e!
forte
guardando
nuovo,
ora.
ose
oso.
piedi
post@@
prender@@
quindi,
realizzare
regole
avamo
evol@@
incontr@@
mangi@@
o;
ovviamente,
raggiungere
scienziati
zion@@
zona
ana.
dicendo
etto.
hi@@
maggiore
massa
pon@@
rin@@
tri@@
uto
anti,
giù
tutti.
ute
25
a?"
arle
fis@@
zioni.
crea
d.
ici@@
né
tras@@
vive
ancora,
avesse
cat@@
comunque
disse,
iche.
invent@@
crit@@
dieci
interess@@
no?
ono,
prima,
realizz@@
robot
velocità
vostre
abile.
aggi@@
amico
costa
den@@
entro
genitori
settimana
visi@@
amm@@
età
generazione
immaginare
luoghi
neg@@
reg@@
studi@@
torn@@
val@@
Africa
cambiamenti
contr@@
mappa
praticamente
sione,
York
avremmo
br@@
dendo
erebbe
fa@@
fil@@
ge@@
oppure
or
pl@@
quanti
re.
utilizz@@
Chi
bili
conten@@
discorso
ello
entr@@
gran@@
iche,
prima.
produzione
prossimi
regol@@
ri,
7
Per@@
ar
do@@
linguaggio
propri
stai
suono
casa.
colp@@
edificio
fate
fon@@
mani
mette
modelli
part@@
provato
reale
subito
test
60
Ch@@
ani@@
atti@@
disc@@
mi.
pan@@
pensiero
più,
schi@@
senso,
soltanto
sé
America
aggio
bo@@
fine,
gen@@
impar@@
ran@@
Mentre
anzi@@
aria,
dere
desider@@
evo
gu@@
sione
sì,
8
casi
chiar@@
d,
gr@@
ista
mille.
18
Fu
Qu@@
ak@@
danno
esimo
etto,
gest@@
nazione
ovviamente
ret@@
sap@@
sbagli@@
spero
uti
viol@@
Com@@
Par@@
Z@@
alcun
cervello.
etti,
momento,
pensano
rappresent@@
spor@@
tor@@
trovano
Mar@@
ario,
esser@@
fac@@
inn@@
le.
naturale
prova
sfida
u
9@@
abbiano
amore
bas@@
es
futuro.
l'ha
letto
lunga
male
oso,
però
potevano
prossima
Cina
Quella
adatt@@
legge
parte.
pensa
sac@@
tenere
umana
"Beh,
beh,
cima
devano
ezza
fai
osservare
piac@@
po
possibile.
pul@@
scen@@
settimane
stra@@
sviluppare
vite
"La
Nessuno
Pr@@
Sì,
acqu@@
cambiato
cominci@@
conoscenza
emer@@
esi,
giovani
impegn@@
inc@@
mag@@
mento
mostrato
sento
spost@@
tiamo
um@@
uto.
vent@@
500
Guardate
Negli
Nella
Pens@@
alz@@
andando
cerca
chi.
cio
e-@@
ga
letteralmente
perché,
pubblic@@
rest@@
salute
scorso
sullo
tale
voleva
DNA
ario.
città.
eri@@
impatto
risol@@
scuole
sì
usano
ve@@
verità
vuoi
ò.
Solo
Y@@
]
a'
andati
arne
comincia
ea
esperimento
fal@@
informazione
materia
mente,
parte,
ragazzo
risultati
singolo
sinistra
stile
vari@@
vedrete
chi,
crisi
diventato
eggi@@
ere.
inten@@
lav@@
materiali
mett@@
ordin@@
pezzi
politica
prom@@
punto,
ren@@
se,
tempi
vale
♫@@
David
alità
ascolt@@
doveva
dovrebbero
lasciato
leggere
ob@@
ragioni
salv@@
scelta
semplice.
studiare
successo.
usiamo
zone
Ma,
a!
altri.
approccio
bambini.
comun@@
contatto
fica
rispon@@
termine
to.
continuare
dice,
endo.
fat@@
fatt@@
k
lasciare
messaggio
qualcosa.
rà
stat@@
suon@@
vedo
vuol
,@@
Li
Ma@@
af@@
an,
avvicin@@
bin@@
cancro
ecc@@
edi@@
felice
lì.
parole,
particelle
piacerebbe
secolo
vero?
ò,
ani,
ca,
credo,
import@@
inizia
l'anno
ripet@@
rischio
sti
tem@@
Su@@
acci@@
colore
controll@@
effettivamente
elle
essi@@
etti@@
farvi
l'unico
na@@
nu@@
sociale
tutti,
vedere,
venuto
Molti
cit@@
coi
cos'è
direzione
disegn@@
fisica
individu@@
potesse
prepar@@
sero
storia,
sugli
uto,
voluto
ai@@
aut@@
bambini,
cart@@
ese.
imp@@
leader
olo.
ost@@
pazienti
qualcosa,
Mo@@
Più
Qualcuno
accad@@
alizz@@
ativi
attorno
aument@@
carta
coloro
dimensione
dono
ene
ero@@
forze
gioc@@
i:
mostrare
mut@@
ne@@
rem@@
salvare
sar@@
sper@@
stelle
tasso
vero,
Avete
aer@@
anim@@
atori,
bell@@
comprare
computer.
esempi
essero
mem@@
modo.
on,
sen@@
servizio
ster@@
terza
Sto
cercato
collabor@@
destra
guardiamo
inare
lavori
mo.
notte
oni@@
pos@@
raccontare
ricevuto
scal@@
scopo
soprattutto
uni@@
1
9
casa,
chie@@
città,
diventano
fr@@
incredibile.
metter@@
numeri
osa.
parlerò
partire
pieno
prime
res@@
ruolo
to,
80
Dove
TED.
accor@@
arti
astr@@
batteri
cam@@
credere
ere,
etti.
figlio
gh@@
issimo
iti.
l'intero
scor@@
sicurezza
significato
vedono
Ecco,
Può
San
andate
are?
attenzione
avrà
bili.
comprendere
consider@@
er,
ghiaccio
interessante.
ite,
iti,
lavorano
nazioni
opportunità
por@@
sa@@
sapevo
sembrano
spiegare
Ad
Vi@@
ane
cant@@
computer,
farò
fu@@
l'Africa
l'altro
mettiamo
necessario
olo,
pensando
pi
scrit@@
semplici
tecnologia,
Google
abit@@
direttamente
felicità
innov@@
ins@@
ita.
lista
punt@@
servi@@
settore
troviamo
19@@
Ris@@
TED,
all'inizio
apr@@
avi@@
aziende
intero
isol@@
mostrerò
off@@
oi@@
olog@@
reso
sem@@
soluzioni
spavent@@
uscire
11
Internet
Uniti,
accesso
americani
dere.
designer
gas
her@@
ice
iti@@
lanci@@
mu@@
probabilità
ri.
rivoluzione
sugger@@
vecchio
vers@@
volta.
0.
Un@@
alberi
altri,
altro,
atore.
cammin@@
ezza,
fuori.
giovane
guarda
ini.
sotto@@
studi
tir@@
',
Africa,
John
abili
calcol@@
condividere
er.
esplor@@
nove
o'
perso
proprietà
rappresenta
rec@@
stesso.
t,
uro
x@@
avessi
bili,
bl@@
contesto
divi@@
dom@@
elli
esso.
finché
giocare
legger@@
radi@@
ros@@
tecnologia.
vari
veder@@
199@@
Av@@
aci@@
adesso,
compassione
elementi
fl@@
immer@@
l'abbiamo
molto.
ner@@
nonostante
odi@@
pat@@
personale
principale
ritrov@@
sociali
talmente
trasfer@@
uman@@
ate@@
attacc@@
bra@@
cambia
due,
ella
hi
men@@
ologia
permesso
speriment@@
spiega
!"
Car@@
coinvol@@
conserv@@
darvi
desiderio
diver@@
invest@@
lo,
lontano
malattia
mese
momento.
piante
servono
umano.
Lei
a-@@
aspetti
ativa
crescere
diverso.
entrambi
faceva
iche
lì,
niente.
proprie
raccogliere
simili
speci@@
tagli@@
totalmente
voce
x
%.
'.
a;
art@@
arte
c
ce.
conosc@@
dio
enze
eo
funzionare
genere.
idea.
ident@@
ine,
insieme.
motiv@@
naturalmente
origin@@
presente
realizzato
ridurre
soci@@
telefon@@
tent@@
tuoi
umani,
vissuto
"M@@
Ar@@
Co@@
Cre@@
Dio,
Quel
Va
aiuti
atori.
atti
conferenza
effetto
ese,
intendo
l'hanno
l'unica
lin@@
loc@@
otten@@
paura
prest@@
rel@@
ricor@@
son
"Il
198@@
India
abile,
aperto
ativo
dollari,
dor@@
etica
fase
fot@@
giochi
grande.
gri@@
integr@@
isti
mol@@
noi@@
pericol@@
questo?
ragion@@
sion@@
vero.
Erano
Sh@@
assero
atore,
buone
capi@@
compl@@
dirvi
disper@@
fondamentale
ieri
ignor@@
isco
ismo,
l'energia
lavora
matematica
mess@@
mit@@
neur@@
perche'
pic@@
poche
stor@@
sviluppato
ultimo
valori
volte,
Africa.
an.
arrivano
creano
famiglie
potrei
rebbe
riesce
rifer@@
riusciamo
sett@@
strato
svilupp@@
amb@@
avremo
bast@@
ce,
gente.
inf@@
interesse
l'intera
migliorare
mila
miliardo
momenti
music@@
naturalmente,
organismi
pesci
peso
problemi.
produce
è.
18@@
Terra.
acca@@
allora,
davvero.
defin@@
diventata
leggi
metodo
mondiale
of
rapporto
sic@@
volo
Molto
Posso
Re@@
Tutte
arlo,
ato?
bello
cc@@
chiave
compagnia
conosci@@
enz@@
esa
geni
gere
grande,
h,
ini,
lingua
lo@@
micro@@
muov@@
pane
parliamo
pressione
proc@@
rai
rot@@
stia
ucci@@
vento
300
Fin@@
India,
Pensate
Sembra
comunic@@
corpo.
cosi'
enormi
era,
esi@@
fenomeno
finire
gir@@
imm@@
l'altra
l'ar@@
migli@@
notare
nuovo.
poiché
portano
presenti
razione
rilev@@
sarei
soli
stavamo
stessi.
tramite
ura@@
veniva
Sta
Ver@@
accade
aereo
ascoltare
assicur@@
canzone
chiedere
controllare
differenti
diritti
e",
el
elettr@@
farlo,
fin
k,
l'es@@
mettono
oni,
p
problema,
quest@@
ragazz@@
riusciti
scuola.
sentir@@
tel@@
trasform@@
viamo
villaggio
volare
zia
Avevo
Dic@@
Immaginate
Vedete
ami
atter@@
capaci
codice
costruzione
dati.
emozion@@
genet@@
meglio.
misura
occup@@
poll@@
potevo
programmi
quant@@
velocemente
vis@@
"N@@
alcuna
arrivato
avanz@@
bor@@
braccio
capace
capo
caus@@
costi
diventando
finito
fond@@
incontrato
lezione
mente.
occhio
particolarmente
qui@@
ram@@
sch@@
scompar@@
sistem@@
software
somma
strada.
strade
tit@@
vogli@@
En@@
Si@@
So@@
almente.
ba@@
bo
certa
certi
chiaro
conoscere
copi@@
davvero,
diceva
dire:
edifici
gio
ite.
laboratorio
pensi
presto
priv@@
quante
rivol@@
sensazione
stimol@@
t.
tiv@@
umana.
umani.
Chi@@
Dunque
agi@@
applic@@
are@@
cerchiamo
cervello,
ciamo
creature
decisioni
emente
esserci
globale.
importa
influenza
istituzioni
o",
od@@
paziente
ricordo
rivel@@
servizi
solare
terra,
Comunque,
Pubblico:
USA
accett@@
andosi
ang@@
app@@
atamente
avessero
bal@@
bil@@
conosciamo
continua
det@@
diciamo
esempio.
farci
fatte
fonte
generale
gente,
giust@@
gl@@
icamente,
ich@@
miglia
pagina
perdere
potenziale
prem@@
pun@@
ragazza
reale.
recente
rispondere
seguire
soli@@
star@@
zza
--@@
Bene.
Giusto?
L'idea
Uniti.
Vediamo
allontan@@
chied@@
costruir@@
creando
et
ff@@
giorni.
govern@@
ita'
la.
mort@@
morti
notizia
posto.
poter@@
regola
riman@@
riuscire
seguito
separ@@
totale
um
16
Molte
Oh,
Po@@
Puoi
atura
ball@@
differenze
dita
divertente
evit@@
foresta
futuro,
impieg@@
infin@@
insieme,
itt@@
livelli
mantenere
ni.
ordine
parlarvi
potente
poveri
prese
pri@@
sco@@
scoperta
sedi@@
specialmente
spos@@
stupi@@
Loro
Sappiamo
Sp@@
Ti@@
Vedete,
acqua.
adesso.
aiuto
articolo
ativo.
certamente
complet@@
izz@@
linee
nat@@
otti@@
passa
pren@@
quegli
rat@@
ricerche
scopr@@
spazio.
terra.
utilizzare
"A@@
Ce
Dov@@
India.
L'ho
andata
andiamo
atto.
confer@@
dec@@
denza
diminu@@
economia
enn@@
essimo
esti
evole
fam@@
faremo
grosso
insegnato
normale
percorso
racconta
relazioni
render@@
reti
seri@@
sf@@
sit@@
soldi.
via,
0,
Anderson:
Bill
Europa
Ok.
Sar@@
auto@@
avver@@
avviene
azz@@
business
cen@@
circon@@
collettiv@@
dell’@@
distanza
esplorare
gio@@
ine.
ing,
inglese
ismo.
lui.
mano.
mille
pesce
possibili
principali
qual
raggiunto
sa,
secolo.
sembrava
solamente
sono,
spazi
un'
unico
vin@@
’@@
200@@
For@@
Paul
abili.
aggio.
anda
anza.
arrivati
arsi.
avrete
be
blu
complic@@
cro@@
distribu@@
felici
fum@@
insegnare
misur@@
mostrano
motore
negozi@@
nord
nota
oll@@
ovunque
pianeta,
posta
preoccup@@
scegliere
sembrare
svegli@@
temperatura
vicini
viviamo
volte.
C
No.
Or@@
Sì.
Ti
afric@@
anza,
arci.
avanti.
cio'
comp@@
dell'
dent@@
difficile.
elev@@
ete.
glob@@
grafico
ill@@
in,
l'ultima
letter@@
maggiori
ont@@
opera
parlo
pian@@
popol@@
soff@@
tema
tizio
un'immagine
varie
vel@@
"Perché
Cor@@
Due
Quanti
Un'altra
agli@@
bruci@@
chiamano
chilometri
compito
document@@
emozioni
energia,
entra
epi@@
estrem@@
inato
mercato,
messi
natura.
penso,
pover@@
rendono
se.
semplice,
senso.
sh@@
testa.
zzare
400
Invece
Sal@@
a",
architettura
batter@@
bi
bri@@
c'é
campi
cane
ciascuno
combin@@
dere,
determin@@
dev@@
formiche
governi
line@@
lor@@
macchina.
male.
mangiare
occhi@@
orn@@
osa,
possi@@
prendiamo
produttiv@@
remo
riescono
sag@@
segret@@
stu@@
uno,
uno.
web
5,
America.
At@@
Bu@@
Perché?
Perciò,
Quanto
aliment@@
anz@@
area
associ@@
ciò,
come,
comput@@
crediamo
farà
fuori,
gi
idee.
imento
insegnante
interessante,
manten@@
membri
muove
pagare
passione
pp@@
prendono
presentazione
presi
sec@@
speranza
te@@
termin@@
verde
volont@@
vor@@
"Come
197@@
24
A,
Certo,
TED@@
Volevo
aiuta
animale
ative
caratteristiche
cresciuto
decidere
endo,
enti@@
esistono
ezz@@
formazione
icato
illumin@@
insegnanti
inser@@
l'ultimo
log@@
moglie
nas@@
organ@@
principio
responsabilità
ritorn@@
riuscito
scegli@@
sembr@@
sens@@
spirito
squadra
stran@@
"Cosa
%
Indi@@
Poi,
Sei
Terra,
albero
analizz@@
arla.
atori@@
atrice
bur@@
campagna
compet@@
data
diment@@
diverse.
estin@@
etta.
fornire
fra@@
individui
le,
mas@@
oli@@
oni.
persona.
pieg@@
prat@@
prove
rap@@
rapidamente
riamo
rimane
sala
secolo,
segn@@
spazi@@
spazio,
studiato
team
universo
us
vo.
..
70
Alcune
Be@@
CO2
Richard
Un'@@
aggio,
allen@@
appare
bellezza
commerci@@
comprensione
creazione
dettagli@@
diritto
endono
enze,
essere,
fotografia
funzione
guard@@
metto
mostro
obiettivo
ormai
pall@@
persona,
sa.
sanit@@
sente
somm@@
succedendo
telefono
va,
vedete,
zero
Mon@@
Ros@@
avven@@
bio@@
biolog@@
blog
camm@@
care
certo,
comunicazione
contra@@
corpo,
diversa
ele
eni@@
ep@@
eventi
evitare
favore
fortun@@
funziona.
giorn@@
giusta
m
medicina
miglior
minuti,
notizie
nulla.
orient@@
pelle
registr@@
ron@@
sai,
scelte
tur@@
ufficio
ultima
unità
viaggi@@
volevano
zi
”.
14
C'era
Le@@
Pro@@
Sarebbe
Sud
ancora.
anze
arli.
artist@@
atevi
avi
bambin@@
buco
capir@@
conseguenze
dici
dovevo
educ@@
fall@@
giu@@
gratu@@
inventato
irono
ita,
matt@@
meno.
parlare.
perc@@
presa
presidente
quadr@@
razion@@
riun@@
rom@@
scuola,
sed@@
stampa
stri@@
sub@@
tue
ura,
vecchia
veloce
z
,"
Potrebbe
Sapete
abb@@
avranno
c'e'
capitale
complessità
cos'@@
dallo
discussione
dit@@
es,
esc@@
facci@@
fortuna
fossi
guadagn@@
guerra.
ier@@
innamor@@
l'inter@@
l'uso
manifest@@
migliore.
ni,
ort@@
passaggio
pubblico.
ragazze
richiede
riscaldamento
san@@
scambi@@
scel@@
sguardo
singola
stamp@@
strutture
sì.
trasport@@
umano,
volt@@
à@@
"Oh,
Charles
Devo
Nei
Pi@@
aggiung@@
ascol@@
ba
biologia
contiene
cultur@@
dati,
dire.
ebbero
entusias@@
enze.
gel@@
gioco.
giorni,
guardar@@
incoraggi@@
issimo.
libertà
libro,
lit@@
mercato.
molecole
negozio
pas@@
pensavo
portata
rag@@
ricord@@
rimasto
sai
seduti
strano
venga
vivo
196@@
As@@
Mio
aspettare
atto,
c'@@
costitu@@
dimostr@@
g
gan@@
gui@@
guidare
icare
ire.
male,
messa
muro
natura,
nucleare
nuot@@
povertà
problem@@
resist@@
scena
studente
succe@@
successi@@
va.
vedere.
vendere
10@@
Americ@@
Aveva
Michael
OK,
Probabilmente
ani.
arsi,
artisti
asi@@
bellissima
cl@@
colleghi
cono
dava
esperienze
essenzialmente
esta
foto,
id@@
idee,
immediatamente
interessanti
invit@@
luce.
lui,
meno,
mento.
ospedale
otter@@
petrolio.
prendete
probabile
questo:
ricordare
riusci@@
sicuramente
somigli@@
soprav@@
sostenere
strada,
terreno
usate
visit@@
à?
James
OK.
Pa@@
So
Spero
asc@@
blocc@@
chiu@@
cielo
condivi@@
conver@@
cri@@
dest@@
dichiar@@
disposizione
dissi:
elabor@@
en
ende
eria
esi.
essi.
evento
ey
feci
ficare
fogli@@
gn@@
gradi
guida
ha@@
ità@@
l
l'immagine
lasciate
meraviglioso
metri.
on.
paese,
paese.
piacere
polmon@@
premio
produ@@
prof@@
punto.
quell@@
questioni
quotidi@@
spedi@@
standard
successo,
trovo
un'esperienza
vot@@
10.000
Ben@@
Lasciate
Vogliamo
aggiungere
analisi
ay@@
bian@@
decisi
dopo.
dunque
esperimenti
esso,
evi
ezza.
fare?
gar@@
ia.
improvvis@@
ind@@
infatti
ll@@
mercati
missione
pare
pianeti
piena
principi
prospettiva
proteggere
questa.
rallent@@
ricev@@
riuscir@@
tanta
tut@@
urban@@
vere
voglia
90
Ric@@
Siete
Stanno
acqua,
ale?
andai
avendo
bianco
butt@@
carne
classe
composto
confront@@
domanda.
el,
farsi
femmin@@
finalmente
guardo
informat@@
innovazione
interessa
interessato
l'uomo
mai.
mancanza
minuti.
modell@@
muover@@
nov@@
onde
ossigeno
pe@@
personaggio
presenta
profession@@
qua
r
rebbero
religione
scelto
semplic@@
sogn@@
sosteni@@
spazz@@
sur@@
uomo,
ura.
utile
vag@@
venivano
é,
"No,
"Se
17
Infatti,
Tra
ampi@@
assimo
assist@@
cacci@@
cibo,
cibo.
disponibili
egli
energet@@
fondament@@
forz@@
funzioni
ia,
inform@@
internet
ire,
lizz@@
mattina
moder@@
neuroni
oceani
oli.
parlano
particolare,
perciò
pir@@
profondamente
proposito
regi@@
riconoscere
ruot@@
sapr@@
sint@@
ung@@
usi
vedendo
vest@@
"D@@
Gu@@
Niente
Ro@@
affascin@@
ah@@
altern@@
assi
azienda
batt@@
catena
centrale
cercano
chim@@
ché
coltiv@@
cominciano
connessione
conosciuto
contenuto
correre
croll@@
ela
entrambe
eso
farne
ingegneri
invi@@
lent@@
lingu@@
mamma
mand@@
misurare
nato
organizzazione
organizzazioni
oss@@
potevamo
preg@@
psic@@
pubblico,
pur@@
raggi
ranno
respir@@
rim@@
sfide
sopravvivere
trasformare
uti@@
Però
Potreste
Video:
X
X@@
York.
agire
alità,
alità.
ame
argomento
atura.
bisogno.
chiaramente
colori
cort@@
dettagli
dimentic@@
dirò
eccit@@
era.
est
forn@@
idea,
inci@@
incontro
iniziando
isse
magnet@@
mento,
nero
ogli
origine
pensava
piant@@
piedi.
potrà
sapeva
sempre.
sequenza
sosten@@
spi@@
tessuto
trattare
vecchi@@
Cer@@
Cos@@
Dan
Inoltre,
Li@@
Man@@
Medi@@
Mia
Mil@@
National
Senza
affari
altr@@
ativa.
ature
capis@@
chiede
cli@@
color@@
debba
diff@@
energia.
fantastico.
film,
gendo
identific@@
install@@
l'India
l'evoluzione
mont@@
necessariamente
ola.
ole,
ota
pena
potremo
progettare
psicolog@@
qualcun
quarto
regione
rinnov@@
salt@@
sostitu@@
ta.
vista,
zia,
"Ma
"Mi
'9@@
Dis@@
ambient@@
astron@@
avvi@@
camminare
case
combattere
compagnie
conclu@@
convin@@
costruendo
crimin@@
curi@@
dando
dici@@
digit@@
dirett@@
eci
economico
elemento
ettiamo
famoso
fondo,
globale,
igli@@
lanciato
mise
morale
mortalità
ola,
ovvero
prendendo
presenza
progettato
progetto.
progresso
pubblica
pubblicità
ras@@
resi
saremo
sollev@@
sorprendente
straordinario
sud
suoni
trag@@
uale
un'occhiata
vado
verific@@
600
Am@@
Col@@
De@@
Voi
ami@@
assi@@
atiche
atom@@
attacco
buoni
cia.
condizion@@
consumo
corrispon@@
cure
definire
digitale
dipende
disponibile
dolore
ech@@
ei,
enzi@@
errore
evoli
evoluzione
facevano
fest@@
fos@@
inclu@@
influenz@@
ingegneria
intelligenti
issima
k.
limiti
mandare
mano,
muovere
nazionale
oli,
oto
pagine
posto,
pro
questa,
replic@@
risposte
secondi
siccome
tendenza
testa,
uccelli
/@@
all’@@
aper@@
appassion@@
assembl@@
cancell@@
circol@@
cittadini
conn@@
credono
der
destra,
disegnare
distribuzione
divenne
diversi.
dover
eder@@
emissioni
emotiv@@
esce
esplo@@
facevo
flusso
fondamentalmente
funzionano
gambe
gol@@
interpret@@
itori
lascia
leggermente
luogo,
lus@@
mare.
medio
modific@@
notato
ottenuto
pari
pi.
piamo
potessero
prigion@@
profondità
rischi@@
sono.
straordin@@
suonare
tre,
vali@@
violenza
"Che
"O@@
5.
:@@
Ab@@
Sol@@
angolo
api@@
aprire
arrivata
attu@@
bis@@
cell@@
cio.
creatività
decine
dite
dito,
eli@@
eno
esegu@@
facendo.
fantastico
favor@@
film.
imbarazz@@
ingran@@
l'universo
mos@@
nutri@@
onda
parlava
producono
progetto,
programm@@
riesco
rig@@
sb@@
scienza,
segnali
sel@@
sentono
sinistra,
spec@@
sup@@
superiore
sviluppo.
università
usati
uti.
utt@@
veri
16@@
Avevamo
DH:
George
Gran
Im@@
Mi@@
Mor@@
Secondo
York,
altrettanto
bit@@
buono
carbonio
celebr@@
centri
considerare
contemporan@@
cosa?
credi@@
cui,
decisione
del@@
dica
din@@
dipen@@
dissi
diversa.
divertente.
domin@@
erete
essa.
essione
eta
farla
grazie.
guerra,
ho@@
ile,
ile.
indietro,
infatti,
intelligenza
interno
inver@@
istruzione
iv@@
l'arte
l'esperienza
l'im@@
laure@@
meglio,
mettendo
mezzo.
motivi
nomi
osi.
passato.
reazione
rimanere
riten@@
sistema.
speciale
stanza,
tram@@
trem@@
unica
universit@@
vantaggio
varietà
vedi
volevamo
ù,
150
7,
No@@
Qual
Robert
acceler@@
altrimenti
aumentare
basta
certe
ciclo
coloni@@
consiste
dovreste
due.
ea,
ea.
economica
ens@@
eto
etro
formare
frase
genoma
gia
h.
industriale
inizio
invece,
l'aut@@
l'opportunità
luce,
mot@@
oro
ose.
parti@@
pensato,
perfettamente
piatt@@
piede
realtà.
reddito
rumore
rus@@
sebbene
sesso
sia.
simul@@
sociale.
sogno
sole,
stell@@
stretto
succeder@@
terribile
trover@@
una.
uscito
13
2,
BF:
Los
Marte
Nazioni
Nord
Proprio
Q@@
affatto
andoci
appropri@@
arriver@@
articol@@
ativi.
attenzione.
avano.
aver@@
bass@@
compi@@
comunità,
consapevolezza
corsa
d'accordo
design.
destra.
dinam@@
dot@@
eni
essi,
ettiv@@
facilmente
fratt@@
gett@@
incontrare
indica
lettere
macchina,
mel@@
metafora
nascon@@
nor@@
notte,
ografia
ok@@
ona
orbit@@
ossia
pil@@
po'.
politici
profondo
puo'
raggio
religi@@
scherz@@
scimmie
scoper@@
scoperte
scriv@@
scu@@
seduto
seg@@
segnale
sia,
sosp@@
ste
tipo,
uta.
venuti
ù
Infatti
Nat@@
Quelli
State
TV
addirittura
affront@@
apprezz@@
assistenza
assolut@@
ate?
attr@@
basato
benessere
brev@@
cad@@
casu@@
cci@@
cel@@
chiamare
chimica
comunque,
concludere
democrazia
design,
dimostrare
discipl@@
diventati
dol@@
effici@@
eh@@
emo@@
en,
falli@@
fretta
immaginate
iniziano
inoltre
intera
isola
issi@@
lezioni
logica
mesi.
nar@@
ne.
normal@@
occa@@
ottimo
permett@@
permettono
profonda
propriet@@
raggiung@@
rifiut@@
rifl@@
risolver@@
schema
sequ@@
sfera
sioni,
soldati
tavolo
the
trovate
umana,
use
visto.
!@@
"E'
"Sono
"T@@
17@@
3,
Ancora
Circa
Ebbene,
Mal@@
Potremmo
Quali
alist@@
alista
all'anno.
amenti,
andò
animali,
api
atura,
aumento
auto-@@
bassa
cerc@@
colo
componenti
comunicare
conf@@
consapevol@@
consigli@@
definizione
disp@@
diversità
esclu@@
evate
ferm@@
fiume
fuori@@
ghiacci@@
iera
importanza
incredibili
intelligente
interessati
l'altro,
lag@@
lettera
macchin@@
madri
mesi,
metri,
non-@@
ottiene
percentuale
peri@@
permetter@@
personale.
pien@@
prend@@
provoc@@
razz@@
ricevere
scatola
sempre,
signore
società,
sostanza
spettro
storie.
tanto,
tecn@@
tecnolog@@
tratti
vist@@
%,
000
5%
8,
?”
Bi@@
Bo@@
Cina,
D
Dovete
Du@@
Mc@@
Sarà
abitu@@
acquist@@
adulti
affer@@
alismo
animali.
arci,
arg@@
atico
ativo,
ava,
cellula
combinazione
complesso
cosi
disponi@@
dunque,
ento,
es.
fianco
figli@@
fonti
fut@@
genere,
guardato
lic@@
mandato
meg@@
mezz@@
mezzi
minuto
mondo@@
movimenti
musica.
n
occhi.
oggi@@
oria
osservando
pazi@@
pe
perfino
personaggi
potessimo
preserv@@
pure
qual@@
ricorda
siti
tocc@@
utenti
vai
vicin@@
zio
0@@
2000
Acc@@
Bisogna
Es@@
Facciamo
Guar@@
Oppure
Paesi
africani
aia
ale:
allo,
ama
ambi@@
anal@@
arie
arrabbi@@
as
avessimo
basata
civiltà
classi@@
comprato
conosce
conversazione
date
dibattito
differ@@
differenza.
direttore
dispositivo
doppio
dura
eco@@
elettrica
elimin@@
esperti
evole.
fas@@
fattori
fico
figli.
fisico
focalizz@@
gestire
giard@@
giung@@
gras@@
immagine.
immedi@@
importanti.
impossibile
indietro.
ing.
iniziò
istru@@
l'economia
lanciare
ler
mai@@
mani.
menti,
ok?
oma
omi
osi,
passati
plastica
portando
porter@@
possibil@@
potenza
pratica,
prima@@
prosegu@@
scientific@@
spin@@
stesso,
sul@@
terapia
ull@@
vinto
è@@
”
"B@@
1.@@
45
AB:
Dal
Devi
Hai
Stavo
addestr@@
alizzare
allev@@
amici,
andava
anni@@
arr@@
arti@@
artista
ativi,
atu@@
ava.
be.
cano
compar@@
compon@@
comuni
conoscono
conseguenza
cucin@@
deb@@
donne,
economi@@
ef@@
eff@@
ello.
err@@
errori
esa.
famiglia,
famiglia.
faranno
fico,
filtr@@
fondi
forse,
foto.
fred@@
glamour
improvvisamente
inti@@
inv@@
isi
ispir@@
madre,
maggioranza
meravigli@@
metro
mic@@
montagne
morire
noto
onest@@
partit@@
politiche
possibile,
pred@@
predi@@
presso
problemi,
process@@
processi
pubblicato
quadro
raccontarvi
sale
scienze
sping@@
struttur@@
supporto
tener@@
togli@@
tornato
traspar@@
usata
venti
"Ho
..."
Cina.
Cioè,
Durante
Nell'@@
Si,
Tr@@
Ve
aggiun@@
amoci
as,
bambino.
cadere
caric@@
cellulare
coda
commerciale
contin@@
cr@@
cul@@
decisamente
denti
deriv@@
des@@
dif@@
domanda:
ecolog@@
elettron@@
elo
farmaci
finale
g,
giornata
girare
gre@@
indic@@
intra@@
kil@@
media,
metafor@@
molecola
montagna
morte.
morto
occhi,
ogra@@
ok.
passi
permettere
potenti
preoccupar@@
prev@@
prezzi
raccol@@
reale,
riconosci@@
riflett@@
sangue
schemi
schermo
serv@@
società.
vecchi
vend@@
virtu@@
voler
°
"E@@
1.
10,
35
Ad@@
Afric@@
Pensiamo
Perché,
adegu@@
ala
ambiente.
amore,
arla,
asp@@
ativa,
bilità
brill@@
cambio
cani
cause
cerco
considerazione
conta
contribu@@
copr@@
dedic@@
diam@@
donne.
eo,
epoca
ette.
fan@@
front@@
galassie
geni@@
gruppo,
guer@@
icol@@
intro@@
itore
l'industria
larga
lei.
libr@@
liqui@@
massimo
metti
mini@@
musica,
ole.
opinione
osp@@
perdita
petrolio,
poste
ricchi
ricordar@@
riuscite
sarete
scom@@
scus@@
sedia
sera
sociale,
spezz@@
tiene
un’@@
verrà
vir@@
volto
America,
C'erano
C.
Ci@@
Insomma,
Pres@@
Tu
abbiate
accanto
ace
ador@@
alimentare
ancor
anten@@
arle.
arm@@
atmosfera
avanti,
bisogni
carriera
chiamate
cioè,
cittad@@
clin@@
comunità.
crede
davano
dimostra
dire@@
domanda,
dott@@
dover@@
drog@@
ei@@
eo.
esercito
essendo
essenzi@@
evamo
figli,
fratelli
fres@@
generale,
giusto.
legg@@
luna
manipol@@
oh,
omi@@
ord@@
orie
ossi@@
passato,
pi,
po',
posi@@
prover@@
ro.
saper@@
scatt@@
schem@@
scoprir@@
sfrutt@@
sioni.
soldi,
son,
sostanze
straordinaria
temi
trattava
ultime
us.
usci@@
zero.
1000
100@@
3.
A.
Dio.
L'altra
Ovviamente,
Possono
Tro@@
abbandon@@
acque
aggi
am
ator@@
carbone
cia,
coltivare
cominciò
compassion@@
concent@@
confronto
connett@@
dall'altra
difficili
dinamica
dollaro
economia.
edit@@
ee
entrano
esercit@@
estate
et.
ette,
ezione.
facil@@
felicità.
forma@@
fotografie
fratello
fuoco
immo
impegno
industri@@
intenzione
intervento
invecchi@@
l'uno
lat@@
magni@@
manu@@
museo
network
normalmente
numer@@
occi@@
ok,
ologi@@
palco
partecip@@
piacciono
piani
portati
ragazzi,
rete,
risparmi@@
ritmo
salute,
scendere
settimana,
siate
sistema,
soddis@@
sostiene
spiegazione
strategia
tanto.
tardi
tecnica
terror@@
tort@@
ug@@
un'azienda
us,
va@@
vecchie
vista.
vite.
voluti
4,
50,
All'@@
Bl@@
Lu@@
Pot@@
Qualche
Quale
S.
Thomas
abitanti
amo?
architett@@
atur@@
autorità
bambino,
bellissi@@
buon@@
cervelli
chil@@
clienti
continente
creatura
descrivere
dia
diciamo,
difficoltà
distruzione
diversi,
domande.
educazione
equ@@
esperto
fantast@@
fenomen@@
fermare
fici
filmato
flu@@
impression@@
industria
infine
internazion@@
km
l'effetto
lament@@
legn@@
lei,
med@@
necessità
non@@
noti@@
oceano
opportunità.
ose,
pac@@
pace
polit@@
portò
possiate
preci@@
pronti
pronto
psicologia
raggiun@@
rappresentano
rete.
ringrazi@@
risp@@
risult@@
sentivo
sezione
solo.
spaziale
spr@@
statist@@
stessi,
stiano
succede.
svol@@
tal@@
tecnologi@@
tendono
titolo
tracci@@
tro@@
usi@@
uta,
vasi
w
zo
"L'@@
's
194@@
4.
99@@
?".
Cominci@@
Guard@@
Ot@@
Port@@
RB:
Steve
Ven@@
abil@@
all'
allo.
alto.
amici.
barriere
blu,
carico
cattiva
cinese
colpo
condizione
convincere
corrente
cres@@
disegno
dito
dovevamo
dovevano
dovrei
eccetera.
eli
ement@@
emente,
emisfero
etter@@
evi@@
ex
fermar@@
fiducia
finisce
generare
grandi@@
guid@@
illu@@
inst@@
lung@@
manc@@
masch@@
medicin@@
memoria
minacci@@
mondiale.
mostrar@@
mus@@
necess@@
nient@@
ologi
opere
pad@@
paes@@
partner
pell@@
pericolo
però,
piedi,
porre
prevedi@@
probabil@@
proi@@
propor@@
raccogli@@
ragione.
restare
ritir@@
scol@@
sicuri
situazioni
spen@@
spendere
tentativo
top@@
tutt@@
umi@@
veicolo
visti
ù.
Be',
C,
KB:
Leg@@
Mol@@
Pass@@
Polo
Rac@@
alto,
americano
anta
budget
caff@@
cass@@
cellul@@
cerchio
civil@@
collega
conosco
consegu@@
consumatori
continuo
cot@@
dicono,
die
dissi,
durata
e--
ede
edi
ei.
ester@@
etta,
felic@@
fine.
fir@@
fran@@
ieri,
iero
imento.
iniziai
l'architettura
l'aspetto
l'informazione
las@@
legno
let@@
liar@@
locale
meccan@@
morte,
nascita
naturale.
nozione
occident@@
parco
ped@@
posizion@@
proposito,
raccolto
rei@@
rov@@
sapevamo
settimana.
silenzi@@
sità.
sorri@@
sost@@
specializz@@
spiritu@@
superficie.
sv@@
tab@@
tant@@
tenuto
tratto
un'area
vuot@@
Dav@@
Hu@@
NASA
Ovviamente
Pal@@
Quest'@@
Sap@@
Se@@
Trov@@
accadendo
adott@@
andrà
anto
asci@@
assegn@@
attrezz@@
azione?
bac@@
bambina
basso.
cambiando
carica
compassione,
comport@@
comportamenti
conoscer@@
consegn@@
corsi
c’è
dicevano
dieta
dinosau@@
dissero
dità
domest@@
dr@@
ek@@
elli.
ero.
ettare
farli
fecero
fede
forma.
franc@@
frequ@@
giappon@@
giornale
giudi@@
giusta.
grossa
guardano
hi,
idro@@
illustr@@
ingegner@@
l'altro.
l'un
lam@@
largo
lungo.
là.
mani,
multi@@
muoversi
nem@@
neri
nucle@@
nuov@@
ocean@@
offre
ogi@@
ologia,
ovunque.
ovvi@@
parole.
partecipare
pec@@
periodo,
popolazione.
portatile
qua.
quanta
rac@@
relativamente
responsabile
ricercatori
riuscivo
romant@@
rosso
salire
scienziato
secondo,
sessu@@
sfi@@
sopr@@
sostanzialmente
stella
superare
testo
torniamo
tossic@@
trasformazione
uguale
uov@@
ute.
uti,
utilizzato
venuta
verità,
volontà
web,
50%
?@@
All@@
B
D,
Eravamo
Internet,
Internet.
L’@@
Magari
Potrei
Sa@@
Uomo:
affi@@
aggiorn@@
amano
andar@@
antenati
arie.
armi.
arrivo
assomiglia
autent@@
auto,
bellissimo
benefici
blog@@
breve,
calore
caso.
chia
clima
comincer@@
cominciai
comportament@@
consideriamo
coordin@@
coper@@
cresc@@
crescono
danza
dell'Africa
dente
descri@@
efficace
eliminare
ento.
equilibrio
esatt@@
ezioni
facend@@
farma@@
fretta.
gall@@
genza
giocatori
grandi,
incro@@
inizi
interag@@
iva
l'aria
l'impatto
l'inizio
libro.
lotta
lumin@@
mucchio
naturale,
orta
osservato
peggio
pensieri
percep@@
piú
potenzi@@
precis@@
pret@@
quartiere
radio
razione.
ricordate
risposto
rist@@
rizz@@
salute.
scienza.
scon@@
sentite
sinistra.
situ@@
spo@@
strana
supp@@
trattamento
valut@@
ve,
ve.
vert@@
"P@@
195@@
2.
5.000
Bar@@
Cam@@
Cambi@@
Divent@@
Dovremmo
Einstein
Inter@@
Londra
New@@
Sem@@
To@@
Tor@@
War@@
World
accordo
accumul@@
alter@@
ard
asse,
assieme
atomi
attuale
battut@@
bilità.
brac@@
capisco
carbur@@
cattiv@@
celeb@@
chiese
climat@@
coer@@
compren@@
comune.
confini
conflitto
copia
cron@@
darò
democrat@@
dendo,
devast@@
dita.
elettricità
evoluti@@
fattore
felice.
figura
formano
formato
forti
fotograf@@
gent@@
glio
go@@
icamente.
ik@@
imit@@
immagine,
immagini.
imprenditori
impresa
inquin@@
invisi@@
itudine
lett@@
locali
là,
marketing
me@@
meccanismo
mezza
obblig@@
omia
oscur@@
ospit@@
osso
palla
past@@
pel@@
percezione
ponte
profit@@
provando
raddoppi@@
rett@@
rico
ripar@@
scont@@
siamo.
simmetria
soffer@@
sopravvivenza
specie.
spinge
sta@@
stessa.
stori@@
suffici@@
sufficiente
suona
temp@@
tranne
una,
urb@@
video,
vino
viver@@
vono
vulner@@
zer@@
zio.
zziamo
"Bene,
"C@@
1,@@
Can@@
E’
Grande
Mad@@
Marte.
Oggi,
P
Wi@@
abili,
accaduto
accoppi@@
aggi.
aiutato
ambienti
arl@@
atamente,
ative.
attimo
aus@@
capelli
capite
cola
consumat@@
contenuti
conti
d'acqua
dar
denaro.
diri@@
discutere
distin@@
diverso,
dopo@@
dubbio
eroi
eva.
ferma
fiche
figlia
fila
flui@@
foc@@
foreste
formi@@
frequenza
identità
ili
impedi@@
infine,
insol@@
isci
l'obiettivo
luci
menzion@@
miamo
miliar@@
mori@@
notte.
offrire
ognuna
online
osservate
ow@@
padre,
paesi.
parlar@@
passano
peggi@@
piattaforma
piccolo,
pietra
polizia
porto
potessi
potresti
progettazione
prossi@@
qualcuno,
rapi@@
rei
ricch@@
ricco
riguar@@
rispett@@
rò
sconosci@@
sfruttare
soc@@
sociali,
speso
stim@@
string@@
tecniche
tirare
torna
un'enorme
uomo.
vederlo
vo,
"E
.♫
100.000
Allo
Ber@@
Bra@@
DNA.
Far@@
Fino
ON@@
Occident@@
Pensavo
Prendiamo
Significa
accur@@
aerei
aggi,
ai,
altre.
americ@@
anche,
antrop@@
anzi
arrivò
assur@@
attiva
auto.
avo,
az@@
bello.
bev@@
bro@@
cellulari
cerebr@@
chiedo
cinqu@@
collaborazione
consul@@
corpi
corteccia
cresciuta
dann@@
danneggi@@
dentro.
diffonder@@
dio,
dip@@
distrug@@
duro
enorme.
erei
esa,
esalt@@
europ@@
fasi
fico.
fiss@@
fur@@
galleggi@@
gioia
giustizia
icità
influ@@
itamente
latt@@
libero
mani@@
mapp@@
mappe
misura@@
moll@@
mostri
motori
n'è
nazione,
ogen@@
perché.
pianific@@
picchi@@
polizi@@
potranno
prendersi
progetti@@
recent@@
ricerca,
ricon@@
ricostru@@
saremmo
scav@@
scrisse
sicuro.
simile.
sostenibile
spesso,
successiva
tengono
tonnellate
trucco
ure,
vac@@
veget@@
video.
"I
"Io
"Questo
"Sì,
.]
Cap@@
Darwin
Fac@@
Golfo
HIV
Parliamo
SW:
Su
Tom
Tuttavia,
affascinante
alti
ando?
ane,
auton@@
autor@@
avreste
be,
beni
bom@@
borsa
bott@@
caccia
centr@@
chiamava
climatico
coli
collass@@
colpisce
com'è
cominciando
compassione.
controver@@
creativ@@
creiamo
curva
dedicato
dell'acqua
deriva
ena
entemente
espl@@
est,
estrarre
eti
evoluzion@@
facciano
fed@@
fo@@
fondamentali
formica
forni@@
forte.
galassia
giocatt@@
gion@@
grandi.
i...
imparando
iniziamo
inizio.
into
investire
lentamente
magli@@
materi@@
media.
meravigliosa
mondiale,
nata
o]
occasione
occupa
offri@@
olio
ond@@
oo@@
origami
orizz@@
orologio
perf@@
perfetto
pet@@
piaceva
poch@@
pone
povertà,
pre-@@
previsioni
produr@@
pur
quar@@
rappresentazione
respi@@
ries@@
rispost@@
rivoluzion@@
scelta.
secondo.
sentiamo
sicura
sott@@
specific@@
success@@
suolo
sviluppo,
tardi,
trib@@
uom@@
uscita
velocemente.
vidi
visita
viso
zia.
zzi,
"?
1,
50@@
9.
Andiamo
Au@@
Big
Donna:
Ec@@
L'altro
Medio
Naturalmente
Prendete
Prov@@
Regno
Tur@@
abbi@@
acquisi@@
ader@@
agricoltura
aiutano
andare.
angel@@
angol@@
aspetta
attraversare
avano,
aw@@
bravi
brut@@
camera
capiamo
cardiac@@
cert@@
chiudere
citazione
ck
ck@@
coinci@@
condann@@
connessioni
conos@@
continuato
cra@@
decoll@@
dettaglio
diffusione
dimostrazione
discut@@
dottori
eccell@@
ene.
ersi
esperienza.
evo,
favore,
ficazione
finest@@
flessi@@
format@@
fui
i?"
important@@
imprendit@@
indirizz@@
individuare
interazione
ità?
l'amore
l'ap@@
la,
lott@@
lungh@@
mare,
mato
mezzo,
nazion@@
nell@@
nulla,
onore
orbita
originale
os
ossa
paragon@@
parti.
pesca
prendo
renderlo
salut@@
sanitario
sanità
scolast@@
sedere
seguendo
sincer@@
sole.
spirit@@
spontan@@
succedere
teorie
tornando
tradizione
trasc@@
umane
un'intera
vedremo
war@@
zampe
zzo
"F@@
Altri
California
Des@@
Deve
El@@
Eppure,
Gr@@
Guerra
L'abbiamo
O,
Pri@@
Qualcosa
Ru@@
Str@@
T
Times
a--
agio
alc@@
alcun@@
amo@@
ampio
ard@@
atric@@
ay
bagn@@
belle
bili@@
bloc@@
bottiglia
bre@@
calcolo
campioni
candi@@
capisce
capita
chio,
chius@@
cio@@
completo
conquist@@
considerato
consist@@
cucina
dell'in@@
deser@@
discorsi
distrut@@
dovremo
elef@@
ella,
email
ena.
ene,
epidemia
erà.
esperienza,
esse,
estern@@
eu@@
facendo,
fantastica
fidu@@
fili
finito.
foll@@
gioco,
giro.
giusti@@
gros@@
guardi
iper@@
isca
lato,
lavoriamo
limite
madre.
matemat@@
messe
migliore,
movimento.
muri
nave
nell’@@
o--
organismo
oria.
osamente
paesaggio
palazzo
passiamo
peggiore
personale,
piccol@@
piccolo.
politica,
posizioni
prendi
prezi@@
pronta
proviamo
quattro,
racconto
red@@
ricer@@
riferimento
rivista
robot@@
sbagliato.
scattata
scoppi@@
scri@@
selezione
sforzo
simo
sofistic@@
specie,
specifico
spostare
stess@@
strati
studiando
successe
temper@@
tende
terra@@
tetto
trasformato
tuttavia
ucc@@
uomini,
uscir@@
utile.
v
vedi@@
visto,
vite,
vivere.
é@@
20,
27
5000
Bur@@
D.
HIV.
Howard
Marte,
Ne@@
S:
Second
Steven
Viene
alli
amica
aperta
appren@@
arb@@
assic@@
atizz@@
atomi@@
attac@@
attra@@
base.
basso,
bat@@
battaglia
battuto
bocca
boll@@
chiav@@
chiuso
ciare
civile
coinvolti
compiti
condotto
confronti
congel@@
coraggi@@
cresce
crescendo
de?
dell'energia
denaro,
dett@@
diffondere
dimostrato
disastr@@
divert@@
doman@@
donna,
dottore
esplosione
esse.
estet@@
età,
età.
evole,
facciamo,
fe@@
fica.
fol@@
fossi@@
freddo
frequent@@
fru@@
fusione
g.
gamma
genti
guerre
idrogeno
in.
individuo
inevit@@
insegnamento
investimenti
ispi@@
istitu@@
lancio
medici
mill@@
mostra@@
muovono
oceano,
olare
omet@@
onia
passando
periodo.
plac@@
potrete
processo,
progressi
proiett@@
quello.
qui?
radic@@
ragazzino
recentemente
rice
saggezza
scorsa
segreto
siamo,
sing@@
sorprend@@
speriamo
stima
strategie
student@@
succederà
suici@@
superi@@
tim@@
ton@@
tura,
utilizzando
vada
vamente
vender@@
veni@@
vennero
vento,
vetro
viaggiare
vicino,
videogiochi
viventi
x,
'altro
20%
6,
8.
9,
Cent@@
Costru@@
E:
L
OK?
Ov@@
Paese
accadem@@
aci
appart@@
approc@@
arre
arrivi
articoli
automat@@
averlo
barca
basi
benefic@@
bomba
bran@@
britann@@
capac@@
catt@@
cattur@@
co-@@
como@@
comune,
condi@@
conness@@
consiglio
continuamente
cooper@@
corrisponde
corso.
cucci@@
culture
decor@@
destin@@
diede
dipend@@
disegni
dizion@@
entrato
erebbero
escono
essere.
esterno
ete?
evoluti
f
facile.
fame
fanno.
finestra
fondo.
forma,
fotogra@@
fren@@
gara
genera
gioi@@
giun@@
gno
gradu@@
habitat
i."
impres@@
imprese
indag@@
ingegneri@@
integ@@
intens@@
irà
ise
ispirato
issime
ista,
l'ambiente
l'un@@
membro
migr@@
mm@@
moda
moderna
modi@@
muscol@@
muscolo
naturali
nome.
nonna
nut@@
o!"
ologo
organi
organizzare
ottimist@@
paga
pagato
partendo
pensate,
pensavano
perfett@@
portate
potere.
prec@@
principalmente
profon@@
punta
quadrato
quindi@@
radici
reali
regal@@
regioni
resta
restitu@@
riflettere
scientifico
scriver@@
serviva
sicur@@
signor
simbol@@
sogni
sotti@@
speranza.
sta,
tempor@@
tes@@
tipico
tradizionale
tumore
tà,
uffici@@
voci
"L@@
.”
250
7.
800
AIDS,
Avevano
Gra@@
Gran@@
Inizi@@
Isra@@
Kar@@
Pen@@
Twitter
Vol@@
Washington
aggiunto
agric@@
aiuto.
altra.
analizzare
anc@@
andolo
anima
animazione
argomento.
arli,
assumer@@
assunto
atte
atten@@
attent@@
attualmente
banca
banda
basa
bir@@
calcolare
cancro.
capire,
capr@@
cardi@@
catori
cerchi
chiedendo
ciascuna
cir@@
colpa
completa
corpor@@
così@@
cuore,
dano
demogra@@
deserto
dete
difficile,
dimension@@
direzione.
dirig@@
diventerà
dubbi@@
eleg@@
element@@
embre
equazione
estra@@
evano.
ezione
farmi
fossimo
generazioni
genitori,
gro@@
grossi
imper@@
informazioni.
interessi
l'am@@
l'an@@
l'edificio
l'oceano
l'una
lei@@
lob@@
maest@@
maggi@@
malaria
medico
mescol@@
messaggi
mettete
milit@@
misteri@@
mod@@
nonn@@
oceani.
oceano.
ograf@@
os,
otta
otte
peggior@@
pensare,
pensare.
perfetto.
poco.
politico
polvere
progres@@
raffred@@
razione,
razioni
re?
responsabili
resti
riduzione
ro,
sabbia
scattato
scientifica
semplicità
senti@@
signor@@
sintetizz@@
superficie,
ta,
tav@@
trasforma
tura.
uccidere
un'organizzazione
utilizzo
veicoli
veloce.
ì.
ò@@
21
32
Cerc@@
Europa.
Fi@@
Gen@@
Mer@@
Mont@@
Obama
Peter
Ragazz@@
USA.
Unione
Us@@
abbass@@
accompagn@@
acust@@
affida@@
aggressi@@
alberi,
antici@@
approfon@@
architetto
ati?
bisog@@
caduta
cancro,
cic@@
civi@@
class@@
clic@@
colt@@
compagni@@
comprender@@
convincer@@
coscienza
cresci@@
culturale
curare
dem@@
dentro,
denza.
descrive
diagnost@@
differente
dimensioni.
economia,
egn@@
entrata
esplorazione
esprimere
essa,
evidente
fabbrica
fantas@@
fondato
forte,
fotografo
ghiaccio.
gi,
giamo
ha,
indoss@@
informazione,
interessanti.
istruzione.
kl@@
l'ora
mad@@
meraviglioso.
metabol@@
mettersi
mondi
mondo?
nan@@
ni
obiettivi
oro.
otteniamo
ovvio
pend@@
perde
perdono
più@@
planet@@
polline
poterlo
presi@@
prosper@@
qua,
quarti@@
quest'anno
ragazzi.
recente,
remmo
respiro
rib@@
riscal@@
scritta
selezion@@
sist@@
sog@@
sov@@
stabil@@
stazione
successivo
sé,
ton
tran@@
trovi
tà
vaccino
vincere
vittime
voc@@
volere
web.
«@@
Ac@@
Fa
JH:
Larry
Life
MIT
Pol@@
Tre
abbiamo,
acido
ah,
ai.
allora.
ampli@@
andomi
ane.
angoli
applicare
applicazione
architetti
are:
asi
aspi@@
ation
atorio
atta
attenzione,
avo.
barriera
blocco
cambiamento.
carta.
cast@@
cio,
circost@@
citta'
colloc@@
commercio
complessa
cono.
contadini
convinto
coralli
costantemente
costruisce
crist@@
cuore.
davver@@
dell'essere
demmo
denza,
design@@
dicendo:
direi
discus@@
diverti@@
drit@@
enta
ey@@
famosa
fig@@
film@@
fre@@
fron@@
fun@@
gam@@
giov@@
giusto,
governo,
he@@
infil@@
ingegn@@
innovazioni
internazionale
interventi
investimento
isce.
istruzione,
l'al@@
l'alt@@
l'or@@
la@@
lascer@@
legame
lich@@
lontani
mai,
mese,
mese.
metterci
metterlo
muoiono
na
neve
nom@@
occidentale
oriamo
parag@@
parli
pasto
pavi@@
pazz@@
pensier@@
piatto
picco
plic@@
pron@@
proposta
propri@@
quad@@
quello,
questi@@
raccolta
raccontato
ragione,
record
richiesta
rischi
riserve
risposta.
scarpe
set
settimane,
settimane.
solare.
sottomar@@
specchio
spett@@
squal@@
stadio
stan@@
statistiche
successo?
tar@@
tass@@
traff@@
trarre
trascorso
ulare
uni
uova
utto
vast@@
veramente,
vertic@@
vic@@
vide@@
"Chi
"Ci
C'é
Francisco
Guardiamo
I.
Jo@@
Mu@@
Nelle
Osserv@@
Quasi
Semplicemente
Torn@@
abbastanza.
accettare
afferr@@
agenti
aio
alizzazione
amico,
amor@@
apparire
arrivate
asta
aste
atelo
attore
base,
bisogno,
bottigli@@
but@@
caffè
calda
caldo
cambiano
canali
cattivo
ch
chè
clinica
coinvolgere
coinvolto
combatt@@
compra
comprom@@
conoscete
contrario
cosci@@
credeva
credo.
curio@@
degra@@
difesa
differenzi@@
dimen@@
dispositivi
duc@@
eca
eco
economisti
edu@@
elett@@
elettro@@
elli,
ello,
emi
ener@@
esprim@@
esterno.
estr@@
estremità
et,
ex@@
facciamo.
fec@@
felice,
felici.
geni.
giornalista
giro,
golf
gom@@
i".
iniziarono
interamente
ipotesi
ispirazione
l'importanza
lunghe
lunghezza
magi@@
mangiano
massa.
matematica,
mes@@
metodi
milion@@
misero
mito
omb@@
opportun@@
ota.
parlare,
parteci@@
partita
patri@@
performance
piet@@
politica.
pomp@@
popolo
porterà
potente.
preoccu@@
prevenire
produttori
professore
protegger@@
protezione
provenienti
qualcos@@
ragazzini
regno
rein@@
ricca
ricostruire
riguardo.
risal@@
ritornare
salvato
sarò
satell@@
sbagliato
scorso,
secon@@
simbolo
siva
smettere
storie,
stra
superiori
sé.
tele@@
telescopio
televisi@@
televisione
tipo.
tiva
toller@@
troppo,
uccello
uccider@@
ulti@@
ur
vacc@@
vengano
verranno
vitti@@
zucch@@
—
”@@
"Oh
20.000
99
Asia
Cos'è
Dipartimento
Esiste
Har@@
Inghilterra
Ju@@
L'
LG:
Mac@@
Martin
Microsoft
Mondiale
Naturalmente,
Nessuna
Pic@@
Poiché
Pu@@
R
USA,
Unite
a'.
aeroplan@@
ali?
amministrazione
ampia
anti-@@
anze.
arab@@
are."
arrampic@@
atica
ato:
attravers@@
aumenta
automaticamente
autore
avvent@@
bordo
bra
brano
campo.
canale
capi
casi,
centesimi
certamente,
cifre
colonia
cominciamo
concorr@@
contare
controllo.
così?
credet@@
d'
darsi
dat@@
dav@@
dend@@
denz@@
dicev@@
diceva:
dicono:
differente.
dipendenza
diretta
dirit@@
disegnato
divis@@
eccezion@@
eci@@
el.
eppure
esp@@
espressione
evoluzione.
ey,
farle
felicità,
filosof@@
fisica,
folla
fornisce
funghi
gravità
gust@@
ico?
ide.
idi@@
ii
immagini,
implicazioni
inate
incredibile,
indipend@@
infra@@
ingann@@
iniamo
inqu@@
insegna
interagire
interattiv@@
intitolato
iranno
ista.
istico
itto.
ivano
lunghi
magia
meccanismi
medicine
menti.
minuto.
mir@@
mobili
molec@@
nati
nazione.
obi@@
organis@@
pa
perder@@
pianificazione
pie
pieni
pitt@@
poesia
portarlo
povertà.
prevedere
processo.
promuovere
pubblicit@@
realist@@
ricchezza
richi@@
riguardano
ristorante
rivela
rono
rott@@
sapevano
scaten@@
segnal@@
segue
sei,
serio
sie
sim@@
sintet@@
sl@@
sofferenza
soggetto
sorpres@@
sorpresa
spettacol@@
spinta
stanza.
strade,
succedendo.
super
tali
tas@@
teor@@
testimoni@@
ti?
toc@@
traffico
tragedia
tranquill@@
trice
tutt'@@
tuttavia,
ume
vaiolo
vendit@@
vide
volume
vorrebbe
vu@@
à:
è?
…
00,
15@@
26
50.
AIDS
Art@@
Cal@@
Cosi'
Fu@@
Go@@
Gre@@
Islam
Itali@@
Livello
Ognuno
Ori@@
Tanz@@
Washington,
Wikipedia
accedere
aiutarci
all'età
all'improvviso
allung@@
altru@@
alzare
amenti.
andas@@
andavano
antica
apparten@@
ascoltato
ash@@
attacchi
bi.
blu@@
brillante
buchi
canz@@
chiesto:
chio.
chirurg@@
citt@@
ciò.
colpito
competizione
concentrazione
contributo
copertina
cultura,
danni
darci
decise
defini@@
densità
devamo
diavolo
divers@@
ducendo
emente.
emis@@
era:
ers
esam@@
esistenza
esto
fiori
foglio
fonda@@
fratell@@
fumetti
fung@@
funzionare.
ghi@@
grafica
gruppo.
ick@@
igi@@
illusione
imparano
implic@@
impossibile.
incidenti
infanti@@
inferiore
informazione.
inserire
insomma,
intelligente.
isti,
isti.
l'America
l'attenzione
l'au@@
l'età
l'influenza
l'oggetto
larg@@
lascio
latte
legati
legato
liev@@
lont@@
lun@@
manca
marito
mart@@
massa,
membr@@
migliori.
minimo
misi
mist@@
modalità
notevole
ogn@@
operazione
oscura
ostac@@
ove
pensato:
piramide
poli@@
potere,
profonde
pront@@
qualcos'altro.
rato
rava
ridicol@@
ril@@
roba.
rocci@@
semi
sentirsi
sequenzi@@
serio.
simmet@@
simmetri@@
sola.
solare,
sottile
stagione
status
succederebbe
svel@@
tal
telecamera
telefoni
tempo@@
terri@@
th@@
tivo
tol@@
trovai
uccis@@
ucciso
umanit@@
umor@@
un'ottima
univer@@
universo,
unqu@@
utili
vendo
vera,
verità.
viet@@
vill@@
vincer@@
virus.
vorremmo
y:
zero,
ì@@
$
120
19
2,@@
75
AIDS.
Af@@
All'inizio
Americani
Arri@@
Beh@@
Europ@@
Giappone
Gore
Iraq
JA:
L'anno
Lavor@@
Mis@@
Nessun
Numero
Oh
Presidente
S,
Sco@@
Tal@@
Ten@@
Tit@@
Vu@@
ach@@
adi@@
aia,
all'anno
allarg@@
am,
ambiente,
americana
amo:
andavo
ande
ander@@
andi@@
andovi
anno?
ano:
apprendimento
apre
arriviamo
assenza
assorb@@
atti,
balene
batterio
biblioteca
biglietto
camion
caratteristica
cavallo
cchi@@
certo.
cinesi
circuito
compor@@
comportamento.
conclusione
concret@@
coni@@
contrario,
convers@@
creati
crudel@@
d'accordo.
d'arte
da?
dall'inizio
dell'E@@
depres@@
descrit@@
dico,
diverse,
divin@@
dramm@@
ecosistema
edificio,
effettiv@@
ego@@
elle,
enne
epidemi@@
eroe
espan@@
eter@@
etern@@
evidenzi@@
fabbr@@
farmaco
fica,
foie
funzionato
gentil@@
giù,
gon@@
grande@@
iamo.
ica:
imbrogli@@
incu@@
infanzia
infinite.
informazioni,
interfaccia
intr@@
irrazion@@
is,
isce,
itto,
l'E@@
l'abilità
l'acqua,
l'attività
laggiù
lasciamo
lavorare.
letteratura
mammiferi
meridi@@
miliardi.
nascit@@
nascosto
natur@@
nessuno.
niente,
normali
nucleare.
nucleari
occu@@
of@@
opp@@
orecchi@@
oro,
ote
ottengono
over@@
p,
p.
perifer@@
piano,
piccoli.
piov@@
plast@@
poss@@
potevi
precipit@@
presentare
press@@
proteg@@
prototi@@
qualc@@
recuper@@
region@@
ridu@@
rifiuti
rima@@
saputo
scenario
schiacci@@
segno
sensi@@
sforzi
situazione.
siv@@
so?
sogg@@
sopra.
soprattutto,
spettacolo
stabilire
stagion@@
suggerisce
tempi.
teoria,
trasportare
uff@@
ugu@@
umin@@
une
util@@
venisse
vicina
visitare
yn@@
zucchero
ì,
”,
2.@@
Banca
Bibbia
Br@@
Bret@@
Bud@@
Cin@@
Cop@@
DNA,
Devono
Nazionale
Ray
Sent@@
Stu@@
Università
Universo.
abbrac@@
add@@
affinché
age
aggreg@@
agit@@
agn@@
ah
alien@@
alizzato
alte
am.
amer@@
americani.
ammal@@
amore.
ancor@@
angolo.
animale.
antico
arch@@
armon@@
assumere
attesa
belli
benz@@
biodiversità
biologi
bizzar@@
bos@@
brava
bravo
cab@@
cade
candel@@
carta,
centim@@
centinaio
cervell@@
chiedono
chip
cima.
cioccol@@
colli@@
consci@@
conveni@@
coprire
corre
credete
dargli
debole
dell'evoluzione
descritto
diretto
distruggere
dotta
eamente
economici
economico.
edono
effettu@@
egno
emergere
eri,
eseguire
esport@@
espressioni
essione,
eta,
etr@@
ezion@@
fab@@
ficato
fili@@
fo
forest@@
formul@@
funzionamento
gal@@
gigantes@@
gioca
gira
go.
grandezza
grano
he
identificare
immo@@
inglese.
iniziale
innovazione.
interfer@@
introdurre
inventare
is.
l'acqua.
lasciatemi
libera
lingue
link@@
mattino
minaccia
minim@@
mo?
n,
ness@@
neutr@@
nido
normale.
occupar@@
ogli@@
oia
orchest@@
oria,
osservazione
paesi,
parlav@@
perman@@
pezzi.
piccoli,
pinguini
plas@@
po,
porta,
porti
possibilità.
posti,
preced@@
preciso
previ@@
proviene
raccoglie
razza
resto.
retro
ricerca.
ricicl@@
ricre@@
ridur@@
rimasta
risolto
risoluzione
ritorno
rompere
ruota
saltare
salto
scher@@
scimpanzé
scopre
selvat@@
sensori
sicurezza,
siero@@
som@@
son.
sovra@@
stand@@
stato,
strateg@@
stru@@
stupefac@@
tagliare
temporan@@
testim@@
tipic@@
trasforma@@
ule
un'ora
vamo
vento.
versi
villaggi
vincit@@
visivo
viss@@
zi,
zo@@
"Per
"The
"W@@
"È
$@@
'è
00
700
AR@@
Diciamo
Don@@
Europa,
Fanno
Fer@@
Frank
Harvard
Immag@@
Inoltre
PIL
Quante
Reg@@
Ricord@@
S
Tra@@
WK:
abbond@@
acca
accadde
acciaio
acquistare
adoro
agna
alle@@
anni?
antichi
anze,
apertura
architetton@@
are"
argomenti
arte,
attori
avvoc@@
bab@@
barb@@
bere
bilità,
biologi@@
bizz@@
carte
cartello
cela
cena
centro,
che@@
cino
com'@@
comprensi@@
compreso
confron@@
continuiamo
contraddi@@
correl@@
costruita
dall'altro
danz@@
dell'oceano
disastro
dollari@@
domande,
ecc.
eccetto
eci.
egu@@
elo.
entusiast@@
ereb@@
esim@@
esserne
essione.
esten@@
ezze
farebbe
fatti,
favore.
file
filosofia
fisici
fossili
giudizio
giù.
gratis
guardi@@
hotel
ice.
ick
impianti
incentivi
insist@@
intellettu@@
interi@@
irsi
itali@@
itu@@
l'avete
l'op@@
leggen@@
letto,
locale,
lungo,
malattia.
man,
marchio
matematici
matrimonio
merit@@
mest@@
modi.
moltiplic@@
montagn@@
morti.
n.
nazionale.
ne,
necessaria
nigeri@@
note
nuotare
occhiali
oniamo
orizzont@@
osserviamo
pap@@
parcheggi@@
pare,
paziente.
pelle.
pensai
pericoloso
piano.
pirami@@
popolare
popolazioni
positivo
posti.
povera
poveri.
precedenti
prestito
probabilmente,
quarta
rad@@
raggi@@
regole,
relazion@@
rendendo
rendiamo
reste
riconos@@
riguard@@
riserv@@
scende
scett@@
scimmia
sciogli@@
scontr@@
serra
sfer@@
sforz@@
simulazione
sin
sino
sk@@
sociali.
solo,
sop@@
sopravviv@@
stato.
stica
struttura.
suono.
svilup@@
temporale
term@@
testare
tipo@@
tradizion@@
traspor@@
tratten@@
tuta
u,
um,
un'idea.
un'opportunità
uzione
valutare
venduto
vera.
verde.
vestiti
vinc@@
vitale
vivendo
zio,
É
á
"Sì@@
00.
10%
@TED
Ah@@
Appl@@
Ben
Brian
Casa
Cinque
Cos'@@
Ed@@
Fran@@
Hill@@
Ho@@
Institute
Isl@@
L'ultima
Mat@@
N
Parl@@
Pur@@
Quelle
Questo,
Sul
Wal@@
].
abituati
ade
agricol@@
ale"
all
all'idea
anch'@@
anima@@
annunci@@
appoggi@@
approv@@
ariamente
arrest@@
arte.
artifici@@
aspettando
ative,
augur@@
autori
avviato
battito
bigli@@
buff@@
cariche
cerebrale
cher@@
chiamò
chiesi
chimici
chit@@
cogniti@@
colore,
colori.
concetti
condivis@@
confine
considero
contest@@
corruzione
cose?
creata
create
creder@@
cresciuti
d'oro
ddi@@
dendo.
descriver@@
diagnosi
dio.
dolor@@
dovunque
durre
e...@@
edificio.
efficiente
emo.
en.
ena,
equi@@
esempi.
esercizio
esper@@
essenziale
etan@@
eti@@
fa?
fasti@@
finita
forme.
fort@@
funziona,
ge.
ghi
gi.
giardino
glia
grazi@@
guadagnare
herò
hiamo
imbarc@@
imenti
immagino
importante?
inaspett@@
infrastrutture
inizio,
inoltre,
interrog@@
intorno,
intu@@
iscono.
istituzione
l'area
l'essere
lacri@@
libell@@
livell@@
matematico
meccanica
mentale
metallo
miglioramento
migliori,
morto.
mul@@
musul@@
naio
navig@@
necessarie
nuova.
organizzato
os.
ossigeno.
ottimi@@
ou@@
parol@@
partic@@
pecc@@
peggiori
percent@@
pessi@@
piazz@@
pingu@@
pochino
posizione,
posizione.
pratic@@
presentato
princip@@
queste,
quin@@
ra?
raccon@@
raff@@
rapida
riconosce
riesci
rilass@@
riserva
risultato,
s"
scapp@@
scat@@
schelet@@
scienziati,
sconvol@@
seriamente
significato.
signora
sil@@
social
soggetti
sorella
sostanzi@@
sperimentare
spingere
spinto
staminali
superato
sviluppando
tardi.
tedes@@
ter
territorio
tess@@
tire
tot@@
tradizionali
trascor@@
trist@@
trovarsi
trovavo
ust@@
vern@@
visibile
vivere,
zza,
zzi.
é.
"R@@
"non
'6@@
'8@@
,000
14@@
Adesso,
California.
Capit@@
Certo
Crediamo
Do@@
Fatemi
Franc@@
Ger@@
Gh@@
Grazie,
Ha@@
Kevin
Ky@@
Long
Museo
Nigeria,
Okay,
Persone
Sost@@
Spesso
affam@@
affari.
ain@@
algorit@@
all'altro.
alline@@
andammo
andarono
anelli
ang
ania,
architettura.
aro
assai
atteggiamento
atti.
auti@@
balena
baller@@
beneficio
biciclett@@
calcoli
campi@@
capo@@
caratter@@
carburante
catturare
cento.
cere
chiamati
chiesto,
chio
ciascun
cint@@
collegare
collezion@@
complesso,
concor@@
continuano
contribuire
coraggio
cosi@@
decennio
delic@@
dell'anno
dell'universo
dell'uomo
den
derà
dicendo,
difen@@
differenza,
diffusa
dinamiche
disco
distingu@@
diventate
diventi
diventò
dottor@@
dove,
eccitante
econ@@
econom@@
embre.
emerge
entità
esperi@@
fanno,
fatti.
ferro@@
fertilizz@@
festa
fisico.
folle
foste
frammenti
fronti@@
gene
geogra@@
geometria
gestione
gio,
giornali
giovani.
girato
glamour.
ide,
illeg@@
immaginazione
imo
impiegato
incis@@
indov@@
intelligenti.
intern@@
internet.
interrutt@@
into.
issimi
istica
l'aiuto
l'innovazione
laboratori
laboratorio.
luci@@
m,
massic@@
merc@@
mezz'@@
ministro
molte.
moltissimi
morale.
moto
nasce
nascere
nascost@@
neces@@
nell'
nell'universo
nerv@@
nic@@
nocci@@
nuvol@@
obbi@@
oci@@
oi
origini
orologi@@
padre.
palco.
particolare.
passeggi@@
periodi
personalità
pist@@
positivo.
possibilità,
povero
preparato
privilegio
prog@@
propag@@
proteine
provano
puntini
pura
qual'è
questa:
rapporti
rappresentare
religione,
rend@@
respons@@
ricevono
riconoscimento
rigi@@
risale
risorse.
risparmiare
risulta
riusciva
satellite
schermo.
scienti@@
scoprendo
seguir@@
sentimenti
serp@@
simili,
simili.
sis@@
sito.
soddisfare
soli.
sonda
strad@@
studenti,
superfici
tassi
tecnologie,
tentato
tradu@@
trau@@
tron@@
troverete
tubo
ue
uri@@
ute,
vant@@
vasta
velo
venite
visiva
vo:
voto
wi@@
z,
zione?
zzato
":
"Le
"la
13@@
2007,
21@@
23
90%
Ah,
Ara@@
Atlant@@
Boston
Camm@@
Cominciamo
Corea
Cristi@@
Cu@@
Dir@@
Fortun@@
Giov@@
Google,
Hans
Hollywood
Intendo
Lasciatemi
Londra,
Mart@@
Natura
Rec@@
Semplic@@
Sudafric@@
Te@@
Th@@
Vedo
Viviamo
abbat@@
adolesc@@
aerop@@
alberi.
alisti
aller@@
ambito
amolo
apor@@
archi@@
arie,
arle,
armi,
atro@@
ature.
ba,
bandi@@
bi,
boc@@
canzoni
cella
cicli
cielo.
ciò?
cliente
collegati
coltivatori
combustibile
confin@@
conoscenza,
consigli
core@@
costante
crat@@
cricket
cruci@@
darà
definito
determina
dig@@
dipinto
dir
dissero:
distinguere
dita,
do?
dopam@@
ecco,
economica,
economico,
ell
elle.
enda
entrate
eol@@
ero,
esia,
evident@@
ew@@
ezione,
faccio.
familiare
fantastico,
fattoria
felici,
figlio,
finora
gang
ghiaccio,
gio.
gono.
gover@@
gram@@
guidato
he,
i;
ica?
impara
impianto
impon@@
impulso
inferi@@
inglese,
insetti
intelligente,
intenzion@@
interno.
introdotto
investig@@
io:
ipot@@
irrig@@
irrit@@
issero
issimo,
izione
izzazione
l'11
l'umanità
lasci
lati
leggendo
ley
man.
mappa.
maschi
matematica.
mentalità
mia.
milli@@
minus@@
mondi@@
morale,
morire.
moti@@
motivazione
movi@@
muscoli
nastro
nottur@@
nucleare,
occidentale.
ocrat@@
ombra
orecchie
osped@@
otti
parassi@@
percento.
piante,
piante.
posit@@
poster
poveri,
preoccupa
profess@@
pronte
pubbl@@
put@@
radicalmente
rapidamente.
reinvent@@
religioni
resistenza
ria
ricerc@@
rigener@@
rimangono
risultato.
riuscita
rivolu@@
rossi
sangue,
sapete.
scambio
schizo@@
scienzi@@
scrivendo
secondi.
sene
senti
servire
sigar@@
sità,
slide
software,
solari
solu@@
sorprendente.
spir@@
splendi@@
spunt@@
stelle,
straordinarie
strapp@@
stro
suppor@@
sè
ta@@
tapp@@
teatro
toccare
tonnell@@
traccia
tura
tutela
ula
umane.
universale
università.
uomini.
uscit@@
utto,
vergogn@@
veri@@
viaggio,
vivevano
vola
voli
zi.
"Lo
"Ok,
....
12@@
3,@@
Adoro
Arriv@@
Bang@@
Bian@@
California,
Continu@@
Davvero
Ecco@@
Eppure
Faccio
Giappone,
He@@
Homo
Invece,
Iraq.
Jill
Jim
John@@
Juli@@
Ki@@
Met@@
Mett@@
Nonostante
Nuova
Ol@@
Pensat@@
Pl@@
Quest@@
SI@@
Sci@@
Sett@@
Sher@@
Silicon
The
Vengono
Web
abbiamo.
abi@@
accadere
accessibile
adottare
affron@@
alismo.
all'Università
all'altro
alle,
altezza
altrov@@
ame,
ami,
ami.
anali@@
anziani
appunt@@
arrivando
ato...
attraver@@
audi@@
avvicina
b
bagno
basta.
besti@@
bici
bim@@
bombar@@
business.
camer@@
campione
campo,
carbon@@
chies@@
chirurgo
cinque,
cita
cogli@@
collater@@
cominciarono
complicato
comporta
condivide
condivider@@
conferenze
contengono
corrett@@
dario
decenni
deleg@@
dell@@
denzi@@
depr@@
depressione
detto.
differenti.
do:
dono.
doppia
dormi@@
elen@@
emat@@
emozioni,
entemente,
erb@@
erci
eredità
espres@@
estinzione
etich@@
etro,
ettore
eva,
faccia.
facevamo
familiar@@
fantasi@@
farlo?
fatto?
fisi@@
fluttu@@
frut@@
gano
gend@@
genetica
gig@@
gin@@
giocatore
giornalist@@
giovane,
gravit@@
hi.
iamo,
immagazzin@@
importanti,
incenti@@
inclin@@
infer@@
infermiere
internet,
interno,
intervist@@
intrappol@@
intrecci@@
intuitiv@@
invitato
iscono,
isole
iss@@
laboratorio,
lar@@
legate
marg@@
maschi@@
materiali,
merito
mil@@
montagna.
montare
musicale
nell'industria
nell'ultimo
nostr@@
odiern@@
offerta
ogia
oltre.
ong@@
online,
orchestra
orit@@
osfer@@
paci@@
poco,
positiv@@
possiede
povere
presente,
procur@@
prodotti.
pubblici
puls@@
raccolti
recipro@@
recit@@
registra@@
rica
riceve
ricever@@
rici
ricom@@
ricominci@@
ridotto
rifu@@
ringraziare
ripensare
riprodu@@
risultati.
robu@@
roccia
rone
sappia
schiavitù
schif@@
scris@@
scultura
scuol@@
seduta
segreti
sicuro,
singole
societ@@
sonno
spiegato
squad@@
stelle.
strano,
strumenti,
sud@@
sviluppa
talk
tempi,
tentare
topo
toss@@
trasmettere
trasporto
tre.
trent@@
tridimensionale
triste
troppe
uffici
un'unica
und
univers@@
usarlo
vai@@
valore.
veloce,
verb@@
volontari
vorrà
vulcan@@
zie
zione:
zzi@@
65
B,
Bush
Chris,
Com'è
Eb@@
El
Germania
Gol@@
Infine,
Is@@
L'unica
Mos@@
Nello
Pas@@
Rag@@
Rick
Ricordo
Rit@@
Rock@@
Seconda
Stephen
Sulla
Tim@@
Tre@@
US@@
Universo
a',
abilità.
aggiust@@
altri@@
amare
ammas@@
amministr@@
andoli
ara
arci@@
ardo
arti.
ascoltando
at
atrici
attribu@@
autorizz@@
avere,
ay,
bag@@
bam@@
bancar@@
batteria
bellezza,
bia
bianca
bianchi
bilmente
brevemente
bron@@
bru@@
calam@@
canto
caratterist@@
causato
cente,
chimico
chio@@
cielo,
cinese,
collegamento
collegato
componente
conferenza,
considerano
contagi@@
contatt@@
continente.
controlla
controllo,
corn@@
corre@@
cosm@@
coste
crescente
cruciale
cultura.
das@@
dato.
declino
dedicar@@
definitiv@@
dell'economia
dialogo
diapositiv@@
dimostra@@
dinosauri
dirci
dirmi
distr@@
e',
economie
edizione
edì
ela.
enni
ern@@
esperimento.
evoli.
ey.
fatti@@
fiamm@@
finale.
finir@@
fondamentale.
fortemente
fortuna,
generazione,
genitori.
giovani,
giunto
glielo
globalizzazione
grasso
har@@
her
ibri@@
ideale
illusioni
immaginare,
immens@@
impedire
infermi@@
infrastruttura
intorno.
invecchiamento
inventore
invenzione
invito
io@@
is
lasciano
lavorava
legata
lenti
locale.
lontano,
ma...
malgrado
market@@
meravigliosa.
migra@@
milioni.
militari
mischi@@
moltissimo
muoi@@
necessari
neppure
nera
neurosci@@
oggetti.
oh@@
ologia.
oma.
onale
onn@@
operazioni
ore@@
orgogli@@
ort
osfera
oto,
out@@
o♫
paesaggi
paiono
pannelli
parent@@
particolari
pattern
pau@@
paziente,
peggior
penn@@
pensavamo
piacci@@
piang@@
piccola,
po.
porta.
porte
portiamo
post-@@
preparazione
prescindere
prodotto.
produttività
profu@@
program@@
propon@@
raggiunge
reper@@
resa
rese
ricav@@
riguardo,
riscald@@
risonanza
risposta,
ritengo
riuscit@@
rocce
roves@@
seggiol@@
seguito,
selv@@
sensori@@
senz@@
sfam@@
sfondo
simmetrie
sito,
sità
software.
sola,
soldato
solit@@
sostenibile.
sotto.
spalle
speciale.
spettr@@
strano.
straordinario.
succede?
sviluppar@@
tazz@@
tere
terrorismo
tira
tos@@
traiett@@
trasmissione
trend
ufficio,
ult@@
unci@@
vaccini
vedeva
vediamo,
vicino.
videogio@@
vivi@@
vuoto
ù@@
'anni
3.@@
30%
30,
33
@@
And@@
Benjamin
CO@@
Conos@@
Consider@@
Eccol@@
Eccone
Esistono
Her@@
Immagin@@
Incredi@@
Lavoro
Lif@@
Mas@@
Oxford
Primo,
Pun@@
Rus@@
Satur@@
Secondo,
Sir
Ter@@
UN@@
],
abilità,
ago
ali:
all'inizio,
altamente
ambientali
americano,
amiamo
ammettere
analog@@
and,
ando@@
ape
aperto,
art
arti,
assomigli@@
ata?
ater@@
auto-organizz@@
automobi@@
averne
avevi
avrò
azionale
battere
biologia,
biologia.
braio
buio
cambiamento,
camminando
cavi
ce@@
cellulare.
centro.
cercavo
cereali
chiesa
ciel@@
cina
cioé
combusti@@
condiviso
connesso
connettere
contad@@
conven@@
corti@@
costoso
così:
crimine
c’@@
de:
debbano
definisce
detta
diffuso
digitale.
dimensioni,
dimostrano
dipendenti
direzioni
div@@
diviso
dizionario
dozzine
dri@@
eccessi@@
ecchi@@
eda
elim@@
endi@@
enza?
era'
eredit@@
facce
facesse
facili
familiare.
fantasma
fargli
fatta.
feg@@
fermato
ficata
finire,
frasi
fuoco.
generato
get@@
gimento
giudic@@
go,
goccia
gonfi@@
hei@@
iera.
ieri.
ign@@
immaginare.
incen@@
include
incoraggiare
indiani
infett@@
interazioni
itare
itto
lampad@@
land@@
lass@@
lassù
legge.
lente
libertà.
lig@@
line
lontano.
loro:
massima
materiali.
mission@@
monitor@@
morti,
mostrando
movimento,
naso
neb@@
nell'Africa
nell'universo.
numeri.
nè
obietti@@
ock
ogram@@
onor@@
ore?
osse@@
ossession@@
palco,
parecchio
parlando.
particol@@
paura,
pensiate
perd@@
perdi@@
perfetta
persone?
peso.
petroli@@
piacere,
pochissimi
potr@@
pranz@@
predire
presentano
priorità
prodotta
produttore
proprio.
puli@@
quando,
radiazione
radicale
ragazzo,
ratti
reb@@
registrato
registrazione
regole.
renda
ricordato
riduce
riflette
rilevare
rimasti
ripresa
riso
rum@@
sappiamo.
sara'
secoli
secondi,
sede
sensi
sera,
sera.
settembre
show
si:
si?
sich@@
sinistr@@
soglia
sostenibilità
sotto,
stanze
subito.
successivi
superfic@@
svolgere
tavola
telefono.
tenda
ter,
termine.
terrem@@
terrific@@
tolto
ton,
tornati
torno
trasferire
trattato
tutti@@
ui
uli
umanità
un'altra.
un'economia
unit@@
unt@@
uss@@
van@@
verdi
verificare
vestito
visualizz@@
visualizzazione
zamp@@
è...
0,@@
1.000
25@@
3000
40%
Ai
Bob
Darw@@
Dato
Dem@@
Dev@@
Dor@@
Eg@@
Einstein,
Essere
Etiopi@@
Ex@@
Giu@@
Hong
Insegn@@
Ir@@
Iran
Mondo
My@@
Nigeria
Nobel
Nov@@
PC@@
Poco
Quattro
Rob@@
Sch@@
Sen@@
South
Stato
Super@@
T.
Taleb@@
Vai
Whit@@
a!"
abbracci@@
accendere
adatta
adatto
adul@@
aggiungiamo
ale@@
allont@@
americana.
americani,
americano.
amp@@
andav@@
antenn@@
anteri@@
are...
argli
arità
assu@@
atem@@
ativ@@
attraversa
autorit@@
avviso,
aziend@@
azienda,
bandiera
bar
battuta
bei
bello,
bene?
bicchi@@
bo,
bolle
bon@@
boom
brutta
cambierà
cammino
campan@@
capitalismo
caro
cartell@@
catalog@@
cellule,
certezza
che...
chiediamo
chiest@@
chimiche
circa,
classica
clip
comand@@
complessi
completamente.
confl@@
confu@@
contamin@@
contrario.
conv@@
corruzione,
coster@@
costruite
crescer@@
critica
dam@@
debol@@
decisero
denti,
dev'essere
diagramma
dibatt@@
difficol@@
dimenticato
direi@@
dispiace
disposizione.
diversa,
divertente,
doc@@
dollar@@
dozzina
educazione,
ee,
ele,
elettromagnet@@
emi,
empati@@
ent
epoca,
erba
ero'
estremo
etro.
e♫
fav@@
fe
feb@@
ferti@@
fess@@
fich@@
fisica.
formaggi@@
funzionato.
gamba
geni,
genoci@@
ginocchi@@
giorno@@
grat@@
guidar@@
h:
he.
i"
impor@@
incar@@
incontrano
ingegnere
inizialmente
iniziativa
interagiscono
internazionali
intervi@@
intitola
intratten@@
istante
it,
ke
l'Africa.
l'altra.
l'aumento
l'av@@
l'esempio
laser
linguaggio,
lontana
m.
mangiare.
manti@@
manuale
matrimon@@
mattina,
militare
minima
minore
mo:
moderno
molecol@@
molti,
muc@@
obes@@
ogg@@
oggetto,
oh
omici@@
opi@@
orientale
orizzon@@
orri@@
ossigeno,
ota,
oti@@
ottenete
paradigma
parzi@@
passo,
pendi@@
pensione
piacevole
piastr@@
piccole,
polver@@
pompi@@
portarono
ppi@@
pranzo
pratica.
procedura
producendo
pros@@
provate
provi@@
q@@
qualific@@
quattro.
quota
racconterò
ragionamento
rallentare
rebber@@
renderla
rendo
resto,
riconoscer@@
rimar@@
rimos@@
riprodur@@
risorsa
risorse,
risposto:
ritar@@
rossa
rà.
sali@@
sangue.
scad@@
scoprì
sesto
settori
shi@@
sicurezza.
siede
significhi
sinistro
sivo
soffri@@
soluzione.
sopravvivere.
sorg@@
sot@@
spedizione
speranza,
spesa
spese
stacc@@
stas@@
straordinariamente
strum@@
studenti.
tang@@
tangi@@
teat@@
telefono,
tentando
tipica
titoli
togliere
trasformer@@
tribù
trovò
ulla
umanità,
umi
unque.
up
uscite
vas@@
vibra@@
virtuale
vul@@
yl@@
zanzar@@
zona.
zu@@
zzi
ì?
"Ah,
"In
''
.com
00@@
28
29
30.000
50.000
55
6.
Altre
Apple
Ari@@
D'@@
Dom@@
Dr.
G
Generale
Jack
L'ultimo
Latt@@
MI@@
Mam@@
Man
Me@@
Media
Nord.
Progetto
Sc@@
Sk@@
Sole
Speci@@
TA@@
Terra@@
Tutta
Wil@@
William
accadrà
aco
adesi@@
adult@@
affermare
affrontato
agente
ager
al.
ala,
albero,
algoritmi
alleg@@
ambul@@
amici@@
anda@@
andola
anidride
aperto.
apparentemente
applicazioni
approssi@@
arri@@
artificiale
atamente.
atlet@@
attimo.
augu@@
avermi
azione:
bb@@
biscot@@
bol@@
bord@@
brutto
buono.
calcio
camp@@
carattere
caratterizz@@
carbonio.
catastro@@
causa.
causare
cch@@
cellule.
cercherò
circuiti
climatico.
cognitiv@@
complessi@@
compres@@
condividono
conflitti
confon@@
contatti
contento
convinzione
corso,
cred@@
cromos@@
curv@@
dappertutto.
database
dell'umanità
denze
descrizione
desideri
dieci@@
dietro.
dimento.
dire?
discorso,
distanza.
dito.
dunque.
eccitante.
ecologia
edere
ediamo
efficaci
ek
elettrica.
elettroni
enc@@
endoci
equivalente
erai
esamin@@
esemplari
eserci@@
esperiment@@
est.
estratto
facilmente.
famiglie,
famiglie.
fatica
favol@@
feder@@
fenomeni
filamenti
foglie
fondata
fondazione
fragi@@
frammento
frattempo,
frig@@
fumo
gambe.
garant@@
genio
ggi@@
gia'
gil@@
gravi
gusto
han
hot@@
ider@@
imento,
indipendente
iner@@
influenzare
ino@@
introdu@@
intui@@
inven@@
invisibile
isl@@
ispirare
l'O@@
l'equivalente
lancia
liberi
lis@@
lontan@@
medit@@
memoria,
metta
milioni,
modello.
modificare
moglie,
naturali.
nazioni.
nervoso
numero,
nuovamente
occ@@
ole@@
ologica
omi.
onale,
oncin@@
opini@@
or,
orribile
osci@@
osità
ospedali
osser@@
ossido
ow
panorama
parad@@
parall@@
parlarne
parola,
passata
passate
passione,
paura.
pazienti.
pelle,
persu@@
pesante
piaci@@
piaciuto
pianeti,
pianta
piccole.
pluvi@@
positive
potenzialmente
ppi
precedente
prigione
primo,
pro-@@
produt@@
professionisti
progetti.
prototipo
pt@@
pubblica.
puzz@@
queste.
raramente
rare
reazioni
recuperare
regolare
retr@@
ricorr@@
risponde
riuni@@
robot,
rub@@
sapete?
sapev@@
sappiamo,
sbagliata
sbagliata.
seder@@
sempli@@
sentii
sessione
sinap@@
sindrome
singoli
soffi@@
spesso.
stam@@
struttura,
stupen@@
sub-sahari@@
terapie
terre
testa-croce-@@
tracce
tribu'
tum@@
tunnel
tutto@@
uccide
uccise
università,
usavano
uso.
utente
vantaggi
variazioni
velo@@
venire.
viaggio.
villaggio,
volesse
vorranno
vorrebbero
za
zionale
!".
"Quando
"Voglio
"il
10.
22
350
8%
Ag@@
Amo
Ancora,
Arthur
Ascolt@@
Bibbi@@
Brasile
C'e'
Chil@@
Cio@@
Cl@@
Comunque
Consiglio
Egli
Funziona
Hy@@
Impar@@
Inghilterra,
KA:
Keith
Lam@@
Las@@
Lasci@@
Lat@@
Mola
Nord,
Notate
OK
Oceano
On@@
PC
Pari@@
Parlando
Perch@@
Philip
Primo
Provate
Sapevo
Svizz@@
T,
TV,
Tu@@
Val@@
Via
Visto
Volete
Voleva
Vor@@
W:
X,
Yo@@
accettato
affermazione
agna,
alb@@
allucinazioni
altro?
aned@@
apparecchi@@
apri@@
area.
arrivai
as.
assume
atici
ature,
autobus
avate
azionale.
banche
basate
biglietti
birra
blocchi
brillan@@
cambiato.
cann@@
capiscono
care.
catastrof@@
cavo
centrale.
cercate
chiedete
codi@@
cogliere
colonie
complesse
complicata
comportano
composti
conci@@
connessi
cono,
conoscenza.
conoscenze
contesto.
coppia
corvi
costano
costruiamo
costruzioni
cran@@
crescere.
d'acqua.
d'arte.
definir@@
dell'umanità.
democrazia.
dico:
diplomat@@
diventeranno
documenti
dog@@
dominio
dono,
dovresti
dovrete
dovrà
eccezione
efficac@@
efficienti
elast@@
ema
endosi
enorm@@
entrando
equilibri@@
ereste
eri.
eria.
esempio:
esima
eta.
etri
evoluzione,
fabbric@@
faccia,
farti
fidanz@@
finiscono
fisico,
forza.
fri@@
gatto
generale.
genz@@
gesto
giocano
gradi.
grezz@@
gru@@
guada@@
guari@@
hal@@
hard@@
iere,
iment@@
implica
incluso
indossare
insegnano
insegnanti,
insegu@@
inserito
insi@@
insiem@@
interessanti,
itti@@
je@@
l'A@@
l'approccio
l'elettricità
l'esistenza
l'impressione
l'istruzione
lasciando
lavoravo
ler,
libri.
malattia,
mangia
mappa,
masse
mata
micelio
migliaio
miner@@
mmo
moltissime
mouse
n'@@
niamo
nome,
notate
notizi@@
obby
obesità
obiettivo.
oco
ol
omia,
ora?
originale.
ovunque,
pace.
palu@@
paralizz@@
particella
passegger@@
pensarci
pero
personali
pesc@@
pianet@@
pill@@
pilota
pioggia
pis@@
poich@@
pollo
pomerig@@
posse@@
preven@@
procedi@@
prodotto,
promuov@@
proprietario
protest@@
proven@@
qualcos'altro
questi.
ra:
ragioni.
rapidamente,
realta'
regalo
regina
rep@@
resi@@
rifi@@
rischio.
risor@@
risponder@@
ristor@@
ristoranti
romanzo
rover
salta
sapendo
scaff@@
scale
scavare
scientifico.
scioc@@
sciocc@@
scritt@@
scrive
sembravano
semplici,
sequenze
significativo
simile,
situazione,
sopport@@
sopra,
sos@@
sostituire
spazzatura
sprec@@
studia
studio,
su.
succede,
super-@@
svolta
tecnici
tecnologie.
teri@@
terreno.
terribili
tipo:
tivi
tocca
tradizioni
trans@@
transizione
trattenere
tre@@
treno
trop@@
trovi@@
tru@@
tè
uccelli,
ugualmente
uma
unir@@
universo.
vaccin@@
velocemente,
vendi@@
viaggi
vibr@@
vicine
viveva
vivi
voi?
volete.
well
zanzariere
ze
"Abbiamo
"Hey,
"St@@
'60
'70,
1%
2%
2005,
Africani
Angeles
Antarti@@
Ap@@
Bambin@@
Bretagna
Cas@@
Chiar@@
Cia@@
Coper@@
Dean
Diamo
Disse
Dovrebbe
EC@@
Ford
Fr@@
Fre@@
Gar@@
Gene
Guardate,
IM@@
Jeff
Johnson
Jon@@
L'unico
Leonardo
Lor@@
Men@@
Ni@@
Paci@@
Pau@@
Ph@@
Por@@
Potr@@
Scus@@
Ser@@
Supp@@
Sve@@
Torniamo
Uno,
Valley
Vo@@
abbastanza,
accelerare
acquisto
adulti.
affid@@
aggiunta
aglio
agna.
aiutando
aiuto,
alber@@
albero.
allucin@@
alquanto
alternativa
altra,
altre,
ambigu@@
annu@@
annunciato
anon@@
ante@@
anzi,
appassionato
ar,
archivio
artificiale.
artisti,
ascens@@
aspetto.
astronom@@
ativamente
ato."
attirare
attivi
attivi.
attivo
autonom@@
aveste
azi@@
barzell@@
bassi
benzina
bilanci@@
bimbo
biologica
biologico
blu.
bottiglie
brillanti
brutt@@
calorie
campagne
campion@@
canop@@
carbonica
carest@@
caver@@
cene
cente.
chiacchier@@
chilometri.
chirurgia
cibi
cinem@@
cinema
circostanze
clu@@
colpire
compagni
compati@@
complessità,
comunicazioni
comunit@@
conosciamo.
considerate
contribuito
conversazioni
copyrigh@@
corall@@
corallo
corda
costruire.
creative
creativi
critico
cub@@
dan@@
dell'India
dendo@@
dia.
diab@@
diamo.
dicevo
distanza,
distanze
distribuire
donna.
dotto
dov'è
dovesse
dub@@
ebbi
eccetera,
eccezionale
efficienza
ehi,
ele.
elettricità.
elettronica
elo,
email@@
endete
eng@@
equazioni
equipaggi@@
er:
esiste.
esistenti
eso.
esplic@@
estingu@@
etemi
ettamente
ettero
ettivo
evolmente
ezioni.
famosi
fantastiche
farcel@@
farete
fascia
fatemi
ferro
figure
filmat@@
finchè
fischi@@
flus@@
fondare
foresta.
forme,
fotografica
framment@@
gab@@
galassia,
galassie,
gamb@@
gambe,
genit@@
getti
ghe
gia,
giapponese
giocato
giuste
gono,
graff@@
grave
gruppi.
ie,
incident@@
incidente
incontri
incorpor@@
incredibili.
incremento
indicano
infantile
infanzi@@
influenza.
ingere
inistr@@
intangi@@
intelligenti,
interni
iron@@
isolato
istin@@
it
ita@@
l'Africa,
l'Europa
l'atmosfera
l'auto
l'educazione
lasciar
lavoravano
leggere.
libertà,
lioni
mamm@@
maschio
mazz@@
meravigliose
metropolit@@
microscopio
minuscol@@
minuto,
mio,
mio.
mistero
moderna.
morir@@
mur@@
mutil@@
nascono
navigare
negozi
nell'atmosfera
nipoti
oci
odore
oggetti,
ologico
omin@@
operai
ospedale.
ottimi
otto,
ovvia
pagano
pandemi@@
parab@@
parametri
parlato,
parleremo
parli@@
partito
pausa
penetr@@
perché?
pesce.
piano@@
pie@@
plan@@
portarvi
precedente,
prelev@@
premi@@
preoccupazione
preparare
presente.
pressione,
preval@@
previsto
prezz@@
princi@@
programmazione
pronunci@@
protein@@
protoc@@
prova.
provengono
raccom@@
racconti
rati
religio@@
remi@@
ri-@@
richiesto
righ@@
riti@@
ritratto
s'@@
saggio
sanguigni
sbagliato,
scala.
scinti@@
scono
scrittore
segni
senzat@@
simi@@
sindaco
sintesi
sintomi
sivi
smesso
sobbor@@
soffrono
sondag@@
spagn@@
spiaggia
sposta
spostarsi
star
statistica
stoma@@
strade.
su,
successa
suolo.
taglia
talento
tec@@
temperature
terzi
terà
test,
tive
toccato
troppo.
tu,
ument@@
un'altro
unire
uscendo
use,
utili@@
variazione
vasto
veloc@@
velocità.
vicini,
vie
violenza,
viste
vivo.
vo?
voce.
volete,
vorresti
zampa
zona,
»
"Sap@@
"U@@
"Un
"a
&amp;@@
2000,
25%
AS@@
Afghanistan
Alan
Alessand@@
Andr@@
Ant@@
Aristot@@
CA@@
Colom@@
Craig
DR:
Dec@@
Eart@@
Fate
Ge@@
Giorno
Jay
Lau@@
Lincoln
Lì
Mac
Moore
Mus@@
Narratore:
Norve@@
Passiamo
Qui,
Ra@@
Richard,
Rob
Sel@@
Sempre
Si.
Ste@@
Sur@@
Tim
Tuttavia
V
Vedi@@
Vent@@
Vietnam@@
Vuoi
West
Zer@@
ada@@
affascinante.
africani,
agenzia
aggra@@
agh@@
agu@@
al,
ale".
alieni
all'epoca
alment@@
alza
ance
anch'io
ando:
andremo
ano?
apprezzare
are".
aspettano
assassin@@
ato"
attraversato
aumentano
automo@@
avvenendo
avventura
balen@@
battagli@@
batterie
benché
bolla
bot@@
breve.
buona.
cambiare.
canc@@
cane,
carbonio,
carrier@@
cellulare,
cendo
centrali
cercavano
cerebrali
chiami@@
chiaramente,
chiedi@@
cima,
cito
colonna
combatter@@
competere
comunicazione.
concludere,
conduce
condurre
conosceva
consenso
consente
considerando
contemporaneamente
conto.
controllato
controlli
cooperazione
coppie
corrido@@
creatività.
credito
custode
decis@@
decision@@
delfin@@
dell'Africa,
delu@@
deposit@@
destr@@
destro
determinare
dicevano:
differenti,
difficil@@
direbbe
discorso.
dissol@@
distor@@
diversità.
documento
dose
dovessi
dun@@
dus@@
eamente.
economiche
ect@@
ee.
eggio
elettor@@
elezioni
elicottero
emicran@@
entrati
entri
equival@@
esager@@
esaminare
esau@@
esauri@@
esec@@
esia
esia.
esprime
essioni
etevi
etico
fallimento
fallito
fama
fel@@
fiche.
figlia,
finito,
fondatore
forniscono
fuoco,
genetico
gersi
get
gia.
giallo
guardavo
identi
ima
imenti,
immensa
imparare.
impegnati
impiegati
impost@@
imprenditore
ines@@
inglesi
ingredienti
insignific@@
intensità
interessata
interna
interviste
into,
intrins@@
investitori
invol@@
issi
ita',
itato
l'accesso
l'animale
l'interesse
lampadina
lasciati
lava
leadership
legale
lesi@@
letteralmente,
libri,
link
list@@
luogo.
ma?
macchine,
macchine.
maggiore.
maiale
malaria,
malaria.
mam@@
manov@@
marciapi@@
mari@@
materiale,
megli@@
memi
mentale.
metterla
mia,
micro-@@
midollo
minor@@
modern@@
moderni
modul@@
monitorare
moral@@
morto,
mostri@@
muro.
naturalmente.
nero,
noi?
numeri,
nutrire
oland@@
olli@@
ome
omeno
omo@@
onni@@
orie.
orso
oti
ottenendo
ottimis@@
pacchetto
passione.
ph@@
pianeti.
piani.
piantare
piene
portarci
portarli
portava
positiva
possibile?
preferito
preghi@@
primiti@@
progetti,
proveni@@
pubb@@
pubblicare
pubblicità.
questi,
questione.
raccontando
radio@@
raggiungono
re:
realizzazione
recente.
reci@@
relativ@@
religion@@
richiam@@
rico,
rico@@
ricorder@@
riemp@@
rimpiazz@@
ringrazio
ripreso
riprist@@
ritu@@
rivelato
rosso.
rovin@@
sapere.
sari
scansione
scaric@@
scelta,
scheletro
scientifici
scoperto,
scopo.
scorrere
scorso.
scrittori
scul@@
scuole.
se...
sentiva
significato,
sivamente
sli@@
sorpresa,
sostegno
sott'acqua.
sottolineare
spaziali
spendono
splendido
squi@@
sta.
sto@@
straordinaria.
strategi@@
stretta
strumenti.
stunt
stupefacente
tavolo.
telecamere
terapi@@
tesi
tessi@@
tip@@
tirato
torment@@
tornai
totale.
tour
tracciare
tradizionale.
trage@@
trovava
tuff@@
turb@@
tà.
ubri@@
ufficiale
ulta
um.
umanità.
umil@@
un'idea,
unici
urare
ure.
usciti
valle
veramente.
verg@@
vermi
vincente
virus,
visione,
visione.
vita?
vivent@@
vivente
vivo,
wor@@
x.
zza.
''@@
'?
---
24@@
3.000
72
Americano
Asi@@
Aspett@@
Australia
Avere
BC
Banglades@@
Bor@@
Bro@@
CE@@
Ciasc@@
Conosc@@
Costa
Cro@@
Dalla
Date
Dipende
Dovevamo
Eccolo
Farò
Fondament@@
Inghilterra.
Insi@@
Intervistatore:
Kenya
Kenya,
Lag@@
Legge
Liber@@
Londra.
MIT,
May@@
Me
Mondiale,
Natale
Nuov@@
Okay.
Olimpi@@
Pakistan
Qual'è
Qual@@
Re
Rim@@
Saturno
Sfortunatamente,
Signore
Speriamo
Storia
Stra@@
TEDx@@
Uganda
Universit@@
University
Usiamo
Volevamo
YouTube
ack@@
acul@@
adere
adesso?
ado
alimentare.
all'altra
all'incirca
all'infin@@
all.
alta,
alzato
ambientale
anci@@
anda,
andranno
animale,
annun@@
ante:
appen@@
applau@@
applica
ar.
ard,
arono,
arrivarono
arvi,
arvi.
ascoltare.
asi.
aspetter@@
aspettiamo
aspetto,
assor@@
attaccare
attraversando
azien@@
azzur@@
batti@@
bellissime
benissimo
bet@@
biologo
bocc@@
bocca.
caldo,
cambiare,
cambiata
cami@@
cammina
carboidr@@
carcer@@
cardia@@
categ@@
catene
catore
cavalli
celle
centesi@@
certi@@
chiederci
cità
classico
collasso
collegamenti
comm@@
commerciale,
commerciali
complesso.
composizione
comprende
condivisione
cone
conosciuta
consapevole
conseguenza,
contesto,
convinzioni
correnti
cosicché
cosid@@
costr@@
crescita.
cromosoma
culturali
curiosità
dall'essere
der,
diametro
diapositiva
diarre@@
dilemma
dimento
diseg@@
disturbo
diversità,
divertir@@
divisione
dolc@@
dolce
domand@@
edifici,
eggi
elettrico
emo,
energetica
enorme,
erlo
errori.
erò.
esemplare
esibi@@
esig@@
espandere
essenza
essu@@
estate,
estate.
estesia
estran@@
etn@@
ettere
evoc@@
evoluto
fantasci@@
fantastica.
farl@@
farmaceut@@
fian@@
finale,
finanziato
finta
fisicamente
fondamentalmente,
francese
frecci@@
freddo,
freddo.
fug@@
fuggi@@
funzionano.
furg@@
generazione.
geo@@
gerarchia
giornata.
globalizz@@
graf@@
gratis.
gratt@@
greg@@
ie.
iera,
incredibil@@
indipen@@
industrie
infezioni
influenzato
ingresso
ingu@@
innovazione,
inquiet@@
intell@@
intellettuale
interagi@@
interessant@@
iscano
issima.
iste
istituto
l'HIV
l'ambiente,
l'aspettativa
l'inglese
l'interno
lap@@
largh@@
lato.
less@@
lettura
linea.
linguaggio.
lista.
livello,
livello.
locali.
magico
mamma,
mante
manutenzione
margini
medicina.
morali
moralità
morire,
mossa
ms
mun@@
muovendo
nai
nascosta
nazionale,
nell'acqua
nell'arco
nero.
networ@@
ney
nipo@@
nord.
nuova,
ologiche
ologie
ongo
online.
opar@@
opinioni
ordini
orecchio
organo
orientale.
orno
osserva
ovest
pagina.
pakist@@
panor@@
paracad@@
parlando,
pensai,
pensare:
pericolo.
pericoloso.
pesce,
piace,
piace.
piegare
pietre
politici,
pose
positivi.
posta.
potente,
ppo
precisione
preoccupano
preoccupati
preoccupato
prevenzione
previsione
prezzo.
prodotti,
profitt@@
profondo,
profum@@
proporre
prossimo.
protagon@@
pubbliche
pubblicità,
quanti@@
quest'idea
raccoglit@@
raffin@@
raffredd@@
ragazza,
ragazza.
raggrupp@@
rappresentato
razzi@@
rebbe,
recenti
ricetta
ricompensa
ricordi
ridi@@
rifletter@@
rimase
riportare
riti
ritro@@
riusc@@
riusciremo
roba,
robot.
rompic@@
rotta
rumor@@
ruotare
salsa
schiavit@@
schiena
sedie
semin@@
sensazioni
sensibile
separati
sessuale
sfida.
sfum@@
significava
signori,
sile
silenzio
simulare
sistemi,
sno@@
sostanza,
sott'@@
sotter@@
spall@@
speranze
sperare
squali
squalo
st,
steri@@
sti,
strettamente
strutture,
strutture.
suc@@
succed@@
sufficientemente
suono,
sus@@
svizz@@
t:
tac@@
tagliato
tartaru@@
tasse
tast@@
telecamer@@
televi@@
teoria.
teremo
termine,
terrorizz@@
tion
tira@@
tornata
traduzione
troppa
tubi
turist@@
ufficio.
urazione
ure@@
uscì
valore,
valori,
vantaggi@@
vediamo.
vende
venni
vicenda
vieni
vig@@
violent@@
vision@@
volti
vuole.
él@@
"Ehi,
"Questa
'80,
'altro.
..@@
.000
0
100%
190@@
193@@
2.000
2001,
4,@@
70%
Adam
Anzi,
Berlin@@
Brow@@
Canada
Chicago
Chiunque
Clinton
Colli@@
Comin@@
Del
Dopo@@
Dovevo
Earth
Fal@@
Francisco,
Giust@@
Gl@@
Google.
Gordon
Grand
Hawai@@
Iran@@
Jonathan
L'acqua
L.
LE@@
Luna
Mandel@@
Ministro
NO@@
Oltre
Os@@
Otti@@
Pacifico
Pacifico.
Paese.
Persino
Pet@@
Power@@
Pren@@
Prog@@
Regola
Riuscite
Ruanda
Russia
Russia,
SJ:
Sai,
Sfortunatamente
Sha@@
Siccome
Sin@@
Sua
Sylvia
Ur@@
Vale
Vedrete
Wide
Wikipedia,
a...@@
accenn@@
accessi@@
accessibili
acco@@
ack
adesivo
affari,
affronta
aglia
aia.
alcol@@
alimentazione
all'esterno
all'interno.
alzate
ambientalist@@
antemente
anticor@@
aperta,
appl@@
appunto
aprir@@
aquil@@
arlo?
arma
arrivavano
assorbi@@
assum@@
asteroi@@
atl@@
atmosfer@@
atrice.
attaccato
attività.
avvenuto
avviare
azoto
ba.
baratt@@
barra
bibliotec@@
biolumin@@
bombe
braccia
bus@@
business,
c'è.
calc@@
cambi
cambia.
campagn@@
canti
canto,
capo,
caram@@
care,
case.
cattive
cec@@
cervelli.
chiara
cilindr@@
classe,
club
co:
coinvolte
collegata
colonne
colore.
comando
cominci
comment@@
complicato.
comunicano
comunque.
concezione
concorso
consult@@
contenere
conto,
contratto
cosiddetta
costi.
costituisce
crescita,
crimini
curve
custo@@
dall'
darmi
davo
dedi@@
definizione,
delfini
dell'I@@
dell'O@@
derò
desiderio.
destino
determinato
diabete
dialog@@
diceva,
digitale,
digitali
dignità
discussione.
disgust@@
dità,
dividere
dolore.
domani
dotti
drast@@
eccolo
economica.
educazione.
efficace.
ein@@
elem@@
elettricità,
empatia
enor@@
entrambi.
entrò
eo@@
episodio
este?
evidenza
ezi@@
e”.
fabet@@
facciate
fern@@
filantropia
filo
finanziare
finirà
fiumi
for
formula
fortunati
fotografia,
fotografia.
frazione
frustr@@
frustra@@
galatt@@
gem@@
ger
gesti
ghi.
giochi.
già.
goder@@
grafici
gravità.
hh@@
imenti.
implement@@
imprenditori@@
incontrai
increment@@
indipendenti
infezione
informa@@
ingl@@
ingredi@@
insegnanti.
intellig@@
intere
interesse.
intero.
interpretare
interr@@
interv@@
intitol@@
investito
ispirati
istantan@@
itudin@@
ki@@
l'AIDS
l'efficienza
l'intelligenza
l'invenzione
lac@@
lago
legami
ler@@
lievo
longev@@
luna.
luog@@
maiali
mais
mal
malattie,
maled@@
mammifer@@
mangiamo
mascher@@
materie
matern@@
meda@@
medica
mela
ment
meto@@
metti@@
ministr@@
moglie.
molt@@
moment@@
mondiali
morendo
motore.
narr@@
navi
nec@@
neon@@
nit@@
no-@@
nonna,
nord,
norme
novità
nuvola
obre
occupano
oche
oggetto.
oltre@@
omos@@
open
operare
operativo
orfan@@
orig@@
orto.
oscill@@
ostacoli
ot
ottieni
pandemia
panino
papà
paradiso
parcheggio
pare.
parete
pavimento
pedi@@
pensiero.
pensò
permetterci
petrolifer@@
pezzo.
piccola.
poet@@
poeta
pompa
positivi
positivo,
possibili.
poteste
programma,
programma.
proposto
provi
pubblica,
pulire
quadrati
qualcosa?
qualcuno.
quale,
quantistica
quest'uomo
questo?"
quotidiano
radice
rafforz@@
rapido
rar@@
reag@@
real@@
reali.
resili@@
restano
ribell@@
ricambi@@
richie@@
ricordate,
riempi@@
riforma
rifugi@@
riprese
rischio,
risparmio
rispos@@
ritorna
ro-@@
rosso,
sangu@@
sapere,
sbalordi@@
scart@@
sce
schermo,
schiavi@@
schifo.
scimmi@@
scimpanz@@
scogli@@
scrivo
se:
sedersi
sesso.
sessuale.
sfortunatamente
sfortunatamente,
sfug@@
solf@@
solito,
soll@@
soluzioni.
sorprendenti
specifica
spl@@
sport
squ@@
st
stando
stati,
stessa,
storico
strane
stress
successivo,
sviluppata
tap@@
tappet@@
tei@@
tendiamo
tenendo
terò
tessuti
timi@@
tizz@@
torre
tradi@@
tren@@
troveremo
tumori
umento
uso,
vaso
vene
venendo
ventil@@
verde,
veter@@
vicini.
vign@@
vogliamo.
volando
web@@
week@@
zie.
zol@@
ó
’è
"Sei
'90
20.
2005
40@@
AT@@
Aff@@
Afghanistan,
Aggi@@
Ai@@
Ash@@
Asp@@
Babbo
Basta
Bell@@
Brad
Brasile.
Brown
Bè,
Certamente
Chiesa
Christ@@
Conosco
DE@@
Danimar@@
Danny
Direi
Disse:
Dovrei
Entrambi
Est@@
Fantast@@
Fl@@
Gat@@
Germania,
Giappon@@
Giappone.
Grace
H
Inglese
Inizier@@
Iraq,
Jan@@
King
Kl@@
Ku@@
L'Africa
M
Mark
Messico,
Natasha
Nelson
Newton
Nick
Nor@@
ONG
Ok?
Organ@@
PE@@
Parlerò
Pat@@
Perf@@
Praticamente
Princi@@
Qualsiasi
Ram@@
Rom@@
Scri@@
Sierra
Sole.
Sub@@
Wo@@
Wol@@
Wolfram
Wright
Y
abbandonare
abitudine
abl@@
accordi
ad,
ada.
adattare
aereo,
afferma
afferma@@
affetto
afor@@
africani.
age,
agiscono
ail@@
aiuti@@
ambizi@@
ame.
amico.
amo...
anch@@
and.
andole
angiogen@@
angolo,
anom@@
ant
antibiotici
anzitutto
apicol@@
appello
apprendere
argomento,
armonia
arono.
arrivare.
artigi@@
asi,
aspettativa
aspettative
assun@@
attorn@@
attuale.
aul@@
autom@@
autun@@
avere.
avor@@
a♫
baraccopoli
batteri.
bia.
bisogn@@
blog,
bre
buono,
camminare,
cantare
caos
caot@@
capire.
capitolo
casuale
cercava
cerchi@@
cerim@@
ch,
chiaro,
chiede:
chiunque,
ci?
cie@@
clienti.
climatici.
cm
co?
colori,
com'era
combustibili
comi
competenze
competi@@
compiere
composta
computer@@
concentra
concentrarsi
concepire
condividiamo
condu@@
consapevoli
considerati
contrast@@
contri@@
convinti
copiare
correg@@
cosa:
coscienza,
costituito
costretti
costruiscono
costruiti
creativa
creatore
creazion@@
creazione,
crisi.
cubo
culturale.
curioso
dall'alto
damente
danza.
decidono
dedicare
definiti@@
deli@@
delizi@@
dell'arte
dell'intera
democra@@
denti.
dersi
deserto.
designer,
diamo,
dicend@@
dietro,
diminuzione
ding@@
dipartimento
dipin@@
dipl@@
dirlo
dirà
disser@@
ditt@@
dolore,
domani.
dop@@
dormire
doti
dotte
dovessero
eccesso
ecchio
eccoci
eggiare
egli@@
egliar@@
em
emergenz@@
emette
emettono
ens
epoca.
equivale
esaminato
escenza
esi:
esterno,
estino
etichett@@
etichetta
evo.
evoli,
faccen@@
facciamo?
famigli@@
familiare,
fang@@
fant@@
fantastic@@
farai
fegato
fici@@
figlio.
finestre
fiore
fotografato
freg@@
fretta,
genetica.
gesti@@
gigante
gill@@
giocattoli
glori@@
governo.
gradevol@@
gravità,
grosse
guadagnano
guadagni
guidata
hl@@
hr@@
icona
idr@@
iere.
immort@@
impazz@@
impazzi@@
incin@@
inclusi
incomprensi@@
indietro@@
industriali
ingr@@
inno@@
input
inseg@@
intelligenza.
interpretazione
intervista
inu@@
isolati
ito?
ker
kg
l'ag@@
l'assenza
l'attuale
l'hai
l'immaginazione
lasciò
lassù.
laurea
lavorando.
lentamente,
lettori
lia
liberare
ling
liquido
logo
magazz@@
maggior@@
mail
mangiato
massim@@
matrimoni
mattino,
medico,
mele
meraviglia
metall@@
metterli
micros@@
miglia,
misteri
moda.
molecolari
mucc@@
muoversi.
musicista
nav@@
negativo
nell'area
network.
nonno
nuove.
nutrizione
nuvole
o,"
obiettivo,
occhio,
occorre
occupa@@
oceani,
odia
olit@@
om,
opposto
orie,
orr@@
oscura.
ostacolo
otto.
ow,
padron@@
paradig@@
passò
patogen@@
pe,
perce@@
percepire
perfezion@@
perio@@
permettendo
permettersi
personalmente
pesa
pieghe
pion@@
pit@@
piu@@
plastica,
po?
politici.
pollice
posi
preferiti
premi
prenda
presentazione,
presentazione.
prevede
principale,
principale.
principi@@
prior@@
priva
prob@@
produtt@@
professori
profilo
profit
progettando
prolifer@@
promett@@
proporzione
prototipi
psicologi
pulita
qualcos'@@
quantist@@
quest'
quinto
quot@@
rabbia
rabbin@@
radio,
re."
realizza
realt@@
recin@@
reddi@@
respirare
responsabil@@
ricavare
ricevo
ricoper@@
riem@@
rimbalz@@
rinunci@@
rinunciare
rispose
ritr@@
riunioni
rosa
sabbia.
sala.
saltato
scan@@
scattare
scelte,
scesi
scimpanzé,
scomo@@
sconcert@@
scopo,
scorr@@
sculture
seguente
semplicemente,
semplici.
sensibili
sentimento
sentirete
servit@@
sessuali
sign@@
sm@@
sogni.
soli,
sommergi@@
sopravvissuti
sorvegli@@
sottop@@
spalle.
specifiche
spedire
spiaggia.
spina
splendida
sponsorizz@@
stabilizz@@
staff
stamatt@@
struttu@@
studio.
stup@@
stupr@@
subit@@
sufficienza
suggerire
superfici@@
sviluppate
tecnologico
terrestre.
terribile.
terzo,
tetton@@
transistor
truff@@
tsun@@
tumor@@
udi@@
ultra@@
un'im@@
un'opera
unirsi
urbano
uri.
usa.
utensili
utile,
vede.
vedete.
veloci
velocità,
vendita
vengo
versioni
vetr@@
viaggiato
viviamo.
volare.
volumi
voluzione
vorreste
wer@@
wo@@
´@@
é:
’
"H@@
"I@@
"OK,
"Sai,
.,
...e
130
200.000
30.
3D
60.000
A-@@
Albert
Andai
Appena
Apr@@
Atlantico
Attraverso
B:
Bas@@
Bat@@
Bel@@
Britann@@
CO2,
City
Cominciai
Congresso
Corte
Cose
DAR@@
Dalai
Decisi
Del@@
Dico
Dif@@
Dissi
Dovreste
Ehi,
Entro
Eti@@
Ev@@
Fil@@
Francia
G,
Gener@@
Geographic@@
Gesù
Groenlan@@
Ground
Haw@@
Howar@@
Improvvis@@
Ingl@@
Iniziamo
Inn@@
Ja@@
Je@@
Julia
Kal@@
Lee
Letter@@
M:
Mag@@
Maldi@@
Malt@@
Mau@@
McC@@
Messico.
Mike
Monte
Og@@
Pakistan,
Pan@@
Part@@
Parte
Prot@@
Quindi@@
Rap@@
Res@@
Ricer@@
Sandel:
Santa
Shakespeare
Sicure@@
Smith
Sudafrica
Svilu@@
Sì
TV.
Tri@@
Unito
Venezu@@
Vic@@
Wal-@@
Wow.
XX@@
abiti
acchi@@
affascinato
affil@@
aggeg@@
aggiunge
agnost@@
agricoltori
air@@
ale."
all'altro,
all'anno,
all'in@@
ambientale,
analogia
anello
ania
ania.
ap
aperti
arbit@@
archit@@
are?"
arica
arma@@
arrampicarsi
associata
asteroide
ate:
ation@@
atterr@@
attimo,
attrazione
au
auda@@
auti
autist@@
automobili
avresti
bacch@@
ballo
bambine
basci@@
basil@@
batte
bensì
bracci@@
brevi
caffetter@@
caffé
cambiamo
capacità.
capitato
cattivi
cellulari.
centin@@
chiameremo
cinemat@@
circolare
circolo
ciò@@
clima,
clima.
cliniche
cogn@@
collezione
colpiti
cominciata
compagna
compil@@
compleanno
completa.
comportamento,
conchigli@@
conoscete,
consol@@
consumatore
contempl@@
convenzion@@
convul@@
cop@@
coperto
corri@@
cosmol@@
creativo
crediate
crei
creò
cucina.
cug@@
d'accordo?
d'acqua,
d'affari
da:
debito
decidemmo
definita
dell'intero
deposi@@
dice.
dicendo.
dipingere
discor@@
disposto
divennero
divertenti
divor@@
domestici
dottorato
dy@@
e]
economista
edendo
efficacia
ender@@
energie
enica
enti:
entusiasmo
eop@@
erl@@
esistenza.
esistere
eso@@
espander@@
esposizione
ettive
ettivi
extra@@
facile,
facoltà
fast
fatta,
femminile
fibra
fibre
fici.
filoso@@
finanziamento
finì
foresta,
formal@@
fortunato
forza,
francamente,
ful@@
fungo
fuo@@
ga.
gemelli
generalmente
ger,
germi
gettare
ghiacciaio
giornata,
giunti
giusta,
governi,
ha.
hanno.
iPh@@
iPod
icoli
illustra
immaginazione,
impi@@
impossibile,
improvviso
incant@@
incendi@@
inclus@@
indiano
indicare
indirizzo
individui.
inevitabilmente
infinite
infrar@@
iniziata
inquinamento
installazione
insul@@
intelligenza,
invenzioni
ipo@@
itiv@@
itive
ka@@
ky
l'Asia
l'I@@
l'altezza
l'altra,
l'epidemia
l'oceano.
la'
lavorando,
leadershi@@
leggere,
liamo
libero,
locali,
lunga,
lì@@
mac@@
malattie.
manciata
mandano
mantenendo
marine
mene
meraviglie
meraviglios@@
merci
microscopi@@
miglia.
millenni@@
minerali
miniere
misurato
miti
modello,
mogli@@
morbi@@
morta
morì
muore
nascosti
nessuno,
neuroni.
neut@@
nol@@
nostra,
nuo@@
obbli@@
oce
offrendo
oggi?
oline
ollo
omi,
onia,
onizz@@
ood
opera.
or.
oratori
organizzata
osint@@
ossi
ossi,
osso,
pagina,
pane.
paradis@@
parlato.
parlavo
partecipanti
parti,
patat@@
pazienti,
peggio.
penna
perchè,
perdendo
permetterà
personalizz@@
pezzo,
piacere.
pila
pioggi@@
polare
popolazione,
poteri
precedenti.
pref@@
prendeva
pressione.
pressioni
prestare
presto.
prevalenza
primere
privato
privilegi@@
produc@@
professionale
profond@@
programmare
progredire
proiezione
proporzion@@
provoca
punti,
punti.
quest'anno,
raccolgono
rante
rapida.
razzo
recupero
registrare
replicare
resp@@
ricercatore
richiedono
rico.
ricompens@@
ridott@@
riparare
rispondono
risposte.
riuscì
ro'
rocc@@
romper@@
rur@@
rurale
s:
sappi@@
sbar@@
sbarazz@@
scala,
scambi
scatole
scenari
sceso
schi
scientifiche
scienziati.
scorre
scrimin@@
secc@@
secondar@@
seguire.
seguono
sei@@
semi,
semplicità.
sensibilità
sentita
sentito,
separare
separazione
serve.
sho@@
silic@@
simil@@
so."
sono?
sorgente
sospetto
sottos@@
speg@@
spegnere
sperimentazione
spettac@@
spostiamo
stato?
stimare
stra,
strat@@
suolo,
support@@
sussur@@
tag@@
tantissimi
tax@@
tecnologica
tendenze
teniamo
tentativi
terrore
testi
toria
tornano
tornò
torta
trascin@@
trascur@@
trasformata
tratti@@
tropic@@
troppi
trovavano
tutte,
umili@@
un'incredibile
un'occhi@@
ung
unisce
url@@
vagina
vap@@
velo,
velo.
venduti
ver
veste
vi:
viaggia
videocamera
vigi@@
visitato
visu@@
vocabol@@
volum@@
w!
y"
zie,
í
"...
'50
'The
00.000
100,
185@@
36
37
40,
Air@@
Altri@@
Alzhei@@
Amazz@@
Andate
Angeles,
Asia.
Associ@@
Australi@@
Bal@@
Barb@@
Black@@
Buddha
Carolina
Centro
Chicago,
Chris.
Cit@@
Cli@@
Comm@@
D'accor@@
DVD
Da@@
Davi@@
Dy@@
ES@@
Essi
Fo@@
Funzion@@
G:
Guardi@@
HIV,
Haiti
Ill@@
Immagino
Ini@@
Joe
Joshua
Lab
Lan@@
Lou@@
Mai
Manhattan
Map@@
Messico
Miliar@@
Minist@@
Mit@@
Murray
ONU
One
Op@@
Oxford,
P.
Parla
Perfetto.
Phili@@
Premio
Prendi
Prize
Proviamo
RI@@
Riten@@
SETI
SS:
Sag@@
Scott
Sic@@
Sistema
Smit@@
Sor@@
Stanford
Stava
Street
Succ@@
Succede
TE@@
Ted
Terz@@
Terzo
Tony
Tut@@
Uganda,
Ultimo
Universo,
Vado
Vogliono
X.
Zel@@
Zero
a.@@
a]
abbandonato
abbondanza
abilmente,
abitudini
accada
accade.
accadendo.
accident@@
accres@@
ada
ade@@
adozione
aerea
africano
agenzi@@
agricoltura.
alare
alizziamo
allarme
alo
alternative
amministratori
ammir@@
anat@@
andamento
andrò
anneg@@
antiangiogen@@
antibiot@@
antic@@
antiche
architetto,
arizz@@
arric@@
artificiale,
artistico
ascolto
asse.
assoluto
atemi
atmosfera,
ato".
atta,
attin@@
aumentando
automobilist@@
avan@@
avanguardia
avanzata
averla
avervi
baci@@
barca.
barrier@@
baseb@@
bastone
benefici@@
bia,
bianco.
bibliot@@
biologico.
biotecnologi@@
bizzarro
bli@@
blogger
bottone
bud@@
c'entra
calen@@
cali@@
cambiamenti.
cambiate
campi.
canzone,
capii
capite,
capito.
cappello
carbone.
carne,
cata
cattura
causata
centimetri
chem@@
chiaro.
chie
chino
chirur@@
chiude
cittadino
clas@@
classe.
climatici
climatico,
coda.
cominciate
commento
commerciale.
compagno
compare
completare
compli@@
comportamentale
comprendiamo
concep@@
conferenza.
confrontare
connesse
conoscevo
continuamente.
continuava
contrad@@
coralline
coscienza.
cose:
costante.
costi@@
costo,
costring@@
così...
creativo.
creduto
crei@@
cro
cru@@
cuori
cuscin@@
dall'interno
dall’@@
deca@@
dell'India,
dell'industria
deva.
dia,
differente,
diffon@@
dign@@
diplo@@
direbbero
dirlo,
disco@@
distrutt@@
disturb@@
diversi@@
documentario
dominante
dottore,
dov'@@
dovuta
dura.
e,"
ear@@
ecco@@
economici,
effettuare
efficiente.
eguagli@@
elettric@@
ella.
emozione
energetico
entusi@@
eremmo
erie
erizz@@
ermi
errore.
esista
esisteva
espand@@
esponenzi@@
esserlo.
estende
esti@@
etici
ett
evano,
f,
f.
facendo?
falso
familiari
fate.
fichiamo
fit@@
fornito
frequenze
frit@@
fuga
fumetto
funzionalità
funzione.
galassie.
gas.
genocidio
gentile
geometri@@
gere,
giall@@
giocol@@
giornali,
giornalisti
governance
gravi@@
grem@@
ice,
icia
icon@@
ideato
ignorare
illuminazione
immagini@@
immobili@@
immunit@@
impariamo
impiant@@
impressionante.
inchio@@
indu@@
industriale,
innalz@@
insic@@
interessano
invec@@
ip@@
issione
istit@@
ity
ità"
kin@@
l'80%
l'Universo
l'angiogen@@
l'apprendimento
l'avrebbe
l'interazione
l'odore
lab@@
labir@@
lad@@
laggiù.
laptop
lasciai
later@@
leader@@
les@@
letto.
libro@@
lo?
low
luna,
ma:
maggiormente
malapena
mappare
marcia
mast@@
matem@@
mattina.
medie
memor@@
mer,
mer.
meteor@@
microbi
microfon@@
miracol@@
miracolo
missione,
missione.
misure
modelli,
molecolare
molteplici
monsone
mucche
multic@@
muro,
nacque
narrativa
nazionali
nazioni,
nell'angolo
nemico
norm@@
notevole.
notizia.
null@@
o,@@
o.@@
o:@@
occuparsi
offerto
oie
oll
olleg@@
onda@@
ondata
oniche
open-@@
opzione
ordine,
ori?
orribile.
oscu@@
osi@@
oz@@
palazzi
palle
palloncin@@
pallone
parallelo
partecipazione
penet@@
perché@@
percorsi
pezzett@@
piatta@@
piloti
piom@@
pipistr@@
politicamente
pomeriggio
popoli
potenti,
po’
ppe
pranzo.
predis@@
preferi@@
prenderci
presentarvi
presto,
prigione.
profondità,
proposito.
prostat@@
protesi
proveniente
quadrat@@
qualità,
ra'
ragazze,
ramific@@
religiosa
religiose
renderli
repar@@
reput@@
responsabilità.
retta
ria,
ricche
ricevetti
riconosc@@
riconoscono
ricostruzione
ridere
ridere.
riduc@@
riempire
riflesso
riprendere
risali@@
rispose:
risvegli@@
riuscissimo
rivedere
rivest@@
rotazione
roulotte
sab@@
sabbia,
sacch@@
sala,
sale,
saltano
sana
sanitaria
sant@@
scaricare
scene
scolastico
scopi
scopriamo
scoprii
scoraggi@@
scult@@
scuole,
sdrai@@
secol@@
sedute
seggiolini
sei.
sembrato
sensore
ser
serio,
sette,
settiman@@
sig@@
significare
simboli
simpat@@
siringa
soddisfazione
solfid@@
somiglia
sottoline@@
sovran@@
spacc@@
speciale,
speciali
specifico.
spegn@@
sperando
spettacolo,
spiag@@
spingono
spostamento
squadra.
stimolare
stringhe
strumento.
studente,
sud,
supermassic@@
talvolta
tantissime
tecnico
telescopi@@
tengo
tenuti
terete
terminare
terreno,
territ@@
totale,
tranquil@@
trasformano
tridimensionale.
triplic@@
tuto
tutte.
ultan@@
ulteriori
ultim@@
ultur@@
umane,
un'altra,
ungher@@
unico.
use.
useremo
userò
utilizza
uzione.
vadano
vapore
vederlo.
vedevo
veicol@@
velocita'
vendendo
vendite
vendono
verrebbe
verticale
vino,
virtualmente
viso,
volo.
vuoto.
w,
w.
"Hai
"Siamo
':
)
-T@@
.500
15.
2007
2008,
3%
30@@
5.@@
80%
Aim@@
Air
Alexander
Alpha
Alzate
Archit@@
Arriva
Australia,
Avrei
Ba@@
Bambino:
Bern@@
Bron@@
Buon@@
Bush,
CN@@
Capo
Cerchiamo
Coca
Congr@@
Cont@@
Contr@@
Cost@@
D'altro
Dan@@
Daniel
Delhi
Den@@
Disse,
Dol@@
Dur@@
Elizabet@@
Em@@
Et@@
Evan
Facci@@
Fis@@
Fondazione
Gates
Hum@@
Hyun
Iniziai
Intern@@
Jer@@
Kur@@
L'India
Lego
Luther
M.
Matt@@
Metà
Monterey
Mr.
Mur@@
NASA,
Natale,
Natale.
Natur@@
Ness@@
Nicholas
Nigeria.
No
Obam@@
Oppure,
Oriente
Ott@@
Pace
Park
Perche'
Prefer@@
Preg@@
Qualunque
Ricordate
SB:
Sam@@
Science
Sebbene
Sia
Signor
Sputni@@
Sputnik
Stai
Star@@
Stavano
T-@@
Tanto
Tes@@
Teszler
The@@
Titano
Uomo
Valley.
Van
Vanno
Ved@@
XI@@
XX
abbassare
abili@@
abusi@@
accorger@@
accumulo
ach,
adulto
agricoltura,
aj@@
ak
alghe
alimenti
all'improvvis@@
all,
alli@@
allu@@
amato
americane
anche.
andare,
andi
anna
annuncio
antemente.
anziché
appariva
appreso
ard.
ardi@@
area,
armente
arrot@@
ascoltate
aspettavo
atezza
atmosfera.
atterrare
attor@@
attrezzatura
attrib@@
aumentato
avamo,
avvic@@
aziende,
bagli@@
bai@@
banchi@@
bellezza.
benessere.
bes@@
biamo
biot@@
bo.
braccio,
bre,
bre.
brutte
bus
cabl@@
cacciatori
carichi
cartelli
catalizz@@
categori@@
categoria
cemento
centig@@
centrale,
centralizz@@
certezza.
chiamo,
chiedersi
chilom@@
chirurghi
cimat@@
circondati
citato
civilizz@@
coca@@
coccodril@@
cominciammo
commettere
compiuto
concettu@@
conclusione,
confini,
connettersi
consent@@
conservazione
contano
content@@
conti@@
continuando
continuerà
contrasto
contributi
copertura
copic@@
copie
coppi@@
corde
corretto
corruzione.
cos'è?
cosiddetti
costosi
costrut@@
costrutt@@
costruzione.
creatività,
credi
cresta
cuor@@
cura.
da'
dappertutto
davamo
decenni,
decenni@@
decisioni.
dedicata
deforest@@
degna
dell'acqua,
dell'ultimo
dell'universo.
dendosi
depressione,
di...
diagram@@
diano
dicevo,
difficili.
diranno
direzione,
discret@@
discussioni
dispiace,
dispiace.
display
disponibilità
distante
distrugger@@
disturbi
divertimento
dotati
ebre@@
edific@@
educativo
egi@@
eig@@
elementari
elettriche
empi@@
enciclopedia
endolo
enormi.
enti?
entri@@
entro@@
espansione
esplora
esplorato
esponenziale.
espresso
ess
ess,
este,
este.
estendere
facciam@@
fantastici
femmina
fen@@
fermo
fi
fichi
filmati
finire.
finiti
fisiche
fissare
fiume.
focus
font@@
forno
fotografiche
fraint@@
frutt@@
funzioni.
futuri
futuro?
gad@@
galassia.
galleria
generano
generazioni,
genitore
genom@@
geomet@@
gerà
gete
gh
gigantesco
giocando
giochi,
giorni@@
globali
grandioso.
grati@@
gratis,
guai.
guardare.
guardate,
guidando
gur@@
ica"
idrogeno,
imbar@@
immaginazione.
impacch@@
impedisce
impegnarsi
impiega
impul@@
incidente.
incontamin@@
incontra@@
indipendentemente
individuo,
indovin@@
ingoi@@
inist@@
iniziate
innoc@@
integrazione
intendiamo
interi
intuizione
inventò
invisibile.
istica.
itudine.
iz@@
l'analisi
l'argomento
l'inquin@@
l'occhio
l'origine
lavorare,
lega
leggi@@
lettore
lev@@
li?
liberali
lingue.
lì?
magnetico
manag@@
mantiene
marini
materia,
medico.
meravigliosi
meraviglioso,
meritano
moda,
motivo,
multi-@@
musicale.
musicisti
navic@@
nemici
new@@
nucleari.
numerosi
nutrit@@
nutrono
obsol@@
odio
odor@@
offrono
ografi@@
oio
oma,
op.
opera,
opia
org@@
orgoglioso
orio
orsi
orto,
oscopi@@
ospedale,
osservazioni
oto.
o”
pagine.
paia
pann@@
paracadute
parlate
pensando,
pensato.
pent@@
pesci,
pestici@@
pezz@@
pezzi,
pigmentazione
pin@@
poggi@@
politiche,
politico.
pomodor@@
ponte,
porsi
portat@@
porzione
posito
poterla
precisamente
preferir@@
preferiscono
preoccupata
prescri@@
presup@@
prezzo,
procedere
produzione,
profondità.
progre@@
proib@@
prospettiva.
provo
psichiat@@
pubblici@@
puro
raccontano
radio.
radun@@
rapida,
rav@@
realizzata
regione,
regista
relazione.
relazioni.
ricerche,
richiamo
ricic@@
riciclaggio
ricordano
ricres@@
riempir@@
rifugiati
rigor@@
rimpicciol@@
rinf@@
ripieg@@
riproducono
riprodurre
rispar@@
risultati,
rivelare
robo@@
romanz@@
rà,
sacrific@@
sagge@@
salutare
sanitari
sareste
satellit@@
sbagliate
sbir@@
scarpe.
scimmie,
scontato
scrivania
seme
semi-@@
semi.
sentirci
sepol@@
sequest@@
sero,
sesso,
setti@@
sfruttamento
significa,
sincronizz@@
smett@@
sogget@@
solitamente
solito.
soprann@@
sort@@
sottomarino
sour@@
source
spalla
specifico,
sperimentato
spess@@
spiac@@
spic@@
spiegazioni
spon@@
spru@@
spun@@
st.
stabile
stabili@@
stampa.
striscia
studiamo
stunt@@
succedono
superiore.
susc@@
sussi@@
sviluppano
taglio
talenti
tassa
teatro,
tempio
tendo
tenete
terribilmente
territori@@
terz@@
tita
tradizionali.
transistor@@
trapiant@@
trapp@@
trasformando
trasformazione.
trilioni
triste,
trovato.
trucchi
tsunami
u.
uguagli@@
uguali
ulteriore
un'era
un'in@@
un'onda
und@@
unico,
uniti
uno?
uns@@
up@@
ur,
vagin@@
valga
vederla
vederli
vederne
veniamo
ventesimo
ventunesimo
venute
vetro.
villaggio.
virale
virtuali
visiva.
visualizzare
vivente.
voce,
vogliamo,
volano
von
voti
watt
yn
ò:
"A
"Gli
"Guarda,
"Mamma,
"Qual
"Wo@@
"Wow,
"in
"è
&amp;
'anni,
'é
15,
2003
2006,
2008
2020.
3D,
40.000
450
7.000
85
A:
Afghanistan.
Almeno
American
Art
Bangal@@
Bibliot@@
Bil@@
Bir@@
Bonn@@
Brasile,
Cambogi@@
Canada,
Carnegie
Certo.
Ciao,
Città
Col
Cur@@
Dave
Dice
Dissi:
Dott.
Dottor
Dun@@
Encelad@@
Esatt@@
Feb@@
Francia,
Francis
Gioc@@
Golf@@
Gover@@
Groenlandia
Hei@@
I-@@
IM:
Ind@@
Ivan
Kam@@
Kan@@
Kathryn:
Kennedy
Kr@@
L'obiettivo
Lar@@
Las
Lewis
Lo@@
Louis
MI,
MS
Mach@@
Maria
NM:
Nathan
Nollywoo@@
Norman
O.
OL@@
Oli@@
Pad@@
Però,
Red@@
Riguar@@
SI
San@@
Sant@@
Sau@@
Serve
Settembre,
Sno@@
Soci@@
Son@@
Spi@@
Stavamo
Stir@@
Studi@@
Svezia
TS:
Thail@@
Times,
Transi@@
Turchi@@
Ul@@
Usa
Ushahi@@
Veg@@
Viv@@
West@@
Wrigh@@
a..
abbattere
abol@@
acco
accogli@@
ach
addosso
adi
aero@@
aeroporto
affidabile
affoll@@
affrontando
age.
agliar@@
aio,
aio.
aiutarmi
aiutati
al-@@
algh@@
alimentato
allevi@@
allora?
alog@@
altrove
alve@@
amin@@
anne
anniversario
ans
ansi@@
anticipo
apert@@
appartiene
applicato
aranci@@
arancione
argoment@@
armat@@
armi@@
arrivava
asiat@@
assas@@
assol@@
assoluta
assomigliano
assomigliare
ati."
ato@@
atta.
atteggi@@
attentamente
attività,
attraversano
attuale,
automobile
avamo.
avvelen@@
avvocati
avvol@@
awa
aziende.
b.
basati
batteri,
bell'@@
bellissimo.
ber
berg
bianco,
bicchiere
bicicletta
biologico,
biomassa
bisognava
bole
brasili@@
cadono
calcolato
calde
cancer@@
canta
canti@@
capo.
carbone,
cari
caricare
carriera,
cartone
case,
casin@@
casse
cata.
cato
catti@@
catturato
cavern@@
cca
cellula,
cens@@
chiederò
chiesti
chimi@@
chiss@@
chop
cicl@@
cifra
cifre,
circonda
civiltà.
cock@@
codific@@
cog@@
colog@@
colto
combinare
compagn@@
complessità.
completato
concentrare
conclusioni
confi@@
configurazione
connessioni.
connettiv@@
conservare
considerata
constat@@
continui
continuo.
contro@@
controllano
cos'altro
costa,
costo.
crav@@
crescere,
cura,
cyber@@
d'accordo,
d'aria
d-@@
dai,
dall'acqua
davanti,
decennio,
degn@@
delfino
dell'Universo
dell'universo,
demm@@
dens@@
designer.
desse
diag@@
diapositive
diate
diffondono
dilett@@
dini
dirige
dischi
dispar@@
disposti
distribuito
distrutto
ditta
dolce.
doppi@@
dormit@@
dorsale
dovere
dovevi
droghe
dutt@@
dy
dò
ecamente
economicamente
ed,
edifici.
elaborazione
eme
emerg@@
endomi
erà,
esame
esempi,
esplodere
espon@@
esponenziale
esposto
estensione
estremi
etti:
fabbriche
faccio,
facemmo
fai,
fame,
fantastica,
febbre
ferro,
filosofi@@
finanziario
fior@@
fium@@
fondale
formiche,
fortuna.
fotografare
fotografi
fotografi@@
ft@@
fuor@@
furi@@
futur@@
gamber@@
garage
garantire
ge,
gere.
ges@@
giganti
giovan@@
giovane.
girano
giudizi
giustizia,
giustizia.
glaci@@
governat@@
gras
grigli@@
guadagnato
guai
guarda,
guarder@@
guardò
hanno,
iPhone
ico:
idrogeno.
imitare
immagazz@@
immaginiamo
immenso
immunitario
impalcatura
impic@@
impossibil@@
impressionante
inaccett@@
incentiv@@
inclinazione
inda@@
individuazione
indossando
industria,
industrializz@@
inea
infran@@
ingenu@@
iniziare,
inserir@@
insomma
insor@@
inspi@@
inta.
intellettuali
intenzioni
intervenire
intuiti@@
inverno
inviare
invitati
ironia
iscri@@
istiche
istituzion@@
istruzioni
ità:
ivo
l'agricoltura
l'angolo
l'azienda
laggi@@
lampada
lavoratori
lavori.
leader.
legge,
li'
libere
limitare
limitato
lingua,
luoghi.
magn@@
magnifico
mancano
mangiare,
marchi
marina
marron@@
master
meet@@
memori@@
mentali
mercati.
metropolitana
mettermi
metterò
mi:
minac@@
mobili.
modellare
modo@@
molte,
mondo:
mone
morta.
mostrato,
mostrò
mult@@
musulmani
nanotecnologi@@
nell'atmosfera.
nell'evoluzione
neo-@@
neuroscienzi@@
neve.
nodo
nomin@@
nord@@
normale,
nostra.
noterete
notizie,
num@@
nutrienti
occidentale,
ock@@
ofis@@
ografia.
ogramma
oltre,
omaggi@@
omini@@
on:
onale.
ono:
ordine.
organizzazione,
orribili
osc@@
osh@@
ossa,
ovvio,
palp@@
pannello
pantal@@
paran@@
parassiti
parecchie
parola.
partenza
pastic@@
pastor@@
pazzes@@
pazzo
pendio
perdiamo
perfetta,
perfetta.
perfetto,
pericolo,
personali.
pesanti
pesci.
pest@@
pezzetto
piangere.
picchi
pillola
plus
poesie
poi.
polim@@
polo
popolare.
positiva,
positive,
positive.
post-bell@@
posteriore
potabile
potenziale.
potenzialità
ppa
pratico
preghier@@
preoccupazioni
pressa
presupposto
priamo
prigionieri
privato,
problema:
profondi
progressione
propulsione
prospettiva,
prossime
puntare
puntu@@
qualità.
quattr@@
quette
qui?"
ra...
rabbia,
raccogl@@
raggiungendo
raro
re"
reali,
reddito,
reddito.
reggi@@
rendete
repubblic@@
resistenti
responsabilità,
retro@@
retti@@
riabilit@@
riche.
riferisce
ring@@
ripeto,
ripres@@
riso,
riso.
risposi@@
risucchi@@
ritard@@
ritmi
riunione
riviste
ro?
rompicapi
salita
sanguig@@
sano
sarai
scam@@
schermi
sci
sconfig@@
sembri
semplice:
separato
set@@
settembre,
sfor@@
sfortun@@
sfr@@
sier@@
signore,
sili
siringhe
sistemare
sivo.
slog@@
sofferto
soluzione,
sorprendentemente
sorpreso
sostener@@
sostenuto
spendiamo
spettacolare
spettacolo.
spiegarvi
sradic@@
stabilità
stag@@
stampa,
statunitensi
stec@@
ster
stesse.
stessero
stime
stituto
studiano
stupida
sud.
svant@@
sved@@
te."
tecni@@
tecnologici
teen@@
telefonata
terrest@@
teschio
testate
ti:
tivo.
tizio,
tono
tori
torio
tradut@@
tral@@
trasmett@@
tribun@@
trovammo
trovata
uccell@@
udito
uli@@
un'attività
un'industria
un'ultima
urbana
uro,
usa,
uscirà
utamente
uttosto,
valutazione
venti,
vicinato
videoc@@
visi
vivano
viventi.
volante
wa@@
win@@
à."
.'
1500
180
192@@
2000.
2004,
2008.
2009,
47
48
7%
95
;@@
Adam@@
Ambi@@
Angeles.
App@@
B.
CD
CD@@
Cameron
Carl
Center
Cheryl:
Coll@@
College
Comand@@
D:
Dai
Diam@@
Disney
Eff@@
Emma
Eric
Everest.
Facebo@@
Fili@@
Fur@@
Gall@@
Ges@@
Glob@@
Hadron
Hawaii
I,
Jas@@
K
Ke@@
Kell@@
Ken
Kenya.
Ker@@
Kiber@@
Kim
Kin@@
Ko@@
Labor@@
ME@@
Moore,
Mumba@@
Panbanisha
Pap@@
Pentag@@
Pep@@
Person@@
R.S.:
RN@@
Rw@@
SE@@
SET@@
Serv@@
Sing@@
Space
Sud@@
Tex@@
UV@@
Ulti@@
Valley,
Web@@
Ye@@
Yor@@
Yves
Zimbabw@@
accen@@
adess@@
ah.
alit@@
ama,
an:
anda.
appo@@
arco
asso@@
at.
ati:
atri@@
azzi,
bare
bero
bio
by
by@@
ce?
cherò
chilomet@@
ciasc@@
comple@@
conflit@@
connetter@@
conqu@@
copert@@
crem@@
cris@@
datab@@
demie
devi@@
e!"
e-
ecchi
effica@@
eis@@
emi@@
emp@@
ence
energi@@
enhagen
entrambi@@
erog@@
ers,
es:
etro@@
fiam@@
ga,
gegn@@
gger@@
gramm@@
ham@@
iPo@@
identi@@
igi
infar@@
inger@@
irle
isse,
itz@@
lla
mania
mate
mier@@
mobil@@
monit@@
ner
nev@@
noma@@
o'.
occupazione
occupo
ocort@@
ocra@@
ocul@@
oder@@
omila
omo
ono?
oppon@@
opport@@
opzioni.
organico
orgasmo
orgoglio
orientale,
ossessionato
ossi.
ostil@@
ottica
ottima
ovvio.
pace,
pagati
param@@
parecchi
parecchi@@
parlerà
partecipato
partner@@
passiv@@
passo.
peggio,
peli
pensai:
pensi@@
penso.
perdon@@
performan@@
pericoloso,
periment@@
perlo@@
petto
piccolissima
pinn@@
pio
pittura
portafogli@@
portarla
portatili
povera,
ppell@@
precedenza
predatore
preferite
prendano
prenderò
preparati
primordi@@
principio,
privati
prodot@@
profondit@@
profondo.
progresso.
prol@@
prospettive
provincia
punteggio
puntino
quadri
quartieri
ques@@
quest'altra
quotidiana
raggiunger@@
raggono
ran
rappresentata
reagi@@
realizzando
realizzate
reattori
reclut@@
relativa
religione.
remi
renderle
rendersi
riassumere
richieste
rici,
ricol@@
ricorderanno
riesca
rilevante
rilevante.
rimaste
riportato
ripos@@
riproduzione
ripulire
rispettare
ritiene
river@@
rivestimento
rock@@
rubato
rugo@@
rurali
sabb@@
salve@@
sam@@
sanguigno
sappiate
sav@@
sbal@@
scandal@@
scendono
sceneggi@@
scivol@@
scoperto.
scorciat@@
scre@@
scritto,
scrivania.
se?
segmento
semplific@@
sensi.
sensu@@
serata
sezioni
sfida,
sfidare
sfogli@@
sfondo.
siamo?
significa?
sincron@@
singol@@
sistematicamente
soffitto
soffre
sogni,
solleva
sostengono
sottost@@
sottovalut@@
sovrap@@
sovrapp@@
spera,
spostano
sta'
stampare
stati.
statistiche.
statua
stavol@@
stimoli
stre@@
stupido
succeda
successi
successiva,
suonano
suonato
superiore,
svolge
svuot@@
talia
tambur@@
tastiera
tavol@@
tavolo,
tecnicamente
telef@@
telescopi
televisione.
televisivo
temo
teranno
terreni
terrestre
terrestri
tetti
til@@
tive,
toccar@@
tori,
tradizionale,
trapianto
trascorrere
trattati
tridimension@@
trivell@@
trof@@
trovando
trovato,
tu.
ua
uccidendo
ulteri@@
un'auto
uniche
uri,
uriamo
usi.
utili.
uzioni
valeva
vamente,
vegetari@@
venerd@@
venissero
vertebr@@
ves@@
vi?
vice@@
vicenda.
violino
virali
virtù
volevi
vostr@@
vuoi.
we@@
wireless
ya
z.
zanzare
zucchero,
zzo,
»@@
à...
"Tu
-D@@
0.000
15.000
150.000
1960,
2001
2004
2006
2009
300@@
4%
42
60@@
80@@
97
Abu
Alber@@
Alle
Anderson
Atten@@
Avel@@
BM@@
Ball@@
Bangladesh
Barack
Beck
Bonobo
Bow@@
Boy@@
Bronx
C:
CO2.
Carol@@
Cert@@
Chicago.
Colleg@@
Cosi@@
DP:
Dimit@@
Disne@@
EE@@
Entr@@
Exxon
Florida.
Foundation
Francisco.
Frank@@
Fred@@
G.
Galapag@@
General
Ghana
Great
Harvard,
Henry
Himalay@@
Hollywoo@@
ID@@
II@@
IR@@
Int@@
Jamie
Jane
Jones
KS:
Khmer
Kong
Kosov@@
Lei@@
Les@@
Mathemat@@
Mississi@@
Mister
Moz@@
Mul@@
Mut@@
NASA.
Namibia
Negroponte
Nev@@
Nik@@
Normal@@
Nu@@
Oce@@
Orient@@
Pe@@
Pittsburgh@@
Pop@@
Pran@@
Rachel
Ran@@
Red
Ren@@
Richard.
Rift
Ron
SL@@
Sahara
Sir@@
Societ@@
Sony
Susan
TEDster@@
Tar@@
Teles@@
Termin@@
Thula
Twitter.
U,
University,
Up@@
Virgini@@
Walter
Wat@@
Wikipedia.
ZK:
abband@@
ad.
adol@@
ail
amiche
ammi@@
amminist@@
anzit@@
apo@@
arit@@
asch@@
b,
bene@@
bic@@
bit
bull@@
cau@@
cheggi@@
denar@@
dentr@@
dispiac@@
ditorium
dow@@
dut@@
e,@@
e?@@
edo
ee@@
eit@@
ell'@@
eller
embre,
en:
er-@@
ere?
ergi@@
esperim@@
espi@@
fere
ff
fragile
ger.
gione
glamour@@
hab@@
hat@@
ht
hu@@
ich
icolo
ific@@
il,
illa
illegale
immen@@
increm@@
ine@@
inge
interesse,
inva@@
ist
istan,
ki
kins
km.
logi@@
margin@@
mister@@
mobile
mp@@
multin@@
ner,
nis@@
obb@@
onto
ook
orang@@
our@@
pai@@
pia
plica
porn@@
portati@@
posteri@@
pper@@
prei@@
private
prod@@
prostitu@@
pus
put
quantit@@
quass@@
rasse
re-@@
re...
resistente
ribu@@
rich@@
rug@@
scanner
shmall@@
sinda@@
soddisf@@
son:
spende
spot
stig@@
tante.
teg@@
tom@@
ton.
tribu@@
tus
uber@@
umul@@
un,
universal@@
unque
usc@@
uttosto
ver,
vil@@
volle
vulg@@
ware
"J@@
"V@@
.000.
.com,
1,3
160
25.000
26@@
2:
300.000
38
4.@@
43
44
46
6.000
75%
?'
AM@@
Agnes
Alask@@
Alex
Ali@@
Amster@@
Angel@@
Appar@@
Argent@@
Bast@@
Benki
Blu@@
Brig@@
Brilli@@
Brooklyn
Bruce
Cambridge
Carl@@
Cassini
Charlie
Conn@@
Consi@@
Dar@@
Delhi,
E-@@
E.@@
EG
Er@@
Essen@@
Fe@@
Foundation,
Gal@@
Gilber@@
Gold@@
Goul@@
Hall
Han@@
Harry
Hi@@
Hig@@
I.@@
Indon@@
Instit@@
Jefferson
Jobs
Joh@@
Joseph
K.
Kelly
Kh@@
Kon@@
Laptop
Lav@@
Margaret
Mars
McDonald'@@
Mich@@
Milo
Min@@
Moder@@
Monterey,
ND@@
Nord@@
Nort@@
O:
Off@@
Ogn@@
Oh@@
Ok@@
Oper@@
Orchest@@
PH:
Pier@@
Pon@@
RO@@
Ral@@
Rosling
Ruanda,
Rut@@
Sac@@
Seatt@@
Shangha@@
Simon
Singap@@
Sook
Stanford.
Street,
Studio
Sw@@
Time
Toky@@
Ty@@
Verg@@
Virgin
Wall
World@@
Yo
YouTube.
ab
ab,
ado@@
ambur@@
ani:
ank@@
ase
asso
att.
attere
aust@@
ave
azz
back@@
best@@
biom@@
ch.
chen@@
cif@@
dag@@
dam
dap@@
dapper@@
detti
dilem@@
distri@@
dra@@
e'.
ebra@@
eck@@
egger@@
elicotter@@
ep
epo@@
ess.
esser
ete:
ever@@
extra
fotografie,
gang,
genealog@@
gior@@
got@@
grav@@
guardia
hat
heh,
hin@@
ick,
infl@@
ink@@
inzi@@
isa
ju@@
kins,
kt@@
liche
ling@@
lino
lion@@
mach@@
mine
mira@@
neurale
nie
ococ@@
ooh,
ope
perch@@
petr@@
pire
pli@@
primitiv@@
prodott@@
profil@@
progr@@
ragazzi@@
recor@@
revol@@
ricul@@
rific@@
rob@@
sabbi@@
scann@@
schi.
scopri@@
serviamo
sive
sottol@@
sottom@@
spe@@
spu@@
ssi@@
stamin@@
ste.
stere@@
tech
tener
terr@@
teste
tin@@
transi@@
tute
ue,
uh,
ump@@
usti@@
versi@@
vet@@
vett@@
za@@
á@@
"Be@@
"G@@
"Vi@@
'"
*@@
.or@@
0%
0-@@
12.
140
2002
2006.
4.000
56
83
98
?",
Acumen
Alab@@
Altr@@
Ander@@
Andrew
Arkans@@
Armstrong
Atlanta,
BO@@
Barr@@
Benjam@@
Berkel@@
Bilba@@
Bol@@
Bost@@
British
C'@@
CB@@
Cant@@
Canyon
Cat@@
Christopher
Cola
Columbia
Conserv@@
Dat@@
Dott@@
E.
East
Everest
Furb@@
GPS
Galapagos
Galileo
Galva@@
Gil@@
Graham
Haiti,
Hel@@
Herbie
Hom@@
II
Iran,
Island,
Jack@@
Jam@@
Kay
Kik@@
Kosovo
Lev@@
Levi@@
Lin@@
Lock@@
Lov@@
Lung@@
MA@@
Maitre@@
Mast@@
Mik@@
Neil
Ny@@
Oh.
PM:
Pakistan.
Pennsylv@@
Pian@@
Pin@@
Pre@@
Prest@@
Rand@@
Ricor@@
Ries@@
Roots
Rot@@
Royal
SA@@
Sad@@
Sarah
Scho@@
Sergio
Seri@@
Shanghai
Shir@@
Sil@@
Spen@@
Spieg@@
Spr@@
Star
Sul@@
Super
TD:
Tamiflu@@
Tech@@
Times.
Tol@@
Tom@@
Twit@@
U
User@@
Venter
Vietnam
Washington.
Willi@@
Wilson
Wood@@
Wor@@
York@@
Z
Zo@@
abilmente
acqui@@
agne
altrett@@
archia
aren@@
argom@@
arn@@
astro
at,
ation.
ational
autob@@
balz@@
bere,
bert
bul@@
capp@@
cce
ce"
ciata
cle@@
coc@@
coin@@
crescit@@
de"
deste
diffici@@
ed.
edr@@
een
effic@@
ela,
eloqu@@
end
er?
erne
ettu@@
ext@@
extr@@
ez
ezzo
fem@@
filantro@@
flor@@
genu@@
h!
h?
hop
iere
incredi@@
ing:
inne
innovative
int
invasi@@
l.
lamp@@
ler.
ley.
lineare
logarit@@
man:
mom@@
ner.
nostal@@
oce@@
offen@@
olly
om.
omat@@
oton@@
ow.
p-@@
paus@@
per,
plank@@
post
prece@@
preoccupa@@
prostit@@
r,
rey
risu@@
ry
s?
sand@@
sembra@@
sess@@
sexy
sky
sofist@@
sogli@@
sopravviss@@
stop@@
sub-@@
surf@@
test.
tig@@
trin@@
truppe
tun@@
uch@@
uh@@
up,
urg@@
vegli@@
voll@@
vort@@
vuo@@
ward
win
wirel@@
"Si@@
+@@
,5
.000,
.00@@
.org
0.@@
1/@@
11,
1994,
1:
2,5
34
4000
47.
500.000
57
6%
6,@@
70,
73
8.@@
900
AIM@@
AIMS
Abraham
Agen@@
Aimee
Alzheimer
Amy
Aqu@@
Aut@@
BB@@
Bank
Bhut@@
Bollywoo@@
Botsw@@
Bru@@
C.@@
CP:
Cambridge,
Charli@@
Cinqu@@
Clar@@
Colum@@
DD@@
DN@@
Darwin@@
David,
Deb@@
Dissi@@
Dre@@
E8
ER@@
Eames
Emily
Enrico
FG:
Feder@@
Fel@@
Geor@@
Giuli@@
Good@@
Gro@@
HIV/AIDS.
Harl@@
Hir@@
Hit@@
Hon@@
Independent
Intellig@@
Isaac
Jennifer
Jerry
Kamen
Katr@@
Lama
Linux
Luci@@
Mandela
Manhattan,
McDonald's
Micros@@
Microsoft,
Mid@@
Mondi@@
Montana
NI@@
Nami@@
Nas@@
Natalie
Okay?
P,
PI@@
Parti@@
Pepsi
Pink@@
Ple@@
R-@@
Rest@@
Rin@@
Rio
Robo@@
Ronald
Ross
Saf@@
Secon@@
Seg@@
Shoot@@
Sig@@
Skyp@@
Sobule:
Som@@
Sper@@
Splashy
St.
Stewart
Sum@@
Sweeney:
TA
TEDGlobal
Tesz@@
Trade
U.
Urugu@@
Vivi@@
W.
White
William@@
Wow,
ab.
abyte
adulti@@
affin@@
ag
ah!
ake
ala.
alia
alop@@
amat@@
amput@@
ara.
ary
ation,
ausi@@
austr@@
baracco@@
beh@@
bel@@
bla
cere@@
contrib@@
cosic@@
cy@@
d:
da."
de."
demo@@
demon@@
dest
dien@@
ds
ecnologi@@
elegante
elio
ell.
emisfer@@
enh@@
enny
episo@@
eredi@@
erot@@
esempl@@
ettuale
eur@@
eut@@
fet@@
firma
foo@@
fro@@
fusi@@
gang.
gas@@
geb@@
ham,
ichi
ics.
imi
impl@@
irre@@
ker,
l,
lampa@@
lea@@
liche.
ling,
malatti@@
minist@@
moni@@
nett@@
nis
offer@@
ogh@@
ok
ometri@@
op
orniamo
ospettiv@@
otteri@@
ovi
perim@@
pessimist@@
pistol@@
problemat@@
proced@@
psi@@
r.
rier@@
rip@@
roul@@
rout@@
schel@@
sex@@
sion
softwar@@
soprat@@
statuniten@@
te?
tonn@@
truc@@
ts
uch
uk@@
umar@@
und,
ur.
velen@@
venti@@
venzione
ville,
vin
wer
west@@
y!
yn,
zer
zin@@
°@@
1.100
10,000
110
12.000
125
16,
1999
2010
2020
250.000
3,5
6000
70.000
70@@
95%
AG:
Alh@@
Allen
Ann
Ascol@@
Aust@@
Bisogn@@
Blair
Bomba@@
Buil@@
Bush.
Business
Calt@@
Cany@@
Char@@
Charl@@
Chev@@
Cir@@
Clint@@
Cloni@@
Compan@@
Connectic@@
Cra@@
Cri@@
Cru@@
DL:
DV@@
Darfur.
Donn@@
Econom@@
Einstein.
FDA
Fort@@
Fra@@
Fri@@
Full@@
Gand@@
Gor@@
HA@@
Harvard.
Hav@@
Higg@@
Hud@@
Ide@@
Intel
Internet@@
Invest@@
JC:
Jimm@@
Joshu@@
Julian
Just@@
Kat@@
Kepl@@
Kit@@
Lad@@
Lay@@
Libr@@
Lynn
MA
MIT.
Maggi@@
Marin@@
Mark@@
Mary
Math@@
Mel@@
Micha@@
Michig@@
Moh@@
Nell@@
Net@@
Nicole:
Nigeri@@
Not@@
Oliver
PA
PR:
Patric@@
Pog@@
Point
Post@@
Prob@@
Q
Quant@@
Que@@
RC@@
Robot@@
Rory
Sah@@
School
Sens@@
Sequ@@
Seth
Shi@@
Sim@@
Square
Starbuck@@
Stev@@
Suprem@@
TR:
TT@@
Tai@@
Toyota
UCL@@
Uni@@
Vinci@@
Vit@@
Web.
Wh@@
Wi-F@@
Williams
Win@@
Worl@@
YouTu@@
Zi@@
acch@@
ache
ache,
acom@@
addi@@
ain
ally
archivi@@
art,
av
awi@@
brio
car
cine
copio
de?"
depon@@
din
dine
ect
edback
ein,
ell,
emett@@
enf@@
erry
erte
esempi@@
eser@@
ession@@
etc.
etc@@
fera
fisch@@
garanti@@
goc@@
ham
high-@@
hir@@
ht@@
ic.
iet@@
immag@@
impalc@@
ingst@@
insom@@
intensiv@@
itra
ival
kar@@
ke,
ko@@
lie@@
ling.
marci@@
matri@@
mazione
mer
mili@@
minut@@
miser@@
mit
nanot@@
nete
nos@@
ografie
oh.
ong
oris
oy@@
passion@@
pe.
ph
poli
positi@@
ppo@@
proli@@
que
rius@@
ront@@
rotte
separate
sere
sey
sey,
signi@@
sili@@
sima
siring@@
so...
so:
sorge
stern@@
stris@@
team.
topi@@
trick@@
tz@@
uck@@
ule.
ultraviol@@
under@@
unt
up.
usal@@
uten@@
val
ville
wan
way
woo@@
y",
y?
"Guar@@
'000
'essere
+
1,5
10-@@
12,
18,
186@@
189@@
1960
2-@@
3:
400@@
5-@@
52
8.000
96
AB@@
Allor@@
Amaz@@
Amer@@
Andre@@
Andy
Aven@@
Ax@@
BMW
Barbi@@
Basi@@
Beck@@
Benn@@
Bhutan
Boein@@
Bond
Bono
Bosni@@
Brid@@
Browne
Bulg@@
CIA
Camb@@
Cambrid@@
Camp@@
Cape
Central
Cla@@
Clark
Clay
Coca-Cola
Corpor@@
DR@@
Dawkins
Dennett
Der@@
Design
Detro@@
Diff@@
Din@@
Disco@@
Donnell
Dou@@
Elean@@
Emer@@
F
Ful@@
Galois
Gan@@
Gary
Gell-@@
Georgetow@@
Gli@@
Global
Guatem@@
HIV/AIDS
Hal@@
Hawking
Hop@@
Hospit@@
IBM@@
ID
IDE@@
Ig@@
Iraq@@
Islam,
It@@
J.
Jab@@
Johnn@@
Journal
Juan
KIP@@
Kanzi
Kap@@
Karen
Keni@@
Kenn@@
Kurzweil
LH@@
Lawrence
Lincol@@
Linus
Luc@@
Lyndon
Magazin@@
Mahatma
Manhatt@@
Marine
Mill@@
Motor@@
N.
Nairo@@
Nairobi,
Nancy
Nash@@
Neumann
Nig@@
Nike
Nob@@
Novograt@@
Open
Pant@@
Parkin@@
Pra@@
Princeton
Produ@@
Quar@@
Research
Robic@@
Roger
Roosev@@
Roy
SAR@@
Sam
Sav@@
Scien@@
Serge@@
Sho@@
Spac@@
Squ@@
Stal@@
Stat@@
Steve,
Stre@@
Sudan
TEDster
Tab@@
Tay@@
Tel@@
Texas
Tho@@
Tibet
Tokyo
UF@@
Ugan@@
Univer@@
Vel@@
Virginia
Warren
abbast@@
abor@@
ack,
agog@@
agon@@
ais@@
anga
antan@@
arram@@
ash
ativit@@
atore:
ats@@
att,
avol@@
ball
bar,
bbi@@
ble
bril@@
chef
cifr@@
comin@@
creativit@@
ct@@
d"
day
demi@@
der.
des
dies@@
ditori@@
e's
ece
ement
ens,
erz@@
exi@@
feste
fiel@@
fist@@
fram@@
freu@@
gang@@
geniale
geri@@
gers
gie
gigan@@
gruppi@@
gs
h"
han,
her,
hom@@
i-@@
ings
ingsu@@
islam@@
ison
it.
ja
k"
ka
ker@@
land.
ley,
libri@@
lle
low@@
mail@@
mart
mati@@
mm
molti@@
monson@@
mpi@@
ogie
olabi@@
omp@@
opo@@
ord
orgas@@
orni@@
orto
oth@@
ottigli@@
piedi@@
pig@@
plur@@
provvis@@
rab@@
rezz@@
ric
ricket.
risi@@
rison@@
ry,
s".
s-@@
s."
sanguign@@
sini
spezi@@
spiaggi@@
stir@@
sum@@
ter.
tett@@
turbin@@
ulg@@
umini@@
unto
urist@@
utu@@
van
vell@@
verr@@
vicen@@
videogi@@
vietnam@@
wak@@
wel@@
zanz@@
ze@@
"K@@
&@@
/
11.
188@@
3,7
3-@@
31
49
78
90@@
AA@@
Adi@@
Allo@@
Anton@@
Apollo
Aravin@@
Astron@@
Attra@@
Bah@@
Ban@@
Bay
Bay,
Bess@@
Bez@@
Bill@@
Bin
Blue
Bon@@
Bonob@@
Bre@@
Brun@@
Cargill
Carolyn
Catherine
Cel@@
Cham@@
Che@@
Chef@@
Chr@@
Coc@@
Company,
Cooper@@
Corn@@
Cric@@
Deng
Dick@@
Dieg@@
Dil@@
Dim@@
Direc@@
Domin@@
Dougl@@
Dr@@
Dra@@
ED:
Edison
Eduardo
Elec@@
Eli@@
Ess@@
Eu@@
Evel@@
Explor@@
Extrem@@
F.
FA@@
Flickr
Florida,
Force
Frankl@@
Fried@@
Fron@@
Gab@@
Gandhi
Gapmin@@
Gehry
Ghrai@@
Gom@@
Greg
Grey
Gust@@
Hai@@
Heat@@
Hein@@
Hill
Hul@@
Hus@@
Individu@@
Innov@@
Island
Istan@@
J
Jac@@
Jacqu@@
Jeffer@@
John,
K-@@
Kaluza
Kev@@
L:
Laurie
Leh@@
Len
Lewis,
Lifes@@
Lind@@
Madag@@
Mah@@
Mak@@
Mari@@
Marshall
McLu@@
Mell@@
Michel@@
Minnes@@
Mob@@
Museum
My
Myhrvol@@
NK:
News
Nir@@
North
Oka@@
Oprah
Oxford.
Parkinson
Philadelphi@@
Photos@@
Prak@@
Professor
Pubbl@@
RIS@@
Reagan
Rich@@
Riverside
Rockef@@
Rose
S-@@
Samu@@
Sang@@
Saul
Sear@@
Servi@@
Shar@@
She@@
Simp@@
Sinclair
Smo@@
Spe@@
Stand@@
Sti@@
Stone
Street@@
Sudhir
Sut@@
Sween@@
SysAd@@
Telefon@@
Tem@@
Temberer@@
Tenness@@
Tig@@
Tru@@
UG:
USDA
Valde@@
Village
Virtu@@
Washing@@
Windows
Wis@@
Yochai
]@@
aggr@@
alcuno
ald
aliforni@@
alt
amere
anco@@
andin@@
anie
atar
ater
ator
atte.
ax@@
bbl@@
boom@@
carb@@
ciol@@
circu@@
com
commer@@
compag@@
cortec@@
cult@@
d.@@
dafric@@
dell
diav@@
dispi@@
du
eber@@
ecca
eflyer's
egoist@@
eil@@
ein
eine.
ellow@@
eman
end,
equip@@
ett,
ettr@@
ever
ez@@
fabb@@
faci@@
famili@@
fic
ford
genti@@
ght
hem@@
hy@@
ia@@
ic,
icio
ickl@@
icl@@
impressione
in:
ish
keni@@
ker.
lassi@@
last@@
liberale
lou@@
martph@@
men
moderne
more
nam
neuron@@
nor
occol@@
ock.
off
oft.
omateri@@
omatopo@@
opt@@
orb@@
ory
over
ovi@@
pacch@@
para@@
patter@@
phi@@
plat@@
ps
quartier
rate.
riser@@
rup@@
sicurezz@@
simp@@
sob@@
spre@@
sse
stabi@@
statunit@@
succ@@
tene
terren@@
tion@@
tori@@
traum@@
ub@@
unser@@
urbane
ust
utto@@
vad@@
ves
wai@@
wbo@@
y-@@
í@@
";
"An@@
"]
#@@
%@@
(@@
-S@@
.com.
18.
1950
1991
35.000
400.000
76
92
AL@@
Ach@@
Act
Ador@@
Airstre@@
Alaska
Ang@@
BI@@
Barry
Bett@@
Bh@@
Bran@@
Bri@@
Brookl@@
Brother@@
Budd@@
Buff@@
C.A.:
Camer@@
Carb@@
Cha@@
Cheet@@
Christi@@
Corexit
D.@@
Da,
Dallas
Darfur@@
Deut@@
Diplomat
Dod@@
Emil@@
Emmanuel
Energi@@
England
Ernest
Fall@@
Florida
GB:
GP@@
GPHIN
Gel@@
Genom@@
Geographic
Gilli@@
Glenn
Google@@
Green
Green@@
Greenpeace
Guer@@
H.
HIV@@
Ham@@
Hard@@
Hawk@@
Hillis
Himalaya
Hin@@
Hun@@
Hunt@@
Hyderab@@
IBM
IDEO
Il@@
Inten@@
Interess@@
JP@@
Jackson
Jacqueline
K:
Kab@@
Katrina
Kent@@
Klei@@
Krishn@@
Langl@@
Langley
Law@@
Mama,
Mann
Massachusett@@
Matri@@
Max@@
Millenni@@
Mount@@
Mozart
Nar@@
Networ@@
Nichol@@
Non@@
O'@@
Ohi@@
Pho@@
Power
Proj@@
Quad@@
RISD
RNA
Regi@@
Rockett@@
SMS
Sat@@
Schi@@
Shakespe@@
Skycar
Sout@@
Spa@@
Sri
Stanley
Stefan
Sun@@
TEDME@@
Top@@
Tot@@
Tran@@
Tul@@
Tun@@
V-@@
Vik@@
W
Wa@@
Walker
Warner
We@@
Will@@
Window@@
Worldchanging@@
Wu@@
aby@@
an?
ange@@
ator.
avigli@@
azzi@@
bedi@@
cats
cha@@
config@@
connession@@
dan
de-@@
deter@@
dich@@
distru@@
docum@@
eBay
ebo@@
edes@@
eine,
erec@@
erg@@
erie.
ering
ert
ey:
facol@@
figur@@
galassi@@
h-@@
habit@@
hieu
hirl@@
ical
idrogen@@
insk@@
inson
intelligent@@
ismi
j
kel@@
king
land
ler:
les
long@@
na:
net@@
ock,
okay,
ol,
ol.
olla
omm@@
onna
opedi@@
oping
organi@@
ossigen@@
otti.
pende
periamo
petei@@
pragmat@@
presse
proposit@@
pulsione
quadri@@
quali@@
rall@@
ramma
rangi@@
rati@@
redi@@
restau@@
rik
rut@@
s",
sbur@@
schwitz@@
seggi@@
seu@@
simb@@
sincr@@
sinist@@
sis
ste,
sten
stra.
strut@@
templ@@
tes
toll@@
trapi@@
ts@@
ty
uck
ul
ung,
ut,
ut.
ver.
versit@@
wis@@
ww@@
yr@@
é?
-t@@
.B.
16.
170
1998
2/@@
22.
50-@@
66@@
7.@@
8-@@
99"
@@@
All
Amazon
Ancor@@
Arm@@
Armstr@@
BL:
Bab@@
Bank,
Barri@@
Bart@@
Bay@@
Berkeley
Bot@@
Boul@@
Brasili@@
Brit@@
Buckminster
CI@@
City,
Coca-@@
Coun@@
D.C.
Daw@@
Digit@@
Dist@@
Divi@@
Dop@@
Eam@@
Eisen@@
Ever@@
Flu@@
Gehr@@
Goog@@
Gri@@
Griff@@
Gru@@
H,
H5N1
H5N@@
Harri@@
Hey,
Hoff@@
Hotel
Infra@@
Integ@@
Ira@@
Jeff@@
Job@@
Jur@@
Ka@@
Kir@@
L.A.
Lank@@
Log@@
Lyn@@
MacCread@@
Mart
Massachus@@
McDonal@@
Mem@@
Mig@@
Mobile
Monter@@
Mosk@@
Mum@@
Musi@@
Nap@@
Nav@@
Nix@@
Open@@
Out@@
Pac@@
Park@@
Past@@
Pink
Pittsburgh
Pix@@
Play@@
Poll@@
Princ@@
Princet@@
Program@@
Reag@@
S.@@
SARS
Sand@@
Scherz@@
Schwarzschil@@
Show.
Sky@@
Spar@@
Stein@@
Student@@
Sy@@
TV@@
Temp@@
Toy@@
Union
Uom@@
Vill@@
Vis@@
Von
Wit@@
Wur@@
X-@@
aa@@
abilit@@
ada,
ak,
amera
andal@@
angi@@
antast@@
antro@@
apit@@
ase,
ath@@
awatt
bar.
bicicl@@
brand@@
burg
campag@@
carboni@@
cem@@
cer
cher
chest@@
cocco@@
corru@@
cus
den,
diffond@@
distur@@
edy
ef
ein.
enber@@
enciclopedi@@
ens.
ers@@
eth@@
eventu@@
ff,
fli@@
former@@
fossil@@
ft
gan
gavi@@
ge:
gei@@
geli@@
hack@@
hail@@
hall
hn@@
ian
ics
idride
ign
ing"
itte
itz
ji@@
km/@@
km@@
koll@@
kw@@
liste
mei@@
mifer@@
min
mitt@@
my@@
negative
ness
ns
ology
om
ons
ophi@@
opol@@
ordi@@
osau@@
ostante
ote.
ozi@@
pant@@
paradi@@
pazzi@@
pert
pilo@@
pre
privile@@
prospettiv@@
qualit@@
quisi@@
quote
randomi@@
rappor@@
recl@@
ren,
ren.
rie@@
riel
rimin@@
roll@@
ron
rupp@@
rus
sch,
sempr@@
sen
sie,
sinn@@
sod@@
sourc@@
sport@@
stem@@
svilu@@
sw@@
t?
train@@
ull
verdi@@
verl@@
vey
wal@@
way@@
wich
wow,
ze.
zoom@@
ó@@
!",
"Okay,
's,
-P@@
1,2
17.
1970
1994
20-@@
2050
21.
=@@
AID@@
AM:
Agr@@
Alex@@
Ama@@
Ani@@
Anth@@
Arth@@
Auto@@
Auton@@
Bag@@
Bis@@
Bott@@
Buch@@
Bus@@
Cher@@
Cy@@
D-@@
Defin@@
Denn@@
Dubai
Ei@@
Ek@@
Ell@@
Ep@@
Ern@@
Eth@@
Facebook
Fahr@@
Fisch@@
Freu@@
GPHI@@
Gau@@
Gig@@
Gut@@
Hex@@
Him@@
Hock@@
Hol@@
Industri@@
Interfac@@
Joy@@
Kath@@
Kni@@
Leak@@
Ly@@
Magazine
Mama
Manu@@
Mech@@
Meg@@
Mess@@
Milli@@
Mission
Mom@@
NAS@@
NG@@
Na@@
Nad@@
Num@@
OK@@
Occi@@
Orig@@
Ovvi@@
P:
Park,
Parler@@
Pazi@@
Popul@@
Pos@@
Proz@@
R.@@
Rau@@
Resear@@
Ret@@
Rigu@@
Ring@@
Rock
Roll@@
Scot@@
Set@@
Somm@@
Spl@@
Spo@@
Spor@@
Stan@@
Standard
Stell@@
Sudhi@@
Ta@@
Tan@@
Techn@@
Tempo
Univers@@
Vag@@
Vort@@
WI@@
Wei@@
Well@@
Wild@@
Wink@@
Yorker
abel
ader
agen,
agen.
ai:
aku@@
als
andl@@
ange
anne,
ant,
ant.
appell@@
arre@@
aster@@
atz
avia
avit@@
bano
bau@@
brot
busin@@
cib@@
crom@@
da?"
desto
dirittura
dison
dit
doll@@
dom
dor
drome
eg
eh,
elo@@
elt
em,
enni@@
ent,
enzu@@
ern
erv@@
es"
etz@@
fid@@
frat@@
gets
gigant@@
grov@@
has@@
hey,
hil@@
ih@@
in-@@
indi,
inner@@
ins
interes@@
interne
ish@@
ken
ken.
labor@@
lau@@
leu@@
liche,
lis
lle,
los
loy@@
mache
masse,
mat
meister
mond
nam@@
nervo@@
nis,
nott@@
ologie.
omen@@
on-@@
onder@@
ood@@
oph@@
otball@@
palazz@@
ppor@@
ppure,
problem
propr@@
rabbi@@
rami@@
rate
registri@@
rel
relative
respon@@
rice@@
riche
ropolit@@
samer
sau@@
sen,
simu@@
sottov@@
sten@@
ster,
ster.
stoff@@
strutt@@
svi@@
tasche
te:
tion.
unge
ut
vention
versar@@
wa
wei@@
wid@@
ye@@
ypt@@
zel@@
´
"Hey
"So
1-@@
13.
1990
1995
1996
Allig@@
Alz@@
Assist@@
Bei@@
Bio@@
Boot@@
Brem@@
Buck@@
Californi@@
Chin@@
DA
Dam@@
Depres@@
Digital
Edu@@
Eis@@
Encel@@
Esi@@
Evol@@
Fab@@
Fas@@
Fern@@
Fir@@
Flick@@
Frequ@@
Fro@@
Fut@@
Galil@@
Gest@@
Gramm@@
HI@@
Heli@@
Hell@@
Hem@@
High
Hil@@
Hot@@
Hyper@@
Illu@@
Imm@@
Information
Interface
Jah@@
Jill@@
Jos@@
Kol@@
Kor@@
La@@
Lab@@
Leon@@
Lib@@
Linu@@
Live
Mahl@@
Maledi@@
Master
Materi@@
McDon@@
Meet@@
Mex@@
Mot@@
Mount
Muse@@
Nacht@@
Nam@@
Nan@@
Navi@@
Nug@@
O-@@
Ob@@
Partner@@
Path@@
Pennsylvania
Pingu@@
Pist@@
Poli@@
Prof@@
Profess@@
Project
Psych@@
Py@@
Radio
Rah@@
Ras@@
Reb@@
Rel@@
Repu@@
Riversi@@
Roman
Schul@@
Seattle
Sek@@
Send@@
Sergi@@
Sex
Sieg@@
Sinc@@
Sist@@
Sta@@
Stanfor@@
Sus@@
Synth@@
System
System@@
Tami@@
Tamiflu
Ted@@
Test@@
Theater
Thin@@
Tod
Tok@@
Ton@@
Tour
Tradi@@
U.S.
Um@@
Ut@@
Vide@@
Vir@@
Wag@@
Wik@@
Zone
abet@@
able
ach.
ades@@
ager,
ahn@@
alle.
alte,
ambi
anf@@
ang,
app
ass
ast
aticamente
att
au,
au.
band
bank@@
beg@@
ber,
ber.
berer@@
blem@@
brid@@
centesim@@
cilin@@
comples@@
dee
dicon@@
die,
diffu@@
don
donn@@
eder
efer@@
egal,
ehr@@
eil.
el-@@
elli@@
els
ement.
esch@@
esie,
ets
ex,
ezu@@
fair
falt@@
feld
fer
ffe
forman@@
fornis@@
fort
fort,
frag@@
gar
gende
gine@@
ging
grupp@@
hin
icil@@
icken
ig.
industrie.
iso@@
ke.
ken@@
ket@@
kon@@
land,
lant@@
lieg@@
lin
llen
macch@@
malap@@
mann
mann@@
manuten@@
mark@@
massiv@@
mete@@
metri@@
mm,
molteplic@@
n:
ob,
ohn,
olle
onie
ontan@@
ox@@
pigment@@
promu@@
rad
rak@@
ral
rann@@
ratto
rau@@
ray
riere
rik@@
s!
sahari@@
scher
sek@@
sel
sonni@@
sosti@@
ste@@
stein
steroi@@
stock
t-@@
ther@@
tier@@
un.
unk@@
unter@@
use@@
vec@@
ver:
virt@@
vog@@
wich@@
ys
ze,
zit@@
zon@@
zy@@
…@@
"Mam@@
"Ver@@
*
-L@@
.:
1945
2015
30-@@
Agn@@
Alcun@@
Alexand@@
Ambul@@
Anti@@
Atlanta
Austr@@
Auto
Autor@@
Bam@@
Bank@@
Bau@@
Bev@@
Billi@@
Bos@@
Brand@@
Bush-@@
But@@
CL@@
Cart@@
Celsi@@
Chan@@
Chicag@@
China
Chip
Club
Comedy
Corex@@
Design@@
Differ@@
Dig@@
Econ@@
Ehr@@
Eig@@
Einst@@
Era@@
Farmer
Fest@@
Finanzi@@
Fol@@
Fond@@
Fot@@
Francis@@
Fun@@
G-@@
Gam@@
Geck@@
Gene,
Glas@@
HIV/@@
Head@@
Hur@@
IP@@
Image
Imperi@@
Insom@@
Inti@@
J:
Jag@@
Jenni@@
Josep@@
Kas@@
Kenia
Keny@@
Kind@@
Klein@@
Kuh@@
Kun@@
Kunst@@
Laden
Lang@@
Lewis@@
Lex@@
Lim@@
London
MR@@
Magn@@
Mang@@
Mann@@
Mars@@
Mass@@
Ment@@
Mes@@
Meth@@
Mic@@
Miss@@
Nag@@
Nicol@@
O.@@
Olym@@
Opr@@
Oran@@
Pack@@
Papa
Pik@@
Pil@@
Pion@@
Prem@@
Problem@@
Rab@@
Rand
Reich@@
Rein@@
Report@@
Rig@@
Rover
Sach@@
Schnei@@
Seni@@
Servic@@
Sex@@
Shang@@
Sich@@
Sign@@
Signi@@
Simul@@
Sonn@@
Step@@
Strat@@
String@@
Syl@@
Symph@@
Talks
Tat@@
Tax@@
Test
Theat@@
Ther@@
Tiger
Tric@@
Tyrann@@
U.@@
U.S.@@
US
Vari@@
Vogli@@
Wikipedi@@
Will
Work@@
Worldchang@@
Yeah,
ac
adel@@
aden@@
aka@@
alie
ams
andert@@
ang.
angl@@
ann,
appy
aqu@@
asie
ask@@
assem@@
atmos@@
aturi@@
bai
britanni@@
char@@
cool@@
d'accor@@
den.
des:
dest,
devol@@
dies
du,
eb.
ebr@@
einer
elt.
em.
en-@@
end.
energie.
enk@@
enst@@
ept@@
esem@@
essità
event@@
fe.
fett@@
g-@@
gel
gene@@
ghan@@
global
hig@@
hol@@
hor@@
iclett@@
icotter@@
il.
incir@@
ing-@@
innes@@
inter
intorn@@
ir
ister
itt
ja.
k-@@
kes
kler
kos@@
ks
ku@@
kut@@
laboratori@@
lean@@
lem@@
len@@
lich
men,
midoll@@
muse@@
net.
nie,
nis.
nost@@
ollywoo@@
ologie,
ondon@@
oren
oret@@
orn
osse
osto,
ot,
pass
plan
plo@@
ppe.
primi@@
ramm@@
ride
rieb@@
rö@@
sche.
schen
sell
sie.
sik@@
sottoval@@
spav@@
sprech@@
ss@@
start@@
tartar@@
the@@
tiere
top
ular@@
undi@@
ung.
unker
unque,
ution@@
vat@@
verd@@
wag@@
wen@@
wort@@
yo@@
zabet@@
zen
zent@@
zig
zum@@
ñ@@
ú
ú@@
‘@@
"-@@
's.
-B@@
-U@@
.com@@
19.
=
Adr@@
Afghanist@@
Ak@@
Alt@@
Amazon@@
Anim@@
Anti-@@
Arch@@
Atlanti@@
Atom@@
August
Aus@@
Baby
Band
Berg@@
Bit@@
Blogger
Bom@@
Brau@@
Brut@@
Chem@@
Clu@@
Comput@@
Dah@@
Dal@@
Dall@@
Dani@@
Dann@@
Design.
Designer
Det@@
Dici@@
Diplom@@
Dog@@
Dollar
Element@@
Elis@@
Emmanu@@
England,
Err@@
Exx@@
F:
Fant@@
Fid@@
Finger@@
Fit@@
Flas@@
Flei@@
Flor@@
Flus@@
Foto
Fotografie
Fund@@
Gang@@
Geg@@
Gem@@
Gene.
Genome
Germani@@
Get@@
Gle@@
Glu@@
Got@@
Grupp@@
Gy@@
Had@@
Hand@@
Haus@@
Henr@@
High@@
Histor@@
Hor@@
Idi@@
Inghil@@
Innovation
Iron@@
Japan
Kart@@
Ken@@
Kno@@
Kos@@
Kra@@
Kraft
Kro@@
Leb@@
Link@@
Lit@@
Manag@@
Mani@@
Mei@@
Miner@@
Minut@@
Missi@@
Motor
Mountain@@
Nai@@
Negro@@
Neu@@
Neum@@
Neur@@
Neuro@@
Ox@@
Panbanis@@
Perio@@
Phil@@
Pilot
Pitt@@
Plan@@
Planet@@
Potenzi@@
Protot@@
Pul@@
Quattr@@
Rach@@
Radi@@
Rei@@
Roh@@
Ron@@
Schacht@@
Schwar@@
Sedi@@
Service
Show
Sob@@
Soll@@
Statu@@
Stef@@
Stick@@
Sym@@
T:
Technologi@@
Teen@@
Tenn@@
Transpar@@
Tsun@@
Tutt@@
Typ@@
Vagin@@
Vagina
Veget@@
Virgin@@
Vul@@
You@@
Zap@@
Zei@@
Zeit@@
Zit@@
Zu@@
Zucker@@
`
acht
acht@@
ade,
ahn
ahr@@
ales
als.
ambe
ander
anders
ands
ann
anniversar@@
appe
aren
artik@@
asche
asha
atz@@
avia,
beri@@
boli@@
ce-@@
chiacchi@@
ciclopedi@@
cipl@@
code
consi@@
copi
cus@@
dem,
demia
der?
dete,
die.
dies.
displ@@
drin@@
ds,
du.
dus
eb
ebe
ecceter@@
echnologi@@
eck,
ed-@@
efl@@
egal.
eil
eler@@
eline
elles
embr@@
ement,
en"
en?
ende,
ende.
energie,
enn
ensch@@
ent.
epire
er"
er's
ern,
ernst@@
es."
et."
eter
ett.
etw@@
eur
femmini@@
frattemp@@
fris@@
ft,
gel,
ges
gut@@
hart
heim
heit,
hel@@
her.
herine
hl
ich,
ier
ige
iger
im
impan@@
isch@@
ith@@
itt,
izi@@
kra@@
kun@@
lass
los@@
mache,
mache.
mage
mec@@
misch@@
modelle
neu@@
ob
obiettiv@@
oft@@
og
ographic@@
oller
ome.
ony@@
orz@@
oss
ost
ot.
partimento
phil@@
plu@@
pomer@@
position
ppen@@
ppure
programmi@@
provinci@@
rank@@
rapid@@
rat
regionale
rence
reu@@
rie
ringra@@
sah@@
sch
schw@@
sdra@@
ser,
sistono
sons
spendi@@
staf@@
stagi@@
stand
stet@@
stit@@
strom
strom@@
stur@@
suff@@
sy@@
t"
tag
tanz@@
tart@@
tau@@
thi@@
tion,
tor
tot
trivi@@
ums@@
und.
ungst@@
utz@@
v.
ven
wald
war
war.
wart,
was@@
wir@@
wit@@
wo
wu@@
wur@@
yc@@
ynth@@
ysi@@
ywoo@@
zig@@
²@@
È@@
ç@@
)@@
-F@@
@
Afrik@@
Angi@@
Antar@@
Apart@@
Arg@@
Aristotel@@
Atm@@
Autom@@
Babb@@
Baby,
Batter@@
Best@@
Billion
Biolumin@@
Bitt@@
Box
Broo@@
Buddh@@
Bus
Caf@@
Chef
Chri@@
Citt@@
End@@
Ent@@
Epi@@
Extra@@
Fair@@
Fav@@
Feld@@
Film
Film@@
Fing@@
Foie
Fok@@
Found@@
Franci@@
Freit@@
Fund
Gap@@
Gen
Gord@@
Gras@@
Gravit@@
Greenpe@@
Groen@@
Gur@@
H:
HIV-@@
Hab@@
Harv@@
Hat
Heil@@
Herz@@
Hier@@
Hub@@
Ideal@@
Idee
Impul@@
Inf@@
Initi@@
Innovation@@
Inst@@
Isol@@
Journ@@
Kalu@@
Kathr@@
Kauf@@
Keit@@
Kid@@
Klu@@
Kram@@
Krist@@
L.@@
Land@@
Lek@@
Lern@@
Licht@@
Live@@
Logo
Lond@@
Magi@@
Mai@@
Management
Mann,
Mann.
Margar@@
Marshmall@@
Masch@@
Masse
Mein@@
Million
Million@@
Mini@@
Modell@@
Moral@@
Motiv@@
Multi@@
Nation@@
Neb@@
Neg@@
Null@@
Ober@@
Onlin@@
Ord@@
Pakist@@
Para@@
Penn@@
Plast@@
Polar@@
Portra@@
Posi@@
Post
Prin@@
Puzz@@
Rat@@
Real@@
Redwoo@@
Reserv@@
Richter
Roy@@
S.:
Sandel@@
Saturn
Schw@@
Serie
Show@@
Skep@@
Sl@@
Sobul@@
Sog@@
Soldat@@
Sour@@
Span@@
Spiel@@
Sport
Sport@@
Stap@@
Start
Statist@@
Ster@@
Sty@@
Tau@@
Terror@@
Tier@@
Top
Trans@@
Transport@@
Trend@@
Trot@@
Trupp@@
U-B@@
Ultra@@
Urban@@
Vall@@
Vat@@
Virg@@
Vist@@
Volk@@
War
Watt
Wein@@
Wes@@
Zul@@
ade.
af
ager@@
all-@@
alles
alles,
alog
amen
an."
anthrop@@
arium
aster
aten
ator,
aus
aut
back
bald
band@@
bende
billi@@
brin@@
buch@@
chang@@
chen.
cht
cht@@
combu@@
compas@@
cool,
cool.
d?
daf@@
dar.
das
dem
des.
dru@@
ebbene
egal
egel
eh
ehr
eil,
els.
elson
en",
en".
ener
enge
enzen.
erig@@
errei@@
ers.
erst@@
ester
et?
etter
farmac@@
fau@@
fe,
fen
fenom@@
fit
flo@@
flut@@
folg@@
frem@@
gen
gens
gens,
ges,
gesu@@
gib@@
ging.
gion
haf@@
heit.
hek
hek@@
hen
hen,
hen.
hie,
hiel@@
hili@@
hing@@
hole
hyth@@
ig
ig,
ill
imbr@@
immer,
immer.
incirca
ind
instit@@
intit@@
intrapp@@
intre@@
iss
ist,
isten,
itre@@
itten.
je
ken,
kind@@
kk@@
kn@@
ktu@@
lang
lanti@@
leb@@
leist@@
leit@@
live
m:
madr@@
mak@@
mas
max@@
men.
mich@@
minster
mir
mir,
mobili@@
molte@@
motor@@
mus
n."
nach@@
nett
nette
nie.
nisse
ogen
ois
okay.
ondazione
onlin@@
ots
overe
park
plor@@
portaf@@
prag@@
prendit@@
prescin@@
proj@@
prü@@
pt
racco@@
rant@@
redu@@
reli@@
ren
rick@@
rige
rise
ror@@
sam.
schil@@
scimp@@
sech@@
sein
sein,
sen.
sied@@
signifi@@
sile.
stadi@@
stel
stitu@@
stren@@
such@@
syn@@
t;
tank@@
ter:
tern@@
ters
tick@@
tritt@@
ummi@@
uner@@
unesimo
ung:
urch
urop@@
us-@@
usel@@
vier
vier@@
von@@
wart@@
will
wink@@
wirt@@
wom@@
yrigh@@
zah@@
zeit@@
zen@@
zier@@
zir@@
zu
zwei@@
¼
½
û
ā@@
“
€
♪
"Ich
"Na@@
"Oka@@
"Sch@@
-,
-St@@
.“
100-@@
Abra@@
Afghan@@
Alb@@
Alphab@@
Also
Altern@@
An
Anal@@
Angiogen@@
Anthr@@
Archi@@
Art,
Aug@@
Auth@@
Auto,
BM
Babi@@
Baby@@
Ball
Band@@
Baseb@@
Bed@@
Beginn@@
Bei
Bek@@
Bem@@
Berk@@
Berlin
Bilder@@
Bio-@@
Biot@@
Blin@@
Bohr@@
Bombe
Box@@
Brust@@
Business@@
Carne@@
Chance
Chemi@@
Chic@@
China,
Chips
Cockt@@
Code
Comic@@
Comics
Communit@@
Computer,
Computer.
Design,
Diag@@
Dialog@@
Ding@@
Dipl@@
Displ@@
Doll@@
Dot@@
Dru@@
Dunk@@
Ech@@
Eigent@@
Elef@@
Element
Emis@@
Emp@@
Epidemi@@
Evoluti@@
Fall
Fang@@
Fast
Fast@@
Fem@@
Feu@@
Fic@@
Fle@@
Form@@
Fotogra@@
Fotograf@@
Fotografi@@
Frag@@
Frau@@
Frei@@
Front@@
Fru@@
Ganz
Gas
Gas@@
Gast@@
Geb@@
Gei@@
Geist@@
Geni@@
Gold
Golf
Gottes@@
Graph@@
Guten
Göt@@
Haus.
Heb@@
Hef@@
Herb@@
Hero@@
Herr
Himmel@@
Holz@@
Horizon@@
Hotel@@
Humor
Hypoth@@
Idee,
Ident@@
Ih@@
Im
Immun@@
Ins@@
Instituti@@
Instrum@@
Intell@@
Interessante
Interpret@@
Intervi@@
Intervist@@
Invec@@
Isa@@
Israel
Jap@@
Jem@@
Jet@@
Jung@@
Kalk@@
Katz@@
Kil@@
Kohl@@
Kom@@
Konz@@
Kop@@
Kris@@
Kul@@
Kunst
Kö@@
Lamp@@
Land
Lange
Lieb@@
Link
Lut@@
Mach
Magnet@@
Mais@@
Male
Manifest@@
Mann:
Massach@@
Material@@
Minute
Mir
Misch@@
Mobil@@
Mod@@
Mön@@
Nanc@@
Nanot@@
Nation
National@@
Nerv@@
Nest@@
Neut@@
Nobel@@
Noti@@
Organis@@
Origin@@
Papi@@
Parall@@
Paris
Parks
Party
Patient@@
Pent@@
Phant@@
Philanthr@@
Phot@@
Pir@@
Pittsbur@@
Pizz@@
Plan
Pock@@
Poly@@
Population
Priv@@
Privile@@
Programm@@
Programme
R:
RSW:
Rak@@
Rede
Refer@@
Regel@@
Region
Region@@
Relativit@@
Religion@@
Revol@@
Rez@@
Risi@@
Rog@@
Schaf@@
Schau@@
Schl@@
Schwarz@@
Sfortun@@
Ski@@
Software
Solar@@
Source
Sow@@
Spiegel
Stelle
Stelle,
Stim@@
Stock@@
Stras@@
Strategi@@
Such@@
Synchron@@
System.
Sz@@
Tasch@@
Tast@@
Team
Techni@@
Teenager
Them@@
Tin@@
Titan
Trag@@
Training
Training@@
Trick@@
U-@@
UN
Ug@@
Uni
Ur-@@
Uru@@
Video
Viet@@
Visu@@
Vog@@
Was
Weg@@
Weit@@
Wel@@
Wir@@
Wirk@@
Wort@@
Wurzel@@
Yoch@@
Zack@@
Zeu@@
Zun@@
Zw@@
[
^@@
`@@
a-croce-@@
abe
acht.
aden,
afrik@@
agen
ahl@@
air
aiss@@
alist
alles.
allgemeinen
alls
also
alt,
ammer
an-@@
andel@@
andere
andere,
andere.
anders,
anger@@
animi@@
archie
ards
arme
ascin@@
atell@@
ations@@
atur
atz,
auf
auf,
auf:
auf@@
auff@@
aufger@@
aun@@
ban
bank,
bat
bei,
bei@@
ben,
bens@@
bet
bin
bin,
bis
blas@@
blau
bot
branche
buddh@@
chen,
chene
chiat@@
ciat@@
cken
cker
cool
dar,
das.
das:
dass
dem.
den:
der-@@
derm@@
dern
des,
desig@@
deut@@
dies,
doch
doch,
dozz@@
dril@@
drin
durch
dustri@@
ebook
echni@@
echt@@
eck.
ehl@@
eils
einig@@
elen
elt,
emar@@
en!
en."
en...
en;
ends
eng
enheit
enter
ents
entw@@
enz
enz,
enz.
er."
erei,
ergie
ern.
erste
ert,
ert@@
erzi@@
etti-@@
etz
ewi@@
fahr@@
fang
fer,
fer.
filos@@
find@@
fort.
fortem@@
frau@@
ft.
für
gabe
ganz
gebra@@
ged@@
geg@@
gen,
gender
gens.
genös@@
gerne
ges.
geschützt
ghil@@
ging@@
gute
hab
habe
hang
haus
heil@@
hell@@
hier@@
hing
hos
human@@
iché
ickel@@
idente
ier.
iett@@
igen
iges
ikan@@
ikop@@
immateri@@
immer
indi
informi@@
inie
inspiri@@
integri@@
interessi@@
isch
ist."
istor@@
ition
itt.
itten
ja,
jap@@
journ@@
jung@@
kab@@
kali@@
kan@@
kat@@
kei@@
keiten
kes@@
kespe@@
kor@@
kr@@
kti@@
lag,
las,
lich:
liches.
lied
los,
los.
lose
mal,
mann,
mau@@
meister@@
mensch@@
metap@@
minister
mir.
mmer@@
motivi@@
musi@@
möglich
n?"
nack@@
nd
nego@@
nei@@
net
neue
nosti@@
nur@@
och
ogramm@@
ographic
ohn
oka@@
okay?
okus@@
omen
omie
ool
opher
opti@@
osev@@
other@@
ow-@@
pack@@
papi@@
parac@@
pen
person
pol
politi@@
politik
prio
quival@@
rai@@
rand@@
raum@@
real
recht@@
recu@@
rede
rem
rimpic@@
ror
rt
sam,
sch.
sche
sche,
schen.
schen@@
schm@@
schn@@
schu@@
scim@@
sein.
sein."
sein@@
sen:
ses
siasi
sile,
sind@@
sini@@
sion,
sion.
sische
skept@@
sorbi@@
spezif@@
stab@@
stad@@
stap@@
station
sten,
stimm@@
strit@@
stupe@@
summ@@
sun@@
symbol@@
symmet@@
sä@@
t'@@
talent@@
tat.
technologie
telec@@
teles@@
ten
terer
tige,
tot.
trei@@
trot@@
ts.
tun
tun,
tun.
ular
ulation
um?
umm@@
ums
ums,
ums.
ung"
ung?
ungen
uns.
unter
uss
uss,
ution
vania
velli
vello
vention@@
veran@@
verli@@
vertr@@
verw@@
vidu@@
vile@@
war,
war:
was
weg@@
weise
welche
wider@@
wie
wird
wird@@
ymp@@
yn:
yp@@
ystem@@
zel
zep@@
zett@@
zt,
zu,
zul@@
£@@
¥
©
®
²
¼@@
Ç@@
É@@
â@@
ã@@
äs@@
äum@@
ê@@
ï@@
ö@@
ök@@
ć
İ@@
ś@@
ž@@
˚
ѐ
–@@
‘
“,
™
♪@@
